#version: 0.2
e n</w>
e n
e r
c h
e i
e r</w>
a n
i e</w>
e l
u n
s t
i n
d a
i e
d e</w>
a a
g e
c h</w>
a l
e t</w>
i j
o n
s ch
en .</w>
ei n
o r
en ,</w>
a n</w>
d ie</w>
t e</w>
b e
i n</w>
a u
i s
d e
w a
v o
v er
a t
i ch
e en</w>
d er</w>
d en</w>
r o
i ch</w>
l e
w i
un d</w>
h et</w>
v an</w>
d er
t en</w>
r e
i t
i g
a r
aa r</w>
e s</w>
i t</w>
i s</w>
da t</w>
o m
e t
g en</w>
s s
o o
h e
z e</w>
u r
t e
r a
t ,</w>
t er
o l
a b
e h
j e</w>
t .</w>
z u</w>
g en
w er
w e
da s</w>
ein e</w>
i er
o e
is t</w>
ei n</w>
ij n</w>
al s</w>
i k</w>
ie s
i l
n ie
s p
wi r</w>
h r
n en</w>
w e</w>
a m
m a
el l
d en
U n
s s</w>
wa s</w>
ich t</w>
d ies
vo n</w>
s ie</w>
m en
o p
i j</w>
S ie</w>
o p</w>
z u
r u
f ü
t i
m e
e l</w>
k en</w>
b en</w>
da ss</w>
g el
o m</w>
k l
in g
s t</w>
d i
o r</w>
z ijn</w>
Un d</w>
D a
m it</w>
nie t</w>
aa n</w>
m et</w>
t o
al l
l ich
i st
in g</w>
n icht</w>
a g
z o
ij k
ch t</w>
s ,</w>
e m</w>
an der
i k
h ab
s o</w>
i sch
vo or</w>
u l
I k</w>
i er</w>
a f
l an
b er</w>
aa r
b er
e u
n o
un g</w>
d .</w>
d o
k om
h o
a l</w>
h ei
m o
en t
w ie</w>
s en</w>
i m
au f</w>
w ei
s in
G e
s .</w>
ij k</w>
h a
k un
I ch</w>
t er</w>
- -</w>
u m</w>
a ch
ge b
st e</w>
z e
s o
A l
c k
w en
p ro
fü r</w>
d ,</w>
H et</w>
j e
i r</w>
s ich</w>
s eh
m en</w>
un g
ö n
g r
g ro
d u
he b
u t
wa r
l ich</w>
o v
S t
l a
ig e</w>
wi r
m an
ein en</w>
w or
o n</w>
l o
k en
a an
i el
k an
m an</w>
u r</w>
e er
i r
at i
en sch
de m</w>
e ,</w>
f f
b r
t s</w>
wa t</w>
d en.</w>
d el
ä n
on t
z i
h er
v e
S ch
k ön
l ie
ei t</w>
f t</w>
p er
Da s</w>
n aar</w>
ov er</w>
a p
v en</w>
r i
de ze</w>
g an
s e</w>
l l
r ei
u it
m e</w>
n e
m aar</w>
d it</w>
V er
a hr
u n</w>
E s</w>
st e
ein er</w>
s er
ij n
on der
oo r</w>
W e</w>
st en</w>
vo or
i m</w>
in gen</w>
I n
u s
de s</w>
o f</w>
sin d</w>
g er
r an
k t</w>
dies e</w>
da n</w>
d en,</w>
z el
ss en</w>
t en,</w>
h al
st ell
n a
d an
W a
W ir</w>
d r
m aa
o u
l ei
b en
isch e</w>
ol l
ü ber</w>
te ,</w>
l u
m ijn</w>
au f
wen n</w>
ein em</w>
v or
heb ben</w>
ich t
hab en</w>
h ier</w>
. "</w>
P ro
E n</w>
D e</w>
o g
aa t</w>
wa r</w>
an d</w>
ü r
ch en</w>
au s
A n
k el
t en.</w>
kun nen</w>
m er
g e</w>
B e
A r
d oor</w>
D ie</w>
i h
s u
z ei
al le
p a
g i
un s</w>
men sen</w>
h l
h at
au s</w>
b ei
s el
el d</w>
i c
ge h
on s</w>
s ag
o der</w>
ie s</w>
f or
u it</w>
w el
o or
s am
b l
ch t
vo l
en de</w>
o t
r ij
m oe
M aar</w>
R e
et z
u m
s e
z ie
il l
k an</w>
w aar
at en</w>
ab er</w>
un ser
M ensch
d ig
au ch</w>
k e</w>
E r
I n</w>
A ber</w>
c t
ander e</w>
t ij
p l
E r</w>
Al s</w>
Z e</w>
D it</w>
E n
all e</w>
z en</w>
h an
h el
kön n
L e
ö r
h n
d ur
u s</w>
er n
f a
im m
Da t</w>
sch af
ei l
0 0</w>
oo k</w>
a r</w>
b le
ijk e</w>
g t</w>
k t
ol og
al e</w>
b el
z ijn
b ij</w>
st er
n ur</w>
J ahr
b t</w>
ist ,</w>
ve el</w>
ie ,</w>
ge w
i g</w>
in n
W el
A u
ch n
in ter
g en.</w>
be g
en s</w>
ma ch
seh r</w>
en d</w>
a m</w>
ge v
da r
wer den</w>
w ur
w an
e .</w>
h ij</w>
k en.</w>
i hr
h un</w>
ver sch
ati on
ge en</w>
on ze</w>
p en</w>
ie l</w>
zo u</w>
f in
ä r
t el
t z
en t</w>
me er</w>
v i
te .</w>
be i</w>
E in
ü ber
d t</w>
k ti
ho e</w>
o ver
un gen</w>
ä ch
w aar</w>
i en</w>
en n</w>
D e
g en,</w>
zel f
er en</w>
t ra
w ij
e ft</w>
ig en</w>
is s
k on
dan n</w>
z o</w>
in der
t u
ch te</w>
S p
e ss
no g</w>
e m
or t</w>
no ch</w>
m ich</w>
g l
er ,</w>
v an
to t</w>
g oe
an t
ha t</w>
m ö
ier en</w>
J e</w>
c on
m eh
st u
r ie
al so</w>
s c
ul l
is ch</w>
hei d</w>
s y
Mensch en</w>
I h
gi bt</w>
l ijk</w>
m u
h in
dies er</w>
kön nen</w>
p t
a h
ie .</w>
s l
ge sch
j aar</w>
e x
at ie</w>
en ?</w>
n ,</w>
ch e</w>
aa l</w>
v iel
ei gen
na ch</w>
de ,</w>
k .</w>
i d
i on
s it
a ,</w>
W enn</w>
u b
war en</w>
kan n</w>
t we
ie ts</w>
et was</w>
nie u
di g</w>
T E
geb ru
zi en</w>
vo r</w>
aa t
g ra
z on
n .</w>
ell en</w>
D an
k er
st eh
aa l
ier t</w>
i de
p r
t en
n u</w>
lich en</w>
is .</w>
aa ro
wir d</w>
he eft</w>
meh r</w>
w ür
k en,</w>
z a
b ar
ull ie</w>
le s</w>
c om
lich e</w>
g u
ll en</w>
isch en</w>
a c
a s
k o
r au
man d</w>
n eu
moe ten</w>
an d
h u
o b
v e</w>
e d
v ro
he b</w>
ü n
de .</w>
H ij</w>
n at
Ge sch
n ich
b in
tij d</w>
ü ck
g aan</w>
f r
wir kl
m ir</w>
kom m
r aa
L eu
sp e
t oe
hab e</w>
be sch
wor den</w>
g a
zu m</w>
j ullie</w>
ein es</w>
W e
t re
w oor
ar t
v in
m ü
D us</w>
dur ch</w>
k e
m in
k te</w>
e f
T e
ä u
h oo
pa ss
än der
imm er</w>
chn olog
maa l</w>
al l</w>
er .</w>
c i
etz t</w>
s a
le v
G r
alle s</w>
g .</w>
' s</w>
seh en</w>
ha d</w>
ze g
t s
ho u
ma l</w>
un ter
gro ß
m at
ing .</w>
zijn .</w>
me e
m it
wei l</w>
be st
ti g</w>
t ro
wi l
Wa t</w>
st r
w oll
m ,</w>
Ih nen</w>
d ingen</w>
om dat</w>
ge f
p le
ch ten</w>
e cht</w>
sch en</w>
z al</w>
g ing</w>
é n</w>
he el</w>
ist .</w>
n eh
p u
wirkl ich</w>
v iel</w>
s en
b en.</w>
s ein
zo als</w>
H ier</w>
is ,</w>
2 0
Wel t</w>
ander en</w>
m il
E en</w>
w o
ar bei
unser e</w>
T o
el e</w>
b o
t it
p aar</w>
wer eld</w>
TE D</w>
N e
ä hr
V or
mo et</w>
f e
M a
u ur
st o
Wa s</w>
p p
m eine</w>
sp re
z ich</w>
z oe
b en,</w>
al en</w>
dies es</w>
on d</w>
er g
ihr e</w>
u w
. .
w et
g aat</w>
du s</w>
do en</w>
w ie
d a</w>
oo n</w>
ge be
0 00</w>
k ,</w>
i z
H o
k eine</w>
Z u
is sen</w>
wi l</w>
gel e
k rij
le ven</w>
k ei
s oll
T ran
? "</w>
k eit</w>
a .</w>
T al
g ,</w>
bel an
n e</w>
dies em</w>
h ier
s n
m en.</w>
twe e</w>
k kel
z we
D ies
c k</w>
we l</w>
st .</w>
hei t</w>
st a
f en</w>
en s
ati on</w>
st ,</w>
W ie</w>
ä t
ung ,</w>
B il
p re
m is
é én</w>
m et
m ei
for m
wor dt</w>
viel e</w>
j ar
f t
fü hr
r it
s ich
ung s
all een</w>
O r
f un
s ie
h en</w>
et ,</w>
pro ble
d re
dies en</w>
l in
gebe ur
F ra
s onder
a k
m .</w>
aaro m</w>
S ub
ver b
ge ,</w>
1 9
ou w
b e</w>
ken n
den ken</w>
er n</w>
et .</w>
ap p
s ein</w>
er z
g lei
f ra
a st
sp iel
w o</w>
h aar</w>
ver ander
ver t
c e
wer el
eer ste</w>
wur de</w>
w in
a u</w>
K in
h oe
Tal k</w>
wer d</w>
f l
ä hl
ä h
n et</w>
be we
i ver
oo it</w>
gl au
d ru
sc ri
b ij
an n
D er</w>
ei l</w>
Pro ble
el e
Al so</w>
k inder
goe d</w>
q u
ing ,</w>
ut z
scri pt
k ra
a g</w>
ig er</w>
un d
zel f</w>
n ach
ei t
ma ken</w>
tit les</w>
script :</w>
Tran script:</w>
Sub titles</w>
ell ei
m en,</w>
b i
Un ter
inter ess
or en</w>
ä l
sel b
k er</w>
p er</w>
k t.</w>
k am
zu r</w>
zwe i</w>
at s
h ar
en den</w>
Gesch ich
s le
kl eine</w>
s ol
k wa
m ein
fa ch</w>
ung .</w>
p f
un ,</w>
Leu te</w>
M ill
m id
z ur
sch ien</w>
l aten</w>
Le ben</w>
ih r</w>
le tz
belan gr
ge st
gebru ik
.. .</w>
l au
ter u
g er</w>
un der
p o
j o
En t
n am
gel ijk
hab en,</w>
ellei cht</w>
Ge s
kti on
ul t
ein fach</w>
d ra
da ar</w>
r on
b is</w>
j etzt</w>
me e</w>
it ä
pro du
f an
den k</w>
F or
mer ik
l e</w>
M e
. 000</w>
A us
br au
t r
er t</w>
da ar
c t</w>
f ol
ö ß
to en</w>
B ei
s ig
he u
ing e</w>
b in</w>
p lan
Z eit</w>
den en</w>
g lich
st an
ier en.</w>
sy ste
en n
te ken
h l</w>
Ar t</w>
al is
gro te</w>
n a</w>
k re
d ies</w>
s on
ing en.</w>
ol it
k ken</w>
o hn
b u
A merik
mü ssen</w>
hel e</w>
nieu we</w>
M an
ver h
de ut
ber ei
d u</w>
t eil
ell e</w>
K on
sch n
st ru
Jahr en</w>
wei ter
men s
ensch af
G eh
all en</w>
man ier</w>
so ort</w>
ti on
m ij</w>
a d
da mit</w>
be ss
f ahr
l ijk
eer d</w>
seh en,</w>
gen s</w>
han del
kom men</w>
en en</w>
ch en,</w>
aan .</w>
alle maal</w>
c kl
er s</w>
m ein</w>
M ar
be el
del ijk</w>
zo u
sch ie
eh r
hat te</w>
we et</w>
sch e</w>
o b</w>
sin d,</w>
kom en</w>
te chnolog
be gr
M o
ge da
ver su
M an</w>
kon n
fr ik
In ter
zijn ,</w>
er i
ier en,</w>
w iss
er g</w>
zou den</w>
v raa
r icht
zu sam
ich ,</w>
Jahr e</w>
ag e</w>
el k
ats äch
on ge
ma cht</w>
t :</w>
p un
ru m</w>
ver k
h er</w>
I de
an .</w>
wer k</w>
den n</w>
e g
ver l
s i
el en</w>
e en
d ing</w>
p t</w>
1 0</w>
v a
u ur</w>
wi kkel
sch ein
ge s
lan d</w>
D inge</w>
ie der
S y
I hr
ha d
en :</w>
zelf de</w>
w är
gan is
f o
g ar</w>
gen de</w>
J ah
z in
hab en.</w>
A frik
om m
an ,</w>
he m</w>
S e
z or
ie mand</w>
e ens</w>
sin d.</w>
m m
h e</w>
d ige</w>
k t,</w>
sch ei
M it
G en
schaf t</w>
versch ill
stell en</w>
do en.</w>
Au f
dr ij
l at
v er</w>
we ten</w>
ch t,</w>
am il
st er</w>
De ze</w>
ss en.</w>
gel u
s er</w>
lan g</w>
k ijk
pro c
wan t</w>
vi elleicht</w>
bar e</w>
A b
l er
wa s,</w>
m ar
ion en</w>
selb st</w>
en d
el t</w>
gen d
m al
st at
sch on</w>
h t</w>
v ier</w>
e s
hal b</w>
de el</w>
c re
an der</w>
b oe
Ho e</w>
z it
atsäch lich</w>
war ,</w>
er e</w>
ne er</w>
In di
wet ensch
a ss
a p</w>
wa hr
op en</w>
h ör
zelf s</w>
ma chen</w>
n et
we g
j es</w>
wer den.</w>
ein f
kinder en</w>
do or
be ,</w>
d ie
F re
l i
ij ken</w>
br en
gan z</w>
kom t</w>
b au
P er
ein ige</w>
N at
ch t.</w>
te l</w>
H er
v ar
wie der</w>
te gen</w>
ih nen</w>
da g</w>
be t
wi llen</w>
b an
ge t
beg in
zu llen</w>
ei te</w>
le g
sch au
ing en,</w>
maa kt</w>
fü hl
ei gen</w>
h et
sp r
gr öß
Dies e</w>
be eld</w>
d it
" .</w>
M en
an t</w>
k ten</w>
F rau
mu ss</w>
ie f</w>
könn en.</w>
p ar
ig .</w>
f er
t a
ze er</w>
k k
st aat</w>
k on</w>
mis schien</w>
geh t</w>
tu ssen</w>
nat uur
we g</w>
O n
zon der</w>
ander s</w>
y p
St u
ss en,</w>
ch en.</w>
ont wikkel
e s,</w>
ß en</w>
U m
ier t.</w>
b ouw
N ach
kun t</w>
i ken</w>
vo ll
s eine</w>
W ei
ur en</w>
b il
aa k</w>
ge ven</w>
ü ck</w>
j on
B er
so ,</w>
m om
nich t,</w>
m einer</w>
be w
heu te</w>
Le ben
ont ro
z eu
pl aat
a f</w>
f il
ch ,</w>
ent wi
be teken
p olit
v is
k r
m lich</w>
ve er</w>
s etz
C hin
2 0</w>
a de</w>
5 0</w>
oo l
ge s</w>
W o
on der</w>
na h
lan g
it eit</w>
en ."</w>
wi j</w>
per i
ih n</w>
m us
wei se</w>
W er
ant woor
sonder n</w>
n or
dr ie</w>
gew oon</w>
z wi
w icht
wer k
gen :</w>
vro uw
Geh ir
ing s
e g</w>
z et
unser er</w>
st ar
dre i</w>
i ë
ol la
r el
m p
ter ,</w>
mö chte</w>
ähr end</w>
ie ve</w>
had den</w>
aar .</w>
mil jo
E in</w>
te :</w>
gro e
e k</w>
be drij
un ter</w>
n ooit</w>
entwi ck
ff en</w>
ste ed
t un</w>
el .</w>
t ?</w>
20 0
d ung</w>
ation en</w>
kan n
e ff
van da
könn en,</w>
y ,</w>
gro ot
B u
wür de</w>
gen om
erz ähl
t ig
S ach
er d</w>
w issen</w>
t et</w>
st än
dur ch
vo m</w>
neh men</w>
v ra
t atsächlich</w>
ro p
en z
gen au</w>
neu e</w>
g t,</w>
k op
a ct
gel ijk</w>
er de</w>
a t</w>
zi en.</w>
ide e</w>
Wa ss
z wei
To en</w>
i on</w>
V iel
zwi schen</w>
ier t,</w>
me di
onder zoe
d ort</w>
olla r</w>
k s</w>
el ,</w>
di en
Te chnolog
verschill ende</w>
en erg
au t
ge z
" ,</w>
v on
men t
gu t</w>
d ro
E x
onge veer</w>
de l</w>
Ge b
wi ll
en e</w>
t lich</w>
Kin der</w>
S o
ke er</w>
del en</w>
or t
g a</w>
el ke</w>
m on
zur ück
ir gend
r ich
der s</w>
d s</w>
Geschich te</w>
fun ktion
nat ür
st and</w>
le t
ver steh
ö ff
ä d
gel oo
h ät
b re
sp ro
zei :</w>
ie f
itä t</w>
wa ch
k el</w>
bl ij
pl aa
G ro
zie t</w>
wer de</w>
v at
sein .</w>
n un</w>
eer de</w>
b aar</w>
z ij</w>
D i
m or
W ar
ver änder
ru im
ie den
hal ten</w>
e el</w>
d s
men t</w>
wor den.</w>
Jah r</w>
C om
un den</w>
ge me
sam en
elk aar</w>
er en.</w>
wer den,</w>
steed s</w>
i p
N un,</w>
M on
c o
sein ,</w>
v en
geb ie
gan g</w>
be deut
n oe
k ein</w>
b ra
no dig</w>
ier te</w>
plaa ts</w>
Sch ul
M at
so gar</w>
da von</w>
st re
it u
ent r
do ch</w>
aa m</w>
D ies</w>
d et</w>
W ir
k a
ge vo
M ijn</w>
w al
or ganis
D o
begr ij
aan t
ma ken.</w>
al tijd</w>
ohn e</w>
T eil</w>
ch ts</w>
st el
in e</w>
her aus
0 0
z ie</w>
n äch
W iss
heb ben.</w>
am er
t he
gen oe
men sel
geh en</w>
er st</w>
d oo
wa s.</w>
o t</w>
en or
a s</w>
M us
n ie</w>
Un iver
men sch
e d</w>
k in
te gen
t es</w>
R au
i l</w>
einf ach
heb t</w>
ihr en</w>
v re
J e
v ri
jar en</w>
ig ,</w>
Ein e</w>
un ser</w>
k ijken</w>
st em</w>
s or
ge we
so n</w>
sch l
ze i</w>
t sch
n is</w>
O p</w>
wer ken</w>
schaf f
au s,</w>
K inder
B i
ö s
Pro z
ter .</w>
l ijke</w>
w aarom</w>
ger ade</w>
zeg gen</w>
ont de
R ei
Ü ber
ga b</w>
hat ,</w>
m el
b as
dr aa
Z ei
An t
s la
kan n.</w>
gi b
' n</w>
er sten</w>
w a</w>
N a
h än
E l
lie ß
con om
ë n</w>
Ihr e</w>
ein ,</w>
h y
wij l</w>
er ste</w>
i ck
N u</w>
k le
S ie,</w>
b eit</w>
3 0</w>
w ährend</w>
p en.</w>
da cht</w>
sig n
l aat
k or
e f</w>
k ur
g ier
kel ijk</w>
F ü
vraa g</w>
teru g</w>
sag en,</w>
g ab
be p
L a
komm t</w>
dar über</w>
l er</w>
T a
R o
ge wel
lan ge</w>
S o</w>
T he
zie h
inn er
de el
B o
G er
t un
wan neer</w>
sp iel</w>
vo lu
sa gen</w>
h il
ge .</w>
Me di
ein mal</w>
Ne w</w>
de s
da t
vin den</w>
nie t.</w>
le u
wo hl</w>
eigen lijk</w>
w aaro
k e,</w>
ü tz
m er</w>
interess an
sch ijn
gebru iken</w>
M in
verh aal</w>
to e</w>
ho or
letz ten</w>
kwa m</w>
ig kei
com pu
D en
u ss
pro je
ol le
je der</w>
im p
el ijk</w>
au s.</w>
g ingen</w>
an g
oo l</w>
P ar
Mill ionen</w>
t ran
l aat</w>
v ij
f e</w>
i v
entwick el
en ten</w>
we er</w>
h in</w>
am p
mo eil
der en</w>
b ro
aant al</w>
M et
ge l</w>
z ich
K o
P r
proble em</w>
nich t.</w>
m einen</w>
be ter</w>
aan ,</w>
ï n
c r
f te</w>
et wa</w>
e ten</w>
mee st</w>
un de</w>
ont wer
goe de</w>
Pro je
lich ,</w>
m als</w>
TE D
wir d.</w>
l eren</w>
hel e
p ra
sam en</w>
M ö
fo to
be ste</w>
twe e
ihr er</w>
Wiss enschaf
sy ch
f al
den ken,</w>
stell en,</w>
ge zon
K re
wa rum</w>
h au
v lie
mach en.</w>
hat .</w>
än n
voor beeld</w>
t on
ge ben</w>
er le
ieder een</w>
e conom
mei sten</w>
b ov
Q u
c ul
m einem</w>
ter n</w>
aa m
per s
h ol
c ken</w>
proc ent</w>
hei d.</w>
hoo f
gra m
gan ze</w>
da zu</w>
n is
hat ten</w>
el l</w>
miljo en</w>
zo dat</w>
u ten</w>
groß e</w>
g lich</w>
aan se</w>
lo b
v rij
re ,</w>
h under
he den</w>
st op
laat ste</w>
be et
b oo
hu is</w>
ken nen</w>
ge gen</w>
al i
In form
könn te</w>
ele kt
lau b
wil de</w>
her sen
au ss
Bei spiel</w>
Ar bei
n en
kel e</w>
h ,</w>
belangr ijk
s ?</w>
re m</w>
der ,</w>
zie mlich</w>
f all
Com pu
v en.</w>
K ör
m a</w>
toe kom
P lan
on nen</w>
on den</w>
T ag</w>
it ei
e ven</w>
H au
ung en,</w>
kon den</w>
gele den</w>
K om
sag te</w>
ie t</w>
ch er</w>
nieu w
k am</w>
s at
n ation
le ,</w>
z it</w>
vo ed
l oo
so ci
nich ts</w>
be handel
sag te:</w>
me ,</w>
al ,</w>
wur den</w>
gro ei
ch te,</w>
K ran
ä ll
sp ra
Z o
Frau en</w>
nieu w</w>
E u
K un
m oo
i ten</w>
seh en.</w>
min der</w>
un iver
f re
Proble m</w>
g t.</w>
u t</w>
ti v
a ir
pro be
aa g</w>
S u
wiss en,</w>
war .</w>
1 00</w>
lie f
in s</w>
S te
lan d
Y or
J o
begin nen</w>
u w</w>
S ti
geme ensch
En erg
h ul
sie ht</w>
mid del
cre ë
h iel
zo 'n</w>
stell en.</w>
er rei
N o
w er</w>
beet je</w>
l ü
H a
z en
sp ä
in form
D in
l ern
fin den</w>
c e</w>
vol gende</w>
U S
technolog ie</w>
ou w</w>
aar ,</w>
vrouw en</w>
ver tel
gel d</w>
b a
v ö
sp el
mö glich
ber en</w>
wel che</w>
st en,</w>
s h
op lo
er var
Proz ent</w>
ach ter
K ar
F amil
re cht
s en.</w>
ig keit</w>
Ar beit</w>
o ff
ie k</w>
be gan
kan n,</w>
j u
au ß
v ier
al t
an z
h ö
unser en</w>
ge gev
zusam men
s ent
vanda ag</w>
ple x
L ie
F il
den s</w>
wär e</w>
j a,</w>
ie ke</w>
be sl
z er
do en,</w>
gro ot</w>
en kele</w>
s el</w>
ä hn
wir d,</w>
re s</w>
ein .</w>
z am
mo gelijk</w>
kl einen</w>
re c
el k</w>
s :</w>
krij gen</w>
geh ör
bin nen</w>
l ij
b is
I m</w>
e s.</w>
at ies</w>
Mö glich
i f
w us
M om
D an</w>
wen iger</w>
werel d
s om
r en</w>
y .</w>
s ei
po sit
mom ent</w>
kl är
s en,</w>
hoo p</w>
ter e</w>
P un
s k
on ,</w>
hei ß
gen er
ge stell
de ck
eff e
beg on</w>
Dan k</w>
lev en.</w>
e p
vra gen</w>
st en
wei t</w>
St ra
W aarom</w>
sle chts</w>
b ie
ik ,</w>
beteken t</w>
k n
Z eit
ver bin
de zelfde</w>
W or
A t
ver wen
ur ,</w>
op en
b ar</w>
o gen</w>
L u
ein z
lo g
in di
du i
G ru
hal en</w>
sch le
to t
belangr ijk</w>
Sp iel
d oe
T eil
ss e</w>
ijn a</w>
gra f
V i
s -
m ij
Ih r</w>
it e
d ing
ë n
nie mand</w>
kan t</w>
bep aal
z es</w>
isch er</w>
ch ter</w>
c ten</w>
teru g
Zu kun
v l
geb ra
fin den,</w>
L ei
F lu
C h
werel d.</w>
re den</w>
best imm
m ir
l ig
hou den</w>
G ra
st ra
g aan.</w>
en te</w>
Mensch en,</w>
waar schijn
M änn
in ,</w>
z en.</w>
dig .</w>
sch rei
aa t.</w>
Afrik a</w>
be sonder
sto f
st aan</w>
ern ,</w>
stru ct
ss ,</w>
ter wijl</w>
kom en.</w>
Dan k
da s,</w>
t schaf
lo k
do et</w>
Z o</w>
ier e</w>
ch .</w>
H e
A ut
ken de</w>
gan zen</w>
Dan n</w>
ss t</w>
e chte</w>
da bei</w>
b ru
sch re
mo gelijk
da für</w>
P o
v al
En de</w>
zi en,</w>
wa ter</w>
sch rij
g te</w>
G el
on .</w>
moe st</w>
M ut
groß en</w>
wi ckl
vo u
re s
ver br
in t
ne men</w>
mee ste</w>
hele maal</w>
ge sag
r .</w>
r ,</w>
1 5</w>
omm ige</w>
lich er</w>
f ant
F o
ik an
Ent wickl
st e,</w>
lan den</w>
L and</w>
T er
wahr schein
v aar
st en.</w>
eigen tlich</w>
r is
J a,</w>
wei ß
sp ir
mil jar
la ssen</w>
Ge mein
v la
mach en,</w>
D ar
w under
so or
nie ts</w>
fü n
je ,</w>
E le
v aak</w>
Fra ge</w>
öff ent
waar in</w>
l icht</w>
e -
ot o</w>
en ige</w>
for der
heb ben,</w>
F ran
wi er
we gen</w>
w is
syste em</w>
waaro p</w>
B et
ist e</w>
mensel ijke</w>
kl ein
ti on</w>
je mand</w>
beg inn
mat eri
i ar
wei ter</w>
st ro
in .</w>
ge mein
gr ei
War um</w>
N eu
C hr
ach t
D enn</w>
i a</w>
vert ellen</w>
pp e</w>
natür lich</w>
k einen</w>
kti v
groot ste</w>
b ijna</w>
Re gier
sto ff
je .</w>
komm en.</w>
den ten</w>
N or
f en,</w>
bess er</w>
pro beren</w>
ma an
V ide
ub lie
kti on</w>
f amil
l ä
ein ander</w>
ant wor
l ag
ap pen</w>
' .</w>
en ig
e eu
Ant wor
h on
d rei
ge eft</w>
b uit
hei d,</w>
S on
p at
o s
ken d</w>
Gro ß
ung laub
le er
aal .</w>
B r
ih m</w>
ide e
ge dra
t un,</w>
kl ein</w>
viel en</w>
op .</w>
h af
ve st
1 0
re gel
in dem</w>
ell er</w>
woll en</w>
genoe g</w>
We g</w>
Men ge</w>
k ü
so zi
M al</w>
H ar
at en.</w>
W an
L in
Bil d</w>
e st
sch ließ
voor beel
bei m</w>
i ve
je den</w>
da a
vol gens</w>
e st</w>
inform atie</w>
ch ten,</w>
v eil
n icht
m ut
gezon d
D aten</w>
D N
B ü
b ur
S el
Mill iar
wer kt</w>
s einer</w>
lijk t</w>
el ijke</w>
ach ter</w>
O o
an ge
O b
sn el</w>
ch ite
zei gt</w>
s eit</w>
b it
Sp ra
v ond</w>
den ke,</w>
V oor</w>
spe ci
K op
Ge gen
kl ar
za hl
ist en</w>
M is
wür den</w>
komm en,</w>
to on
sch o
ein delijk</w>
Pro du
B au
Leben s
G eld</w>
c ont
bi olog
waarschijn lijk</w>
ü t
air e</w>
zi g</w>
re cht</w>
d is
p .</w>
n u
eigen en</w>
eer st</w>
wil l</w>
St a
o s</w>
A :</w>
v ele</w>
ge gen
M et</w>
g d</w>
tro uw
i d</w>
Viel en</w>
D aar</w>
k aar
b al
ger e
be .</w>
g lob
f ,</w>
an zu
ut zen</w>
ier ten</w>
en ti
der .</w>
be tra
t -
W ij</w>
om et
K or
R ob
le ben</w>
fa st</w>
Ges ell
uit .</w>
pun t</w>
W ahr
zur ück</w>
za g</w>
me .</w>
ma kkel
lich .</w>
h and</w>
au to
vi du
a de
Ges und
fant ast
een vou
auf ,</w>
ah l</w>
D a</w>
war en.</w>
soll ten</w>
oo t</w>
k ken.</w>
b inn
n en.</w>
4 0</w>
d or
dar auf</w>
sp ar
l än
f rei
wel t
zo veel</w>
wel .</w>
steh t</w>
er weise</w>
er en,</w>
energ ie</w>
ch mal</w>
ün st
k u
O m
te te</w>
n utz
mit tel
dar an</w>
Ide e</w>
vl oe
ti sche</w>
gen au
Bei spiel
p sych
je des</w>
geb ouw
f t,</w>
sch ul
ern .</w>
C o
t h
" Ik</w>
o .</w>
d ?</w>
den ken.</w>
vor ,</w>
Wel t
L ehr
z eh
f en
Gehir n</w>
du iz
pre c
p ri
on en</w>
b lei
wei ß</w>
konn te</w>
gu te</w>
gen ie
c ontro
proble men</w>
der e</w>
ben utz
ben t</w>
wi t
soci ale</w>
f äll
d :</w>
D ollar</w>
gebru ik</w>
neu en</w>
tun .</w>
ge macht</w>
ter en</w>
ge maakt</w>
ter s</w>
ä tz
Technolog ie</w>
mo t
h or
del ijk
de ed</w>
ze ker</w>
woll te</w>
J etzt</w>
at en,</w>
W ant</w>
pr o</w>
le .</w>
f lu
het zelfde</w>
glau be,</w>
Wass er</w>
c u
be stu
h een</w>
geb en,</w>
s um</w>
ic k</w>
vol le
ss en
aa t,</w>
Dan k.</w>
h äl
o ,</w>
gen u
steh en</w>
n en,</w>
m s</w>
le ef
d ollar</w>
al .</w>
L an
kra cht</w>
ä m
produ c
ic ro
fr ü
gebeur t</w>
wen ig</w>
twee de</w>
k ran
di re
z en,</w>
vo el
unser em</w>
im mer
per so
ge sam
be s
am en</w>
sch ön
p ublie
soll te</w>
mo der
ge k
" Ich</w>
vij f</w>
de mo
B l
auf en</w>
M it</w>
zit ten</w>
w ich
ies .</w>
Sel b
D u</w>
Au to
la st
Chin a</w>
wiss enschaf
war en,</w>
mach t.</w>
ex peri
v en,</w>
natuur lijk</w>
glei ch
be l</w>
t ung</w>
oll ar
hier ,</w>
ur .</w>
m us</w>
in du
b or
Zukun ft</w>
sch ap</w>
om en</w>
ik .</w>
f le
g s
For sch
Al so,</w>
en d.</w>
S in
Om dat</w>
E ig
äh r</w>
war e</w>
gen en</w>
a z
G l
wahrschein lich</w>
gr aag</w>
gib t,</w>
ge ïn
w ä
versch ieden
gef ähr</w>
f t.</w>
bl oe
bew u
men ten</w>
den :</w>
eh en</w>
s einen</w>
onder wij
en z</w>
d on
ä t</w>
ie u
c or
s icht
per fe
k eu
f en.</w>
al so
S ei
vi de
or ie</w>
ch s</w>
to ch</w>
t al
er klär
S eite</w>
ö hn
s e,</w>
pro f
o ft</w>
d om
p ati
n er
brau chen</w>
wetensch ap
v el
kin d</w>
gen d</w>
ell en.</w>
at er</w>
ung en.</w>
at ie.</w>
mu zie
ver lie
je de</w>
ell ig
buit en
b lo
se .</w>
fün f</w>
ct ie</w>
P u
näch sten</w>
ing t</w>
er kenn
lich es</w>
vor m
en -
dig en</w>
ab sol
H and
d ich
d -
no v
bl au
P ati
" O
wir ,</w>
en t.</w>
kl in
d t.</w>
ë le</w>
ze gt</w>
sag te,</w>
r ond</w>
al y
G oo
vol ut
ou de</w>
f .</w>
ver der</w>
5 0
tij dens</w>
F äh
vro e
vor m</w>
gen e
du ur
t liche</w>
mer k
gebruik t</w>
den ?</w>
et was,</w>
ch an
ati v
ver wa
L aten</w>
wan del
i en,</w>
G o
vo l</w>
le b
gesch ieden
enor me</w>
tel ef
be kann
O m</w>
Er fahr
in st
Z us
oplo ss
f ern
könn ten</w>
i ,</w>
tij d
sp ann
ruim te</w>
un gefähr</w>
d ieren</w>
Eu rop
ver sp
onderzoe k</w>
ih rem</w>
glei ch</w>
geh en.</w>
wie der
ontro ll
miljar d</w>
K l
je man
ent ie</w>
auß er
sch ool</w>
Mis schien</w>
K rie
nis se</w>
h r</w>
p en,</w>
ver ge
st ij
p lo
isch .</w>
st ri
ie t
ap it
z entr
versch ie
groe p</w>
del ijke</w>
ü ckl
n enn
j a</w>
d in
geh en,</w>
ze ,</w>
res ult
per s</w>
kan s</w>
hu is
han d
M eine</w>
te m
begrij pen</w>
vro uw</w>
G ot
n ä
em .</w>
ch en
den ke</w>
prec ies</w>
pati ën
s einem</w>
dig it
I e
C A:</w>
le ben
M u
da u
stell ung</w>
ho ff
ab y
a cht</w>
wur de,</w>
plan e
he ef
bis schen</w>
be do
M äd
K ön
er inn
at eg
rei s</w>
isch es</w>
g o
L ös
wel ke</w>
mei s
J a
H il
v r
fe st
beg onnen</w>
Wei se</w>
toekom st</w>
man nen</w>
f y
Sp e
lich keit</w>
Rau m</w>
R a
bl ik
pl at
moeil ijk</w>
lat er</w>
schn it
er van</w>
U r
Din ge,</w>
stu k</w>
ma ken,</w>
k et
H an
6 0</w>
wer ken.</w>
de fin
Kran k
Fü r</w>
v all
N un</w>
Per son</w>
Jahr hunder
wur de.</w>
geb en.</w>
R icht
B ro
B eh
K an
sta d</w>
ies ,</w>
hy s
kre eg</w>
ar i
spä ter</w>
maa kte</w>
zei chn
ma ss
l ö
V ol
O f</w>
m un
d ungen</w>
Men sen</w>
vro eg</w>
t yp
s ommige</w>
pr ä
arbei ten</w>
S ol
st am
re g
boe k</w>
Sy ste
re t
ch em
z in</w>
wor den,</w>
sch ool
ma g
Rob o
F ar
eer t</w>
Yor k</w>
ver r
ma g</w>
hal ten.</w>
m ä
i p</w>
Proble me</w>
Möglich kei
sch wier
soor ten</w>
Zus am
Unter schie
ker s</w>
gra mm
besch er
Z a
nam ens</w>
lev ens
G u
Ent schei
ver mo
o ce
W issen</w>
Dies es</w>
D ur
tra dit
hat te,</w>
fü hl</w>
T ra
tr ä
s imp
re .</w>
pass iert</w>
h n</w>
gevo el</w>
maa l
gr on
vin d</w>
or i
l am
gew öhn
bu iten</w>
Z ij</w>
F a
w ein
sig n</w>
ol i
n aa
hei ds
doe l</w>
Gen er
An g
pers oon</w>
19 9
ss y
ge sehen</w>
beg in</w>
j ij</w>
Univer sit
Milliar den</w>
su c
st imm
j aar.</w>
1 8
D u
zor gen</w>
sy m
on e</w>
ch ter
an en</w>
Kin d</w>
to n</w>
le ver
gl ückl
s ch</w>
änder n</w>
ste ck
gev en.</w>
g lichen</w>
f oto</w>
cht ige</w>
b aar
aus zu
zei gen,</w>
schn ell</w>
ex tre
der de</w>
de ssen</w>
M or
D aar
F ol
o f
kel ijk
gen ?</w>
Fra u</w>
zusam men</w>
te x
gr ün
t lichen</w>
st ens</w>
gegev ens</w>
dat a</w>
Au f</w>
zet ten</w>
ch ten.</w>
som s</w>
binn en
an g</w>
T r
Man n</w>
un d,</w>
schaf fen</w>
om gev
eer der</w>
bren gen</w>
M ein</w>
die p
J u
tra g</w>
r or
k ing</w>
ier ung</w>
P f
K ult
mens en.</w>
al ten</w>
wetensch app
verschieden e</w>
sich er
lo s</w>
P lat
N iet</w>
Be weg
pre ss
zich zelf</w>
ze .</w>
t aus
sch u
mö glich</w>
f lie
en zen</w>
d n
Er geb
sag t</w>
in nen</w>
ich .</w>
glau be</w>
en t,</w>
weiß ,</w>
ha be,</w>
h onder
g ung</w>
S ich
L and
voll e</w>
k é
M ik
um .</w>
mach t,</w>
wa ter
k ar
c ent
Kre b
stat t</w>
hei t,</w>
be vor</w>
Er de</w>
i den
hier .</w>
ell en,</w>
pr aten</w>
met er</w>
i ff
Or ganis
pro gram
gel ei
F ir
st and
l op
geb au
p en
olog ie</w>
den kt</w>
Amerik aanse</w>
t et
ik er</w>
i .</w>
dui delijk</w>
S ter
ur e</w>
un s,</w>
no g
indi vidu
R u
Geb äu
erle i</w>
p ,</w>
hät te</w>
c ij
blij ven</w>
wich tig</w>
da von
d ier
Pro ze
C har
perso on
eh l
Ver bin
voor al</w>
il omet
g ar
führ t</w>
ch es</w>
ver d
um ,</w>
Do ch</w>
sa h</w>
idee ën</w>
ein zel
bei den</w>
A f
p on
berei ts</w>
Sach e</w>
voor t
r ies
van uit</w>
hei ts
fall s</w>
an c
Sta dt</w>
tu ig
og ra
m icro
da gen</w>
a te</w>
Ma sch
vis u
ver zam
k ijk</w>
ge vol
be se
ation ,</w>
Inform ationen</w>
zeg gen:</w>
wer kelijk</w>
nation ale</w>
b la
al ität</w>
2 5</w>
s am</w>
lich aam</w>
k un</w>
antwoor d</w>
Kör per</w>
F all</w>
B ru
ein igen</w>
br ingen</w>
auf .</w>
gelu kk
be kommen</w>
1 2</w>
sch er
at ie
za ken</w>
unter schie
gen ann
da chte</w>
Gr und</w>
glei chen</w>
ge zien</w>
Wel t,</w>
Mom ent</w>
Al l
ent deck
z aa
p rij
l ach
f eite</w>
bei de</w>
Sy stem</w>
M il
neh men,</w>
hal ten,</w>
den t</w>
Amerik a</w>
st ör
a -
Mut ter</w>
Ge dan
ä f
ge spro
besonder s</w>
Per son
Vi elleicht</w>
über all</w>
te chn
mir ,</w>
la gen</w>
oor lo
maan den</w>
W eil</w>
cul tu
K ur
K ra
we er
En gel
en kel</w>
zu ,</w>
p h
n it
uit da
eu ch</w>
do e</w>
kl im
W in
we st
l ker
B a
C he
Al le</w>
moe der</w>
also f</w>
Zusam men
Ber ei
ou d</w>
je dem</w>
S ü
krij gen.</w>
k oo
geda an</w>
Wel t.</w>
ver halen</w>
p el
Gr und
Bil d
är e</w>
k ie
in spir
Ver änder
Or t</w>
ze ker
goe d
fl äch
app ar
ste m
r ü
kwa men</w>
fahr en</w>
bij voorbeeld</w>
hel pen</w>
gen et
s ie,</w>
ple k</w>
mensch lichen</w>
G lei
hou den.</w>
began n</w>
In st
r en
w .</w>
re alis
maa kt.</w>
isch ,</w>
St at
H ö
verschie denen</w>
mo tion
fin den.</w>
N a</w>
B ür
kl ass
k ol
bov en</w>
or en.</w>
kt ur</w>
gebie d</w>
rit t</w>
op ul
kun de</w>
D aarom</w>
vi a</w>
bepaal de</w>
8 0</w>
t rau
ste den</w>
ra di
lu ist
kel ijke</w>
hersen en</w>
hei ten</w>
genu g</w>
ein ig
d y
versteh en,</w>
f u
Zo als</w>
Ar ten</w>
ve el
stell t</w>
sta un
p pen</w>
ne em
bi o
D am
sl aa
gel ov
de t.</w>
ac tiv
W aar</w>
h t,</w>
ger ne</w>
ß e</w>
moe sten</w>
de t,</w>
auf zu
hul p</w>
Te chn
n ive
hoo g
v ast
sat z</w>
s ah
ro bo
US A</w>
Mat eri
per son
p ap
kijk t</w>
d lich</w>
U m</w>
K la
Dank e.</w>
Be zieh
w ist</w>
ra sch
en ?"</w>
W al
Fo to
ä ft
groß art
f el
all er
woor d</w>
interess ant</w>
G ol
Be i</w>
Al les</w>
ur n
Schul e</w>
st el</w>
lich t
et t
d ingen.</w>
vor men</w>
uit eindelijk</w>
m i
ie ën</w>
I s
c ar
F rei
! "</w>
woll en,</w>
re al
n imm
g or
er war
Antwor t</w>
A l</w>
ri ff
k at
hat te.</w>
Sti m
werel d,</w>
ag ,</w>
ver be
man ieren</w>
interessan te</w>
be wij
be tre
all er</w>
N ation
vin den.</w>
versp rei
is :</w>
geloo f</w>
con c
De sign
z ,</w>
spe el
lan d.</w>
i en.</w>
fun da
f än
P ap
z ig
d ich</w>
c ellen</w>
bouw en</w>
aal ,</w>
M :</w>
sit u
rel ig
d t,</w>
O der</w>
Ide en</w>
zei gen</w>
proje ct</w>
for sch
duiz enden</w>
Ver enig
V an
on s
im ul
al t</w>
V or</w>
wir tschaf
he mat
e k
dru ck
Sich er
K at
H el
vr ij</w>
tsch app
man chmal</w>
gel open</w>
be sten</w>
al a
lin e</w>
über hau
mo le
iel e</w>
g aan,</w>
m ich,</w>
fa s
bl in
St äd
F ahr
let ter
jon ge</w>
kijk en.</w>
ier .</w>
N etz
Her aus
Energ ie</w>
woor den</w>
men s</w>
ber e
bas is</w>
D at
C ar
z eit</w>
volu tion
lu cht
aan ge
Plan eten</w>
' ,</w>
vre em
ver oor
oo g</w>
gev al</w>
com mun
bedrij f</w>
be vol
b at
L i
Compu ter</w>
B ar
volle dig</w>
over al</w>
man ,</w>
maa tschapp
la ssen.</w>
Gru ppe</w>
Gr ün
t je</w>
krij gt</w>
ander es</w>
op nieuw</w>
j ähr
5 00</w>
ijk .</w>
he ut
et en.</w>
Leu te,</w>
- S
tel ijk</w>
st ab
sn el
i en
hei t.</w>
be ob
at ie,</w>
a ch</w>
Leu ten</w>
z .</w>
st ütz
lev en,</w>
kun gen</w>
inner halb</w>
lie gt</w>
her aus,</w>
geloo f
g aan
bedrij ven</w>
H eu
' s.</w>
su per
produ z
gr und
Sch au
2 00</w>
op er
fra g
br ein</w>
Flu g
mens en,</w>
Fra gen</w>
spre chen</w>
mach in
lan d,</w>
f äh
Dies er</w>
z un
int ellig
an gen
af han
L ab
ten :</w>
hoof d</w>
f ei
op per
mo d
genom men</w>
Wissenschaf t
rich tig</w>
gen aam
d ie,</w>
De mo
vo e
t schaft</w>
me er
Nat ur</w>
L icht</w>
Inter net</w>
äu f
sch ö
p or
k auf
er in</w>
Zei t,</w>
gel ijke</w>
P olit
ent schei
S ie
S at
For m</w>
vö lker
rich ten</w>
per at
en d,</w>
br ingen,</w>
best aat</w>
verander en.</w>
ver trouw
st of</w>
re ag
be mer
ak ter
ag .</w>
O ka
Geschich ten</w>
wetensch ap</w>
w aa
eh er</w>
ab hän
Inter ess
ot he
bl ijk
Wass er
Ex peri
t ."</w>
sa gen:</w>
stell ing</w>
heiß t</w>
K li
h aal
for mat
f ou
Heraus forder
nah men</w>
me chan
ex ist
tradit ion
hoe veel</w>
her ap
Bil der</w>
plaat sen</w>
ch e,</w>
ar en</w>
an s</w>
Gr öß
r ik
k ken,</w>
irgend wie</w>
aar de</w>
sch ri
einz ige</w>
e ven
belangrijk ste</w>
begin t</w>
An fan
zoe k</w>
z onder
st rij
hin ter</w>
bov en
Z wei
O ber
Fäh igkei
wicht ig
verander ing</w>
t au
na m</w>
e ben
Min uten</w>
Bu ch</w>
ont mo
om at
ju iste</w>
di en</w>
an aly
zoe ken</w>
um mer</w>
dru k</w>
M eer
än der</w>
tegen woor
m y
ge hei
sch il
mus ste</w>
da ran
br ingen.</w>
b ac
ult ur
se i</w>
sch lu
de c
amer ikan
Männ er</w>
I s</w>
t eil</w>
spe ct
pr in
m ale</w>
k s
hl en</w>
ent fern
compu ter
Pu blik
w on
se chs</w>
r at
or ,</w>
o -
wil den</w>
J ap
wereld wij
gib t.</w>
erz eu
demo cr
all erlei</w>
Da vi
sch wer
rie ben</w>
ber ü
Unter nehmen</w>
St re
versch il</w>
min uten</w>
g oo
beel den</w>
ar ti
mensch liche</w>
ein de</w>
da t,</w>
D is
wür de,</w>
n er</w>
de den</w>
commun ic
ag in
Proje kt</w>
wa ss
stu denten</w>
her inn
S om
wür de.</w>
volut ie</w>
unter su
ung e</w>
t ä
l it
bedeut et,</w>
P art
schau en</w>
z ij
vlie g
opper vla
f and</w>
Oo k</w>
überhau pt</w>
ob je
eer d.</w>
Wan neer</w>
" N
sch e
ou ders</w>
hal t
ge zeg
g re
er staun
brau cht</w>
af gelopen</w>
act ie</w>
belangr ijke</w>
Verenig de</w>
Ele kt
C on
B ra
A -
versu chen</w>
tre ff
ru m,</w>
m eines</w>
er den</w>
be per
dur ende</w>
an ti
z war
st ei
ss el
k rie
waar mee</w>
ko st
der n</w>
Ver su
we k
va der</w>
re d
oll e</w>
krij g</w>
ie der</w>
dr ück
ha be.</w>
geh t,</w>
ga f</w>
meh r
hör en</w>
h om
da ,</w>
Pun kt</w>
Famil ie</w>
dar über
Wissenschaf t</w>
St ellen</w>
De s
v lo
kam en</w>
g än
com plex
c olle
k rei
g in
ar chite
D oor</w>
C O
1 00
te ten</w>
ss .</w>
On ze</w>
z ähl
ver ra
ste .</w>
ron d
or .</w>
o ben</w>
nä mlich</w>
la g</w>
he et</w>
geschieden is</w>
bedeut et</w>
aus ge
ver anderen</w>
näch ste</w>
ke ur
ati ve</w>
H aus
z icht
makkel ijk</w>
lo ten</w>
glau ben,</w>
g ol
ar e</w>
a 's</w>
Pr ä
z t</w>
an gen</w>
St ru
P ri
st es</w>
ou ,</w>
konn ten</w>
St unden</w>
E én</w>
w oe
gr und</w>
er ie</w>
bar en</w>
H erz
Gehir n
B an
or en,</w>
daa ro
da chten</w>
Gesell schaft</w>
Europ a</w>
weiter e</w>
vö ll
sich er</w>
G :</w>
z ahl</w>
m t</w>
ation .</w>
we b
st ond</w>
Wer k
Pr in
vaar dig
te sten</w>
nie t,</w>
kom ple
S itu
K r
I st</w>
H I
ver gelijk
tij d.</w>
me l</w>
kom en,</w>
ein zu
de m,</w>
Z el
Mik ro
La ssen</w>
Chr is</w>
zeh n
y c
tra in
ist ische</w>
ie -
aut o</w>
F un
v ie
tran s
t ief
sy n
mo del</w>
mach te</w>
be tro
Z we
L on
su m
L o
K ü
Er fol
st au
schaff en,</w>
e cht
Ma cht</w>
waar van</w>
pers ön
k al
j en
el s</w>
a v
wer k.</w>
waar bij</w>
versteh en</w>
veil ig
lich kei
d icht</w>
Chin e
z war</w>
volu tion</w>
ri c
op ,</w>
lang s</w>
a ge
proc es</w>
n aam</w>
er :</w>
1 .</w>
voor dat</w>
st al</w>
rei b
m inder
be zig</w>
auf ge
K ijk</w>
hoo g</w>
bur ger
at ieve</w>
R ück
Hau pt
DN A</w>
B el
schließ lich</w>
geb oren</w>
di mens
we g.</w>
T en</w>
M ag
K ont
B :</w>
Af g
wo hn
p art
ier ,</w>
eigen e</w>
We b
O ze
Goo gl
nog al</w>
ck e</w>
Mäd chen</w>
H in
Ä r
sch ap
ig t</w>
Au gen</w>
1 8</w>
unterschie d
ro e
r ische</w>
p ot
ou der
al so,</w>
lan ger</w>
k om</w>
i zen</w>
ha d.</w>
St aa
Ob je
De sign</w>
pa s</w>
im in
gen e</w>
ge hoor
Regier ung</w>
ze g</w>
muzie k</w>
za t</w>
ver bess
ko sten</w>
eh r</w>
at ,</w>
Vor trag</w>
van .</w>
s m
bewe gen</w>
M ein
F ern
setz en</w>
besch ik
Kör per
H än
t t</w>
t aal</w>
i c</w>
gestell t</w>
gel ern
da fü
I r
wein ig</w>
p an
nor mal
ne .</w>
dig ,</w>
d ür
se con
p opul
foto 's</w>
e :</w>
b ot
aan pa
Z um</w>
1 1</w>
verbe ter
spre chen,</w>
sich ,</w>
ser v
ir ur
I hn
w ell
v al</w>
t et,</w>
no dig.</w>
n oo
kre gen</w>
enor m</w>
dr it
bal d</w>
0 .</w>
plane et</w>
kan ker</w>
genom en</w>
gebra cht</w>
econom ische</w>
Spra che</w>
pu bl
ne men.</w>
ent ie
H and</w>
moo ie</w>
letz te</w>
ist or
ge middel
f ten</w>
er uit</w>
di r</w>
bau en</w>
we ken</w>
ob wohl</w>
be wer
vo er
oo g
ler nen</w>
k te,</w>
ar d</w>
Dur ch
vri enden</w>
le erde</w>
B ij</w>
zeg t:</w>
op ti
j ouw</w>
i de</w>
f eit</w>
Indi en</w>
Gr unde</w>
völl ig</w>
ver antwoor
schaf ten</w>
ho ch
br and
Pati enten</w>
Googl e</w>
se qu
re st</w>
mar kt</w>
kt u
in ge
i zi
gemeensch ap</w>
er fol
doo d</w>
G ei
stän dig</w>
sag t,</w>
r än
on line</w>
ol ogen</w>
lu cht</w>
gesag t,</w>
aar d</w>
Auf gab
äm pf
op ge
fin det</w>
e kt</w>
L aat</w>
te st
sch a
her vor
glei che</w>
R ich
F u
Amerik an
l ung</w>
gr ond</w>
f ab
ber oe
Mus ik</w>
voor sp
suc ce
pun kt</w>
m iss
kaar t</w>
har t</w>
V ater</w>
T we
Fü hr
zelf .</w>
r y</w>
ervar ing</w>
O p
Kop f</w>
nam elijk</w>
größ te</w>
fil m</w>
St ück</w>
N ahr
Ge w
la ssen,</w>
gen o
d un
d de</w>
N oor
Kran ken
ti f
stof f</w>
funktion iert</w>
Viel e</w>
G an
7 0</w>
su b
sol che</w>
lan gen</w>
dire kt</w>
st ap
k ul
ilomet er</w>
Ho ff
Davi d</w>
str ie</w>
st ie
pro gramm
hu id
Selb st
G i
' s,</w>
struct uur</w>
ne mer
kun st
j aar,</w>
ijk ,</w>
gebruik en.</w>
e motion
Un ser
B rit
" H
tel e
t jes</w>
t an
kenn en.</w>
alle s,</w>
T he</w>
In nov
F all
gelu k</w>
g n
ag no
W ill
S inn
Aut o</w>
schaff en.</w>
re ger
mee stal</w>
i pp
ander s.</w>
an fan
Inst itu
über rasch
z et</w>
Z ijn</w>
W ach
V an</w>
K en
z er</w>
ne ur
gewel dige</w>
F in
s ie.</w>
je doch</w>
famil ie</w>
ats ach
al er</w>
T atsach
St an
Kinder n</w>
An der
t ru
prof ess
omm igen</w>
min de
Wir tschaf
O K
Be deut
vertel t</w>
ti c
stu ur
gro ter</w>
em p
compu ter</w>
zon ne
sle cht</w>
sel ben</w>
k wal
heraus zu
h et.</w>
g la
bren gen.</w>
H ei
zei gt,</w>
voed sel</w>
mein e,</w>
leg gen</w>
l ös
h t.</w>
O ké
pl iz
ben ö
Indi a</w>
äu me</w>
von den</w>
mid delen</w>
ch tig</w>
min ist
c amer
M ich
K a
Ihr en</w>
Hau se</w>
Afg han
ol en</w>
neh men.</w>
maa k</w>
S tel</w>
va st</w>
unser es</w>
rie b</w>
publie k</w>
m mer
gef ähr
di ver
beob ach
Unser e</w>
S a
In du
telef o
ru s</w>
naa st</w>
l en</w>
ie gel
ger n</w>
Werk zeu
El tern</w>
t ö
sl im
glau b
d ollar
ch e
blijk t</w>
We et</w>
S am
M c
Demo kr
voed sel
l äu
gebeur de</w>
ben e
Re gel
Ar chite
19 8
w ähl
ris ic
pr im
gen den</w>
daran ,</w>
alle m</w>
Sch u
Entwickl ung</w>
1 ,
st är
kl einer</w>
gedra g</w>
B lu
sp h
creë ren</w>
aar s</w>
, "</w>
z icht</w>
waar door</w>
sam mel
itei t.</w>
fü ll
b uur
Medi kam
se x
nie t
hoe veel
gehör t</w>
en g
Um geb
Leben s</w>
Den ken</w>
0 ,</w>
vertel de</w>
ver stan
moder ne</w>
m de</w>
h art
P a
zu l
te st</w>
ss o
le den</w>
ig en,</w>
han den</w>
hal ve</w>
ge macht.</w>
er gens</w>
dr ie
ab .</w>
s ach
ro t
rau m</w>
k rit
k ehr
ze e
z ü
w ,</w>
ran d</w>
neem t</w>
komm t,</w>
entwick elt</w>
ac e
gelov en</w>
geh t.</w>
ent schie
da ten</w>
d ing.</w>
be tere</w>
au ßen</w>
W ort</w>
Univer sum</w>
S or
N am
über zeu
lok ale</w>
if f</w>
i an
P au
B .</w>
A p
9 0</w>
speci f
sl ag
mensel ijk</w>
hoof d
ge ef</w>
Ge fühl</w>
Ang st</w>
univer sit
stu k
mü ssen,</w>
i ve</w>
ein ge
Hil fe</w>
Glei ch
n utzen</w>
l age</w>
führ en</w>
T y
P hil
Nat ür
v ir
st eu
hou dt</w>
le ben.</w>
kon zentr
for n
T el
Pro gram
N icht</w>
spre chen.</w>
sp ron
dan kt.</w>
Kli ma
Jahr en,</w>
voor uit
toon t</w>
h aa
daar van</w>
Met ho
K amer
Be völker
zor g
re ken
mü ssen.</w>
kun st</w>
inter net</w>
an schau
ali forn
ac t</w>
St ad
wel ches</w>
nah m</w>
l auf
gu t.</w>
er voor</w>
Kun st</w>
Fil m</w>
wach sen
ur c
un ten</w>
u ,</w>
t et.</w>
m ing</w>
k te.</w>
hat ten,</w>
geb as
ens icht
ation s
oo m</w>
et en,</w>
S pa
Heu te</w>
sp elen</w>
hei d
del l</w>
dan k
c ol
L age</w>
J ullie</w>
Ge wal
G een</w>
C han
Au ß
wan n</w>
vloe d</w>
nat uur</w>
de m
T ier
unglaub lich</w>
mal ,</w>
kom ende</w>
K ünst
Ie der
I ra
E ben
tra gen</w>
heef t.</w>
ge m
e er</w>
Su per
tz lich</w>
t ;
ssy ste
is me</w>
i ges</w>
den de</w>
J am
Afghan ist
kl op
h oren</w>
g liche</w>
g ing,</w>
da mals</w>
cht ig
W er</w>
Sch ü
L änder</w>
H aus</w>
sp el</w>
ne g
er w
de :</w>
ter n
te ch
nimm t</w>
ne u</w>
erfol grei
da chte,</w>
arbei ten,</w>
Masch in
D ru
vol l</w>
spe zi
pl ö
k te
hät ten</w>
gewe e
g ing.</w>
H u
Gebäu de</w>
D et
w u
ver dien
kom plex
ich t,</w>
ic a</w>
hal f</w>
goe d.</w>
genau so</w>
f rie
dr in
F l
zwei te</w>
vin dt</w>
se k
nieuw s</w>
met ho
ke ek</w>
größ ten</w>
funda men
fra gen</w>
er op</w>
em ,</w>
dar in</w>
Na ch</w>
weiter .</w>
t ie</w>
spiel en</w>
sch war
kenn is</w>
k ontroll
he er
ger e</w>
f ör
en der</w>
R is
N iemand</w>
kur z</w>
ië n
ho ge</w>
ft ware</w>
ch er
be zahl
be sit
Re a
F lü
samen lev
hal en.</w>
g s</w>
at h
a ir</w>
S ehen</w>
Ge fühl
waar de</w>
vermo gen</w>
lig t</w>
ken ?</w>
j a
fläch e</w>
de te</w>
ade m
Rei he</w>
F rie
wä re,</w>
vri en
sch wer</w>
omm un
men te</w>
k ort</w>
k :</w>
hn e</w>
gene es
f s</w>
di um</w>
ci p
T ex
gewel dig</w>
gebie den</w>
ern st
en ;</w>
zei ,</w>
nam en</w>
hou d</w>
aa s</w>
Pf lan
C it
ü br
woll en.</w>
wo on
lin ks</w>
ch sel
S .</w>
R el
Jo hn</w>
I m
Anfan g</w>
wis kun
verl oren</w>
seh r,</w>
om .</w>
T it
M al
D ro
A m</w>
wur den.</w>
ver ur
ul ti
ster s</w>
re gi
polit ieke</w>
hel ft</w>
c ir
af .</w>
Sy m
Ieder een</w>
zor g</w>
vraa g
str al
st il
b all
P sych
Ne e,</w>
D ollar
to ff
fan den</w>
et z</w>
arbei tet</w>
Wir kl
Hoff n
Compu ter
wer kt.</w>
ur en.</w>
jo u</w>
he ,</w>
h i
M ach
H oe
z aak</w>
ver di
sag e</w>
lie t</w>
del en.</w>
Ter wijl</w>
ut es</w>
k eer
darüber ,</w>
ber eit
B en
A ra
wer ken,</w>
syste men</w>
st -
de ta
com bin
t op
neu ro
je mals</w>
ist :</w>
in vest
ik t</w>
gevo el
Vide o
T iere</w>
Is ra
F ace
1 2
ste un
st aan.</w>
s lo
kenn en,</w>
ijk er</w>
gor it
aan dacht</w>
Ver einig
Sach en</w>
c t.</w>
3 00</w>
noe men</w>
miljo enen</w>
hei t
en s,</w>
TED -
K u
D or
zie kte</w>
versu chen,</w>
te am</w>
onder wer
lei den</w>
bet aal
besch äft
at ief</w>
ander er</w>
Je der</w>
Ein ige</w>
zu g</w>
sta p</w>
le ben,</w>
hat ten.</w>
et s</w>
Mat hemat
ra m
ons zelf</w>
einf lu
com ple
bac ter
Mon ate</w>
A ben
zei tig</w>
w en</w>
urn al
is mus</w>
gew o
ge tro
energ ie
be kend</w>
absol u
T age</w>
Möglich keit</w>
F e
moo i</w>
i x
d icht
A ,</w>
we ge</w>
ro o
mo b
j etz
ich ten</w>
gen heit</w>
boe ken</w>
be st</w>
be hoe
Nat uur
Mo d
verzam el
sin ds</w>
n eer
lei st
kl aar</w>
glau ben</w>
fü r
ce p
The ma</w>
An zahl</w>
we ek</w>
maa kten</w>
ker .</w>
Robo ter</w>
H äl
we der</w>
ur en,</w>
nor male</w>
nach zu
mid den</w>
je s.</w>
er d.</w>
Wo chen</w>
Um wel
Ih rem</w>
r e</w>
olog ische</w>
leu k</w>
kl a
get an</w>
ein ander
bar .</w>
St ro
Kon ze
A ar
s an
prä sent
k ool
ge maakt.</w>
do en?</w>
c entr
W il
D -
zu t
zie hen</w>
re e
r icht</w>
k au
ge spre
fantast ische</w>
en e
br ei
Me er</w>
z iel
n aar
m ijn
m ?</w>
fas zin
" Wat</w>
ver öffent
t huis</w>
stell te</w>
sla g</w>
sch en
oorlo g</w>
nen nen</w>
lo s
k ru
in format
gev angen
gef un
bau en,</w>
Natür lich</w>
Ihr er</w>
mö glichen</w>
fy sie
e di
bewe ging</w>
st aat
over tuig
or gan
mö chte,</w>
mach ine</w>
kl eines</w>
i den</w>
h istor
gezond heids
f ach
a den</w>
W ör
z om
wach sen</w>
pa ssen</w>
gu ten</w>
fin an
S au
N amen</w>
H ig
A ktiv
vor her
schn ell
s ätz
et te</w>
Ver halten</w>
V S</w>
Ar t,</w>
ton en</w>
lijk ,</w>
l open</w>
j aar
gev en,</w>
gesch ie
for t</w>
da rum,</w>
ati ven</w>
Wo che</w>
T atsächlich</w>
G ar
u wen
schein t</w>
r ig
Pro f
Des halb</w>
C ol
sch at
s icht</w>
or d
mit t
m d</w>
könn te.</w>
kt or</w>
k m</w>
de sign
c ur
Arbei ts
lo ssen</w>
h am
gew one</w>
arbei ten.</w>
Ta ges</w>
voll er</w>
hel fen</w>
gewe est</w>
f ehl
au ch,</w>
Ger ä
A m
" Das</w>
str on
r en.</w>
pro ce
huid ige</w>
ch te.</w>
br ingt</w>
bel ei
zie ken
vo elen</w>
the orie</w>
re chten</w>
k apit
i re
da cht
b ein
Mensch en.</w>
verb az
digit ale</w>
blij ft</w>
Mo le
Ge or
B la
. “</w>
stän d
str ateg
sie ben</w>
o 's</w>
mus sten</w>
ho ch</w>
f s
davon ,</w>
ar ch
Zel fs</w>
Verbin dung</w>
V eel</w>
v ac
sle chte</w>
nach dem</w>
h inter
gelu id</w>
Mit ge
Gl ück</w>
D ingen</w>
zu .</w>
verr ück
pass iert,</w>
p la
hal ten
h .</w>
be su
ar m</w>
Wach st
te gr
nah me</w>
bau en.</w>
Energ ie
1 4</w>
n au
be ein
amp ag
V on</w>
A .</w>
vo gel
re gen
p hys
os au
off ensicht
ger ,</w>
f all</w>
el n</w>
ein d</w>
b om
ab ,</w>
zu vor</w>
woll ten</w>
voor .</w>
rie b
kk ing</w>
er -
des halb</w>
V o
Unterschie d</w>
T re
Den k</w>
za gen</w>
sozi ale</w>
kti ve</w>
ich t.</w>
ge durende</w>
Kreb s</w>
tu igen</w>
ster n</w>
sag t:</w>
rel atie</w>
peri o
da s?</w>
W ährend</w>
Prin zi
P al
wer kte</w>
kom men
er lau
ber t</w>
Wo hl
Got t</w>
Du s,</w>
" Was</w>
v u
pl ic
häl t</w>
ger .</w>
uit ge
tij d,</w>
ro l</w>
n ei
i um</w>
dy nam
Mit tel
1 5
ma ,</w>
ho u</w>
gesch re
econom ie</w>
bew us
b ol
ar t</w>
Stu denten</w>
Se kun
zer stör
wer t
ur s</w>
sto ffen</w>
stat t
p ol
h op
geïn ter
g aat.</w>
Z eu
Sp iel</w>
Fre unde</w>
B akter
zei den:</w>
wetenschap pers</w>
lei ding</w>
hr en</w>
di o
da ss,</w>
ab zu
Z iel</w>
h en.</w>
ein s</w>
Sch we
P at
Kun st
Flug zeu
zei gen.</w>
zeh n</w>
wus st
te erd</w>
nie t-
nie mals</w>
mogelijk heid</w>
ill e</w>
il s</w>
cultu ur</w>
Jahr zehn
I D
Erfahr ung</w>
é é
wer k,</w>
vert rau
materi aal</w>
da zu,</w>
Auto s</w>
zo n</w>
ver wij
toe gang</w>
p agin
natuur lijke</w>
lie be</w>
führ en.</w>
Wir tschaft</w>
Vereinig ten</w>
F eu
zo .</w>
ze ven</w>
t um
ster ,</w>
publ ic
l en
grund le
gesag t</w>
zun eh
ver fol
sp raa
gel eerd</w>
eer den</w>
besl oot</w>
be ïn
an te</w>
a b</w>
Re gi
B ot
0 .000</w>
x i
vor .</w>
ve ster
r ie</w>
persoon lijke</w>
om ,</w>
gev allen</w>
geb ouw</w>
er ende</w>
J a.</w>
Be wusst
ti en</w>
schre ef</w>
mö gen</w>
hei l
bouw en.</w>
P re
19 7
w ol
uur .</w>
uit ,</w>
stau ran
sp er
si dent</w>
mit einander</w>
klim aat
ieder e</w>
ha d,</w>
groe i</w>
g de</w>
K olle
K apit
Go d</w>
" W
v le
v allen</w>
s au
neu es</w>
ma .</w>
k ämpf
in no
hl en
gebau t</w>
E ff
wor dt.</w>
stop pen</w>
lie gen</w>
k ap
gro tere</w>
g ru
da s.</w>
da .</w>
ar me</w>
Vide o</w>
T ro
Son nen
M ex
Kranken h
Jahr en.</w>
B aby
zo wel</w>
ti en
sy stem</w>
spr icht</w>
oploss ing</w>
mid del</w>
ler en.</w>
ke ken</w>
er kann
c tion
ben a
B ab
vri end</w>
sch ick
pl an</w>
i -
heb t,</w>
geda an.</w>
er o
do k
b lie
S er
Lehr er</w>
Gedan ken</w>
D r.</w>
univer sum</w>
the or
tech nie
stell e</w>
omgev ing</w>
mole cul
il is
gro ß</w>
ge e
ge d
best aan</w>
b bel
al es</w>
a h</w>
M ot
Kult ur</w>
J on
wil t</w>
tran sp
schaf t,</w>
me zelf</w>
je zelf</w>
ie te</w>
h ij
fl ü
dr ü
U it
G lau
v ul
sol l</w>
sin n
si te</w>
nive au</w>
merk sam
lä sst</w>
i ë</w>
gelukk ig</w>
er s.</w>
elekt ron
da rum</w>
ben t,</w>
T ri
Schau en</w>
Sch ritt</w>
verra ss
oo p</w>
on s.</w>
kti v</w>
ken s</w>
gebas eerd</w>
erkenn en,</w>
de st
besch rij
son st</w>
prij s</w>
plö tzlich</w>
ge :</w>
f er</w>
bra cht</w>
Tel ef
Te am</w>
Lös ung</w>
ver s
te m</w>
regel s</w>
oo k.</w>
ken :</w>
je s,</w>
inter nationale</w>
imp an
eu m</w>
ent lich</w>
dimens ion
dafü r,</w>
benö tig
al itä
S an</w>
P hys
Häl fte</w>
H inter
1 6</w>
ück e</w>
will ,</w>
vide o</w>
re du
p et
ist isch</w>
ie b
fra gte</w>
for m</w>
Technolog ien</w>
N A
K ontroll
Gesund heits
For tsch
B as
t op</w>
ich te</w>
effe ct
e v
dru ck</w>
be kommen,</w>
al en.</w>
Vor stell
St r
N ou,</w>
K er
zut age</w>
succe s
sch .</w>
komple tt</w>
g lie
ben utzen</w>
Re st</w>
K ommun
C a
vor zu
produ ct
prin cip
onderwij s</w>
og nit
mit tel</w>
ktion en</w>
kom pliz
g ei
eeu w</w>
dar aus</w>
br it
ar moe
Sch l
M ü
Geb ur
zeg gen,</w>
proble em.</w>
ju ist</w>
gew inn
genaam d</w>
er t.</w>
dr außen</w>
absol ut</w>
verwa cht
verh aal.</w>
den ."</w>
de mon
V is
N ur</w>
z aam</w>
si on</w>
l ab
kun sten
k ün
k er,</w>
her um</w>
gesam te</w>
er kennen</w>
c ap
be steht</w>
at or</w>
wicht ige</w>
toe pass
s eit
re chts</w>
om e</w>
ing u
in vester
fa vor
einfach e</w>
ckl ich
boo d
M y
In t
ü b
äch st</w>
sozi alen</w>
fl ic
be kommen.</w>
b aan</w>
zit ten.</w>
wi der
pass iert.</w>
pass ier
gest el
gebra cht.</w>
en s.</w>
con flic
an statt</w>
Wahr heit</w>
Är z
wa k
ver wandel
u .</w>
s wer
pass ie</w>
ogra f
g aat,</w>
Sin n</w>
Sch ön
Ho ch
A an</w>
zei den</w>
verb ra
setz en.</w>
selb st
it i
in stru
ic iën
er sch
er e
der en.</w>
den k
bren gt</w>
Lie be</w>
E t
E is
Beweg ung</w>
Ö l
ster .</w>
star k</w>
st elt</w>
spre ch
schrij ven</w>
me er.</w>
kom st</w>
in nov
e chter</w>
c uss
bepaal d</w>
be einflu
am a</w>
No g</w>
M iss
werk ing</w>
te el</w>
sl ach
s lu
mor al
l ijken</w>
kijk en,</w>
bewu st</w>
Wirkl ich
W ol
T u
El ke</w>
Ein flu
1 7
zam e</w>
her um
er s,</w>
be ding
P oli
E ssen</w>
äu sch
unter stütz
patiën ten</w>
no t
n et.</w>
ma cht
la s</w>
könn te,</w>
kam ,</w>
ing wek
aar d
Van da
H y
zei ge</w>
teil en</w>
st ig</w>
mil ieu
j ul
gr at
geïnter ess
ge worden</w>
ban g</w>
V ir
St am
S ommige</w>
F el
Auf merksam
ät ze</w>
l ijn</w>
in ten
gegen über</w>
der ?</w>
de press
ag en.</w>
Z ahl</w>
t o</w>
spel en.</w>
rei ch
men t.</w>
le s
g ig
ch ?</w>
c es</w>
bess er
al te</w>
Rel ig
Gesch äf
Aus wir
" A
vin den,</w>
ontwer p</w>
nutz en,</w>
kor te</w>
k ür
gemeensch ap
ge deel
for t
f ru
Krie g</w>
Größ e</w>
wur den,</w>
versteh en.</w>
kam er</w>
j unge</w>
ieu ze</w>
aut omat
Teil e</w>
J ob
F rü
Che m
Al l</w>
wicht ig,</w>
tz dem</w>
tel e</w>
st or
setz en,</w>
pra kt
medi zin
lern en,</w>
den -
da mit
bedo el
b aby
ation en,</w>
w onder
le gt</w>
kom t.</w>
i b
gi g</w>
gest or
bewu st
at .</w>
To t</w>
Staa ten</w>
Plat z</w>
y -
wel ,</w>
ster k</w>
mä ß
k ung</w>
indu stri
hu is.</w>
funktion iert.</w>
Z ellen</w>
Unter neh
Stu die</w>
Mo dell</w>
L ändern</w>
Beh and
Au gen
Au ch</w>
verb onden</w>
van af</w>
v is</w>
konn te.</w>
komm t.</w>
k west
ig eri
ig en.</w>
ges etz
fü g
bl ick</w>
bestimm ten</w>
be ste
M ens
Ide e,</w>
zei t
y :</w>
ver n
t af
mil it
maa kt,</w>
hör en,</w>
gr ij
gev aar
er aan</w>
situ atie</w>
ont wor
in s
ger u
ge sp
ge geven</w>
foto graf
en zo
Re sso
Mole kü
H ir
H ab
B al
zurück .</w>
ih res</w>
eff iciën
cr is
b ab
Zu id
L änder
2 4</w>
w inn
sich er,</w>
ro l
richt ing</w>
ig ens</w>
ies o</w>
gebeur en</w>
fil m
ati v</w>
Stra ß
Sp it
Proze ss</w>
ö pf
ze pt
z waar
wirkl ich
vo elt</w>
s ur
ontwikkel ing</w>
n ütz
m es</w>
k eren</w>
he el
glückl ich
afhan kelijk</w>
Mein ung</w>
10 .000</w>
ou der</w>
nie t?</w>
ië n</w>
honder den</w>
ge heu
cont in
belan g</w>
Wissenschaft ler</w>
Kön nen</w>
. '</w>
win dig
welt weit</w>
well icht</w>
s ho
pat ro
kra ft</w>
k uss
inno vat
fr ont
end lich</w>
dan n,</w>
ar men</w>
W ür
Vanda ag</w>
T wit
Richt ung</w>
H ol
Er n
ter ror
scho on
on den.</w>
l aag</w>
gew icht</w>
geb ro
ge worden.</w>
gab en</w>
et er</w>
erzähl en,</w>
dis cuss
da ad
chem ische</w>
bewe gen.</w>
Le ben.</w>
B ij
wei l
vertrouw en</w>
tr a</w>
lan den.</w>
ion ,</w>
in genie
har d</w>
gef unden</w>
fa sc
f lo
bit te</w>
ber ,</w>
b aar.</w>
P ol
N er
r en,</w>
oll en</w>
mo s
lie ßen</w>
ent rum</w>
N utz
verk auf
ull en</w>
stel sel
stan dig
sn eller</w>
pr ü
or e</w>
mo gelijke</w>
lief de</w>
hul p
gu t,</w>
groß er</w>
geloof lijk</w>
er möglich
bess ere</w>
aan we
M I
är en</w>
wer kelijk
te u
so .</w>
schl ä
richt igen</w>
r a</w>
kr at
klar ,</w>
ker e</w>
ide m
ft wa
Ver gan
Lu ft</w>
Gesund heit</w>
19 6
wetenschapp elijke</w>
sie ht,</w>
ma te</w>
ing er</w>
hu izen</w>
dig t</w>
bas is
Natuur lijk</w>
Möglichkei ten</w>
Bo den</w>
win kel
we chsel
ver minder
v elen</w>
tex t</w>
oe l</w>
mogelijk heden</w>
letter lijk</w>
itei t,</w>
da g.</w>
be steh
Ter ror
P ot
Neu ro
Fran c
En gl
1 3</w>
vir tu
taus ende</w>
seh e</w>
pra chtige</w>
me de
inge wikkel
he den.</w>
h äuf
ge gan
d ing,</w>
ch irur
W ohn
C an
i ven</w>
glob ale</w>
dra gen</w>
dr a</w>
di agno
bevol king</w>
V ö
M id
Kon fl
G oe
Eu ro
1 6
zwar te</w>
wär en</w>
voel de</w>
lei cht</w>
hel fen,</w>
dan ach</w>
d ge
ala x
W af
H ü
Gl ück
Geschich te.</w>
4 00</w>
0 %</w>
te k
t he</w>
stu die</w>
spre ken</w>
ne men,</w>
kü mmer
hoeveel heid</w>
er halten</w>
do en
ci ële</w>
be de
al ien</w>
Zei t.</w>
T em
S k
S :</w>
Na cht</w>
Gr und,</w>
Gemein schaft</w>
Afrik a.</w>
vo et
tem perat
st ige</w>
sam e</w>
k ä
k ern
immer ,</w>
gemiddel de</w>
dan k</w>
W un
Veränder ung</w>
K am
Jahrhunder t</w>
Entschei dungen</w>
Di en
wij ze</w>
st aan
sch aal</w>
n ut
lei der</w>
i a
h en,</w>
ge est</w>
fasc in
e c
K no
Eig enschaf
v ing</w>
richt ige</w>
mach ten</w>
k ilometer</w>
irgend wo</w>
do el
betra cht
bei ,</w>
begrij pen.</w>
Wa sh
Techn ik</w>
Rei se</w>
D rit
zijn ?</w>
t ing</w>
sch appen</w>
over heid</w>
over .</w>
ontwer pen</w>
län ger</w>
l aa
kinder en.</w>
di er</w>
de ten</w>
ck ,</w>
F oto</w>
An ti
A n</w>
, 5</w>
zu erst</w>
sag en.</w>
probe erde</w>
itei ten</w>
gleich zeitig</w>
f ar
en lijk</w>
ei m
ä ss
zo gen</w>
tu ig</w>
on gelooflijk</w>
mor gen</w>
ber u
Ma ß
F eh
versu cht</w>
tra g
oo k,</w>
ol ie</w>
oce aan</w>
kijk t,</w>
hou den,</w>
fal sch</w>
dan ks</w>
boe l</w>
bloe d
b ist</w>
J an
Ein st
wi sten</w>
w oo
voorbeel d,</w>
vis ie</w>
veränder t</w>
re act
programm a</w>
l a</w>
kie zen</w>
einzel ne</w>
daaro m</w>
da her</w>
Kra ft</w>
Fre u
Ein es</w>
Bezieh ung</w>
vert ellen.</w>
tel le
sp iegel
so fort</w>
r ä
onder deel</w>
na dat</w>
k ör
hoe ft</w>
geloo fl
gele den,</w>
ei en</w>
ander en.</w>
all ein</w>
Wash ing
Städ te</w>
O per
Mu ster</w>
G lob
Ar mu
we ef
v ak
p e
opti m
kenn t
k ünst
gez icht</w>
erzähl t</w>
ct or</w>
beïn vloe
at or
Met er</w>
Er d
Bedeut ung</w>
ä fte</w>
probe ert</w>
jar ige</w>
glob alen</w>
f ing</w>
eenvou dige</w>
H all
tre ffen</w>
lev ens</w>
krij gen,</w>
her r
heiß t,</w>
ha st</w>
geïnteress eerd</w>
en "</w>
auss ie
Publik um</w>
Oka y,</w>
N ummer</w>
H eel</w>
G alax
Fre und</w>
D el
zu minde
sch rieb</w>
ron en</w>
profess ion
pr aat</w>
nam e</w>
lan g.</w>
gener atie</w>
dec enn
d op
ck er</w>
ch e.</w>
be drei
alle s.</w>
Mit te</w>
Dat en
Bu ch
ë n.</w>
ver sor
r ation
mach e</w>
gebouw d</w>
daa d</w>
biolog ische</w>
Situ ation</w>
Sch ri
Resso urc
N ein,</w>
ä us
veränder n</w>
sch ir
ri è
im pa
eer d,</w>
bere ken
be doel</w>
Rich ard</w>
In genie
& amp
zet ten.</w>
vu il
veränder n.</w>
verbaz ingwek
t ol
s il
r ijk
p ut
kom t,</w>
jeman den</w>
ier ende</w>
gest eld</w>
ex tra</w>
elekt rische</w>
den kt,</w>
da g,</w>
Sicher heit</w>
Geschäf ts
Bl ick</w>
2 -
wa cht
voorbeel den</w>
ver van
technolog ie.</w>
p tem
p last
meis je</w>
indu strie</w>
groß es</w>
gron d
ge macht,</w>
ga ven</w>
fa ss
entwickel n</w>
Vor stellung</w>
T im
Sch lü
Po sit
Ober fläche</w>
N igeri
Mens ch</w>
Lei st
" K
" Het</w>
zie t,</w>
wus ste</w>
t te</w>
pra kti
ple kken</w>
ontwikkel ings
i o
er over</w>
do et,</w>
daar na</w>
da g
ag en,</w>
W o</w>
Vol gens</w>
V oor
T on
R olle</w>
Ihn en,</w>
uss t</w>
sph äre</w>
s ult
om standig
nemer s</w>
ne em</w>
le gen</w>
lan t
kan t
h m
genet ische</w>
f iz
al ter</w>
Ris ik
K :</w>
Ara b
.. .
lijk .</w>
in fra
gr aa
gezond heid</w>
gesam ten</w>
ges etzt</w>
ele van
ag er</w>
W ert</w>
Selb st</w>
P or
F isch
Aufgab e</w>
schil der
result aat</w>
loo p</w>
gef ra
d eine</w>
b ung</w>
Wa hl
Sch lu
Kommun ik
Gewal t</w>
G re
Beispiel ,</w>
" Wie</w>
verwen den</w>
verander t</w>
ver ko
ver klar
teil e</w>
spiel t</w>
schle cht</w>
probe er</w>
noe men.</w>
mo tiv
m ung</w>
ir e</w>
h ig
gem een</w>
fou t</w>
de e
bra chte</w>
bl ij</w>
bewij s</w>
bel e
beginn t</w>
b ouw</w>
af ,</w>
Zu gang</w>
Umgeb ung</w>
Spe z
O h,</w>
Fra ge,</w>
Forsch ung</w>
sp or
sch ,</w>
noo d
komm un
ig n
groe pen</w>
d y</w>
c el</w>
Or dn
J ul
C or
" -
van wege</w>
plaat s
mu ss,</w>
jul lie
heef t,</w>
ger s</w>
führ en,</w>
e ssen</w>
dies el
bl i
am b
T ele
Som s</w>
S -
Ge fän
Fre un
son :</w>
sin gen</w>
in vloed</w>
ijn .</w>
ble ef</w>
bl ick
Z u</w>
Ver antwor
Pau l</w>
P ak
Mich a
Inter net
Chr ist
A le
zo cht</w>
zie t.</w>
vraa gt</w>
um zu
um s</w>
p lu
oo s</w>
groot te</w>
fy s
fin anc
er t,</w>
do cu
den d</w>
T ij
Nat ur
Kar te</w>
H im
5 .000</w>
y n
vert eil
uitda ging</w>
t en?</w>
sag ten</w>
l er,</w>
konn te,</w>
in e
ic ken</w>
gewee st.</w>
erzähl en</w>
Wahr schein
Stim me</w>
G ele
Bl ut
we ,</w>
tu t</w>
st art
s ü
pf lan
p s</w>
p ie
oor spron
medi c
in es
doo d
da gelijk
c a.</w>
ben en</w>
Sach e,</w>
Nach bar
soll te.</w>
ontde kte</w>
mü s
mer ken</w>
ger en</w>
auß er</w>
ast rop
ang st</w>
an gef
al ter
Z iel
W et
S c
Lab or</w>
Geh eim
E -
Da her</w>
D re
Bil dung</w>
wür den,</w>
vo el</w>
t igen</w>
so wohl</w>
schö n</w>
ro de</w>
p t.</w>
mee sten</w>
iden tif
her ,</w>
gele den.</w>
ge sehen,</w>
d om</w>
ber eit</w>
auto 's</w>
al s
Mar s</w>
Gener ation</w>
Ge spr
äu ß
t ige</w>
str aat</w>
st imul
l im
ko sten
gel ö
et h
effe ct</w>
bro o
bew usst</w>
St aten</w>
wet s
meh r.</w>
le ert</w>
könn ten,</w>
ken t</w>
k ultur
jon gen</w>
h a</w>
en des</w>
bli othe
archite ct
amerikan ischen</w>
Mar kt</w>
E g
Berei ch</w>
B it
A ID
ver s</w>
strij d</w>
polit iek</w>
on geloofl
meis jes</w>
kt es</w>
kol on
ief .</w>
gev onden</w>
ge men
fra ge</w>
f de</w>
er hö
er forsch
contro le</w>
bes loten</w>
ar beit</w>
K rei
Jam es</w>
H on
H :</w>
Bil l</w>
veroor zaa
t ri
su g
st ä
re spe
re chte</w>
mij .</w>
man n
man che</w>
lie p</w>
le sen</w>
in tegr
größ er</w>
gebruik en,</w>
bin ,</w>
b on
alle maal
T ur
Stra ße</w>
vor stellen,</w>
stan d.</w>
rei ben</w>
redu z
ich :</w>
gel a
geh ol
g ten</w>
entie el</w>
der ing</w>
W ik
W ieder
Sch war
P ho
L icht
L ern
Er fin
" De</w>
wereldwij de</w>
te ?</w>
schn eller</w>
ma sch
könn ten.</w>
jon gens</w>
ion .</w>
ik :</w>
i let
i der
hoor de</w>
elekt ric
du c
be kam</w>
So zi
O ff
Nation al</w>
" Wir</w>
" S
welt wei
verh inder
tot aal</w>
produ ct</w>
p t,</w>
me e.</w>
gro ene</w>
br il
auf grund</w>
L os</w>
Al ter</w>
ter en.</w>
schrei ben</w>
pre t
lich aa
ij s</w>
gele gen
fühl en</w>
f äl
daad werkelijk</w>
cont act</w>
br ing
bestimm te</w>
bene den</w>
Z e
Twe e</w>
To d</w>
S al
Arbei t
A mei
w äl
vi ru
o k
o der?</w>
n et,</w>
lev en
he m
h et,</w>
großart ige</w>
gr iff</w>
errei chen</w>
da ag
ck t</w>
c yc
ban k</w>
a gen
Za hlen</w>
Z iv
Oké ,</w>
Ein zel
Au ss
zuminde st</w>
stu den
r elevan
kom me</w>
icht s
glückl ich</w>
die p</w>
T at</w>
Proble m.</w>
M er
uw en</w>
stell ingen</w>
oo t
men sen
lei dt</w>
i v</w>
herauszu finden,</w>
her inner
fra gen,</w>
erzähl en.</w>
er at
da m</w>
b and</w>
T aus
Son ne</w>
R at
M ob
Kontroll e</w>
Ko hlen
Er wachsen
" Die</w>
öffent lichen</w>
z wan
wür den.</w>
tegenwoor dig</w>
sol chen</w>
re denen</w>
re chter
na cht</w>
lang sam
j ungen</w>
haf t</w>
gebeur en.</w>
einzel nen</w>
dru k
dom in
b ill
Zuid -
N ot
Fir ma</w>
Bet ra
wa ssen</w>
stu d
so dass</w>
ontwikkel en</w>
nu ,</w>
le zen</w>
kra cht
kau m</w>
is e</w>
gemein sam</w>
f el</w>
elk aar.</w>
e mot
dür f
dr on
di sche</w>
We sten</w>
J ohn
In fra
Fähigkei ten</w>
Ar ti
we g,</w>
we e
vor her</w>
ur r
pa s
or d</w>
lö sen</w>
it ie</w>
it .</w>
h en
et ze</w>
er te</w>
er mee</w>
d ingen,</w>
bedo el,</w>
P an
Ex per
z il
wo hl
waar de
ung sl
spr ün
spiel en.</w>
s ."</w>
re den,</w>
medi sche</w>
maatschapp ij</w>
m alen</w>
lo c
ko st</w>
inter nation
hal t</w>
gezeg d</w>
gew is
fab rie
erw ähn
ei ster
d lichen</w>
c a</w>
at ies.</w>
an den</w>
Ne em</w>
Ergeb nis</w>
D on
1 7</w>
voor stellen</w>
toe .</w>
ster ben</w>
steh en.</w>
stan den</w>
schaf ft</w>
s ne
ne ben</w>
ing :</w>
in se
ges ell
er ing</w>
app en.</w>
Fu ß
tun ?</w>
sch er</w>
on s,</w>
on -
n äh
n ur,</w>
ij nen</w>
igkei ten</w>
hau pt
ex plo
du bbel
bekann t</w>
Z er
Wer el
Rau m
P l
Mensch en
Kinder ,</w>
4 5</w>
zu fäll
z ellen</w>
wan d
stan d,</w>
schaf t.</w>
result aten</w>
il t</w>
hö ch
hal te</w>
gevol g</w>
do n</w>
d ."</w>
colle ga
c ool
bij zonder</w>
an z</w>
O x
Herausforder ung</w>
Demokr atie</w>
w ijn
ti ges</w>
tal k</w>
su ch
men de</w>
l ing</w>
gen utz
fun ction
ent er</w>
dig d</w>
auss eh
Sch mer
L ö
Geschich te,</w>
wis sel
w ör
w n
ver volgens</w>
t ag
on be
mo gen</w>
medi a</w>
k ten,</w>
fysie ke</w>
dar auf,</w>
dacht :</w>
ar m
V -
Le ben,</w>
Ko sten</w>
wa chten</w>
st rie
plan ten</w>
lei ders</w>
gez et</w>
gen ."</w>
ge k</w>
fahr en,</w>
experi ment</w>
do et.</w>
bra chten</w>
Re alität</w>
P reis</w>
Man n,</w>
In vest
Ges icht</w>
sag ten:</w>
per spect
o cht
l on
gra pp
gehoor d</w>
enzo voor
eh men</w>
e ur
davon .</w>
betro kken</w>
besch ouw
al og
Wirklich keit</w>
W it
M al,</w>
Einflu ss</w>
D uit
Ber u
y s</w>
woe st
vroe gen</w>
un s.</w>
uit er
syste em.</w>
men t,</w>
lä s
lop en.</w>
kl ar</w>
in telle
ie k.</w>
heut zutage</w>
gr iff
da t.</w>
d ran
be kommt</w>
Stru ktur</w>
J un
Geor ge</w>
Fäh igkeit</w>
Char les</w>
" Ja,</w>
tra gen.</w>
ständ nis</w>
ries ige</w>
mu ss.</w>
hin zu
durch schnit
cij f
blau we</w>
a s,</w>
Stru kt
Pak ist
Erfol g</w>
Er inner
Bür ger
Afrik a,</w>
1 .
vri end
versch rik
te ur</w>
sl uit
r ikan
p te</w>
n ?</w>
lei der
le ek</w>
gelijk er
g nis</w>
fundamen tele</w>
con su
Schul en</w>
Re volution</w>
L auf
Gr enzen</w>
Din ge.</w>
50 .000</w>
20 00</w>
1 4
0 -
wicht iger</w>
var i
ple z
n e,</w>
lie ben</w>
il leg
her zu
ger aa
e volutie</w>
e ben</w>
e ?</w>
d ung,</w>
c ultur
be dro
ab ge
S h
Lei den
Krank heit</w>
zeker e</w>
verb or
ven tion
te am
st ig
specif ieke</w>
robo t</w>
inter vie
ie ten</w>
i ö
i ge,</w>
gewe sen</w>
geb il
dra mat
Proble m,</w>
K ol
K ir
Dam it</w>
Bi o
3 5</w>
zo iets</w>
z ing</w>
w s</w>
verbr ei
verantwoor delijk
ver sie</w>
n ann
lij st</w>
hele boel</w>
heb ben
ge zien.</w>
del ing</w>
d heid</w>
bu ch
b ü
Regel n</w>
P ass
Indi vidu
Frau en,</w>
wil le
va t</w>
uur ,</w>
tr in
su chen</w>
st aat.</w>
sex u
p ijn</w>
ist ?</w>
impa ct</w>
hiel t</w>
f eld</w>
er end</w>
eil e</w>
diver sit
be halve</w>
Sei ten</w>
Masch ine</w>
Gru pp
- B
w ü
u s.</w>
st ier
open bare</w>
ontde kken</w>
man ier.</w>
kwal iteit</w>
hoe wel</w>
hel pen.</w>
gew eld</w>
gebeur t.</w>
dun kl
compu ters</w>
bro n</w>
außer halb</w>
Ver trau
K al
A spe
2 .</w>
zeg gen.</w>
v issen</w>
ontwor pen</w>
ma and</w>
loo pt</w>
inter ag
ic i</w>
hö her
för der
al en,</w>
L :</w>
Euro pa
Bü cher</w>
z ingen</w>
wor dt,</w>
war t</w>
waar heid</w>
v ent
u s,</w>
str en
sch ütz
re volutie</w>
oo f</w>
onder steun
k a</w>
ie us</w>
hunder t</w>
gro o
gel an
ge makkelijk</w>
ck s</w>
V ier
Prof ess
At om
" We</w>
wor d</w>
verb and</w>
veil ig</w>
u te</w>
u l</w>
ter n,</w>
stan daar
pr aten.</w>
os op
or ig
on nen.</w>
kei t,</w>
k wets
besch av
ber g</w>
a kt</w>
Univer su
H om
H ier
An wen
zwei ten</w>
woll te,</w>
tre ten</w>
ta t</w>
soll ten.</w>
o c
ne te</w>
ma 's</w>
m men</w>
i at
hör en.</w>
geda cht</w>
gebeur ten
ge ef
flie gen</w>
eenvou dig</w>
besl iss
bel ast
The orie</w>
S to
P ra
P last
N et</w>
Int ellig
Gru ppen</w>
Fin anz
Dan ke</w>
Afghanist an</w>
A zi
zei ch
verschill en</w>
tro tzdem</w>
tro t
ti schen</w>
steh en,</w>
sel ijke</w>
noe m</w>
man .</w>
k ten.</w>
hiel d</w>
favor iete</w>
e en.</w>
dest o</w>
cent rum</w>
aar t</w>
Wor l
Te st
Tatsach e,</w>
Mus ik
Medi en</w>
M am
K n
In stru
Er kennt
0 ern</w>
zusam men.</w>
y l
wel cher</w>
tradition ele</w>
sek su
s etzt</w>
min ste</w>
lo s.</w>
lie b
lern en.</w>
interessan t.</w>
ck en.</w>
ch a
bil dung</w>
beginn en.</w>
absolu ut</w>
P il
NA S
Kla ss
J ung
B ill
An dere</w>
1 50</w>
veröffent lich
schön .</w>
om hoog</w>
normal erweise</w>
l aufen</w>
inter act
ij .</w>
gev raa
führ te</w>
dien st</w>
demon str
de -
d o</w>
c te</w>
began nen</w>
außer gewöhn
Y ou
St un
M ann
E p
Det a
verb unden</w>
tre kken</w>
technolog ieën</w>
ster ren
sich .</w>
mob iele</w>
führ t.</w>
f ig
ex per
di o</w>
ben t.</w>
au ff
all en,</w>
zelf ,</w>
vol gen</w>
sla gen</w>
simp ele</w>
schön e</w>
sch üt
sch ätz
s eite</w>
prof it
noe m
m ulti
m in</w>
lo se</w>
lev ende</w>
konn ten.</w>
ig heid</w>
extre m</w>
dui delijk
berü hr
Un ser</w>
S il
R uss
R i
Qu a
Micha el</w>
I den
Ergeb nisse</w>
B on
B en</w>
zit .</w>
z aam
v eld</w>
stel de</w>
schn ei
s ommigen</w>
op mer
net werk</w>
le hr
gr ie
gelern t</w>
ell o
ck er
bij zonder
On s</w>
L etz
Kon fer
Fre und
C am
Bevölker ung</w>
A hn
1 3
wen ig
versu cht,</w>
ut en.</w>
t riff
t oll
reger ing</w>
perio de</w>
möglich ,</w>
ing -
hel pt</w>
grat is</w>
gel of
end s</w>
an ten</w>
a s.</w>
Universit ät</w>
Or t,</w>
L it
Feh ler</w>
F :</w>
C aliforn
änder n.</w>
zu ur
t ief</w>
st a</w>
schri ft</w>
nieuw s
nie dr
met een</w>
l y
k -
ho ort</w>
hel fen.</w>
heb t.</w>
gew alt
geschre ven</w>
eff izi
bewe g
T hom
S icht</w>
Mon aten</w>
Lu ft
Krank heiten</w>
Ge sich
E rei
Be dankt.</w>
"O h,</w>
Ö ff
vlie gen</w>
v it
te s,</w>
te erde</w>
suc ces</w>
ster ven</w>
sel t
pre sent
mo del
kwa m,</w>
kinder en,</w>
jo urnal
ic ag
honder d</w>
c o</w>
c in
an d.</w>
T :</w>
P hon
Mitge fühl</w>
Inform ation</w>
Hab en</w>
Ch icag
ähn lich</w>
wet en.</w>
stie g</w>
st ol
sch al
re den.</w>
proje cten</w>
n un,</w>
gestell t,</w>
g utes</w>
einfach .</w>
damit ,</w>
da ssel
d d
con fer
besonder e</w>
berei d</w>
antwoor den</w>
ander e,</w>
an d,</w>
abhän g
Za hl
Lie bl
Har var
B ur
ün sch
yp othe
wei sen</w>
tijd per
sch wi
oe fen
n ummer</w>
l us
ce pt</w>
all en.</w>
P e
Gen au</w>
Franc is
vlo ei
ver mut
ver mij
ver antwor
um or</w>
teru g.</w>
mehr ere</w>
lie ten</w>
ge ko
ent weder</w>
don kere</w>
del en,</w>
bestu de
be antwor
a ktu
Sol ar
S ha
L at
K ris
E volution</w>
z .
verk ie
ver mei
uit zonder
st he
ssy stem</w>
soll en</w>
r und</w>
pa st</w>
nenn t</w>
mod ellen</w>
kl o
kei t.</w>
heut igen</w>
gu ter</w>
blei ben</w>
bij .</w>
begr ip</w>
be hoor
ander e.</w>
al gorit
T or
Stat ist
S ign
Pro t
Foto s</w>
Auswir kungen</w>
wille keur
wicht ig.</w>
val t</w>
pl om
nor maal</w>
hoff e,</w>
fen om
fan gen</w>
duiz end</w>
dire ct</w>
bestimm t</w>
b at</w>
al d</w>
a se</w>
US -
Ta gen</w>
Mensch heit</w>
M är
Be zug</w>
ver st
teil t</w>
t atsäch
ss er</w>
ont van
nie tig
is ?</w>
gaan de</w>
fantast isch</w>
eer lijk</w>
dit .</w>
ch ron
bu re
bl ü
abhän gig</w>
ab stra
a vond</w>
Wirtschaf ts
Sch w
P :</w>
O pf
DN A-
" Je</w>
wa p
sp ür
sit zen</w>
sch olen</w>
pun ten</w>
pt ie</w>
kre b
ig ste</w>
i a,</w>
groei en</w>
car riè
c el
be z
ak zept
af beel
a ktiv
St elle</w>
M art
Kre ativ
Ein er</w>
Ä n
zurück ,</w>
unter schei
stat ist
selb st.</w>
sah en</w>
sag ten,</w>
proje c
patiën t</w>
n ö
my ster
mar kt
gew ähl
ge geben</w>
einz igen</w>
de u
dar in,</w>
ct ies</w>
ck .</w>
S en
R om
P hän
Man chmal</w>
G al
D un
Chine se</w>
CO 2</w>
Al le
ë n,</w>
waar den</w>
wa ter.</w>
ver tegenwoor
ru m.</w>
ro man
ro ll
pass ieren</w>
mer en</w>
ma ß
ken swer
ho us
her .</w>
eg al</w>
de sign</w>
dan k.</w>
daar mee</w>
cre ativ
Sch rit
S ommigen</w>
F en
zieh en,</w>
we sent
waar d</w>
stuk je</w>
snel heid</w>
rei chen</w>
r ück
op en.</w>
no u</w>
leg gen.</w>
kann st</w>
ië .</w>
fe er</w>
ell en
deel s</w>
d ort
bevol k
b au</w>
acht ige</w>
Sy n
Ro bert</w>
Ne ur
Kar r
vanda an</w>
stu kken</w>
schnit t</w>
s eines</w>
re fle
produ cten</w>
mo eite</w>
ken d.</w>
in c
ij en</w>
ge zeigt</w>
gan g
einfach en</w>
di rec
d ein</w>
at mos
arbei tete</w>
a spe
T i
Schü ler</w>
P rei
M i
H eil
Geb iet</w>
El k</w>
D ing</w>
Amerikan er</w>
20 .</w>
zi en
ver de
t ei
ser vat
schwier ig</w>
ruim te
middel bare</w>
ko ff
gr enzen</w>
goe d,</w>
fo ss
fin anz
drit te</w>
cijf ers</w>
ban en</w>
aut or
Ver halten
Re g
Or ten</w>
Noor d-
Goo g
Face boo
C olle
& g
z oon</w>
ver steck
t s.</w>
pass en.</w>
l t;
ide e.</w>
h -
errei chen.</w>
ern eu
er fun
do ende</w>
beginn en,</w>
W at
T rau
Or te</w>
HI V</w>
Be ding
A ma
. ”</w>
& lt;
wereldwij d</w>
ver nietig
ut en,</w>
kra chten</w>
kle ur
it ion</w>
ip ul
ier enden</w>
i Phon
herap ie</w>
han g</w>
beschik baar</w>
besch rei
at ische</w>
an ?</w>
Produ kt</w>
H un</w>
Bewusst sein</w>
Armu t</w>
0 er</w>
zieh en.</w>
unterschied liche</w>
technolog ie,</w>
sch ol
il .</w>
h it
gestell t.</w>
ger icht</w>
dig en.</w>
da durch</w>
b omen</w>
alle ,</w>
af stand</w>
W ur
Vergan genheit</w>
Mill ion</w>
Kin d
K e
Be gin
Auß er
Au stral
Ö ko
verander en,</w>
vaardig heden</w>
schle chte</w>
risic o</w>
re actie</w>
ogra ph
näh er</w>
kti ven</w>
kan ker
k open</w>
i an</w>
for men</w>
c a
b ,</w>
a do
W aaro
Polit ik</w>
N u,</w>
N ie
Fern seh
C ha
Begin n</w>
wissenschaf t
verander ingen</w>
sym met
spra ch</w>
offensicht lich</w>
nenn en.</w>
k wij
gelijker tijd</w>
geb re
g o</w>
g am
errei cht</w>
er weiter
eben so</w>
democr atie</w>
camer a</w>
We g,</w>
Unter stütz
Umwel t</w>
T ief
Regier ungen</w>
Pri vat
Materi al</w>
K ap
Je des</w>
Experi ment</w>
Afrik aanse</w>
wer t</w>
wen ige</w>
wel k</w>
w in</w>
unglaub liche</w>
pap ier</w>
organis atie</w>
ontmo et
on mogelijk</w>
off en
moeil ijk
lan den,</w>
k ro
ge had</w>
ge führt</w>
funktion ieren</w>
ei g
complex e</w>
brit ann
ampag ne</w>
Z it
Be dürf
zusam men,</w>
war d</w>
w et</w>
verur sach
un t</w>
tr enn
or den
on gelof
mag net
lin k
le y</w>
kör per
hin ,</w>
h ü
genann t</w>
fe st,</w>
entfern t</w>
e co
dig de</w>
ch s
br eit
bood schap</w>
belangrijk .</w>
be denken</w>
ah n</w>
U hr</w>
So hn</w>
Mor gen</w>
K amp
In se
G la
Eben e</w>
Beispiel e</w>
um mer
simp el
s "</w>
mon di
ing ?</w>
ik al
herinn er</w>
goed kop
enz .</w>
e volution
dan ke</w>
beg re
ar gu
W aar
Ver ständnis</w>
Sch o
O ver
Entwickl ungsl
Bü hne</w>
B us
At mo
100 .000</w>
z inn
vroe ge</w>
visu ele</w>
verb un
ver tel</w>
v ende</w>
sp ire
ië ,</w>
it ,</w>
is mu
ing er
ig ?</w>
ie ken</w>
h nen</w>
fin de</w>
experi men
einfach ,</w>
ei ch
ble ek</w>
ber g
behandel ing</w>
analy s
ach ten</w>
Wel ,</w>
Tij dens</w>
T ag,</w>
On der
OK ,</w>
Man che</w>
Kor e
Kom plex
Infra stru
&amp ;
y ber
war m
verwen det</w>
ver mittel
sp ru
s imul
m ill
lang sam</w>
kur z
klin kt</w>
keu ze</w>
k waa
k il
j a.</w>
isch e,</w>
hou ding</w>
ho ger</w>
ge zin
g ste</w>
g ou
ent en,</w>
de t
ation en.</w>
af rikan
Technolog ie,</w>
Stan dar
Sp r
Re gen
Be wei
- F
waaro ver</w>
vor ige</w>
verbr eit
ver letz
soll te,</w>
so bald</w>
slach toff
sch w
not wen
land se</w>
gr ü
fre i</w>
den ken:</w>
ch ines
Su che</w>
Sau er
Nach richt</w>
Konze pt</w>
Hoe veel</w>
Aufmerksam keit</w>
Amerik anen</w>
A c
6 00</w>
vo llen</w>
versch win
ver leden</w>
tra gen,</w>
telef oon</w>
stu de
sp o
mit ten</w>
ip edi
hier van</w>
gelei d</w>
geb o
frü her</w>
f ähr
en de,</w>
ck en,</w>
c ent</w>
blei bt</w>
beteken is</w>
besch lo
be ge
af ge
aa s
V ari
TED x
T ür
G rie
1 ,</w>
zet te</w>
ung spro
tel ijke</w>
t aak</w>
scher m</w>
pr aat
m änn
ist en,</w>
il lu
ie ?</w>
handel t</w>
f -
einz ig
bacter iën</w>
baar heid</w>
an e</w>
T yp
T -
Nach richten</w>
Lin ie</w>
Künst ler</w>
Ira k</w>
Iden tit
H under
F ehl
wirkl ich,</w>
wieder hol
werkelijk heid</w>
volle dige</w>
v el</w>
ur sprün
un t
sch en.</w>
ontwikkel d</w>
neu n</w>
ill en</w>
iden tit
größ ere</w>
gesch rieben</w>
den e</w>
de s.</w>
Wik ipedi
Wachst um</w>
Person en</w>
No ch</w>
Hoffn ung</w>
B at
" Hoe</w>
vor stellen</w>
vo eren</w>
van ,</w>
po st
on zicht
no or
mij ,</w>
machin es</w>
lin ker
kon om
hoe k</w>
had den.</w>
hab t</w>
geb oor
frü hen</w>
fal t</w>
ell ,</w>
eben falls</w>
d je</w>
ct u
bewe gen,</w>
Program m</w>
Prinzi p</w>
N ich
J ob</w>
Gesch windig
voort dur
um ?</w>
st on
spe elt</w>
ree ks</w>
produ ctie</w>
p al
onder ne
mö chten</w>
m ati
kei ten</w>
j ün
ies t</w>
hoe ven</w>
größ eren</w>
ger a
genoe m
ge con
ent hous
e se</w>
de ?</w>
be hulp</w>
b t.</w>
au .</w>
all ge
W ider
J er
Groß britann
Gen e</w>
D ra
ä llen</w>
zul t</w>
verbin den</w>
to ch?</w>
teil en.</w>
technolog ische</w>
op t
ontde kt</w>
on danks</w>
k oor
i a.</w>
gemeensch appen</w>
erinn ere</w>
entwickel n,</w>
eigen es</w>
de s,</w>
al e,</w>
Zwe i</w>
Te am
Sch ei
L au
En g
1 000</w>
ü r</w>
äh e</w>
wus ste,</w>
tran spar
st aan,</w>
s al
re chn
oppervla k</w>
n ik
lan g,</w>
j am
inst all
innov atie</w>
he .</w>
gel s</w>
führ t,</w>
finan ciële</w>
besl is
bel ieb
be kijken</w>
Ne w
Mon at</w>
Mex ic
Hän de</w>
F er
5 .</w>
z w
wer kt,</w>
vroe ger</w>
vrij heid</w>
treff en.</w>
so ftware</w>
schö nen</w>
pri v
posit ie</w>
mo bil
j ur
ic e</w>
hu is,</w>
g d.</w>
elekt ro
ding s</w>
dar f</w>
brau chen,</w>
ber .</w>
benutz t</w>
beein druck
Wei se,</w>
Stu dien</w>
Spez ies</w>
N ehmen</w>
Möglichkei t,</w>
M ei
L ach
Har telijk</w>
Frau ,</w>
F le
D eu
Amerik a.</w>
&g t;
z. B.</w>
vooruit gang</w>
te mp
o ka
le gen,</w>
kür z
kommun iz
k einer</w>
ha b</w>
ent je</w>
der en,</w>
bie den</w>
am o
Per spe
Nam e</w>
L iste</w>
Kolle gen</w>
Isra ë
y woo
veränder t.</w>
versu che</w>
verb ru
ster ke</w>
spraa k</w>
school .</w>
realis eerde</w>
ptem ber</w>
polit ischen</w>
nie man
ne gen</w>
ne e,</w>
lie f</w>
ier end</w>
her unter
he en.</w>
gere ed
gebouw en</w>
ge wor
bren gen,</w>
be finden</w>
an ischen</w>
For men</w>
Chan c
Bild schir
Bezieh ungen</w>
A pp
A R
" He
voorbeel d.</w>
u p
real iteit</w>
proc ent.</w>
oploss ingen</w>
nach ts</w>
man n</w>
k aufen</w>
h aus
gespro ken</w>
for d</w>
d ung.</w>
M ess
Lan d,</w>
K an</w>
G han
E m
äu ser
Ö l</w>
wis kunde</w>
wir tschaft</w>
versch u
tro uwen
stell ten</w>
so genann
sel e
r ijk</w>
n ein,</w>
m is</w>
l ungen</w>
kt oren</w>
jetz t,</w>
in en</w>
gr enz
ge sehen.</w>
fäll t</w>
bep alen</w>
al gemeen</w>
Ste u
S ar
Mus eum</w>
M icro
Kamp f</w>
G at
zor gt</w>
will .</w>
we d
ver beel
stimm t</w>
spra k</w>
so f
pat ronen</w>
neur onen</w>
natür lich,</w>
mu ur</w>
gewo on
gevol gen</w>
door .</w>
bemer kenswer
be dankt.</w>
af fe
Ver sch
The or
Syste me</w>
Konfl ik
Her z</w>
Fir men</w>
Ander son:</w>
" The</w>
äu men</w>
wel ijk
wa s?</w>
vraag :</w>
verdi enen</w>
v lucht
ut z</w>
techn ische</w>
stoff e</w>
stell t,</w>
st im
ru p
pro vis
polit ie
plan t
onderwer p</w>
lo ssen.</w>
leef tijd</w>
gi ft
fre u
er laub
draa it</w>
bis her</w>
ander en,</w>
Wor te</w>
V at
Thom as</w>
M üt
M au
I mm
Engel s</w>
Bo st
4 .</w>
00 .000</w>
übr igens</w>
tra f</w>
soll ten,</w>
patro on</w>
oll ywoo
mat hemat
luist eren</w>
lo ze</w>
la ss
k wan
itä t,</w>
gew an
geda chten</w>
gebra cht,</w>
fr on
enig en,</w>
d ell
Um welt
Ty p</w>
Tem perat
T ier</w>
St aat
So ftware</w>
P la
Him mel</w>
Famil ien</w>
F ab
De press
3 D-
wer ke</w>
ver füg
vall en.</w>
toekom st.</w>
r ein</w>
polit ische</w>
mu z
le un
ic us</w>
i d.</w>
hör te</w>
ge ï
f on
f la
et er
erzähl te</w>
eil en</w>
bewust zijn</w>
activ iteit</w>
Sch n
Lös ungen</w>
Kont in
Jah re,</w>
Fortsch rit
Arti kel</w>
Aar de</w>
A us</w>
" Als</w>
to en
taus end</w>
t wij
stop pen.</w>
sat ell
s heid</w>
re den
ont staan</w>
mor ele</w>
leben s
kwa m.</w>
interess iert</w>
ie me</w>
hal en,</w>
ges loten</w>
gebruik te</w>
erklär en,</w>
beslis singen</w>
berei ken</w>
be ur
be d</w>
S ,</w>
Medi zin</w>
Mathemat ik</w>
K ern
Interess e</w>
H aar</w>
Erfahr ungen</w>
D ie
vrij will
uit vin
st äd
posit ieve</w>
ongeloofl ijke</w>
o ï
läu ft</w>
gespro chen</w>
g aten</w>
er d,</w>
buur t</w>
a dig
Sach e.</w>
Innov ation</w>
D ort</w>
Bakter ien</w>
B rie
verd wijn
ung er</w>
p ij
over een
l ern</w>
kan t.</w>
ge ë
fol gen
f ijn
cultur ele</w>
berü hm
Wa hl</w>
Tra dit
Institu tion
G a
B ri
äus er</w>
wichtig sten</w>
vrij e</w>
vlieg tuig</w>
versu chte</w>
tot yp
t s,</w>
t oon</w>
st rei
schau en,</w>
sch wa
sah ,</w>
men ?</w>
j enigen,</w>
ing s</w>
genom men,</w>
fle xi
ff en,</w>
e "</w>
dollar .</w>
c it
bin .</w>
bar ,</w>
b .</w>
am i</w>
alter nat
Sch at
Gesch ä
G ri
Chin a,</w>
C .</w>
we .</w>
ver kl
ten dlich</w>
stä b
ster se</w>
st uren</w>
so wie</w>
secon den</w>
sch en,</w>
mir .</w>
me :</w>
lin e-
lich aam
ker n</w>
he den,</w>
gefun den,</w>
et e,</w>
du ur</w>
de ur</w>
cr imin
begr enz
be kijken.</w>
ant ie</w>
ag ram
Veränder ungen</w>
V ro
S it
Oka y.</w>
L ap
Ir an</w>
Dis kuss
. ,</w>
ö l
we zen</w>
ver en</w>
tot dat</w>
st appen</w>
st aat,</w>
sp it
soci aal</w>
sam m
s äch
n is,</w>
mp fen</w>
meh r,</w>
m ich.</w>
kra chtig</w>
k ab
entwickel t,</w>
dich ter</w>
de te
cre atieve</w>
ck en
biolog ie</w>
at om
amerikan ische</w>
Re gel</w>
Nahr ung</w>
Mit glie
Jap an</w>
Eig enlijk</w>
Au ge</w>
Ar m</w>
4 ,</w>
. 00
zoe ken.</w>
voor wer
ver ga
v e,</w>
teil en,</w>
sätz lich</w>
sug ger
stro om
speci ale</w>
robo ts</w>
proble men.</w>
ontde kten</w>
nach ,</w>
is lam
individu ele</w>
iet s.</w>
häl t
gespre k</w>
fühl te</w>
ein halb</w>
cij nen</w>
belei d</w>
aal d</w>
Uit eindelijk</w>
S eh
Person ,</w>
Je de</w>
J ij</w>
E is</w>
Bü ro
Ar ch
2 ,</w>
- ,</w>
wa gen</w>
w ieso</w>
richt en.</w>
onder schei
neh me</w>
naar toe</w>
ment ale</w>
kle ur</w>
k ken
je ?</w>
il en</w>
hin aus</w>
heel al</w>
h inder
gest al
gemeensch app
f f</w>
daar voor</w>
cor ru
behoor lijk</w>
beg eister
be dacht</w>
Stam m
Sekun den</w>
Oze an</w>
N icht
Dank je
" Es</w>
zurück zu
wass er
vla k</w>
te ste</w>
t her
spir itu
sp an
ries igen</w>
p ijn
kt or
kan t,</w>
ier te,</w>
han del</w>
gre ss
gev onden.</w>
gan zes</w>
e y</w>
dra cht</w>
co de</w>
ber icht
b ook</w>
at ori
at ies,</w>
alt ung</w>
Z un
Ver sion</w>
To ch</w>
Re sult
Or gan
G a</w>
Famil ien
Dor f</w>
" Waarom</w>
ß t</w>
wa ter,</w>
verander de</w>
universit ei
typ e</w>
ster ren</w>
sta d.</w>
s ende</w>
ktion s
ie gel</w>
idem ie</w>
hu man
hor en.</w>
gebeur d</w>
fahr en.</w>
dig er</w>
W ett
Teil en</w>
Re cht
Mob il
E- Ma
Dur ch</w>
zit ten,</w>
zit ,</w>
we zen
vreem de</w>
vo c
verk eerd</w>
prakt isch</w>
on nen,</w>
nach denken,</w>
k je</w>
ij ,</w>
ier ter</w>
gel dt</w>
fre und
ein gesch
dor p</w>
dassel be</w>
d ste</w>
d ri
creë ren.</w>
bil den</w>
bet alen</w>
appar aat</w>
al iteit</w>
ac k</w>
aan s</w>
Unter such
R ah
Ie mand</w>
G lü
Fähigkei t,</w>
F ak
Cit y</w>
B is</w>
äch e</w>
z aal</w>
wissenschaf tliche</w>
wet ten</w>
st onden</w>
st oel</w>
ple eg
p og
kon stru
kl u
h open</w>
ge komen</w>
gan g.</w>
ff en.</w>
erfolgrei ch</w>
e cht.</w>
c ru
c lu
Meer es
M ehr
Inter a
Ärz te</w>
verzam elen</w>
to cht</w>
t ;</w>
se ss
sch t</w>
sch i
mom ent
materi alen</w>
m utz
letz tes</w>
le eft</w>
le bt</w>
j eu
iss en.</w>
immer .</w>
ief ,</w>
gew al
enzovoor t.</w>
be en
b log
St är
Spit ze</w>
Pun kte</w>
Pro gramm
Nor d
Ma ss
L er
L ar
Arbei t,</w>
Ap pl
8 .</w>
5 ,</w>
z t,</w>
win z
verlie s</w>
ver sn
re stauran
re par
pa kken</w>
p aar
moder nen</w>
meer dere</w>
man ipul
ma ßen</w>
lich t.</w>
lei dde</w>
konn ten,</w>
gl im
f ur
ex pon
erinn ern</w>
er st
bestu ur
art ige</w>
Zeit punkt</w>
W ü
Ressourc en</w>
Pflan zen</w>
Pap ier</w>
Entwickl ungs
B lo
ß en.</w>
universit eit</w>
toe vall
t het
sein ?</w>
r in
met af
la b</w>
kel s</w>
jeman dem</w>
gehör t,</w>
geb rau
geb e</w>
ge kommen</w>
erinn ern,</w>
collega 's</w>
ch ar
Sin d</w>
L ang
Ge we
Einst ein</w>
Bra zil
z y
z aten</w>
win kel</w>
verander d</w>
sch rän
ou d.</w>
le g</w>
kwest ie</w>
grei f
ge sto
daag se</w>
bre ch
bewe gt</w>
b al</w>
automat isch</w>
armoe de</w>
W :</w>
Tra in
St ar
Sat ell
Gra f
Far be</w>
F ün
Er zähl
8 ,</w>
7 5</w>
ü cken</w>
ze :</w>
w ander
voorsp ell
uit dru
ter n.</w>
schlu ss</w>
ontde kk
ol oog</w>
medi cijnen</w>
lij nen</w>
kam er
inter net
gesch rie
fa ct
bre chen</w>
boo m</w>
bei .</w>
be steden</w>
al it
Ste ve</w>
Ma ssen
Ge st
Er klär
C E
A dam</w>
wet en,</w>
voor ,</w>
ver vuil
stro om</w>
stem men</w>
plast ic</w>
n issen</w>
min im
k ?</w>
j ene</w>
is ol
igkei t,</w>
hör t</w>
her aus</w>
gebruik t.</w>
errei chen,</w>
e en,</w>
doo d.</w>
din osau
di stri
d ungs
d den</w>
bese fte</w>
Tim es</w>
T an
Sch wier
S ci
O ver</w>
N ähe</w>
Mit arbei
0 ,
" E
änder t</w>
weiter hin</w>
wahr ?</w>
voor bij</w>
verander d.</w>
ruim te.</w>
mir :</w>
li ck
le zen.</w>
lach en</w>
geda an,</w>
gab ,</w>
et c
dre ht</w>
da bei,</w>
d ol
cris is</w>
bouw en,</w>
bor st
blij ven.</w>
bet riff
benutz en,</w>
Z entrum</w>
Sch lag
N an
Leu ten,</w>
Daar na</w>
Ch irur
B ang
ät zen</w>
ß en,</w>
zul ke</w>
zei gte</w>
ze e</w>
we z
veilig heid</w>
tä glich</w>
stän de</w>
ro n</w>
recht s
op zich
o ze</w>
m am
lab or
klein ere</w>
ie u</w>
gesch o
gab .</w>
g ist
fühl t</w>
fil o
dro om</w>
di schen</w>
d ieren.</w>
bl ik</w>
berei ken.</w>
be vat
Ziv ilis
Spa ß</w>
Medi zin
M R
Jap an
J ungen</w>
H or
Gesch le
Ges etz</w>
zu kün
wiss en.</w>
voor komen</w>
perfe cte</w>
mot or
m :</w>
keu zes</w>
kam p
hl e</w>
ger ä
gemen e</w>
buch stäb
au ft</w>
arbei tet,</w>
act ief</w>
ac cep
Waaro m?</w>
W icht
T ru
Stra ßen</w>
Sinn e</w>
Face book</w>
F ant
E th
Behand lung</w>
woll te.</w>
ver an
un beding
stu dent</w>
spiel en,</w>
schl ü
pro b
princip e</w>
onderzoe ken</w>
mati g</w>
k oe
geh e</w>
gebeur t,</w>
fer tig</w>
f allen</w>
em pf
con stan
con cept</w>
burger s</w>
ber gen</w>
be heer
ant en
an wen
Y o
Wör ter</w>
St unde</w>
Schön heit</w>
Sch impan
L og
K eine</w>
I t
Gel u
E erst</w>
Ama zon
wo hin</w>
vor stell
verwen den,</w>
samenlev ing</w>
ro bot
perfe ct</w>
men d</w>
lo sen</w>
lie ß</w>
j ahr
in zicht</w>
ie :</w>
ha m</w>
experi menten</w>
ent wer
el en.</w>
cap ac
bat ter
Tran s
I ran
Han del
F lei
öffent liche</w>
Öff ent
win d</w>
weiter es</w>
voortdur end</w>
tro ts</w>
t huis
spä ter,</w>
sch we
re ch
na denken</w>
lei den.</w>
ken ne</w>
k ont
har d
gewel dig.</w>
gevraa gd</w>
geschie ht</w>
genom en.</w>
form ul
er ?</w>
elekt r
diagno st
ct ieve</w>
bij voorbeeld,</w>
betra chten,</w>
begrij pen,</w>
be sor
Wer te</w>
T reib
T au
Se x</w>
S ex
Lon don</w>
Den k
B om
200 8</w>
ver tre
ver ster
un gen
u wel
trot z</w>
t olle</w>
sn ij
o ké
natür liche</w>
mer ,</w>
lös en.</w>
lie ver</w>
lan c
ken ."</w>
kam .</w>
gel o
energ ie.</w>
da ch
c ognit
b y
a d</w>
Washing ton</w>
Sp an
S an
Produ kte</w>
Netz werk</w>
N etz</w>
M ir</w>
Design er</w>
B all
3 .</w>
Ü ber</w>
vra gen.</w>
tro p
slim me</w>
si den
plane et.</w>
ontwikkel de</w>
on en.</w>
nicht ?</w>
na he</w>
koo p</w>
k ut
itä ten</w>
ie ven</w>
hu iz
get ö
ge arbeitet</w>
ele gan
da l
conc entr
arti kel</w>
Sü da
Phil osop
Organis ation</w>
Jahr .</w>
F est
ön t
verk eerde</w>
unterschied lichen</w>
te s.</w>
schl imm
sch lag</w>
re präsent
radi c
ol ie
l äch
interessan t,</w>
il ,</w>
ie ts
hät te,</w>
fü gung</w>
fu hr</w>
fr ist
er ung</w>
dre ven</w>
au ch.</w>
arbei te</w>
We ge</w>
Ver gleich</w>
Männ ern</w>
Mit tel</w>
Medikam ente</w>
Hir n
Gra d</w>
E D
äl ter</w>
web site</w>
ver war
ver vo
ver le
ter men</w>
sen s
selb st,</w>
schrij ven.</w>
rich ten,</w>
p s
p hen</w>
organis aties</w>
nutz en.</w>
neu er</w>
mo cht</w>
mal .</w>
lo u
ler en,</w>
kaar ten</w>
ervar en</w>
dr än
da chten,</w>
c li
b t,</w>
auss ehen</w>
ar ia</w>
Wass er,</w>
Mom ent,</w>
Kreb s
Kamer a</w>
K lin
Gesund heit
Gei st</w>
E hr
19 4
. S.</w>
wus sten</w>
we s
voel en.</w>
ss el</w>
publie ke</w>
or e
mö gliche</w>
mm ing</w>
lin e
itä t.</w>
in tro
ig sten</w>
ier en?</w>
het zelf
heb ,</w>
gehör t.</w>
fer tig
f ro
diep e</w>
bril j
br an
bil d</w>
an im
all en
aan tre
Ver fügung</w>
T un
Spe kt
Re cht</w>
E d
D rei
Al gorit
A ch
y a</w>
vermut lich</w>
tijdper k</w>
t rei
schre cklich
r ijke</w>
probe erden</w>
po dium</w>
ne ten</w>
n ul
mer k</w>
kool stof
kel n</w>
j et
ih nen,</w>
haupt säch
gebre k</w>
geb oren.</w>
f ließ
f eu
e p</w>
e ch
dro men</w>
conc urr
bes lu
be zeichn
be oor
be hau
ba res</w>
arbei tet
ab il
a stron
a :</w>
Zu stand</w>
War um?</w>
Wahr neh
Stu den
St rei
Sch ool</w>
Lan des</w>
Kön ig
He b</w>
Gol f</w>
D en</w>
CO 2-
" Warum</w>
wi t</w>
vol doende</w>
verander ing.</w>
ver ont
ver da
ti ent
st isch</w>
st enen</w>
spre ken.</w>
sl im</w>
s kop
rec ente</w>
moe ders</w>
mis lu
l ijn
kop p
inst itu
ho hen</w>
gewel d
gesch ick
fa sst</w>
enti ële</w>
dig en,</w>
cru ci
be wir
be teil
an tische</w>
an ge</w>
al t.</w>
Will i
Unterschie de</w>
S äu
Re stauran
Nahr ungs
M el
Ler nen</w>
K ilometer</w>
K affe
Ger ät</w>
Br enn
B erg
Ale x
1 .000</w>
zoe k
za ken.</w>
wetenschapp er</w>
voor deel</w>
verbor gen</w>
va te</w>
un sicht
technie k</w>
te gelijkertijd</w>
relig iö
rec lam
re u
ra ken</w>
lij den</w>
kra chtige</w>
jen igen</w>
ive au</w>
in tu
impan se
erlau bt</w>
er halten.</w>
con text</w>
bedrij fs
Ver lu
T h
T ab
Proje kte</w>
Mar kt
H ör
Ern ähr
Entschei dung</w>
D y
Chan ce</w>
An gel
- jähr
" Wenn</w>
ß ,</w>
y to
wer kten</w>
vreem d</w>
tij den</w>
star ten</w>
sp ort
schoon heid</w>
rij den</w>
pa d</w>
op -
mid dell
lichkei t,</w>
ko sm
k olle
if ic
hoo gte</w>
ger ei
ge m</w>
ge -
g ä
fühl en,</w>
er öff
ein d
dr at
c ra
br onnen</w>
behoe fte</w>
b un
anfan gen,</w>
To des
Stad t
Me chan
Kat astrop
Di mens
C ra
Algorit h
ó ó
wei se,</w>
ver ein
um :</w>
t sel
schap .</w>
sch on,</w>
ru st
plaat sen.</w>
p ens
nen ne</w>
n is.</w>
ip pen</w>
industri ële</w>
ik er,</w>
gew iss
getro ffen</w>
gesch ehen</w>
genom men.</w>
gebruik ten</w>
ge werkt</w>
fol gen</w>
ff er
et t</w>
en teel</w>
en ...</w>
du ik
dig heid</w>
diesel be</w>
dan ,</w>
dagelijk s</w>
da ß</w>
ar tig</w>
Z iele</w>
Verhalten s
Sozi al
S i
On t
O k,</w>
Met ap
Kun nen</w>
K lei
Fall s</w>
ä cht
zet ten,</w>
z wa
wirtschaf tlichen</w>
wieder um</w>
weiter ,</w>
waar voor</w>
vra gen:</w>
vol gen.</w>
vi ellei
ub e</w>
trä gt</w>
teil ung</w>
stel sel</w>
steh t.</w>
st in
reg ul
n om
minde stens</w>
me ten</w>
me del
lever en</w>
ko sten.</w>
k op</w>
ig ung</w>
heb .</w>
hab en?</w>
genaam de</w>
fa c
er bij</w>
ei den</w>
du w
d ieren,</w>
cij fer
bo er
anfan gen</w>
Z eh
Universit ä
K aliforn
Jo urnal
In n
I S
F ach
Dollar .</w>
Bru st
Antwor ten</w>
2 1</w>
’ s</w>
zei g
weiter en</w>
vor ig</w>
veränder n,</w>
ver g
unbeding t</w>
te ert</w>
su s</w>
so zu
so ur
samen werking</w>
ontmo ette</w>
on en,</w>
mass a</w>
land bouw
kun nen.</w>
kt :</w>
ion en,</w>
ij t</w>
ig t,</w>
her stellen</w>
h aar
gl icht</w>
gegan gen</w>
fal sche</w>
en nen</w>
dien sten</w>
de genen</w>
da cht,</w>
brau chen.</w>
b oor
am e</w>
alis ierung</w>
W under
W and</w>
Verantwor tung</w>
Twit ter</w>
R oll
Proz ent.</w>
M ont
Ges etz
G P
Fre unden</w>
B äume</w>
Amerik a,</w>
All een</w>
9 9
ü l
än de</w>
woor den,</w>
wit te</w>
wissenschaf tlichen</w>
wichtig ste</w>
wa cht</w>
w om
w and</w>
vert ellen,</w>
ver bo
ung :</w>
ton ,</w>
te gelijk</w>
st oor
slu iten</w>
s ön
pro ber
of wel</w>
möglich erweise</w>
möglich .</w>
moe der
miljar den</w>
metho de</w>
la pt
ir gen
in gen
ge maakt,</w>
ga t</w>
ga s</w>
fühl e</w>
c at
aus ?</w>
Z au
Stro m</w>
S mit
Krankenh aus</w>
Indi a.</w>
Im pf
5 %</w>
200 7</w>
- jarige</w>
" ]</w>
zo genaamde</w>
wei s
war t
ver lei
sp un
rel aties</w>
produc eren</w>
omstandig heden</w>
mo slim
le ger</w>
lat er,</w>
j un
in kom
i op
ho he</w>
hil fe</w>
g ut
führ ung</w>
er es</w>
beper k
al gemene</w>
ah ,</w>
aanpa k</w>
Verbin dungen</w>
Tatsach e</w>
Schri ft
S eine</w>
Konfer enz</w>
Gr en
An aly
änder n,</w>
zo g</w>
z hei
win nen</w>
ver onder
ung ?</w>
tel kens</w>
taf el</w>
t aten</w>
syste mat
steh t,</w>
sa ß</w>
olog ie,</w>
o gen
nieuws gier
nach .</w>
lern te</w>
ist er</w>
im it
ie el</w>
fäh ig</w>
fre qu
f ic
ar i</w>
Zu erst</w>
Ver hält
S ie.</w>
S ehr</w>
Rea ktion</w>
N et
N ein.</w>
Kön n
Kan n</w>
Jahr ,</w>
Groß teil</w>
Gro te</w>
Gr un
Fra ge:</w>
Fol gen
Dankje wel.</w>
Än der
zu zu
zu gän
vrouw en.</w>
vro uwel
vraa g.</w>
voor spel
vi rus</w>
v eer
su cht</w>
sc ann
ra pp
moeil ijke</w>
ma x
intu ï
igkei t.</w>
ig nor
ier tes</w>
hin ein
geb or
g ünst
fäll e</w>
f tig</w>
erklär t</w>
en gl
dro h
di enen</w>
buchstäb lich</w>
bo dem</w>
best aan
baby 's</w>
bab y</w>
OK .</w>
Leiden schaft</w>
Gefühl e</w>
Gefühl ,</w>
B G:</w>
zieken huis</w>
zet t
wunder bare</w>
wetenschap per
wei b
wak ker</w>
voe gen</w>
verstan den</w>
verl oren.</w>
ver ei
treff en,</w>
t ens</w>
rei ch</w>
pass ierte</w>
p il
o ber
no g,</w>
molecul en</w>
minist er</w>
me er,</w>
le erd</w>
k ein
hei ten,</w>
h an</w>
fin det.</w>
ervar ingen</w>
erkenn en.</w>
entwickel n.</w>
duur zame</w>
dre h
ch impanse
centr ale</w>
be wahr
be dien
b iz
an a</w>
a st</w>
Ver letz
Obje kt</w>
Metho de</w>
Drit tel</w>
Bi ologie</w>
B ran
7 .</w>
" Dat</w>
zie kten</w>
y ?</w>
waar .</w>
vro eg
vre de</w>
vide o
verwij der
u z
sym b
sn elle</w>
sicher lich</w>
sel ber</w>
re de</w>
pre stat
perspect ief</w>
op pel
nik s</w>
n an
n :</w>
makkel ijker</w>
ku ment
kra ft
hei m
gezondheids zorg</w>
gezon d</w>
ge zien,</w>
er schaffen</w>
enthous ia
em in
eigen schappen</w>
duur t</w>
demo krat
de cken</w>
bij en</w>
besch re
außer dem</w>
aar de.</w>
We sen</w>
Viel falt</w>
St and
S and
Regi on</w>
Opf er</w>
NAS A</w>
Maschin en</w>
Kinder .</w>
I ll
G or
E mp
Daar door</w>
Bü ch
Be sonder
wicht igen</w>
wez ens</w>
wa pen
w ünsch
vrouw en,</w>
voll kommen</w>
pra chtig</w>
pagin a</w>
p ort
op win
onder delen</w>
n ab
mens heid</w>
kt ?</w>
kan sen</w>
her aus.</w>
gewis se</w>
genutz t</w>
g ilt</w>
financ ier
et ten</w>
er stes</w>
e- ma
c le
blin d</w>
besch leun
began n,</w>
be kende</w>
be dan
an on
Or ig
Her zen</w>
Elekt ro
Dru ck</w>
D H:</w>
Chin a.</w>
C :</w>
19 5
' -
zusammen zu
woor den
wel t</w>
verwa chten</w>
verwa cht</w>
verk eer
te x</w>
str ali
lin ken</w>
lichaa m.</w>
kel en</w>
kan te</w>
irgen det
in e,</w>
ier te.</w>
hersen en.</w>
gel ,</w>
g al
fil ms</w>
ehr lich</w>
eeu w.</w>
bess eren</w>
alis mus</w>
Zusammen hang</w>
Zu schau
Z elle</w>
V alle
Schl af
Glau ben</w>
Eigenschaf ten</w>
E ing
Din osau
Deu tsch
Char ak
verantwoordelijk heid</w>
ver lassen</w>
ru h
re age
r unter
olog isch</w>
o ffen</w>
mondi ale</w>
mom enten</w>
ist en.</w>
iss en,</w>
hil ft</w>
gig antische</w>
geschieden is.</w>
genet isch</w>
er s
ent en.</w>
d einen</w>
best aan.</w>
ben ut
ar ten</w>
Sti mm
S ing
Re de</w>
Man hat
In sel
Gehirn s</w>
Er leb
Engl isch</w>
Bro w
B I
An dre
st il</w>
sle ut
sei en</w>
schrei ben.</w>
schl af
sammel n</w>
pre sident</w>
pre sen
obje ct</w>
no ch
mer kt</w>
mal ige</w>
m m</w>
kop en.</w>
kl as</w>
ie man
gen t
gegev en.</w>
ex tra
el les</w>
el en,</w>
diversit eit</w>
deel tjes</w>
bl e</w>
bestu deren</w>
aut on
auf re
at t
We sent
P en
Milliar de</w>
Lauf e</w>
Kor rup
Kl ein
Gesell schaften</w>
Freu de</w>
Fra ge.</w>
E motion
Da bei</w>
B log
Aben d</w>
2 1.</w>
ö t
zie ht</w>
wel chen</w>
versch ijn
verge ten</w>
ter en,</w>
spar en</w>
school ,</w>
reag eren</w>
omm er</w>
no dig,</w>
no dig
le ssen</w>
ië ren</w>
ist ischen</w>
i :</w>
histor ische</w>
han g
haal de</w>
geda cht,</w>
er füll
er achter</w>
ent ies</w>
ent ie.</w>
eeu w
br ein.</w>
ateg or
arbei tet.</w>
an sehen,</w>
Zo u</w>
To ilet
T ag.</w>
Relig ion</w>
Posit ion</w>
Mü ll
Micro so
Inter vie
Gew inn
Führ ungs
Flugzeu g</w>
Far ben</w>
Ent deck
E he
Bra sil
Arbei t.</w>
Ar zt</w>
An satz</w>
. .</w>
zeu g
wei ger
we b</w>
ver m
un ge
stra hl
ster f
spra ken</w>
spiel e</w>
spel en,</w>
simp el</w>
sch mer
or de</w>
oor log
on middell
ne y</w>
letz tendlich</w>
ku st</w>
ig te</w>
h oor</w>
geb rei
ge probe
frag ten</w>
extre me</w>
enz ,</w>
entwickel ten</w>
ein iger</w>
al -
Z ie</w>
U N
Sü d
Sch iff
R ä
P ha
O ce
M ac
Ihn en.</w>
Europ ese</w>
C hil
Bür ger</w>
Bil d,</w>
Bi enen</w>
Au strali
An ders</w>
2 7</w>
2 1
önt gen
z t.</w>
y pen</w>
vert eld</w>
ver stand</w>
ter echt</w>
ten minste</w>
su chen,</w>
sterren stelsel
ste cken</w>
st ück
spezi f
schrei ben,</w>
ru g</w>
pro totyp
niet s.</w>
l ingen</w>
kk ig</w>
irgend wann</w>
inter pret
inter actie</w>
hän gt</w>
hunder te</w>
her stellen.</w>
hauptsäch lich</w>
haf te</w>
ger icht
ge s,</w>
ge heel</w>
fru str
frei en</w>
er ster</w>
ent lang</w>
en ".</w>
ell .</w>
dru kken</w>
chirur g
T ür</w>
T isch</w>
Sch wer
Sch nit
On line-
MI T</w>
Le on
Kom pon
Job s</w>
Frei heit</w>
Forsch er</w>
F la
Be ob
7 ,</w>
ß .</w>
wij zig
weef sel</w>
wahr e</w>
vol g
verbin ding</w>
ver zeker
ver stän
ver ho
v lu
s es</w>
s '</w>
or s</w>
on ein
mä cht
mid den
le sen.</w>
kur ze</w>
inder daad</w>
hoog ste</w>
hin .</w>
had den,</w>
h t
er schein
er halten,</w>
entschie d</w>
dich te</w>
comple et</w>
br id
beel d
Zeu g</w>
Wett bewer
Wel ke</w>
Ver k
Kom bin
Ih res</w>
E ver
Bau m
Arab ische</w>
9 9</w>
üt zen</w>
ö konom
wer d,</w>
wen s</w>
wen igen</w>
vol wassen</w>
ver .</w>
ve .</w>
tient allen</w>
tegen over</w>
star ke</w>
sp oor
ru g
ri z
pr ik
pa kt</w>
orig in
ontwer p
kost et</w>
in komen</w>
in -
gron d.</w>
g st</w>
g as
extre em</w>
bi bliothe
be antwoor
au ,</w>
ander s,</w>
alitä t.</w>
ah ar
Worl d</w>
Wass er.</w>
S amen</w>
R ies
Mid den-
Liebl ings
Ge d
Dinosau r
D aten,</w>
Brit se</w>
Archite ktur</w>
–  
zwe m
wa hr</w>
vogel s</w>
veroorzaa kt</w>
verk open</w>
ver lan
ver gan
un gewöhn
to el
syn thet
spro ble
sei ts</w>
sat z
plan eten</w>
p ed
mis sie</w>
mar k
lig gen</w>
li ve</w>
leer den</w>
kur zen</w>
kun dige</w>
kant oor</w>
in e.</w>
heraus finden,</w>
g yp
ftwa re
fe st</w>
ess en.</w>
en den,</w>
e volu
e chten</w>
draa ien</w>
dimension ale</w>
bel on
be vor
an er</w>
Zei ten</w>
Wan del</w>
Rau m,</w>
P ublie
Materi alien</w>
It ali
Harvar d</w>
H it
H am
H al
Fil m
E ss
De fin
D er
Außer dem</w>
1 1.</w>
% .</w>
" Dit</w>
ä ter</w>
zo ver</w>
x ,</w>
wei t
toon de</w>
toekom stige</w>
ten s,</w>
stel den</w>
st ische</w>
spre che</w>
sl aan</w>
schau t</w>
ru cht
re st
produz ieren</w>
or dn
nor malen</w>
net werken</w>
natuur lijk,</w>
na h</w>
me ssen</w>
me et
max im
j ou
gel d.</w>
energ ie,</w>
e ure</w>
dor t,</w>
blo ß</w>
biolog isch</w>
auf tau
at er
ar ,</w>
a ktiv</w>
Vor tra
Städ ten</w>
Sei te,</w>
S ob
Le bewe
Ex ist
Di agram
Al ler
zukün ft
wirtschaf tliche</w>
will en.</w>
wa s:</w>
verschu iv
ver gele
v leu
us w.</w>
uitda gingen</w>
succes vol</w>
se ks</w>
r y,</w>
pun t.</w>
persön lichen</w>
par tij
op leiding</w>
moe d</w>
mat ige</w>
man net
leu ke</w>
kä mpfen</w>
k jes</w>
ir on
ion s
i d,</w>
ho gere</w>
hiel den</w>
h i</w>
groei de</w>
fol ge</w>
f e,</w>
ent u
en k</w>
docu men
da gegen</w>
con ne
com mer
brau chte</w>
betra chten</w>
ba hn
b ak
all .</w>
T anz
Sol daten</w>
Sci en
S ommer</w>
P ingu
O h</w>
Jah re.</w>
Geb ie
F ällen</w>
F lag
F ig
Dank u
Be sit
Baby s</w>
Ar gu
AID S</w>
zi f
z ware</w>
wohn er</w>
vest ig
verdien en.</w>
ve chten</w>
univer su
to ond</w>
stell t.</w>
sie :</w>
raa kte</w>
pr aten,</w>
plan t</w>
per cent
p rei
organis men</w>
nood za
no ch,</w>
mach en?</w>
lop en,</w>
le er</w>
la den</w>
klass e</w>
kl ingt</w>
indu strie
im a</w>
ij s
identif iz
hol en</w>
gewee st,</w>
gemeenschap .</w>
fän gt</w>
funktion iert,</w>
er inner
emotion ele</w>
do chter</w>
dis kut
dge t</w>
de gene</w>
bekann ten</w>
bac k</w>
b ellen</w>
ander em</w>
aanwe zig</w>
Unterstütz ung</w>
R an
On ge
Oké .</w>
Ob wohl</w>
Mod elle</w>
Mit t
L ag
Kop f
J unge</w>
Hau t</w>
Got t,</w>
Flu ss</w>
Dien st
Bot schaft</w>
Al zhei
? '</w>
" Ja
" Du</w>
ë r
ähn liche</w>
wu chs</w>
wer de,</w>
verlie zen</w>
verbeter en.</w>
tot ale</w>
the se</w>
som it</w>
sc oop</w>
ri c</w>
olog ie.</w>
min u
ler aren</w>
le gen.</w>
it ter
i ffen</w>
hät ten,</w>
herinn eren</w>
drit ten</w>
dort hin</w>
do den</w>
der zeit</w>
creativ iteit</w>
ce pt
c ell
behandel t</w>
b b
alis eerde</w>
af val</w>
a von
a id
Z ie
Taus ende</w>
T ieren</w>
T en
Str ateg
Re volution
Publie k:</w>
Proze ss
Nich ts</w>
Karr iere</w>
K il
Jah res</w>
Gesch icht
Bit te</w>
Bei m</w>
2 ,
óó r</w>
zufäll ig</w>
x .</w>
web sit
voor delen</w>
vaar t</w>
stand s
ro ten</w>
raa d</w>
qu as
par k</w>
og en.</w>
näch stes</w>
nicht s.</w>
nau w
he mel</w>
gest op
gesag t:</w>
gele gen</w>
gehei m</w>
ge creë
fun ctie</w>
entdeck t</w>
ent wor
de elt</w>
d liche</w>
belangrijk er</w>
beg ra
art sen</w>
allemaal .</w>
all eine</w>
Wel che</w>
Syste m,</w>
So ,</w>
Sch af
P eter</w>
Kreativ ität</w>
Kol on
Jahrhunder ts</w>
Gegen satz</w>
Fen ster</w>
Ein richt
De sig
B un
20 10</w>
10 ,</w>
än g
wä re.</w>
voor uit</w>
voll ständig</w>
v ens</w>
red den.</w>
r enn
r aus
pri vate</w>
op gelo
obje cten</w>
ne ben
n y</w>
mö glicht</w>
maal s,</w>
lok alen</w>
lie ber</w>
lich ten</w>
le ge</w>
l .</w>
kran k
ië r
in fe
h ond</w>
gen oom</w>
g lo
ern ähr
ein e,</w>
door dat</w>
beroe mde</w>
ah e</w>
aan doen
a van
T om</w>
Spra ch
Spiel en</w>
Risik o</w>
Prä sident</w>
P fer
N utzen</w>
Mart in</w>
Manhat t
Kon sequ
Geschä ft</w>
Ges etze</w>
Ent dec
Ein kommen</w>
E cht
D ingen,</w>
D au
" B
za ken
wa s
un be
trans form
toe ge
theor et
ten ."</w>
t isch</w>
schlu ss
ruim te,</w>
reken ing</w>
polit ie</w>
pass t</w>
par ti
p ian
p e</w>
ou dere</w>
noe men,</w>
nachzu denken,</w>
mil ieu</w>
mei stens</w>
kel ,</w>
jon g</w>
intellig ente</w>
hoff e</w>
ha be
gelern t,</w>
gebau t.</w>
fin det,</w>
en zi
do elen</w>
d ün
con cep
carriè re</w>
br auch</w>
blei ben.</w>
bescher men</w>
beper kt</w>
benutz en.</w>
ben de</w>
We b</w>
S ho
Nach dem</w>
Mitge fühl
Midden- Oo
Kont akt</w>
Fortsch ritt</w>
C al
Al tern
6 .</w>
wel ch
verge ssen</w>
u p</w>
triff t</w>
t ät
stu dies</w>
sta dt</w>
sl am
s mo
rei zen</w>
plez ier</w>
ov en
nicht -
m ieren</w>
kop pel
kom bin
kan .</w>
il e</w>
hiel ten</w>
graf iek</w>
gra den</w>
gesch ichte</w>
gen s.</w>
geh ele</w>
er möglicht</w>
duur de</w>
der gelijke</w>
com pon
bu ch</w>
ben e</w>
behau p
ac adem
Z wi
Z ell
S um
S og
S eit</w>
S M
P fle
O k
Neur onen</w>
Ne e.</w>
Lan d.</w>
Ir gend
G et
Fu ß</w>
Francis co</w>
Da ss</w>
Buch stab
Atmo sphäre</w>
" M
Über rasch
zeu g</w>
wetenschapp elijk</w>
wan del</w>
vol wass
vier ,</w>
vak er</w>
un ieke</w>
ter -
t ?"</w>
st ür
sch lo
sch ep
program ma's</w>
mom ent.</w>
mogelijk .</w>
medizin ische</w>
lau t</w>
kur r
ktion ,</w>
kauf en,</w>
individu en</w>
i um
fa hr</w>
entschie den</w>
een maal</w>
draa gt</w>
discuss ie</w>
ct ie.</w>
cont ra
com passie</w>
boo t</w>
blü ff
be vrij
af val
ab gesch
Zo dra</w>
Vis ion</w>
Vide os</w>
Vi rus</w>
Un d,</w>
Te gen</w>
Ster ne</w>
Ro ck
Profess or</w>
Poli zei</w>
Obje kte</w>
No bel
Komplex ität</w>
Kla sse</w>
I ets</w>
F lie
Ent fern
Eig entlich</w>
Can a
Be sch
Bas is</w>
Arbeit sp
200 5</w>
" Sie</w>
zahl en</w>
wir st</w>
wir .</w>
wer d.</w>
wei sen,</w>
v ull
v ig
stuk jes</w>
sta g</w>
soll .</w>
simpel weg</w>
over tuigen</w>
mö chte.</w>
mus eum</w>
j ag
irgendet was</w>
hau se</w>
gez et.</w>
fundamen teel</w>
fou ten</w>
fantast isch.</w>
fan d,</w>
eu w
entwickel t.</w>
drü cken</w>
bewus st,</w>
beobach ten</w>
bege g
be v
bar keit</w>
at oren</w>
anschau en,</w>
Zusammen arbeit</w>
Yor k.</w>
Te st</w>
T raum</w>
Sch wei
Proje kt,</w>
Ma sse</w>
H en
Glob al</w>
Gan z</w>
Do e</w>
Bi en
Beding ungen</w>
B F:</w>
200 9</w>
zwar t</w>
zie k</w>
ze ss
wach st
w onen</w>
visu alis
tsel ing</w>
ter mijn
t a</w>
sym bol
steu n</w>
sol ch</w>
seksu ele</w>
sch el
sa ge,</w>
s kel
ru f</w>
ra te</w>
persoon lijk</w>
over ,</w>
ori ent
oplo ssen</w>
mor gens</w>
me ss
lös en,</w>
lei sten</w>
labor atori
l auf</w>
klin ische</w>
klein e,</w>
k raa
is me.</w>
interess e</w>
hom o
han gt</w>
geïn spire
gevangen is</w>
erzeu gt</w>
erstaun liche</w>
de sig
be völker
Yor k,</w>
Werkzeu ge</w>
To chter</w>
S ein</w>
Publik um:</w>
Pl an</w>
Lo ch</w>
Infrastru ktur</w>
Geschwindig keit</w>
Gel d,</w>
Frie den</w>
Ein satz</w>
Br un
9 .</w>
3 ,</w>
1 9</w>
zu frie
z el</w>
wo bei</w>
win st</w>
vor en</w>
voor berei
vo et</w>
ver halten</w>
ver diep
un möglich</w>
syste em,</w>
stru kt
spre ekt</w>
re gel</w>
plu s</w>
lu st
kre e
k ilomet
häuf ig</w>
hu id</w>
hal tung</w>
hal tig
gev ing</w>
gefun den.</w>
filo sof
entschei den,</w>
einfach er</w>
die jenigen,</w>
dee d.</w>
bre ken</w>
bor d</w>
bewe gingen</w>
bes met
be findet</w>
aller dings</w>
V en
T emp
Se qu
S ens
Proble men</w>
P M:</w>
N ull
Gew icht</w>
Fol ge</w>
Er kran
Elekt riz
Dar win</w>
C re
A ir
8 00</w>
.. ."</w>
"N ein,</w>
" Nee,</w>
ä ch</w>
weef sel
vol gt</w>
vlie gen.</w>
verantwoor delijk</w>
uit brei
temperat uur</w>
t ap
schap ,</w>
red den</w>
persön liche</w>
pat h
oo d
olog e</w>
n den</w>
mom ent,</w>
m ik
lich em</w>
kti ver</w>
ker el</w>
intelle ctu
h le
gro en</w>
gemiddel d</w>
geda chte</w>
gebie d.</w>
fa ssen</w>
elektric iteit</w>
di ent</w>
defin itie</w>
confer entie</w>
c ellen.</w>
betra chten.</w>
aussie ht.</w>
ah .</w>
Win d</w>
Werel d
We st
Vertrau en</w>
Versu ch</w>
Par k</w>
Inse kten</w>
Beispiel .</w>
A d
2 .000</w>
wap ens</w>
vra gen,</w>
vanda ag.</w>
un da
ul d</w>
transp ort
tic a</w>
technolog ie
t v
t om
stel ijke</w>
ste ken</w>
sozu sagen</w>
soll en.</w>
sign alen</w>
schaf t
sc op
rond om</w>
rit u
mot or</w>
lie d</w>
kl an
kauf en.</w>
interess ant
in stellingen</w>
in houd</w>
ig t.</w>
i ro
i le
he m.</w>
f iel
er naar</w>
ens ei
ein mal,</w>
ed s</w>
e entje</w>
dok ter</w>
den heid</w>
d ungen,</w>
bese ffen</w>
ber ichten</w>
bei zu
be ter.</w>
ant rop
Waf fen</w>
V e
Universu ms</w>
Universit y</w>
T um
Sch ne
Qu alität</w>
Onge veer</w>
O sten</w>
Ger echt
Ge sam
Er de.</w>
Duit s
Danku wel.</w>
Bab y</w>
Ar m
/ &gt;
z oog
wo u</w>
wi d
verh äl
verbin den.</w>
te -
st ?</w>
schwer ,</w>
schau te</w>
ru im</w>
ri ck
r ik</w>
on gelijk
on :</w>
nau welijk
mar kten</w>
m -
la cht</w>
kan di
ie k,</w>
idee ën.</w>
hy per
ge stuur
führ er</w>
f or</w>
ess en,</w>
du ,</w>
dee d,</w>
betre ft</w>
art igen</w>
Z onder</w>
V elen</w>
S icht
Nation al
N u
M ur
Klima wandel
Kin d,</w>
Hö he</w>
H aufen</w>
Gefän gnis</w>
Bür o</w>
20 .000</w>
zu l</w>
zom aar</w>
zie kte
zi en?</w>
w ijk
vrouwel ijke</w>
vo eren.</w>
vier de</w>
verl ieren</w>
verl en
ve el.</w>
to et
sp ont
s ä
rel ativ</w>
ree p</w>
overtuig d</w>
op nieuw
ontde kking</w>
omgev ing.</w>
natür lichen</w>
n on-
mu sst</w>
mom enteel</w>
ly mp
l inge</w>
je s
ier s</w>
hal be</w>
gra ph
gi en</w>
ge vorm
gab e</w>
fo cu
f e.</w>
ex act</w>
eu r</w>
doo s</w>
di plom
dan ?</w>
bo eren</w>
b ahn</w>
Ver ge
V ij
Ty pen</w>
Per sön
Ne ben
H ollywoo
Gele genheit</w>
Gele gen
F äll
9 ,</w>
2 50</w>
" Der</w>
willekeur ige</w>
vis ser
ver tro
twe e,</w>
tradition ellen</w>
te veel</w>
t ten</w>
steck t</w>
specif iek</w>
sle cht
ser ieus</w>
ser ie</w>
s ha
pu z
po ë
part n
p hon
om van
oce anen</w>
mer .</w>
lie d
lich sten</w>
ler aar</w>
le e
l un
l er.</w>
l ,</w>
kle uren</w>
it y</w>
in spann
in a</w>
ier ten,</w>
hoff entlich</w>
he ben</w>
grundle gende</w>
gesch ah</w>
genoem d.</w>
gel n</w>
gel ief
frü h</w>
er seits</w>
enti meter</w>
effect ief</w>
de erd</w>
angen eh
Te en
Sch wan
Mat erie</w>
M ehr</w>
M as
B lin
Auß en
Aut or
2 2</w>
zwaar te
zom er</w>
wij s</w>
west lichen</w>
voor bij
vin dt.</w>
ver sla
ver langen</w>
st al
sor g
schijn lijk</w>
ov en</w>
mitt ler
isch em</w>
ihr ,</w>
her en</w>
groei en.</w>
get al</w>
gedra gen</w>
ge had.</w>
fra gen:</w>
entwickel te</w>
d isch</w>
ck -
c oo
bru ik
bo s</w>
be zo
b aar,</w>
aut h
an gesch
an :</w>
Z entr
Sicher heits
S toff
Ob ama</w>
O lymp
K rit
K ab
Forsch ungs
Ein fach
Bil dern</w>
Bat ter
Aus bildung</w>
" L
über win
zonne -
wähl en</w>
wie der.</w>
wen dung</w>
we der
waar aan</w>
vrij wel</w>
verko cht</w>
univer sel
u e</w>
tegen stelling</w>
su chen.</w>
struct uren</w>
stam m
ssyste em</w>
sk op</w>
setz te</w>
sei ,</w>
sch einen</w>
re volut
p h</w>
over lev
onder handel
on ische</w>
mäß ig</w>
lo s,</w>
lich t,</w>
kwan tum
kan to
k ke</w>
hät te.</w>
heu te,</w>
gel ijken</w>
gegen wär
ge wen
faszin ier
f isch
en !</w>
el ijk
ed back</w>
do wn
di a</w>
des :</w>
den noch</w>
de st</w>
de ssen,</w>
comple x</w>
breit ung</w>
beob acht
an ische</w>
ag ra
T ube</w>
Sie ?</w>
Ro h
P in
I slam
H et
G ü
Ex tre
E li
Chicag o</w>
Ber e
" Ge
zeich nen</w>
zei chen</w>
wetenschap .</w>
verh aal,</w>
toe gan
te sten.</w>
stop t</w>
star t</w>
schl ag
sch lagen</w>
r ö
proje ct.</w>
persoon lijk
p ingu
p fen</w>
oplo ssen.</w>
nu cle
na .</w>
n de</w>
mar kt.</w>
komplex e</w>
ing re
ig r
identif ic
hetzelf de.</w>
her um.</w>
har de</w>
genu g,</w>
forsch ung</w>
broo d</w>
bloe d</w>
ben ?</w>
begrij p</w>
architect uur</w>
app en,</w>
Wal d</w>
Stad t,</w>
St ück
St aat</w>
N äch
Kar ten</w>
Institution en</w>
In nen
Gel d
Gehir n.</w>
Ge m
Fre m
Aus wa
Ant ar
3 .000</w>
ë .</w>
z ag,</w>
wie der,</w>
wen den</w>
viel ,</w>
verd wen
ver blüff
uiter aard</w>
ts el</w>
trä ge</w>
teken en</w>
te ur
t ent
ster b
ste s
sicht lich</w>
res ist
pp en,</w>
pot entieel</w>
op p
onderwij s.</w>
o er
nach halt
mat erie</w>
läs st.</w>
lo ss
ktion .</w>
gewal tig
genau er</w>
ge stern</w>
ge schaffen</w>
fühl en.</w>
er van.</w>
er schaffen,</w>
en g</w>
einander .</w>
combin atie</w>
afhan kelijk
ad voc
aan wij
You Tube</w>
Spiel e</w>
R :</w>
Prä sent
Nor mal
Molekü le</w>
Mex ik
Me dien
Gan ze</w>
Foto graf
Feu er</w>
Europa ,</w>
Be griff</w>
A stron
1 -
zun ächst</w>
zu sätz
wu ch
woll ten,</w>
we sen</w>
v ing
tot al</w>
ton en.</w>
teu er</w>
sta d,</w>
so :</w>
secon de</w>
sch ließen</w>
rie f</w>
r ein
pp en.</w>
per man
ot el
oorspron kelijke</w>
nieuw s.</w>
met er.</w>
man i
leu cht
it eit
informat ie.</w>
gel .</w>
gef äll
ge worden,</w>
fur cht
f ir
exist iert</w>
ervar ing.</w>
do ch,</w>
dig ing</w>
deel t
ch r
c us</w>
bijzonder e</w>
bar er</w>
b ö
b and
avan c
atmos feer</w>
Wun sch</w>
Teil neh
Ste phen</w>
St ör
Se kunde</w>
Sch il
Re chn
Part ner</w>
Par k
Pakist an</w>
Ordn ung</w>
N ic
Lebens mittel
Kur z
Klima wandel</w>
Ken ia</w>
Kan a
Her r</w>
Groß mut
Be droh
An rei
? “</w>
6 5</w>
10 .</w>
über prü
zo dra</w>
wer kers</w>
wach ten.</w>
vergelijk ing</w>
ver der
v óór</w>
ti ge,</w>
techn isch</w>
t ig.</w>
sym pt
ster ben.</w>
st eigen</w>
st ation</w>
sp el.</w>
schle chten</w>
sch rieb
s weise</w>
s im
re sp
pri or
person en</w>
mm el
milit aire</w>
mensch licher</w>
mei ste</w>
lichaam s
jeman d,</w>
interessan ter</w>
infra structuur</w>
in fiz
hy th
he el,</w>
gestel de</w>
gen s,</w>
gehei me</w>
geh end</w>
ge kre
e ."</w>
dau ern
complex iteit</w>
buiten gewoon</w>
bru ch</w>
boer der
bo l</w>
ber icht</w>
ar ts</w>
ap p</w>
angef angen</w>
Wikipedi a</w>
Vorstell ungs
Video :</w>
Un gleich
U it</w>
S W:</w>
R et
Prinzi p
Indi a,</w>
Herausforder ungen</w>
H imm
Gelu kkig</w>
G ang</w>
Dar win
C ap
2 .
zor gd</w>
welch em</w>
vle es</w>
verbazingwek kende</w>
ver ouder
tu t,</w>
trans for
statt dessen</w>
st ück</w>
spr ingen</w>
sp eich
ser en</w>
sc en
relig ieuze</w>
proble em
plat tel
over leven</w>
on den,</w>
ol ang</w>
oe g</w>
ocht end</w>
nu .</w>
nenn en,</w>
mei st</w>
lig gende</w>
kurz em</w>
kru is
jullie .</w>
inten si
inst in
inse cten</w>
ide e,</w>
hü ll
hier ?</w>
gezeg d,</w>
gemein sam
g ingen.</w>
eng ag
ein zi
eer ,</w>
da hin</w>
ch o
c t,</w>
c in</w>
c al
brau cht,</w>
best and</w>
bein ahe</w>
bei spiel
alis eerd</w>
al isten</w>
Zei chen</w>
Tra g
Straß en
Stim men</w>
Re spe
Pot enti
Ide e.</w>
H um
H em
Flü cht
E ric</w>
E :</w>
Di re
Bro o
Blu t</w>
Aus druck</w>
An im
Amei sen</w>
3 2</w>
2 3</w>
zo ,</w>
zie kte.</w>
zel d
wär ts</w>
wor über</w>
wer den?</w>
wach sen.</w>
w un
vrouw ,</w>
voor zien
voor namelijk</w>
vervan gen</w>
ver lief
u tel</w>
telefo on
t ende</w>
sch es</w>
sam en.</w>
s oe
s et</w>
re delijk</w>
open baar</w>
oor zaak</w>
om a</w>
o x
ner gens</w>
nauwelijk s</w>
min st</w>
men s.</w>
man ier,</w>
ma ken?</w>
m ond</w>
kam en,</w>
ip s</w>
invester en</w>
ier ung,</w>
identit eit</w>
hö her</w>
hoe f</w>
h ie
gew ij
ge p
ge avanc
fei telijk</w>
f iel</w>
experi ment
erklär en</w>
er mut
dio x
dig ung</w>
ct ief</w>
creë ert</w>
c ool</w>
ass t</w>
ander s
ab l
Ur sach
R us
Phys ik</w>
M eilen</w>
L ü
K y
K unden</w>
Gerä te</w>
Fahr ra
De bat
D utz
Br ü
Bi bliothe
Bere chn
B re
B oven
" T
zu s</w>
y n</w>
vro uwen
vertel den</w>
ver wer
ver glei
ver der.</w>
uit voer
toe ,</w>
ter t</w>
t ur
t ag</w>
strateg ie</w>
sten s,</w>
sta b</w>
ss p
sn ap
sich ten</w>
reg ist
r ij</w>
quas i</w>
ontwikkel en.</w>
nauw keur
kürz lich</w>
inc lus
im provis
häl t,</w>
hier mee</w>
gel d,</w>
ge schaff
ge public
g -
flü ss
es :</w>
erle ben</w>
er ei
en te,</w>
di ge,</w>
di a
da cht.</w>
d ings
brau ch
bescher ming</w>
an f
als je
St or
Sei te.</w>
S us
Proble me,</w>
Phän om
Pap ier
Mar k</w>
La den</w>
Ide en,</w>
Her r
Grün de</w>
Gemein de</w>
Gebur t</w>
Ge mü
Ge fahr</w>
Fil me</w>
D rie</w>
Bost on</w>
B ig</w>
Aufgab en</w>
zü glich</w>
zurück kehr
zijn :</w>
zei ten</w>
zei gt.</w>
vier kante</w>
vergele ken</w>
ver ,</w>
uit gebrei
typ ische</w>
toevall ig</w>
schul dig</w>
sch ip</w>
re volution
radi k
ra mp
op tre
onderzoe kers</w>
om gaan</w>
n aam
mole cu
lichkei t.</w>
lauf en.</w>
h ell
gro eit</w>
ge zeigt,</w>
finan zi
f ran
f eh
e i</w>
dunkl e</w>
du s.</w>
dit ,</w>
dinosau ru
digit alen</w>
deut lich</w>
deta ils</w>
daar .</w>
cognit ieve</w>
c er
c ellen,</w>
b lan
b ben</w>
art phon
alle .</w>
ab er,</w>
V iet
Spe zi
Plast ik
P y
K ein</w>
Hei mat
HI V
H ill
Be g
B eine</w>
Aktiv ität</w>
7 00</w>
. «</w>
" Wo
ziel l</w>
zen uw
zeichn et</w>
verstän dlich</w>
versprei d</w>
verbess ern.</w>
ver fü
uit ein
to ene
t ungs
str aat
st itu
sei zo
schri ften</w>
ro ep
ra mi
plaat st</w>
plaat s.</w>
oli fan
o h</w>
mo n</w>
m ol
k ognit
k no
iv al
it är
ik ken</w>
ich ter</w>
hu wel
hin ein</w>
het ?</w>
haf ten</w>
gr ens</w>
gla s</w>
gew issen</w>
gesetz t.</w>
gef ahr
ei wit
du ist
dre hen</w>
ck t.</w>
ce -
br ü
bie ten</w>
bere chn
ban k
b te</w>
am bit
al o
Ver besser
Tit el</w>
Telef on
St rat
St aten.</w>
Sog ar</w>
Sch reib
S no
Rah men</w>
Produ ktion</w>
P opul
Nor den</w>
Nigeri a</w>
Na ja,</w>
Leist ung</w>
Hil fs
F al
Exper ten</w>
Cam brid
C ,</w>
Bel ohn
6 ,</w>
"O h</w>
ö k
ä chen</w>
wil .</w>
werel ds</w>
vor men.</w>
voorsp ellen</w>
verk auft</w>
ver men
val u
uit leggen</w>
stell er</w>
st een</w>
ret ten.</w>
re al</w>
r aus</w>
oppervla kte</w>
olog ischen</w>
og en,</w>
me e,</w>
m ier
log ische</w>
lang weil
land schap</w>
la st</w>
he den
gest re
ge de
fa ce</w>
eeu wi
durch .</w>
dur ch,</w>
die jenigen</w>
delijk ,</w>
da vor</w>
besl issen</w>
b us</w>
at em
alis me</w>
ad v
Sp inn
Schlü ssel</w>
Pun kt,</w>
Plat t
Perspe ktive</w>
Off en
Mäd chen,</w>
Leben ser
K enn
J :</w>
Hel aas</w>
HI V-
Gen au
Gehir ne</w>
G and
Fern sehen</w>
F isch</w>
Experi mente</w>
Eff e
19 .</w>
Ä gyp
zwei ,</w>
wiskun dige</w>
wir r
verl am
tet :</w>
str aten</w>
stop te</w>
st aten</w>
spel let
sp oren</w>
sign aal</w>
schwar ze</w>
ru m
rop ä
ret ten</w>
rec yc
ran g</w>
present atie</w>
p ool
je :</w>
informat ie
h ypothe
gelö st</w>
gele gd</w>
gedeel te</w>
gebau t,</w>
ge grün
erg er</w>
end et</w>
een s.</w>
e si
e gt</w>
dies ,</w>
decenn ia</w>
d w
bess er,</w>
beg reep</w>
be zoe
be kämpf
b us
ap en</w>
ander t
an ce</w>
Welt krie
T eu
Stat t
Sp ort
R ot
Mer k
Man del
M oor
In spir
Hig h</w>
Gu t,</w>
Frie den
F eld</w>
E cke</w>
D .</w>
Chem ik
B oo
B lau
Auf ga
will en,</w>
we sen
voor t</w>
viel .</w>
verschill end</w>
verb lu
ver dubbel
v aa
uit gevo
ter echt
t anz
ste mming</w>
spr in
selt sam
schaf ts
s aa
re alen</w>
pu t</w>
pro te
pro ef
pri vac
pass en,</w>
machin e.</w>
lever t</w>
kunsten aar</w>
il l</w>
ie erd</w>
hier over</w>
glaub t,</w>
gesch eh
gen ü
fra gt</w>
fei ten</w>
etc .</w>
erfun den</w>
eg al,</w>
eer t.</w>
der s.</w>
der gelijk
dau ert</w>
communic atie</w>
bru g</w>
blau en</w>
bewij zen</w>
bese f</w>
ar is
ar ab
act ieve</w>
ach tig</w>
Wahrschein lichkeit</w>
The men</w>
Stu fe</w>
Sch ä
Polit iker</w>
Kon su
Hoe wel</w>
Hand y</w>
Dro gen
Ca ro
B ron
B lat
zu stellen,</w>
zie ktes</w>
z ent
we sterse</w>
we et,</w>
vol k</w>
vlucht el
ver größ
un abhängig</w>
tit el</w>
ste :</w>
standaar d</w>
soll ,</w>
rec ent</w>
r aten</w>
psych ologische</w>
popul atie</w>
percent age</w>
o s.</w>
muz ik
lok aal</w>
le dig
lang zaam</w>
kul pt
kra cht.</w>
is h</w>
ion en.</w>
in druk</w>
ies en</w>
hin weg</w>
han d.</w>
hal b
ha ,</w>
groei d</w>
gezon de</w>
gere cht
gen i
gebruik t,</w>
funktion ieren.</w>
erzähl e</w>
ent stehen</w>
elk aar,</w>
ele menten</w>
durchschnit tliche</w>
dr ingen</w>
dr ing
door heen</w>
dier en
dau er
daar ,</w>
c m</w>
bur g
brau che</w>
bess er.</w>
begre pen</w>
beeinflu sst</w>
b y</w>
aan vaar
a k</w>
Zei chn
Vo gel
Statt dessen</w>
S ur
P et
Organis ationen</w>
Oo st-
Männ er,</w>
Kris e</w>
Krie gs
H äuser</w>
Gel d.</w>
Di agno
2 4
äuß erst</w>
ä r</w>
zin e</w>
waar sch
vorm ing</w>
voll stän
verwen den.</w>
verbra chte</w>
ver jaar
tif ic
ti k
t aal
t "</w>
stol z</w>
seit dem</w>
sau ber
sa cht</w>
risic o's</w>
op pen
op lei
oorlo g.</w>
onderzoe k.</w>
oe f
nä her
m elk
läs st,</w>
lie gt.</w>
lich e,</w>
ktiv ität</w>
intervie w
ik at
i Po
häl t.</w>
hop elijk</w>
gew onnen</w>
genees kunde</w>
gebeur de.</w>
ge ge
funda ment
fal sch.</w>
fa ssen.</w>
fa se</w>
erwar ten</w>
er hält</w>
er forder
enthousia st</w>
e volut
durch ge
deta il
des wegen</w>
d s,</w>
con sum
con dit
c om</w>
be s</w>
b ou
Werkzeu g</w>
Ti me
T ei
Stu di
St au
Sp ann
Nach richt
N ik
Mut ter,</w>
Klass enz
K ö
Intellig enz</w>
Fol gen</w>
Er de,</w>
E T
B innen</w>
Ar th
Öffent lichkeit</w>
z al
wor tel
wesent lich</w>
wer fen</w>
vor bereit
vol gen
verrass end</w>
verr ing
ver laten</w>
ver gro
v il
stre e
ste delijke</w>
sol cher</w>
sei tig</w>
sch ü
sc ul
produz iert</w>
proce s.</w>
posit ive</w>
p au
ne der
n ü
moeil ijker</w>
mob iel
mik ro
men ing</w>
mag ische</w>
li ber
lang frist
kra cht,</w>
kl as
j an
inter net.</w>
h rop
gevoel ens</w>
gemein same</w>
gegen über
gebro ken</w>
g le
fl us
fil mp
ern st</w>
entwi ckl
en der
en '</w>
bo om
blei ben,</w>
besliss ing</w>
be trouw
be kamen</w>
ban den</w>
auf genommen</w>
analy se</w>
all ,</w>
Verhält nis</w>
Stre ss</w>
Sor gen</w>
Se ptember</w>
Sc ot
Sam m
S zen
Pr im
N ieder
J or
Großbritann ien</w>
Gesam t
Energ ie,</w>
Durch schnit
Be ste</w>
A B:</w>
" Weet</w>
zu i
zij de</w>
wei le</w>
wass er</w>
war ten</w>
vo uw
verblu ff
stär ker</w>
st raa
spr ü
sol da
so viel</w>
slaa p
sin d?</w>
schrij ven,</w>
sch ade</w>
pf el</w>
p it
op war
ont bre
oll ab
off ic
o versch
n -
mensch liches</w>
man :</w>
m aar,</w>
loo s</w>
lit erat
lie gt,</w>
le z
le sen,</w>
internation alen</w>
he en,</w>
ge s.</w>
f ung</w>
erinn ert</w>
en de
emot ies</w>
el le,</w>
ei land</w>
ds dien</w>
dru pp
do en."</w>
di ën
de bat</w>
daar door</w>
cre atief</w>
bekann te</w>
be wa
al s:</w>
afrikan ischen</w>
Zukun ft.</w>
Wei hn
W ort
US A,</w>
Twe e
Sch ick
Sat z</w>
Qu elle</w>
P h
Microso ft</w>
Lach en</w>
Kon text</w>
K lu
Ju gend
Indu strie</w>
Gren ze</w>
Eg yp
C yber
Bildschir m</w>
Beweg ungen</w>
B ö
B lick
Arbei ten</w>
Ar z
A ffen</w>
9 5</w>
zeg :</w>
z waar</w>
wäl tig
wij ,</w>
verur sacht</w>
verbin dingen</w>
ver z
ver pleeg
ver huis
ver gelijken</w>
vall en,</w>
t win
t ingen</w>
t herap
str ö
stat us</w>
st ill
se -
proble em,</w>
op komst</w>
onmiddell ijk</w>
ol er
moe der,</w>
ma ß</w>
ll e</w>
lich en,</w>
könn t</w>
kun st.</w>
ker s,</w>
kel .</w>
j unger</w>
im m</w>
iPhon e</w>
hu il
hin aus
gew innen</w>
gemeenschap ,</w>
ge geben,</w>
es ?</w>
eer t,</w>
dur e</w>
diver se</w>
dich ten</w>
bring t.</w>
br enn
bl oot
biz ar
bil jo
bie dt</w>
betracht et</w>
beel d.</w>
beein flus
bas iert</w>
ab sor
aar dig</w>
Zeit alter</w>
W äl
W eile</w>
Stro m
Sob ald</w>
So ut
Möglichkei ten,</w>
La ge,</w>
L ou
Kommunik ation</w>
K ern</w>
K B:</w>
Indi ase</w>
Gebur t
Fran k</w>
Di a
C ou
Bro t</w>
" Er</w>
wei te</w>
waar ne
vrouw .</w>
vor m.</w>
vor bei
voor komen.</w>
vij f
viellei cht,</w>
ul e</w>
tijd je</w>
te sten,</w>
te ken</w>
t äusch
t ann
syste me</w>
spra chen</w>
speci aal</w>
s je</w>
rel atief</w>
op en,</w>
on ale</w>
om gek
o s,</w>
n ummer
mar ket
mach te,</w>
lie gen.</w>
ledig lich</w>
leben den</w>
l ar
ker s.</w>
kan ker.</w>
ingewikkel de</w>
in iti
ig er,</w>
hr ,</w>
groei ende</w>
go d
gist eren</w>
gev aar</w>
getö tet</w>
geda cht.</w>
g s-
fabrie k</w>
erzeu gen</w>
en ig</w>
e cht,</w>
dro og
draa d
do ch
die per</w>
com pet
ck te</w>
bouw de</w>
bi om
bestaan de</w>
benötig t</w>
arbei teten</w>
Wor ten</w>
Wei b
Vor her
Ver stand</w>
Ver ein
US A.</w>
Test s</w>
T herap
Strukt uren</w>
Schau spiel
Sch ließ
Sach en,</w>
Mar ket
K ä
H inder
Gem äl
Fl or
Er inn
Entdeck ung</w>
E volution
B in
- A
überzeu gt,</w>
ze ss</w>
wirklich e</w>
will e</w>
versprei den</w>
verbess ern</w>
ver ab
unglaub lichen</w>
tig ,</w>
ten deels</w>
ss e
sol daten</w>
sle utel</w>
sla m</w>
schle chter</w>
samen werk
richt ig?</w>
raa kt</w>
ont zett
om hoo
nicht s,</w>
natuur .</w>
mo ti
micro ben</w>
mer ic
meer der
last ig</w>
kon front
ke ten</w>
je weil
iz z
ismu s,</w>
intellig entie</w>
i o</w>
honder d
hoeveel heden</w>
gelu iden</w>
fal schen</w>
f ern</w>
ent decken</w>
con struct
ci pl
ch te
best ät
be zig
be en</w>
be deck
Wör ter
Waar schijnlijk</w>
Sch utz</w>
Qua drat
Pro p
Mon at
Lei der</w>
L ad
Kind heit</w>
K un</w>
Individu en</w>
Identit ät</w>
Hinter grund</w>
H ypothe
Gr enz
Frü h
Engel se</w>
En kele</w>
Ele fan
Eff ekt</w>
Dam als</w>
B ob</w>
50 .</w>
ë ,</w>
ähn lichen</w>
z ös
wij zen</w>
we es</w>
vre selijke</w>
vre sel
voor stel
viru ssen</w>
versu chte,</w>
v et
v as
technie ken</w>
te er
st icht
sp ul</w>
schre ckl
sch icken</w>
s ?"</w>
ro te</w>
recht vaardig
plat z
ontzett end</w>
men ten,</w>
man chen</w>
m aar.</w>
kwa men.</w>
kil o</w>
ier e,</w>
get allen</w>
gesch ütz
geprobe erd</w>
gelu id
gek ehr
geh t
ge komen.</w>
fin de,</w>
eu ropä
eenvou dig
den kt.</w>
d i</w>
c ampagne</w>
boe k.</w>
boe k
bo t</w>
aus gebil
auf s</w>
ass o
and a</w>
ach el
absolu te</w>
a "</w>
Wil d
V S.</w>
T .</w>
Süda frik
Schimpan sen</w>
R ab
Plan eten.</w>
Plan eten,</w>
No u</w>
Ner v
Lie d</w>
Land wirtschaft</w>
Lab or
Jo s
J im</w>
In ner
Gi bt</w>
F ei
An gele
zusammen ge
we er.</w>
verwacht ing</w>
verantwor tlich</w>
t raa
t ast
stän den</w>
sta d
se ct
schwier ig,</w>
publie k.</w>
prim it
part ner</w>
ongelof elijk</w>
o h,</w>
nei ging</w>
n es</w>
moeil ijk.</w>
ma c
leu k.</w>
kun ft</w>
ken merken</w>
instru ment</w>
ho ut
herzu stellen.</w>
hei rat
genau ,</w>
geef t.</w>
gebruik ers</w>
gebouw d.</w>
ge trenn
ess entie</w>
ere i</w>
eeu w,</w>
dra gen.</w>
chr ist
bring t,</w>
bil den.</w>
bewu ste</w>
bescher men.</w>
be züglich</w>
be vinden</w>
be er</w>
b ir
W ieso</w>
Universit eit</w>
T ,</w>
Stre et</w>
Schwe ster</w>
N og
Kom ment
Je mand</w>
I slam</w>
H op
Gro ot
Glei che</w>
G am
F ut
Erd be
Er wart
C en
Appl e</w>
200 3</w>
Ä hn
zuur stof</w>
zeg t,</w>
wü s
vor stellen.</w>
volwass enen</w>
verwen det,</w>
verdi ent</w>
uit st
trouwen s</w>
tre kken.</w>
to ilet
t at
t ab
syste men.</w>
st ran
sp ot
slag en.</w>
sen sor
scho enen</w>
scha kel
rü st
roe p</w>
ro llen</w>
relig ie</w>
r unter</w>
pa d
over leven.</w>
na ,</w>
mu g
lä ss
lichaa m,</w>
leb te</w>
klein ste</w>
kan ten</w>
k us</w>
ië le</w>
it aire</w>
ing spro
hor en,</w>
gro te,</w>
ger eg
genoe g.</w>
ge dicht</w>
ga ve</w>
e el
du s,</w>
drij ven</w>
con tex
bij een
be vat</w>
bau ten</w>
at e
afbeel ding</w>
Za hn
Spra chen</w>
M ond</w>
Leben s.</w>
K le
I P
I M
Hom o</w>
F ello
Elekt ron
Ein en</w>
Dollar ,</w>
D aten.</w>
Bru der</w>
Brit tann
Beispiel :</w>
Be stand
Angel es</w>
Ang st,</w>
zijn ."</w>
za k</w>
winn en.</w>
we gen,</w>
w ächst</w>
w ie,</w>
v uur
ut ie</w>
t aal.</w>
ster ven.</w>
stam men</w>
seh r.</w>
se ctor</w>
schul e</w>
schre ef
schaf ten,</w>
sch ar
sch aal
rij den.</w>
rei cht</w>
plaat je</w>
persön lich</w>
p je</w>
oo d</w>
ontwer pen.</w>
ograf ie</w>
mö chten,</w>
maa t</w>
lauf en,</w>
klimaat verandering</w>
k we
jähr igen</w>
her z
großart igen</w>
gr au
gew ohn
get an.</w>
ges un
gegev ens.</w>
gef angen</w>
gecon fron
ge zo
ge ve
g ingen,</w>
führ ten</w>
f iet
er kun
ei t.</w>
effe cten</w>
e k,</w>
e el.</w>
de bat
compu ter.</w>
besch rän
beg onnen,</w>
anti -
an gen,</w>
a kel
a ges</w>
Wur zel
Wesent lichen</w>
Unter nehmen,</w>
TED .</w>
S le
Qu anten
Mut ter
M en</w>
Kinder en</w>
Inform ations
Hän den</w>
Gol d
Gener ationen</w>
Ben jam
Behand l
Aspe kt</w>
An sicht</w>
A s
200 6</w>
är m
wij ken</w>
weg s</w>
vrijwill ig
vre u
vra cht
vol wa
verh aal
verbe teren</w>
ver ständ
unglaub lich.</w>
tol er
tiv iteit</w>
ter mijn</w>
tele vis
st ät
speel de</w>
spann end</w>
so urc
slaa p</w>
schein bar</w>
sch e,</w>
sch aam
r einig
product ie
on vermij
nie der
mat ische</w>
lo sig
kü hl
kr imin
kl us
kat astrop
iss e,</w>
ho ch.</w>
hij ,</w>
he et.</w>
har telijk</w>
goedkop e</w>
gez am
ge spr
ex ter
er schaffen.</w>
end ste</w>
eer ste,</w>
eer .</w>
door lo
constan t</w>
ble ven</w>
bel o
bedrij f
b ür
af kom
ac e</w>
Y e
Vor auss
Teil chen</w>
T as
Ste ven</w>
Sch utz
S kulpt
Pro to
Lit erat
Kr äfte</w>
Kombin ation</w>
H und</w>
Ghan a</w>
Fo unda
Dun kel
D :</w>
Colle ge</w>
Au ff
&lt; br
" Nun,</w>
’ .</w>
zi pl
zeu ge</w>
wei se.</w>
wach sen,</w>
w -
vrien den.</w>
vor bei</w>
voed ing</w>
vanda ag,</w>
un er
tu t.</w>
teil .</w>
t alen</w>
st aa
sp ijt</w>
slo t</w>
sit zt</w>
se he,</w>
scho ck
re ss
qu ival
ple k.</w>
ont h
on langs</w>
neu tr
men ten.</w>
luist eren.</w>
lag er</w>
kor re
kl oof</w>
k ö
is iert</w>
ik en,</w>
h le,</w>
h all
gev angen</w>
gemeenschapp elijke</w>
gelu k.</w>
geh ens
ge macht
f ingen</w>
ent ie,</w>
elektron ische</w>
dor t.</w>
dank zij</w>
beteken de</w>
besser es</w>
behandel en</w>
bedoel ing</w>
bedo eld</w>
be stehen</w>
b ul
b ast
appar at
an hand</w>
am in
ach ,</w>
Zau ber
Wei s
Ver kehr
V ier</w>
Schlü ssel
Müt ter</w>
Li ber
Kra ft
Kohlen stoff
Jah re
I -
Hin sicht</w>
H un
Geschich ten,</w>
Ger äu
Gemein den</w>
Ge dicht</w>
Fall ,</w>
C lin
C ent
B or
Ant eil</w>
An gestell
2 6</w>
öff nen</w>
zelf mo
zaam heid</w>
wil d</w>
wetenschap ,</w>
wer kende</w>
v uur</w>
unter nehmen</w>
u t.</w>
ti me</w>
spr icht,</w>
son ,</w>
setz ung</w>
ser s</w>
sei .</w>
se ch
ru it</w>
relevan t</w>
noe mde</w>
mu is</w>
moral ische</w>
medizin ischen</w>
ma t</w>
m aan</w>
le zing</w>
kl oo
kl ei
ken d,</w>
jon geren</w>
isch en,</w>
ih nen.</w>
ich ten,</w>
hier voor</w>
h ir
gro tendeels</w>
graf ische</w>
gr en
gol ven</w>
gez in</w>
ges und</w>
geloo ft</w>
gel aden</w>
gef il
ge halten</w>
ge geben.</w>
ge gaan</w>
famil ies</w>
famil ie.</w>
erz iel
er in.</w>
dis cipl
dd h
dagelijk se</w>
dafü r.</w>
conflic t</w>
capac iteit</w>
blij f</w>
berei kt</w>
bedrij ven.</w>
be gelei
achter grond</w>
aanwe zig
[ "
Zer stör
Will en</w>
Wan n</w>
Sti ft
S O
Proble m
O b</w>
N ationen</w>
Miss ion</w>
M ulti
Leu te.</w>
Konfl ikt</w>
J ac
Indi en,</w>
Grund lage</w>
Fra gen,</w>
Dre i</w>
Det ro
Da zu</w>
Bau m</w>
Anti bio
ück sicht
ü hr
zoe kt</w>
weiter er</w>
war m</w>
voorbeel d:</w>
verr e</w>
verb aas
ver p
univer s
um in
twee de,</w>
succes volle</w>
seh en?</w>
schul dig
sch wan
s ist
roo d</w>
realis eren</w>
ra t</w>
plaat sen,</w>
p rie
men te,</w>
mechan is
man nen.</w>
lij f</w>
lev end</w>
lei den
le :</w>
lach en.</w>
kun digen</w>
kre die
itei ts
ip .</w>
ingre diën
inclus ief</w>
ic s</w>
hoof d.</w>
ho ch,</w>
her kenn
h iv
genann t.</w>
gemein samen</w>
g t:</w>
fysie k</w>
fenom een</w>
et was.</w>
erg ste</w>
er toe</w>
entschei den</w>
ent steht</w>
em ber</w>
e sten</w>
durch zu
diesel ben</w>
darüber .</w>
coo le</w>
conc lu
con servat
ck e,</w>
bie tet</w>
ass e</w>
anti bio
aan pass
Wei se.</w>
Ver s
T s
Sch wi
Sch le
R B:</w>
Phän omen</w>
P lo
O pen</w>
N G
Mann :</w>
K ev
K ell
Ill us
Hol z
Glück ,</w>
Gespr äch</w>
Frei will
Des wegen</w>
Dan ach</w>
Con ne
Ar men</w>
Andre w</w>
20 ,</w>
2 ,5</w>
zon .</w>
zo wat</w>
zo chten</w>
z wak
z immer</w>
z ag.</w>
wo her</w>
win d
weltwei ten</w>
waarsch uw
vrien den,</w>
verk oo
verbeel ding</w>
ungs -
ul tra
tä glichen</w>
typ isch</w>
tu ssen
ter weise</w>
ten den</w>
te vre
stre ven</w>
stij l</w>
st uren.</w>
slu it</w>
sch on.</w>
samen werken</w>
s is</w>
ri vier</w>
produc eren.</w>
prober en.</w>
pa kken.</w>
muzie k
mit glie
mer n</w>
mensel ijk
leg de</w>
kr äf
ko cht</w>
ig a
ic on</w>
ic a,</w>
hät ten.</w>
hol en.</w>
heil ige</w>
gezond heid
gesell schaf
gesch windig
gegen seitig</w>
g nisse</w>
dro om
cool .</w>
bro er</w>
beobach ten,</w>
begr ei
ar do</w>
Wahrneh mung</w>
W är
V oll
Univer sum
Stu dier
Schmer z</w>
Sauer stoff</w>
Sauer stoff
S oll
S kla
O st
Nor da
Lin ien</w>
In s
Hig gs-
H aar
G utes</w>
Flü ss
Ele mente</w>
Deta ils</w>
Dar um</w>
C lu
Bl ät
3 3</w>
ör der
z ell
y "</w>
wa t
voor oor
verk nü
verbr ingen</w>
ver houding</w>
ung lü
um s
um m
te ."</w>
t ie
str ie,</w>
staan de</w>
sp lit
sp iegel</w>
sp ellen</w>
sel be</w>
ro bu
re fer
ra ff
r ing
prakti sche</w>
plo ts</w>
plan nen</w>
over heden</w>
oper atie</w>
oo per
nutz t</w>
neg atieve</w>
möglich keiten</w>
kreb s</w>
klass ieke</w>
k es</w>
k as
jen er</w>
inter net,</w>
ier ung.</w>
hör e</w>
her um,</w>
handel n</w>
grund sätzlich</w>
geïnspire erd</w>
geraa kt</w>
genees kun
gelijk .</w>
gefra gt,</w>
gebeurten issen</w>
g no
fol gende</w>
erwar tet</w>
erlaub t,</w>
e wi
daaro p</w>
ct or
brau chten</w>
bouw den</w>
blau w</w>
binn en.</w>
betaal d</w>
bel de</w>
bein hal
be hör
b all</w>
aspe cten</w>
af :</w>
aan ?</w>
Willi am</w>
Web site</w>
Ur spr
Tr äume</w>
Sym pt
Sym met
Sp ei
Sch alt
Ra di
R hyth
Organis men</w>
Mag a
Kev in</w>
Interess an
Inter nation
Gewe be</w>
Ged ächt
Et was</w>
Br ücke</w>
2 8</w>
1, 5</w>
1 20</w>
zie l</w>
zich ten</w>
wer de.</w>
vor ne</w>
voedsel .</w>
vo eg
viel e,</w>
veröffent licht</w>
va ste</w>
universel e</w>
um bi
t in</w>
st ur
st ."</w>
spezi ellen</w>
sla an.</w>
schwar zen</w>
sch ätzen</w>
sch utz
ru fen</w>
ro ei
ri g</w>
re gen</w>
pog ing</w>
pass ion
p om
op name</w>
ob en.</w>
nie .</w>
mo dell</w>
le -
land bouw</w>
klop t</w>
kin d.</w>
instru menten</w>
groß .</w>
gez ichts
gevaar lijk</w>
gestel d.</w>
gest eu
gedra g.</w>
gan da</w>
g den</w>
f rau
f d</w>
etz en</w>
erlau ben</w>
er uit
ein digen</w>
e ens
do kument
do delijke</w>
dit ?</w>
der s,</w>
da k</w>
d ;</w>
bre ed
bewe egt</w>
beschav ing</w>
be spar
arti ges</w>
ar .</w>
Wet ensch
V agin
Tal ib
Staa ten,</w>
Schick s
Pot enzi
Pati ent
N el
M oe
Land schaft</w>
Krei sl
Kno chen</w>
K ontro
Invest it
F ische</w>
Er st</w>
Ein druck</w>
Eig ent
E miss
E art
Dienst leist
D ör
D ig
C A
Beob acht
Be vor</w>
B erg</w>
Ab schluss</w>
über wältig
ör din
Ö kon
zin nen</w>
wus sten,</w>
woor den.</w>
wo für</w>
vorm t</w>
virtu ele</w>
versch ei
verk aufen</w>
ve zel
unter en</w>
ung ssystem</w>
tre kt</w>
ster ben,</w>
statist ieken</w>
stab ilis
st ir
st ik
st :</w>
spro b
spann ende</w>
sen den</w>
schnell .</w>
sch et
rei s
rei che</w>
opzich te</w>
onderzoe ks
off enen</w>
mer kte</w>
me dit
m 'n</w>
loo p
log isch</w>
leer lingen</w>
le zen,</w>
le k
kom mer
intro duc
illu str
ig ten</w>
ig ens,</w>
ieder een.</w>
hoo p
hel aas</w>
grei fen</w>
glob alis
ges lagen</w>
gele gt</w>
gehoor d.</w>
gebie d,</w>
ge organis
ge houden</w>
er ten</w>
eeuw se</w>
dür fen</w>
dr auß
dit :</w>
de hn
ct ie
c us
c ten.</w>
c ten,</w>
buiten landse</w>
bu sin
boe k,</w>
blau e</w>
bedeut et.</w>
be tr
be he
be dra
ari o</w>
an st
al a</w>
Vol k</w>
Versu ch,</w>
Valle y</w>
T ät
S kel
Re publ
Op ti
Ner ven
Maß stab</w>
Lebewe sen</w>
Jahrzehn ten</w>
In fe
In don
I g
Ha w
Geh en</w>
Freun de,</w>
Exist enz</w>
Eng land</w>
Do ku
C ur
Bri an</w>
Bei de</w>
Be su
Be dan
Ar ist
An statt</w>
zor gen.</w>
wij sheid</w>
vo er</w>
vert ell
verlief d</w>
verkie z
verbreit et</w>
ung ss
tu in</w>
ter m</w>
telefo ons</w>
t or
t aa
stre ss
stop pen,</w>
ster o
stei gt</w>
sogenann te</w>
sie ht.</w>
setz ten</w>
sel ten
schul d</w>
sch lau
ro of
profess or</w>
po di
plat z</w>
perso on.</w>
pa k</w>
ontwer pers</w>
ont moet</w>
onderwij s,</w>
nut tig</w>
nie t."</w>
mö gen,</w>
mei ster</w>
masch ine</w>
m uren</w>
lich te</w>
lich erweise</w>
lei b
krij gt.</w>
keer .</w>
kap ut
j ah
ing sc
iel l</w>
gru ppe</w>
gestor ben</w>
gereed schap</w>
geh an
ge produc
fün f
ess entieel</w>
econom isch</w>
econom ie.</w>
e ss</w>
daar bij</w>
cultu ur,</w>
com plic
ck el
cht es</w>
ch ro
br ief</w>
boven op</w>
best ond</w>
bena der
at o
appar aten</w>
a sie</w>
Zun ächst</w>
Vir en</w>
Twee de</w>
Telef on</w>
St äm
Mo tiv
Länder ,</w>
Kü hl
Jung s</w>
Ja ck
In iti
Han s</w>
H äuser
Gu te</w>
Fak ten</w>
Europa .</w>
D amen</w>
B M
überzeu gen,</w>
z ung</w>
y ste
wär en,</w>
wei ßen</w>
wei sen.</w>
war :</w>
w äch
volwa ssen
vin dt,</w>
verzamel ing</w>
verklar ing</w>
un abhäng
tre ten.</w>
ten zij</w>
taus enden</w>
stree ks</w>
sp ullen</w>
slo tte</w>
schließ en.</w>
s ätze</w>
ruim tes</w>
ri v
re gener
organ ische</w>
opmer kelijke</w>
onderzoe k
nah men,</w>
model .</w>
mittel s</w>
me erd</w>
leg gen,</w>
kwaa d</w>
krit ische</w>
kost te</w>
kl aar
ken den</w>
it ische</w>
informat ie,</w>
gn ü
gl amo
gez w
gewähl t</w>
geloof de</w>
gel eit
geheu gen</w>
ged ul
gar ant
för m
fäh igkeit</w>
fe est
erzeu gen.</w>
du m
de el.</w>
de den.</w>
co ördin
cht ?</w>
bo ar
betracht et,</w>
beschäft igt</w>
besch ul
be keken</w>
av ont
al t,</w>
ak u
aan ra
a gen</w>
Wir kung</w>
Werel doorlo
Schu le,</w>
Schlu ss</w>
S her
R olle
Ober fläch
Netz werk
Nach haltig
N iveau</w>
N ation</w>
Medikam ent</w>
M ent
Kör pers</w>
Kr imin
Indu stri
Gehir n,</w>
Gegen teil</w>
Fun ktion</w>
El tern
Dan ke,</w>
Co de</w>
Bang la
B ir
Aus maß</w>
Augen blick</w>
Au st
At lant
A gen
8 5</w>
über qu
Ä l
werk te.</w>
weiß e</w>
wei ch
wahr .</w>
waar onder</w>
voel en,</w>
voed ings
verrück t</w>
verbin den,</w>
verbazingwek kend</w>
tij ds
te erd.</w>
struct uur.</w>
sol ange</w>
sho w</w>
schütz en.</w>
regen w
reag ieren</w>
psych ische</w>
polit ici</w>
pap ieren</w>
p oli
onderne m
nis se.</w>
neu gier
naar mate</w>
muzie k.</w>
man nen,</w>
m ier</w>
lig gen.</w>
lag ere</w>
kran k</w>
kool stof</w>
jar en.</w>
is ierung</w>
i ens</w>
hou dt.</w>
ho l</w>
hinzu fü
graa f</w>
gezond heid.</w>
gesam t</w>
gel e</w>
für s</w>
fol genden</w>
famil ie,</w>
ein e.</w>
e he
drei ,</w>
de x</w>
daa d,</w>
communic eren</w>
c yber
bru g
bew on
belan g
bedrij f,</w>
aantre kkel
Zu hause</w>
Zit at</w>
Z ur
W is
Ver volgens</w>
Tran spar
Technolog ie.</w>
T ö
Spiel er</w>
Sch lei
Sat ur
Plan et</w>
Part ner
O hne</w>
Men gen</w>
Hunder te</w>
Ho ward</w>
For m
Flei sch</w>
Em pf
C el
Bevölker ungs
Bau ern</w>
B oe
At lan
Al ter
A k
19 3
"N ou,</w>
z olang</w>
won gen</w>
woll ten.</w>
wil ,</w>
wij nen</w>
w icht</w>
veränder t,</w>
versu s</w>
v aten</w>
the ma</w>
te st.</w>
t je.</w>
t huis.</w>
ser n</w>
sch rit
react ies</w>
radi o
pro to
pp en
plaat selijke</w>
perfe kte</w>
ou dste</w>
organ en</w>
op nam
op dracht</w>
nö tig</w>
nann te</w>
mm t</w>
mm a</w>
min stens</w>
mat er
komplex en</w>
it i</w>
ismu s.</w>
im plic
ik -
hij :</w>
har te</w>
ha ck
grü nen</w>
gewinn en.</w>
geweld da
gevo eg
gevaar lijke</w>
gener aties</w>
geb oren,</w>
fre m
ent standen</w>
en en,</w>
dig keit</w>
d s.</w>
col leg
blie ft</w>
blie b</w>
bescher m
bepaal t</w>
bedrij f.</w>
auto .</w>
ausseh en.</w>
a re
Z eer</w>
W il</w>
Vor fahren</w>
Verlu st</w>
Ver wand
Ver breitung</w>
Um feld</w>
Tex t
Steu er
Rä tsel</w>
Ris iken</w>
Ries en
Nerv enz
Ne der
Mehr heit</w>
M isch
L asst</w>
Ingenie ur
Het zelfde</w>
Grün de,</w>
Freund in</w>
Dru ck
Con g
Bun des
Be weise</w>
B au</w>
A meric
3 0.000</w>
ö ss
ä ger</w>
zin .</w>
war ten,</w>
vla g</w>
verschrik kelijke</w>
vermo or
ver wan
ver ste
v es</w>
v a</w>
transp lant
t at,</w>
ste den.</w>
sph ä
sch ä
sch la
regi o</w>
re cht.</w>
princip es</w>
phys ikal
perfe kt</w>
pagin a's</w>
p i
ou d,</w>
ot a</w>
ool s</w>
onzicht bare</w>
o l</w>
no ch.</w>
na he
n un
lu s</w>
link s,</w>
kunsten aars</w>
kre ativen</w>
kr äfte</w>
kin d,</w>
is ."</w>
i aanse</w>
her gestellt</w>
han den.</w>
haal t</w>
h aus</w>
genoe md</w>
geavanc eerde</w>
ge zogen</w>
er gibt</w>
el n,</w>
ein iges</w>
ein en,</w>
draa ien.</w>
down lo
dicht bij</w>
di al
der selben</w>
der n,</w>
del n</w>
cultu ur.</w>
conflic ten</w>
colle ctieve</w>
brand stof
beteken t.</w>
bet rei
beg onnen.</w>
bau t</w>
b lu
aar de,</w>
Statist iken</w>
Sinn ,</w>
Re d
Ra y</w>
Pro tot
Oze ane</w>
N ah
Mo sk
Mitarbei ter</w>
Mil itär
Man :</w>
L onden</w>
Kor allen
Hü hn
H af
Gen om</w>
Fun da
Fran krei
Fe yn
Engel and</w>
Eig en
Da für</w>
Bil d.</w>
Bet t</w>
A ff
? ",</w>
" Ver
öpf e</w>
ät sel
ze s,</w>
waaro m.</w>
verd oppel
ver vel
ver stär
ver stre
v lucht</w>
un mittel
ton .</w>
tel n</w>
tek st</w>
ta in
t v</w>
start te</w>
st un
soll en,</w>
scha du
richt et</w>
qu e
puz zel
opwar ming</w>
op ar
onder nemer
on wet
no chmal</w>
metaf oor</w>
medic ijn
ma kers</w>
loc atie</w>
li d</w>
lau tet:</w>
lat en.</w>
k ik
k e.</w>
inspir iert</w>
ins besondere</w>
ide .</w>
grün e</w>
geë volu
gewe sen.</w>
gespre kken</w>
genü gend</w>
gene se</w>
gebeur en,</w>
frei e</w>
f iets
erzähl t,</w>
entschei den
entdeck en,</w>
en en.</w>
dru kt</w>
beschrij ft</w>
benö tigen</w>
behandel n</w>
begrij pt</w>
au sprob
ati ver</w>
alitä t,</w>
We g
Vor teil</w>
TED Tal
T onnen</w>
T ar
Säu get
Stra hl
Schu le.</w>
S ahar
Potenti al</w>
P ort
N ort
Mus ik,</w>
Me et
M und</w>
Jo se
Indu strie
Ha ï
Groot -
Glü cklich
Gesell schaft,</w>
Ge ef</w>
Fran kr
Erklär ung</w>
Entwicklungsl ändern</w>
Emotion en</w>
Di plom
C ro
Buchstab en</w>
Bu sin
Bien en
Ben utz
B and
Archite kten</w>
Ar me</w>
Anwen dung</w>
' t</w>
" F
zer r
zelf spre
vier .</w>
verfüg bar</w>
verander ing,</w>
ver enig
ve el,</w>
tre k
to ,</w>
teru g,</w>
te vens</w>
t ung,</w>
t !</w>
ster e
star ken</w>
st ein</w>
spre ken,</w>
spiel te</w>
spiel t.</w>
sleut el
sl oppen
sel ten</w>
sch itter
respe kt
respe ct</w>
qu alität</w>
pingu ïn
p elt</w>
omvan g</w>
om wille</w>
mee ster</w>
medic ijn</w>
lo ssen,</w>
lern t</w>
l ijn.</w>
krie gen</w>
is me,</w>
intelle ktu
indi vi
in kr
in :</w>
hunder t
hoor den</w>
hij .</w>
gev al,</w>
gela ssen</w>
gebeur d.</w>
g d,</w>
ftwa re,</w>
fol gt</w>
ernst ige</w>
er heb
ep idemie</w>
em path
dr ie,</w>
dok ters</w>
dich ter
deu tig</w>
de ze,</w>
cht ung</w>
chem ic
brilj ante</w>
brand stof</w>
bo den</w>
bet alen.</w>
bet al
beperk ingen</w>
benutz t,</w>
beg lei
be sie
be herr
auf regen
arch ie</w>
al em</w>
ach ts
Win d
Wel nu,</w>
Tr in
Temperat ur</w>
St ur
St ille</w>
S ä
S imul
Re chte</w>
R en
R and</w>
Oper ation</w>
O :</w>
Netz werke</w>
N ar
Mus eu
Mikro ben</w>
Mach en</w>
M r.</w>
M acht
Kü ste</w>
K äf
H ung
Ger ü
Gen om
G let
F inger</w>
Dy nam
Don al
Diskuss ion</w>
C y
Bij voorbeeld</w>
B ijna</w>
A stero
20 11</w>
. com
öff net</w>
Ü b
zoek tocht</w>
wor an</w>
wirklich en</w>
wirkl ich.</w>
wes halb</w>
werk nemers</w>
wer kelijke</w>
verrass ende</w>
veroor l
untersu chen</w>
ung sp
ult ieme</w>
uit zien.</w>
test s</w>
spe ziell</w>
spe kt
sn el.</w>
schließ en,</w>
ran n
priv é
plo tseling</w>
ou den</w>
nu l</w>
n al
men ta
leg t,</w>
l i</w>
kenn en
k ult
jähr ige</w>
jaar lijk
indivi du</w>
ill us
hän g
hon ger
heraus gefunden,</w>
hel den</w>
heden daagse</w>
gron d,</w>
gro ss
gi o
ges lo
genoe g,</w>
ge ograf
g ül
fähr t</w>
for t,</w>
fil m.</w>
fa ctor</w>
f ten.</w>
dien st
die genen</w>
den heit</w>
defin it
de ze.</w>
dau erte</w>
dar unter</w>
dach te:</w>
creë ren,</w>
bre chen.</w>
au t</w>
ast ro
aspe ct</w>
al s,</w>
afkom stig</w>
aan val</w>
a ge.</w>
You Tu
Yor ker</w>
Ver t
Tier e,</w>
Te gen
Sy ri
R itu
R am
Pr ü
Pf und</w>
Par kin
Nutz ung</w>
Nel son</w>
Nachbar n</w>
Min uten,</w>
Lin ks</w>
L am
Korrup tion</w>
Jan u
In sel</w>
I .</w>
Grün den</w>
Gre en
Gr ü
Ge ograph
Frau en
Fa st</w>
F ett
E cht</w>
Daar mee</w>
Bill ionen</w>
Au gen.</w>
Arth ur</w>
Ang st.</w>
Alle s,</w>
Ahn ung,</w>
A bl
200 1</w>
"He y,</w>
zuur stof
zo om
zin s</w>
ze s
z elle</w>
wunder baren</w>
vroeg :</w>
veil ige</w>
val .</w>
to x
sta dium</w>
spel er</w>
schl agen.</w>
ren nen</w>
recht streeks</w>
r o</w>
pun t,</w>
profession ele</w>
pens io
op genomen</w>
ont staat</w>
ont hul
ol um
o :</w>
n el</w>
mus ste.</w>
mu ster</w>
moe der.</w>
met en.</w>
lu id
leider schap</w>
lei den,</w>
ker en.</w>
kam er.</w>
k ub
k se</w>
im e</w>
hil ft,</w>
gehör en</w>
ge slach
fys ica</w>
foss iele</w>
for schen</w>
ent sprech
ein en.</w>
e ven.</w>
do l</w>
direc teur</w>
den ?"</w>
dat a.</w>
da gen.</w>
cho col
bro ei
boven ste</w>
bewe eg
be un
aus einander
at ies
ac ti
] .</w>
Zwe ck</w>
Z immer</w>
Wür de</w>
Wohl stand</w>
V ele</w>
Untersuch ung</w>
T on</w>
T im</w>
T ha
T am
Schlu ss
Proz ent
O e
Mot or
Mo der
Lon g</w>
Kur s</w>
Kl eine</w>
Isra el</w>
Go d,</w>
Francis co
Famil ie,</w>
Erkennt nis</w>
Erfin dung</w>
Elektriz ität</w>
Dig it
Defin ition</w>
Co unt
C enter</w>
Berei che</w>
Ban k</w>
Aut om
Alzhei mer</w>
Ab sol
" G
zugän glich</w>
zon e</w>
z 'n</w>
wähl en,</w>
wi ens</w>
wei ss</w>
voorwer pen</w>
voor waar
vo eten</w>
vlieg tuig
ver zwei
van zelfspre
untersu chen,</w>
unter st
stim men</w>
ster ker</w>
st op</w>
spä ten</w>
schwier ige</w>
schein t,</w>
rie ben.</w>
re ale</w>
op eens</w>
ner v
mus ste,</w>
mus ikal
mu izen</w>
mer en.</w>
mehr eren</w>
m ische</w>
lin ke</w>
lijk en.</w>
le hn
kun st,</w>
krij gt,</w>
kar te</w>
k ort
k g</w>
jullie ,</w>
jar en,</w>
j ap
is eren</w>
irgend eine</w>
ieman ds</w>
i ber
hou t</w>
her an
h aar.</w>
gä be</w>
grundle genden</w>
gro sse</w>
genu g.</w>
foto .</w>
even wicht</w>
er r
er om</w>
dru k.</w>
dramat isch</w>
democr atische</w>
d einer</w>
com ment
buiten gewone</w>
blin de</w>
beschlo ss</w>
ber n</w>
belangrijk ,</w>
bas ierend</w>
a ge,</w>
Wissenschaf t,</w>
Wer bung</w>
U -B
Ter u
Sp re
Sp iegel
S ohn
Oze an
Nicht -
Mik e</w>
M aar,</w>
J oe
Heu t
Groot- Brittann
Gol f
Galax ien</w>
Fäll e</w>
Frau en.</w>
Eth iop
En ,</w>
Bewei s</w>
B oot</w>
Au gen,</w>
200 .000</w>
Über wach
zicht baar</w>
wirtschaf t
wenig stens</w>
verschrik kelijk</w>
ver ber
tro k</w>
tre ten,</w>
ste ek</w>
schmer z
schilder ij</w>
quival ent</w>
prim a</w>
pot enti
posit ief</w>
perso on,</w>
oorspron g</w>
nimm t,</w>
ne e.</w>
mole kul
me disch</w>
lo t</w>
kultur elle</w>
kran t</w>
kr ist
kr ise</w>
kn op</w>
kl ein.</w>
iz ont
inn en,</w>
ingenie ur
ing sp
hou dt,</w>
histor isch</w>
hier her</w>
herzu stellen,</w>
hat ?</w>
har ma
groe p.</w>
gez icht
gewiss er</w>
gesetz t,</w>
gegev en,</w>
ge slaa
ge makkel
ge fühl
fl ächen</w>
er kran
ent spricht</w>
einfach es</w>
e el,</w>
dynam ische</w>
draa d</w>
decenn ium</w>
dau ern</w>
d "</w>
cor tex</w>
cir c
be werk
be frei
astron om
an get
af vragen</w>
Z ähn
Vol ks
V in
T ens
Stär ke</w>
So ur
Sil icon</w>
Se e</w>
Regier ungs
P lö
Me est
Mal aria</w>
M aus</w>
Li ban
Kor an</w>
Kam pf
K om</w>
K en</w>
Han del</w>
H at</w>
Gesch ma
G ab
Fortschrit te</w>
Dro gen</w>
Caro lin
C -
Berei chen</w>
Beh inder
Ba y</w>
Au ft
A ber,</w>
5 000</w>
4 .000</w>
"O ka
zin tuig
we sten</w>
vol komen</w>
vol gor
versprei ding</w>
vergan genen</w>
unterschie dlich</w>
tol l</w>
tatsäch lich,</w>
syn chron
stre ss</w>
st om
spel ers</w>
situ aties</w>
sie ?</w>
sich t,</w>
sel s</w>
schrij ver</w>
schau en.</w>
rijk dom</w>
p hil
op enen</w>
ontwikkel den</w>
onderzoe k,</w>
ner vö
nachzu denken.</w>
nach denken</w>
n ein.</w>
molecul aire</w>
mit zu
min uten.</w>
merk wür
mann elijke</w>
man ieren.</w>
la ss</w>
kop en,</w>
kl app
isch -
in won
ik op
ig er.</w>
i ge.</w>
hon ger</w>
he em
haa ien</w>
h um
großart ig.</w>
gr iffen</w>
gin eer
gevorm d</w>
gef o
geboor te</w>
gan g,</w>
fall .</w>
f ess
entschie den,</w>
en lang</w>
el le
ei sen</w>
durch geführt</w>
do de</w>
den falls</w>
den ;</w>
del t</w>
de ."</w>
berei t,</w>
ber ücksicht
bena dering</w>
bau te</w>
b ell
atmos f
aa st</w>
Wer k</w>
Vö gel</w>
Voor dat</w>
Ver tei
Strat e
Scien ce</w>
S onder
S ir</w>
R wan
Pat ri
Na dat</w>
Mom ente</w>
Min ute</w>
Meest al</w>
Länder n,</w>
Lon d
Kult uren</w>
Kinder n,</w>
K ampagne</w>
J ur
Han d.</w>
Ge durende</w>
Ex plo
E ven</w>
E conom
De mon
D ou
Compu ter.</w>
Bedürf nisse</w>
B I</w>
50 ,</w>
z ige</w>
y 's</w>
wor auf</w>
woest ijn
wo von</w>
we er,</w>
war tung</w>
versch mutz
ver moe
v ullen</w>
untersu cht</w>
toepass ing</w>
tion ,</w>
ten -
te kort</w>
t ar
stro m
stell en:</w>
stei ger
steh e</w>
sogenann ten</w>
slachtoff ers</w>
se ptember</w>
sch on
re a
psych iat
plat form</w>
plane et,</w>
p ul
on geluk</w>
oce aan.</w>
n etz
men :</w>
mam mo
m ult
lu cht.</w>
lich amen</w>
leben de</w>
lan ge,</w>
l amp
kontroll ieren</w>
klar .</w>
kam p</w>
ist ."</w>
institu tion
ingenie urs</w>
in ti
hiel p</w>
hei ten.</w>
groo t.</w>
gezond heid,</w>
ger ing
genom en,</w>
gen d,</w>
gelegen heid</w>
gebie den.</w>
ge omet
g sten</w>
fall en.</w>
expon enti
erneu er
er fahren</w>
ein deutig</w>
di ges</w>
dat ab
commer ciële</w>
boe ken.</w>
blo ck
bil den,</w>
beslu iten</w>
begeister t</w>
be zorgd</w>
be zoek</w>
be u
be halten</w>
b lok
b id
an schauen</w>
an alog
alle bei</w>
al tern
aange toond</w>
Wirtschaf t
We g.</w>
Vir gin
U -
So ci
Sh ir
Sch öpf
Sch ätz
Result at</w>
R ad
R ach
Philosop h
P enn
P aar
Or t.</w>
O ,</w>
N ähr
L äch
Kult ur,</w>
Kre uz
Jahrzehn t</w>
Inter net.</w>
Institu te</w>
In dem</w>
Imm er</w>
Ha wa
Groß e</w>
Ger äusch
Ep idemie</w>
Do ktor
C oll
Bet rieb
Aktiv itäten</w>
Ab ra
4 2</w>
3 -
2 9</w>
zi p
we gen.</w>
vergelijk bare</w>
verbr auch</w>
ver wirr
tum or</w>
toe voe
toe passen</w>
to u
ti ka</w>
te st,</w>
t ier
stell ungen</w>
ste chnolog
spron g</w>
spr ingen.</w>
schein end</w>
sch lie
s mel
ru st</w>
roe pen</w>
pun kt,</w>
par adig
ontwer per</w>
o ut
mu s,</w>
mit ,</w>
metho den</w>
mar kt,</w>
m äch
lich ste</w>
letz ter</w>
leist ungs
leg te</w>
leb ten</w>
la sst</w>
l l</w>
könn en?</w>
kre ative</w>
kl ein,</w>
k ipp
j onge
ip ,</w>
inter ne</w>
ingewikkel d</w>
illeg ale</w>
ijn se</w>
höher e</w>
hoo p.</w>
hin ten</w>
hier aan</w>
gol f</w>
gew on
gelukk ige</w>
ge passion
for t.</w>
eth ische</w>
er fahren,</w>
ent gegen
eigen tliche</w>
e valu
draa ide</w>
dollar s</w>
depress ie</w>
daaro ver</w>
da zu
d ungen.</w>
contro le
c entimeter</w>
br eite</w>
biljo en</w>
behoe ften</w>
beel den.</w>
af deling</w>
a dre
Ziv il
Wa s,</w>
W ander
V .S.</w>
U l
T at
Son n
Schwier igkeiten</w>
Schließ lich</w>
Satell it
Sa gen</w>
S m
S ET
Ra dio
R N
Over al</w>
Or che
Mobil telef
Min ist
M um
K lang</w>
Inter net,</w>
Inner halb</w>
In halt</w>
Ger u
Geheim nis</w>
Fer tig
Erinn ern</w>
Ein stellung</w>
Dimens ionen</w>
D ün
Compu ter,</w>
Charak ter</w>
Bil der,</w>
Ba hn
B B
. :</w>
' s?</w>
„ Ich</w>
zwei mal</w>
zuneh mend</w>
ze ?</w>
wachst um</w>
von einander</w>
vo gel</w>
verd wijnen</w>
v loo
ten toon
teil weise</w>
stuur de</w>
sl aat</w>
ser ieuze</w>
schnell ,</w>
sc oo
re serv
proce s,</w>
pro mo
ouder s,</w>
ontwer per
nive aus</w>
nive au.</w>
mü h
mu s.</w>
mo chten</w>
me -
maatschapp elijke</w>
lichkei ten</w>
leef de</w>
ku st
kor aal
klim aat</w>
kei ts
kan ker,</w>
kan ,</w>
k wart</w>
intellig ent</w>
idee ën,</w>
i x</w>
hän gen</w>
her stellen,</w>
her s
her kennen</w>
han gen</w>
goed koop</w>
gezondheids zor
gevol gd</w>
geschie ht,</w>
gele sen</w>
ge plan
ge ob
ga ge
eu s</w>
el s.</w>
el at
ef f</w>
e et</w>
druck ,</w>
doo d,</w>
d war
br in
beispiel sweise</w>
beeinflu ssen</w>
be komme</w>
ateg orie</w>
antwoor d.</w>
an geme
alle m,</w>
activ iteiten</w>
We st</w>
Ver stehen</w>
Ver füg
Tran sp
Tegen woor
Sin ds</w>
S qu
S end
R ücken</w>
Programm ier
Part n
Pal ä
Pal est
N ov
Mon ter
Metho den</w>
L E
Japan se</w>
Jahrzehn te</w>
J enn
J eff</w>
Intera ktion</w>
In ten
Heut zutage</w>
Gesich ter</w>
Gener al</w>
G ore</w>
Famil ie.</w>
Ent wur
Ein heit</w>
Durch schnitt</w>
Diagram m</w>
Chin es
C la
Bild ungs
Bar r
Bangla des
Aus rüst
50 %</w>
änder t.</w>
zel den</w>
z and
z -
vriend in</w>
von d.</w>
viel es</w>
verkie zingen</w>
verbun den.</w>
ver lo
ver licht
ul en</w>
uit ste
toepass ingen</w>
star ten.</w>
stand punt</w>
spre ek</w>
span nen</w>
sp ieren</w>
sp en
ser ,</w>
sch aal.</w>
sam en,</w>
rau m
ra k
r ing</w>
open -
oo g,</w>
o beren</w>
nah me,</w>
n eigen</w>
mod ell
kommen ?</w>
kl anten</w>
in vloe
ic a.</w>
i te</w>
gez ichten</w>
gewinn en,</w>
gew onnen.</w>
gest art
gesch en
genet ischen</w>
ge kregen</w>
g an</w>
flie gen.</w>
flie gen,</w>
el n.</w>
ein stimm
effect ieve</w>
econom ie,</w>
e k.</w>
dop pelt</w>
den kt:</w>
del s</w>
combin eren</w>
chines ische</w>
ch ter,</w>
bestu deren.</w>
besteh t,</w>
behandel d</w>
be vorzu
auf gebaut</w>
au ti
at ur</w>
argu ment
af gelegen</w>
ac ul
a y
a ster
Zuschau er</w>
W ich
Vro uwen</w>
Vorstell ungen</w>
Vergan gen
V al
Un ter</w>
Un s</w>
Tegenwoor dig</w>
Sym bol
Rau m.</w>
Pha se</w>
Neu es</w>
Männ chen</w>
Mensch ,</w>
Lö cher</w>
Lap top</w>
L än
Jan e</w>
Indi en.</w>
Imm un
H ub
H ot
Gemein schaften</w>
Erinner ung</w>
Er st
Eff izi
Deutsch land</w>
Desig n,</w>
Dar stellung</w>
4 0
. or
" St
Über leben</w>
Ü br
z z
wol ken</w>
wir k
ving ers</w>
vide o's</w>
ver slaa
ver gleich
van gen</w>
v ic
universu m.</w>
u el</w>
ts j
toekom st,</w>
toe stand</w>
tel t</w>
te ch</w>
stu k.</w>
sterrenstelsel s</w>
ste v
star b</w>
stan dar
stam mt</w>
spezi elle</w>
sp u
sich :</w>
schön ,</w>
schlu g</w>
sam keit</w>
roman tische</w>
popul aire</w>
pa k
p oe
p -
ont stond</w>
on afhankelijk</w>
o ti
neu s</w>
nach denken.</w>
minu ut</w>
mi x
mechan ische</w>
mal s.</w>
magnet ische</w>
ma il
ma g,</w>
län dlichen</w>
lop ende</w>
la sse</w>
kon sum
kn app
kl on
kam en.</w>
interessan ten</w>
inspir atie</w>
indi schen</w>
immer s</w>
igkei ts
hei ßen</w>
hang ha
hal ts
grapp ig</w>
gestor ven</w>
gesch ikt</w>
ges unden</w>
gehei m
ge goo
g ie
fo kuss
ff e
fahr t</w>
f ter</w>
evolution aire</w>
et ho
erkann te</w>
er in,</w>
er ."</w>
entfern t,</w>
ein gesetzt</w>
dimens ies</w>
di am
den selben</w>
de den,</w>
d einem</w>
cir kel</w>
ch auff
ch -
c ult
c la
bren gt.</w>
br y
br on
bla d</w>
bewe ging.</w>
best aat.</w>
beroe p</w>
ber au
b ad
aussie ht,</w>
at tra
appar te
an stelle</w>
ag ress
ad vis
ab sur
aar dige</w>
Z y
Washing ton,</w>
Ver lauf</w>
Ver gnü
V S,</w>
Unterneh mer</w>
Tens lo
T äusch
Sch ot
Sch ool
Pa zif
P A</w>
N iets</w>
Mus lim
Mo ham
M em
Kre dit
I mp
Großmut ter</w>
Fello w</w>
D ist
Broo kl
B ol
Ar t.</w>
6 .000</w>
3 0
é ,</w>
zu iver
z ün
wor um</w>
woon de</w>
waar ,</w>
w on</w>
visu elle</w>
viel fäl
verschieden er</w>
ver tic
ver halen.</w>
vat er</w>
um gekehr
temp o</w>
teil ,</w>
tegen over
symb ool</w>
so was</w>
sich er.</w>
sexu elle</w>
setz t.</w>
schüt zen</w>
s z
roe pt</w>
projec t,</w>
passier t?</w>
ont wier
nor mal</w>
ne e</w>
müs ste</w>
moment an</w>
mogelijk heden.</w>
moe dig
milit är
mechan isme</w>
ma s
ma ker</w>
läu ft.</w>
lin k</w>
lich :</w>
le s,</w>
kl ick
jon gste</w>
jeman den,</w>
iv es</w>
ih n,</w>
hor izont
hier in</w>
hel pen,</w>
hebben ?</w>
har mon
gre ss</w>
gol f
geschick t</w>
gehei men</w>
geh aald</w>
ge spielt</w>
g :</w>
fass ung</w>
fact oren</w>
eu w</w>
et ?</w>
erle bt</w>
erlau ben,</w>
erkenn t</w>
enor dn
en ter
em on
duur zaam</w>
dr in</w>
del .</w>
del ,</w>
chemic al
bov en.</w>
bouw t</w>
biolog ischen</w>
bij dra
bezahl t</w>
bedrij ven,</w>
be hinder
archite ct</w>
allemaal ,</w>
ad vert
ab ol
aal d.</w>
a dem</w>
Wahrschein lich</w>
Vor teile</w>
Vi ru
Vat er,</w>
Treib haus
TED ,</w>
T K:</w>
Sto ck
St ein
Spiel .</w>
S hangha
Respe kt</w>
R ö
R ou
Pho to
Pati ent</w>
P op
P han
Ox yto
Ox ford</w>
Medi a</w>
Mc Donal
Le e</w>
L a</w>
Kn op
Gro ßen</w>
Glü h
Gespr äch
Ge fan
G it
Führ ung
El tern,</w>
Design -
Chine es</w>
Auf nahmen</w>
Aspe kte</w>
Archite kt
Ahn ung</w>
Ach se</w>
A ss
5 5</w>
. com</w>
- jar
zeker heid</w>
wie viel</w>
we m</w>
wa tt</w>
voor stellen.</w>
vol les</w>
versu chten</w>
versch wen
ver pa
ver mu
ver lang
ver hoo
ver glichen</w>
ver f
va der,</w>
ursprün glich</w>
ung ssyste
twe e.</w>
techn ischen</w>
sugger eert</w>
stier f</w>
stell ung,</w>
sta ds
spra ch
se ar
sammel n,</w>
rä um
ru hig
richt ung</w>
r un
r are</w>
prij zen</w>
pass ieren.</w>
p per
ontwikkelings landen</w>
na vig
n el
moral ischen</w>
maa kte.</w>
m s,</w>
lei chter</w>
lag en.</w>
kunst matige</w>
koff ie</w>
kijk ,</w>
il la
höch sten</w>
groei en,</w>
groei .</w>
gro ssen</w>
gou den</w>
geru st</w>
gel aten</w>
geconfron teerd</w>
ge ste
exter ne</w>
et e.</w>
erklär en.</w>
er hielt</w>
en ",</w>
effe ktiv</w>
eenvou dig.</w>
drück t</w>
don ker</w>
dollar ,</w>
do el.</w>
d ie.</w>
cont ac
ch sel</w>
bil d
bewe gt,</w>
best rij
besonder en</w>
beschre ven</w>
besch ei
bes eit
ben den</w>
bel .</w>
bel ,</w>
be finden.</w>
at omen</w>
andert hal
an bie
] ,</w>
Zeh n
Z ur</w>
Wettbewer b</w>
W ähr
Vorstell ung,</w>
Vier tel</w>
Van af</w>
V ie
Tro tzdem</w>
Ton y</w>
The at
Sing ap
S lu
Rei cht
Rau b
Po wer
OK ?</w>
Norda merik
Metho de,</w>
M ed
Le ktion</w>
L icht,</w>
Kun st,</w>
Kar ikat
Jo e</w>
Gat es</w>
Fun ktion
Fall .</w>
Er stens,</w>
Dan ke
C li
B rei
B is
Auf nahme</w>
Afghanist an.</w>
3 ,
2 :</w>
2 5
- P
" ?</w>
ä ub
Über zeug
zo juist</w>
zich zelf.</w>
zei l
z wer
z enden</w>
z ende</w>
willekeur ig</w>
wed strij
waar dig</w>
voll .</w>
vol ks
vlie gen,</w>
viel er</w>
vertrau t</w>
versu che,</w>
verk open.</w>
ver wal
vel den</w>
unterstütz en.</w>
uit wissel
syste men,</w>
spä t</w>
so gar
sich tig</w>
si denten</w>
sein ."</w>
schau ten</w>
schat ten</w>
s op
ries iges</w>
refle kt
r äume</w>
op lever
nicht ."</w>
natuur ,</w>
n ung</w>
müs sten</w>
meerder heid</w>
ma ga
läch er
lie pen</w>
lie gen,</w>
lan ds</w>
laboratori um</w>
kun gen,</w>
konzentr ieren</w>
k oud</w>
jan u
ist in</w>
is eerd</w>
ip per
industrie .</w>
imm u
ig ran
hr en,</w>
h ut
geschieden is,</w>
gesch ä
ges und
ge schafft</w>
ge gaan.</w>
fun cties</w>
for man
fan den,</w>
f us
en er</w>
el t.</w>
drück en,</w>
do den.</w>
daran .</w>
da ta
contro leren</w>
ck t,</w>
c y
bra ch</w>
beschrei bt</w>
bel oo
be sp
baar heid.</w>
afhan kelijke</w>
adv ies</w>
a in
a del
a ?</w>
Z wit
Welt bevölker
We st-
Ver wendung</w>
T umor</w>
Syste m.</w>
Stan ford</w>
Spra che,</w>
Sno w
Smit h</w>
Re chen
R oo
Plö tzlich</w>
Noor d
Mil itä
Mexik o</w>
L eit
L G:</w>
Innov ationen</w>
Hand ys</w>
Goog le,</w>
Gegen wart</w>
Fol ie</w>
Erinner ungen</w>
Erfahr ung,</w>
Ein schrän
D .
Californ ië</w>
C lou
Bu ch,</w>
Bi om
Azi ë</w>
200 4</w>
20 12</w>
12 .</w>
äu se</w>
ä nen</w>
z ir
wär en.</w>
w eh
vlieg tuigen</w>
viel mehr</w>
verstan den,</w>
vern ün
ver kenn
um gehen</w>
tu e</w>
trä um
tro kken</w>
tradit ie</w>
to ber</w>
tan den</w>
t ritt</w>
su chte</w>
st ein
spru ch</w>
spra ch,</w>
setz t,</w>
schwi m
s h</w>
reger ingen</w>
rapp or
pflan zen</w>
p lei
p ha
over wel
op komende</w>
onder nemers</w>
onbe kende</w>
oce aan
n äm
n ungs
mä chtig
muz ikan
mor eel</w>
middel en.</w>
men s,</w>
man ag
lon g
le gen
le ed</w>
lag en,</w>
ko sten,</w>
kl am
kie zen.</w>
ker st
ke spe
k m
irgend jemand</w>
invest ieren</w>
iden t
hoff en,</w>
heu te.</w>
heraus finden</w>
he m,</w>
h ung
h ing</w>
gla zen</w>
ges ün
ger elat
geno ten</w>
gef ä
g nis
frag te:</w>
fe edback</w>
etz t,</w>
erstaun lich</w>
errei cht.</w>
entfern t.</w>
ent stand</w>
emp fin
ein st</w>
eer lijk
dru gs</w>
der :</w>
deel de</w>
dar .</w>
d 's</w>
comple te</w>
chirur g</w>
c rit
c ine</w>
binn en,</w>
bi ologen</w>
bevolk ing.</w>
behaup ten,</w>
be zorg
auto -
aut om
ali en,</w>
Zeit ung</w>
Zeit raum</w>
We gen</w>
Voor al</w>
V aak</w>
T op
T om
Se e
Schat ten</w>
S he
Na se</w>
Mi o.</w>
Kon zentr
Klassenz immer</w>
Ker l</w>
K ing</w>
Jo urn
J ess
J a</w>
Inform ationen,</w>
I tal
Hö he
Hin blick</w>
Goe d</w>
Gen et
G rand</w>
E l</w>
Dinosaur ier</w>
Debat te</w>
D ere
Chine sen</w>
Bla ck
Aut or</w>
An griff
A qu
.00 0.</w>
. 500</w>
überrasch t</w>
zuneh men,</w>
wissenschaf ten</w>
waar dige</w>
waar ?</w>
vraa g,</w>
voe den</w>
veränder te</w>
vert al
versor gung</w>
verl äss
ver keer</w>
um p
to graf
ter :</w>
tele visie</w>
t ü
t herapie</w>
syste m,</w>
stu ur</w>
strukt ur
stra f</w>
stoff en.</w>
sta k</w>
sta di
st eigen
soor ten.</w>
schwer e</w>
sch ien,</w>
sat z,</w>
s j
recht s.</w>
re eds</w>
re ed</w>
rami de</w>
proce ssen</w>
pol y
pl ik
par le
p in
op vat
op bren
ont plo
ollab or
ob sess
ob en,</w>
o tische</w>
noem den</w>
mitt leren</w>
mis bru
men ."</w>
me ene
mal s,</w>
mach e,</w>
maal .</w>
lie ben,</w>
ler in</w>
leef den</w>
leb t.</w>
l äuf
kwij t</w>
kun nen,</w>
kenn t</w>
k w
j iz
interess iert,</w>
ie m</w>
id a</w>
höher en</w>
h yp
goo ien</w>
gewen d</w>
gespro chen.</w>
gecreë erd</w>
ge he
ge habt</w>
ge hab
g un
g ie</w>
fü t
foto ,</w>
f lei
erwar ten,</w>
entdeck te</w>
emotion ale</w>
ein del
ed y</w>
druk wek
door gaan</w>
digit alis
de eld</w>
cor re
ck e.</w>
c ro
c op
bewe gung</w>
betro kken
bet es</w>
beroe md</w>
be zieh
be kommt,</w>
b r</w>
b aas</w>
auto ,</w>
an nen</w>
amp us</w>
aanwezig heid</w>
Wor ten,</w>
Wa sch
Vor ig</w>
V ene
Strateg ie</w>
Sti r
St ücke</w>
St aten,</w>
Situ ationen</w>
Scho kol
S z
Ro sl
Regi onen</w>
Recht s
R ak
Por tu
Pol iz
Par ti
Or te,</w>
O l
Normal erweise</w>
N as
Mäd ch
Molekü l</w>
Manhatt an</w>
Man gel</w>
M ün
Leben s,</w>
Kaliforn ien</w>
Jos hu
In tegr
Geschicht en
Ges ichts
Gegen d</w>
Fre qu
En zy
Chem ie</w>
Blat t</w>
Antwor t.</w>
An führer</w>
Ab häng
A mp
A h
? ”</w>
17 .</w>
' 9
" Waar</w>
zonne- energie</w>
zon licht</w>
zei t.</w>
z :</w>
wissenschaft ler</w>
wir ken</w>
winz igen</w>
water stof
vol gend</w>
verwa chte</w>
verbess ert</w>
ver pf
v ierte</w>
un ten.</w>
um so</w>
ul l</w>
trau r
trans format
tradition elle</w>
ton en,</w>
terug gaan</w>
ster fte</w>
stell ing.</w>
st elen</w>
sn ell
sit es</w>
simp el.</w>
selt same</w>
selbst verständlich</w>
schl immer</w>
sa ßen</w>
ro u
rie ben,</w>
ri ffen</w>
ram p</w>
proble men,</w>
pro p
phys ische</w>
partn ers</w>
pan dem
p en?</w>
or a</w>
op gew
nucle aire</w>
muzie k,</w>
mus lim
men gen</w>
mach te.</w>
luist er
lo gi
lief de,</w>
leb t,</w>
kun g,</w>
kultur ellen</w>
kommuniz ieren</w>
kann te</w>
k ts</w>
jetz t.</w>
im plant
im men</w>
ide ale</w>
i ver</w>
hoe ken</w>
ho her</w>
hersen en,</w>
herinn ert</w>
gra m</w>
goe deren</w>
gev onden,</w>
gest alt
gen d.</w>
ge fascin
ge complic
gaan ?</w>
fest stellen,</w>
ernst ig</w>
ermöglich t,</w>
ermöglich en,</w>
erklär t,</w>
er schre
en te
eco systeem</w>
dur f
du iv
draa g
diagnost iz
dank baar</w>
da hinter</w>
cruci ale</w>
com pass
camer a's</w>
bü ch
bure au</w>
bevolk ings
berei ken,</w>
berei ch</w>
beginn t,</w>
be vestig
be sagt,</w>
b o</w>
at en
arab ischen</w>
an sehen</w>
al tes</w>
al e.</w>
aant allen</w>
aal -
Wissenschaft ler,</w>
Web seite</w>
Wa r</w>
Wa gen</w>
W rig
Viet nam
Ver anst
V it
Unter halt
Trag ö
Talib an</w>
T rop
Sü den</w>
Stamm zellen</w>
Stad t.</w>
Sonnen licht</w>
Sha kespe
S ov
R M:</w>
Proz ent,</w>
Po in
P ac
Oka y?</w>
Ne anderthal
N S
Mum ba
Mexic o</w>
Metap her</w>
Lebens mittel</w>
L ungen
Kur z</w>
Kon stru
K ooper
J eff
Hel den</w>
Gla s
G öt
F liegen</w>
Er stens</w>
E M:</w>
Chemik alien</w>
Ber kel
Afrik as</w>
4 8</w>
4 0.000</w>
" Z
“ .</w>
zo zeer</w>
zentr ale</w>
ze s.</w>
wär mung</w>
w inter
vor handen</w>
voor naam
verschuiv ing</w>
verl ieren,</w>
vergelijk baar</w>
ver handel
ver deling</w>
v end</w>
v agin
un geheu
u t,</w>
toen ame</w>
ti er</w>
tele ur
systemat isch</w>
stell te,</w>
stell en?</w>
staat s
st het
sich ts</w>
sel en</w>
schlä gt</w>
schließ end</w>
sch alten</w>
regist r
rechter kant</w>
ra ket
privac y</w>
popul air</w>
plö tz
oo g.</w>
ont sn
om laag</w>
o se</w>
o de</w>
noodza kelijk</w>
noo d</w>
mon u
mittler weile</w>
me ssen.</w>
maatschapp ij.</w>
maa t
m ber</w>
lev en?</w>
ko zen</w>
kin s</w>
keu r</w>
kar ak
journal ist</w>
jen em</w>
irgend einem</w>
inn en.</w>
in struct
in je
ill a</w>
ich e</w>
h äss
glau ben.</w>
gest ie
geef t,</w>
gan gs
fy si
fran zös
exist ieren</w>
end sten</w>
el e,</w>
e ven,</w>
e et
dramat ische</w>
de m.</w>
da len</w>
d ?"</w>
corru ptie</w>
contro ver
c a-
bril lan
bren g</w>
brau cht.</w>
br ein
bit ten,</w>
bij ,</w>
beslu it</w>
beinhal tet</w>
began nen,</w>
b lief
b ent
aus gesetzt</w>
au l
ath ie</w>
ar m,</w>
an gen.</w>
am ,</w>
alo g</w>
a ktive</w>
Zivilis ation</w>
Zentr al
Ver b
Sü ß
Stat us</w>
So ftware
Sign ale</w>
Selbst mor
Se att
Sch ach
S and</w>
Präsent ation</w>
Proje ct</w>
Lu x
Le vel</w>
Körper ,</w>
Kamer as</w>
Kaffe e</w>
K reis</w>
J ar
Infrastru kt
Inform ation
Ide en.</w>
Größ enordn
G las</w>
Fle der
Far b
Fa ktor</w>
Ein s</w>
E ssen,</w>
Dar über</w>
Chanc e,</w>
Brasil ien</w>
Be schrei
Alex ander</w>
A kte
100 %</w>
über leben</w>
éé n.</w>
Är a</w>
zin ,</w>
zei t,</w>
zaa k.</w>
wunder volle</w>
wor den?</w>
wetensch appen</w>
weltwei te</w>
vrien delijk
vresel ijk</w>
voor ouders</w>
vertrau en</w>
verga der
verbru ik</w>
ver lassen,</w>
untersu chen.</w>
unterst ützen</w>
ul ich</w>
uit geno
tien duizenden</w>
tief er</w>
ten s:</w>
sub ti
stude erde</w>
steh ung</w>
stam cellen</w>
ss e,</w>
spra che</w>
son .</w>
se g
recht s,</w>
rec ent
re ser
raa m</w>
r y.</w>
proje ct
produz ieren.</w>
pre siden
po st</w>
part ner
par keer
over al.</w>
onge acht</w>
onein dig</w>
onderzoe ker</w>
ol o
ob sta
noe mt</w>
nation aal</w>
nach t
n ar
mö chten.</w>
mp ft</w>
lapt op</w>
l ing
kun g.</w>
kree g.</w>
kosten los</w>
k letter
intellectu ele</w>
ij ster
hr en
hou d
het geen</w>
her en,</w>
hei d?</w>
h umor</w>
h re,</w>
ger ät</w>
ger ung</w>
gek ke</w>
gedeel de</w>
gebeur de,</w>
ge wa
fr is
famil iel
ens :</w>
ei t,</w>
eeu wen</w>
eer de,</w>
du in
dru gs
dreh te</w>
dol f
diagno se</w>
deta il</w>
de stij
con vention
cij fer</w>
chem ie</w>
c teren</w>
c af
buit en.</w>
bo ei
bew äl
beteken en</w>
besl ist</w>
besit zen</w>
beschrij ven</w>
be findet.</w>
bal ans</w>
ausseh en,</w>
an spru
an gel
ak koor
aar s,</w>
Wü ste</w>
Wun der</w>
Weihn achts
We es</w>
We chsel
Tradit ion</w>
Tex as</w>
Teilneh mer</w>
Sy l
St ell
St ein</w>
Rich ar
Rei ch
Regen wal
Re ze
R öntgen
R and
Proble me.</w>
Pri or
Phys iker</w>
Pass wör
Par lam
P it
Nog maals,</w>
Nat ur,</w>
Mitglie der</w>
Ma y
M T:</w>
Lie be,</w>
Leon ardo</w>
L ot
L eh
L auf</w>
Israë l</w>
Identit ä
Har ry</w>
H ou
Geräu sche</w>
Gerecht igkeit</w>
Geb iete</w>
Galax ie</w>
Fran se</w>
Fant ast
Erei gnisse</w>
Entdec kungen</w>
Eart h</w>
Dre h
D op
D om
An deren</w>
Al ko
' De</w>
" Sch
" In</w>
öffent lich</w>
ër s</w>
zo omen</w>
zich t.</w>
z is
z at.</w>
woor d
wom it</w>
war me</w>
w n</w>
voedsel ,</w>
verwacht ingen</w>
versu chen.</w>
versteh e</w>
verhäl t
verge ssen,</w>
verb ijster
ver mögen</w>
un iek</w>
un end
uit zoeken</w>
tv -
toll ,</w>
t lich,</w>
su ik
stei gen.</w>
spar en.</w>
sl a</w>
se y</w>
schi zo
sch oon</w>
sch at</w>
s st,</w>
reden en.</w>
re chter</w>
re cht,</w>
ra l</w>
qu ê
program ma
prestat ies</w>
pad den
p ti
or ke
op vall
op ende</w>
onder ste
omgev ing,</w>
off ene</w>
na p</w>
merk te,</w>
me el</w>
la waa
künst ler
kwa men,</w>
ker la
kelijk .</w>
keer ,</w>
ka der</w>
iv .</w>
inn ere</w>
in drukwek
in ation
ik te</w>
iet s,</w>
ho f</w>
hervor ra
herinner ingen</w>
her vorm
har t,</w>
haa st</w>
h :</w>
geschie ht.</w>
gele zen</w>
gele bt</w>
gefähr lich</w>
ged wongen</w>
gebrau cht</w>
ge dreven</w>
ge arbeitet,</w>
g aat
füll t</w>
funktion ier
front ale</w>
fol gen.</w>
fer nen</w>
et n
erneu t</w>
er f
ent hält</w>
el t,</w>
el de</w>
eiwit ten</w>
echt es</w>
dui delijke</w>
digit aal</w>
deel nemers</w>
da gen,</w>
chines ischen</w>
centr aal</w>
bie den.</w>
begin .</w>
be zit</w>
ban ken</w>
ban k,</w>
ap ar
antwor tet
ander es.</w>
an sieht,</w>
an se</w>
an ."</w>
alsje blieft</w>
al ist</w>
ak ul
Zu cker
X -
Wirtschaf t,</w>
Wer den</w>
W all</w>
Vro uw
Ver sor
Team s</w>
Stu hl</w>
Staat s
St and</w>
Schrit te</w>
Schri ft</w>
S af
Richt ige</w>
Regier ung,</w>
Pati enten,</w>
Möglichkei ten.</w>
Mär kte</w>
Mo unt</w>
Mat er
Lebenser wartung</w>
Lar ry</w>
La w
L ut
Kön ig</w>
Kom men</w>
Kapit el</w>
K it
Instru ment</w>
Ha ck
Graf ik</w>
Fo kus</w>
Fl ori
Erfahr ung.</w>
En d
Dutz end</w>
Duits land</w>
D r
Bedroh ung</w>
Australi ë</w>
Auf zeichn
Analy se</w>
An pass
Am y</w>
Al so
Aar de.</w>
&amp ;</w>
"Oka y,</w>
ï ne</w>
är ger
zich .</w>
ze e.</w>
z at,</w>
z an
wij s
wie :</w>
wel l</w>
wahrschein lich,</w>
vij fde</w>
vervuil ing</w>
ver w
v leer
um geben</w>
train ing</w>
to ch,</w>
spect acul
se el
sammel n.</w>
restauran t</w>
re sol
ra den</w>
r öntgen
prij s
pre st
prakt ijk</w>
posit iven</w>
plan et
pl af
pa st.</w>
oorlog s
oo t.</w>
ongelof elijke</w>
onderschei d</w>
nenn t.</w>
minist eri
medi a.</w>
lie fer
lei d</w>
leg ten</w>
leg it
in vol
i bi
grie p</w>
gra s</w>
ges unde</w>
gele ver
gel ehr
gee st.</w>
ge kommen.</w>
frei will
fou t.</w>
forder t</w>
for men.</w>
fe der
f emin
eu wen</w>
errei ch
er er</w>
ensei ts</w>
elektr ischen</w>
e duc
drü ben</w>
dru kken.</w>
direc te</w>
con stru
char man
bure au
bre ed</w>
best aat,</w>
berei k</w>
beobach tet</w>
be vr
be veilig
auss er
ath an</w>
at or.</w>
aa p</w>
Zwei tens</w>
Zu frie
Zo 'n</w>
W äre</w>
Versu ch
Ver hand
Tel kens</w>
Schu he</w>
Sach en.</w>
SM S</w>
S ier
S ag
R ass
Proze ss,</w>
Privat sphäre</w>
Prinzip ien</w>
Plast ik</w>
P ic
O ran
Nie uw
N ä
Lap top
L ov
Kore a</w>
Konsequ enzen</w>
Kno chen
Kl ima</w>
Ju st
Is land</w>
Inspir ation</w>
I ron
Ho tel</w>
Hen ry</w>
Goe d,</w>
Glau ben
Gesundheits wesen</w>
Folgen des</w>
Flu ss
Eu ch</w>
Entfern ung</w>
Dis zipl
Cit y.</w>
C entr
Auf bau</w>
Arbei ter</w>
Alle maal</w>
" P
zähl en</w>
zuneh men.</w>
zieken huizen</w>
wunder schöne</w>
woor d.</w>
wir ft</w>
wir d?</w>
wer fen,</w>
waarschijn lijk
vor hin</w>
vol gde</w>
verl ieren.</w>
verk ün
ver mel
ver fijn
v et</w>
un ami</w>
uitvin ding</w>
u e
tru c
tra fen</w>
toe gevoeg
terror isme</w>
stre kt</w>
st ort
schön es</w>
schau e</w>
samm lung</w>
ro -
rie .</w>
richt ig.</w>
raa d
ra ken.</w>
produz ieren,</w>
priv aten</w>
pie p
op dra
ont houden</w>
net ten</w>
nah men.</w>
na ja,</w>
mö gen.</w>
my th
mo som
met er,</w>
mer ken,</w>
me ssen,</w>
maa kte,</w>
m isch
le est</w>
kwest ies</w>
koo s</w>
konzentr ieren,</w>
kon ing
kam ers</w>
k s,</w>
jou .</w>
jeu gd</w>
iz op
it ät
isch erweise</w>
ins gesamt</w>
innovat ie.</w>
in zwischen</w>
ik t
ik en.</w>
i as
hoog te
honderd duizenden</w>
hin gegen</w>
hil frei
har t.</w>
ha st,</w>
h üb
h är
h onden</w>
gru ppen</w>
gle tsj
glau bt</w>
getro ffen,</w>
get an,</w>
gesch eiden</w>
gele ef
gel en</w>
gegev ens,</w>
geb äu
ge teil
ge had,</w>
ge ber</w>
gan gen</w>
frü heren</w>
flu ss</w>
fan g</w>
famil ie
fa ssen,</w>
et :</w>
er scheint</w>
enor men</w>
en den.</w>
em a</w>
einander ,</w>
dunkl en</w>
drück en.</w>
dor pen</w>
door sne
don ker
do en?"</w>
distri b
di cap
den n,</w>
democr at
d iert</w>
blo k</w>
benutz t.</w>
begr ün
be haupt
aster oï
also :</w>
alle en.</w>
alis iert</w>
ah nen</w>
aanpa ssen</w>
a ktiven</w>
Zukun ft,</w>
Z ellen,</w>
W h
Vö lker
Ver tel</w>
Urspr ung</w>
Th un
Terror ismus</w>
T her
Sinn .</w>
Sign al</w>
Se ele</w>
Ri o</w>
R äume</w>
Pro ben</w>
Poli zei
Pingu ine</w>
Par a
Orig in
N .</w>
My t
Körper .</w>
Kr äf
Kontin ent</w>
Inter essen</w>
I J
Hör en</w>
H unger</w>
Erei gn
Er zieh
Emiss ionen</w>
Dan iel</w>
Col a</w>
C at
Ber ge</w>
Benjam in</w>
Be griff
Aus stellung</w>
Au fl
3 D</w>
3 50</w>
. S
&lt; br</w>
"Ja ."</w>
" Mijn</w>
ät ze,</w>
Änder ungen</w>
za ken,</w>
za bet
wa gens</w>
visu ellen</w>
vari ab
va st.</w>
v al,</w>
transform atie</w>
te i</w>
t rit
st oe
st aart</w>
sper r
sluit en.</w>
sk ran
schlü ssel
schlimm sten</w>
schick en.</w>
schei d</w>
sc or
s no
regel matig</w>
re put
ran g
psych ologie</w>
pat ron
p ool</w>
over heids
ouder s.</w>
optim istisch</w>
op s</w>
op pen</w>
op ?</w>
oo t,</w>
onder zocht</w>
o ft,</w>
n isse,</w>
mus sten,</w>
moo i.</w>
mo ei
mee ster
materi aal.</w>
man s</w>
man age
lan ge
kü ste</w>
kl ü
kenn is
k ies</w>
jeweil s</w>
it z
ih m,</w>
igkei ten.</w>
hab it
gra f</w>
gevoel ig</w>
gesch ich
ger ade
gepublic eerd</w>
gen ei
gefra gt</w>
form t</w>
fan gen.</w>
fan d.</w>
experi ment.</w>
et hn
ele ment</w>
el ders</w>
el ang</w>
eigen schap</w>
e y
dimension alen</w>
dig t.</w>
daar in</w>
contin ent</w>
cht :</w>
chem ischen</w>
c ti
c ategor
c ampag
boven aan</w>
bo ssen</w>
best ra
besch ä
begr iff
bedro h
bede kt</w>
aus gest
aus ch</w>
ander .</w>
ander ,</w>
afrikan ische</w>
ach ter.</w>
aa s,</w>
W hit
Ver zwei
Ver wal
Ur kn
Technolog ien,</w>
T ot
Sub stan
Stan for
Se ch
Re alität.</w>
Program me</w>
Pho en
Mosk it
Mo z
Ko so
Kir che</w>
Kan di
Her b
Ge win
For t
Er staun
E ll
D ir
Ch ro
C ommun
Bürger krie
Bij voorbeeld,</w>
Bel ast
B lü
B ein</w>
Au gu
An stieg</w>
An gelegen
Al b
Afrik anen</w>
Ab sicht</w>
A da
199 8</w>
00 .</w>
- J
- -
“ ,</w>
äu me,</w>
zwaarte kracht</w>
zoe ken,</w>
zei gten</w>
y p</w>
wei s</w>
wa rum.</w>
voet af
verl oor</w>
ver wonder
ver en.</w>
uit erst</w>
ter rein</w>
teken s</w>
ta ge
t ung.</w>
t oo
sympt omen</w>
sug gest
stuur t</w>
studen ten,</w>
stu dio</w>
stab il
st ets</w>
st ag
st aar
st aal</w>
spr icht.</w>
spect rum</w>
sp el,</w>
sei d</w>
s ing</w>
ro ts
ro t</w>
risic o
ris k
ret ten,</w>
ra s</w>
präsent iert</w>
poë zie</w>
pass ieren,</w>
pa kte</w>
p s-
p ende</w>
opnieuw .</w>
onder ste</w>
on ver
omgev ingen</w>
notwen dig</w>
mult ination
molecu ul</w>
mis da
min uten,</w>
mag ie</w>
lu stig</w>
losig keit</w>
lie ben.</w>
la den,</w>
kt or,</w>
koo per
kolon ie</w>
klus ive</w>
kandi da
je ct</w>
j ung
itei ten.</w>
ir ration
interess ieren</w>
inner lijke</w>
inn eren</w>
ing t,</w>
ig vul
ie ën.</w>
hall u
haal den</w>
groß ,</w>
gewo on.</w>
gew icht
geob se
gen der</w>
ge test
ge kopp
fol gen,</w>
f ot
f les</w>
f at
exper ts</w>
ernst haft</w>
er wi
ep idem
effe ktiv
ed ba
dom ein</w>
do c
di ffer
desig n.</w>
der n.</w>
de prim
dan .</w>
cult uren</w>
colleg a</w>
c ou
boe ken,</w>
bloe men</w>
bez ig.</w>
bewus st
bevat ten</w>
beschouw en</w>
besch rieben</w>
be kl
b n
auf bau
antwoor d
an scheinend</w>
ag het
Wür den</w>
Wei ter
W ellen</w>
Vor der
Vij f</w>
Ver brechen</w>
V roe
V ic
Tit el
The ater</w>
Terror isten</w>
Sout h</w>
Sier ra</w>
Rea ktionen</w>
Qu ellen</w>
Prot eine</w>
Potenzi al</w>
Polit ik
On danks</w>
Mod ell
Min uten.</w>
Mach t,</w>
Ma hl
La ss</w>
L ager</w>
Kop f.</w>
Ko hle
K open
Int uit
Hy per
Hon g</w>
Hollywoo d</w>
He bben</w>
H unde</w>
Gesell schaft.</w>
Gesch äfte</w>
Gemäl de</w>
Gedan ke</w>
Gar ten</w>
Frü hl
Frau :</w>
F r
Dollar -
Daar voor</w>
Bru t
Beweg ung.</w>
Ber icht</w>
Be wer
B -
Austral ien</w>
Auf stieg</w>
Antibio tika</w>
An weis
9 0%</w>
20 50</w>
19 50</w>
ö fter</w>
Ökon omen</w>
zü ge</w>
zu iden</w>
zelf -
ze er,</w>
x -
wer ktu
wei st</w>
war f</w>
wan hop
waa ruit</w>
voornaam ste</w>
voor waarden</w>
verteil t</w>
vert ei
verl oren,</w>
verfol gen</w>
verander t.</w>
ver nieuw
ver drie
v entie</w>
u re
tre k</w>
tra t</w>
toe spraak</w>
to er
telefo on.</w>
te gen.</w>
tau chen</w>
t reiben</w>
t i</w>
stre ert</w>
st ick
st am</w>
sozi aler</w>
sour ce</w>
sor gen,</w>
so weit</w>
schrij f</w>
sch appen.</w>
sah en,</w>
rich t,</w>
re plic
ra ,</w>
pun kte</w>
par ado
or an
oploss ing.</w>
ontde kken.</w>
ont staan.</w>
onderwer pen</w>
oké ,</w>
mach en."</w>
ma il</w>
lief de.</w>
langsam er</w>
la f</w>
kauf te</w>
kam er,</w>
k o</w>
invester ingen</w>
int uit
ing ."</w>
ieder een,</w>
hy si
huiz en,</w>
hin sichtlich</w>
her stel
he te</w>
gra ven</w>
gewe sen,</w>
gesch nit
gen ?"</w>
geko zen</w>
gefra gt:</w>
gef lo
gebruik elijke</w>
ge trouw
ge arbeitet.</w>
fü llen</w>
fo cus</w>
fall ,</w>
ex press
et en
ervar en.</w>
erhö h
entwor fen</w>
entdeck en.</w>
energ ie-
emotion eel</w>
ein s,</w>
e pen</w>
e con
drück e</w>
doo ds
deta ill
der t</w>
dan ken</w>
cit aat</w>
bu dget</w>
broei kas
br ein,</w>
br aak</w>
blij ven,</w>
blau w
bezahl en</w>
bewe gt.</w>
betriff t</w>
ber t
behandel en.</w>
be wohn
b ub
außer orden
au teur</w>
at le
aktu ellen</w>
af el</w>
ach te</w>
aan gen
Zwit ser
Ziel ,</w>
Z wan
Z ut
Tief e</w>
Teil ,</w>
Sym bol</w>
Stu dio</w>
Stu dent</w>
Sol da
Sho w</w>
Sch aden</w>
Robo ter
Psych ologie</w>
Pro beer</w>
Pra x
P oe
Nort h</w>
Mom ent.</w>
Land wirtschaf
L y
L im
L T:</w>
K ilomet
Ju pit
Jap an,</w>
Imp ul
Hu man
Han d,</w>
Gleich gewicht</w>
G y
Führ er</w>
Erei gnis</w>
Da ch</w>
Can y
Cambrid ge</w>
Bewusst sein
Bau ch
Auswa hl</w>
All gemein
Al as
3 7</w>
3 6</w>
- --</w>
" Wa
" D
über tragen</w>
über all.</w>
ä den</w>
Öko system</w>
zy kl
zei len</w>
won en.</w>
weib liche</w>
wahr en</w>
wa t?</w>
vol gen,</w>
vl ag
verge ten.</w>
verdien en,</w>
ver gift
unterschei den</w>
un erwar
uit gevonden.</w>
train en</w>
tion .</w>
tien ers</w>
ten slotte</w>
team s</w>
te erden</w>
tal ent</w>
synthet ische</w>
su cht,</w>
stu di
sto elen</w>
stij gen</w>
ster en</w>
st ö
sp rei
slecht ste</w>
sl ij
sim pl
sicht bar</w>
schö pf
sch me
samenlev ingen</w>
samen vat
ro ute</w>
regel mäßig</w>
re erd</w>
radic ale</w>
plaat s,</w>
pl icht</w>
pa ste</w>
ox yto
over gang</w>
optim ist
olog en,</w>
neem t,</w>
nahe zu</w>
mo er
mis mus</w>
mi x</w>
lich am
kümmer n</w>
kun gs
klar e</w>
irgend welche</w>
invol v
in vas
ig ht</w>
ho ben</w>
hn sinn
hiv -
hier op</w>
h aat</w>
h aal</w>
gen oot</w>
gelei delijk</w>
gele gd.</w>
gei st
gebie t</w>
ge zel
g ur
fü gen</w>
fra gen.</w>
fig ur
fe st.</w>
faszin iert</w>
f ts
ex akt</w>
er uit.</w>
er stellt</w>
em en.</w>
el le.</w>
el ing</w>
el ijk,</w>
dies .</w>
dan s</w>
cur sus</w>
corru pt
c y</w>
br ill
beschlo ssen,</w>
besch ütz
beru f
bene den.</w>
bel ach
bekann t,</w>
be weisen,</w>
be kijken,</w>
b uren</w>
b aan
aus lö
ativ es</w>
ar y</w>
ar re
am ou
am .</w>
alternat ief</w>
alle daagse</w>
al geme
aange past</w>
Zerstör ung</w>
Wol ken</w>
Ursach e</w>
Umwel tsch
U ganda</w>
Tre ffen</w>
Tenslo tte</w>
T än
Sti ck
Sta te</w>
St rän
Sle chts</w>
Scot t</w>
Schn ell
S kal
Re gen</w>
Re ch
R ätsel
Prä siden
Po st
Organ e</w>
Mod ell,</w>
Militä r</w>
Mag net
M ap
M A
Lie fer
L ak
Könn te</w>
J ack</w>
Hig h
He alt
H ur
H umor</w>
Gew oon</w>
Gespr äche</w>
Ges et
G ut
G ran
Fün f
Fra gen.</w>
Europ ä
Ernähr ung</w>
E mil
Da durch</w>
D P:</w>
Arist otel
Ar mee</w>
Afghanist an,</w>
übr ig</w>
überrasch end</w>
über leben.</w>
éé n,</w>
Über setz
zukünft igen</w>
zon ,</w>
zie kte,</w>
zerstör t</w>
zeig te,</w>
z and</w>
yp e</w>
y o
weiß .</w>
waar ts</w>
waar de.</w>
w ähr
w ijk</w>
vertrouw en.</w>
verrück te</w>
vermen igvul
verge et</w>
verde eld</w>
ver woe
ver voer
veilig heids
vac cin
v rucht
us ch</w>
uit een
tö ten</w>
to ons</w>
ter in</w>
ten en</w>
te er</w>
stru ktur</w>
spe el</w>
sp az
schwier ig.</w>
schwer .</w>
sc è
ron d.</w>
radic aal</w>
pu blik
proc ent,</w>
passier te,</w>
oper aties</w>
oo k
ontwikkel ing.</w>
ontwer pen,</w>
on y
nütz lich</w>
nimm t.</w>
natuur lijk.</w>
nation alen</w>
medel even</w>
me m
me ga
maan den.</w>
m ich:</w>
m aar
laa g.</w>
la ch</w>
l et</w>
ktion en,</w>
kra ft.</w>
kom en?</w>
kl ap
ker k</w>
ken t,</w>
kamp io
kaar t.</w>
ka dem
k einem</w>
k ast
j enen</w>
ing '</w>
ik ?</w>
ij e</w>
i um,</w>
höch ste</w>
huwel ijk</w>
hi v</w>
heut ige</w>
handel s
gift ige</w>
geï so
gewöhn liche</w>
geschrie ben.</w>
gedra g
ge ma
ge kleur
fro h,</w>
fra gt,</w>
fl ach
fe c
fach e</w>
even veel</w>
er tig
er end.</w>
er e,</w>
entdeck t,</w>
ent schlo
em iss
el -
du strie</w>
de te,</w>
d ung
ct ie,</w>
communic atie
bur ger</w>
boor d</w>
bo ten</w>
blan ke</w>
bestu ur</w>
bescher md</w>
beper kte</w>
b ten</w>
auf nahme</w>
ar en.</w>
anon y
ann t</w>
an sehen.</w>
an fän
an en.</w>
an -
aan vallen</w>
a i</w>
Wo chen
Wer be
Weis heit</w>
W ähl
Vorstellungs kraft</w>
Teen ager</w>
T V
Spra che.</w>
Spekt rum</w>
Sicht weise</w>
Schnit t
Restauran t</w>
Re fle
R -
Pun kt.</w>
Pol y
P län
O or
O li
O k.</w>
Nachricht en
Mar ke</w>
Man age
M aak</w>
Krie ges</w>
Konflik te</w>
K ro
Interess ant</w>
Inn eren</w>
Him ala
Haus e.</w>
Gu t.</w>
Grupp e,</w>
Gewin n</w>
Ges icht
Gerä usch</w>
Führ ung</w>
Faceboo k,</w>
F BI</w>
Erwachsen en</w>
En er
En de.</w>
Ein kom
Echt zeit</w>
Design s</w>
Denk weise</w>
Demon str
Bei j
Beh ör
Be denk</w>
A cht
8 0%</w>
1 :</w>
' The</w>
' Ik</w>
" Maar</w>
ün sche</w>
zukünft ige</w>
z te</w>
wunder bar</w>
wor t</w>
woor den:</w>
woest ijn</w>
wis st</w>
wel zijn</w>
vreu gde</w>
voor zien</w>
visu eel</w>
verbra cht</w>
ver gewaltig
vac u
v o</w>
v ingen</w>
tro ck
tra ge</w>
theor ie.</w>
ta ken</w>
t and
syste ms</w>
stier ven</w>
ste en
so ftware
sich ere</w>
schlä ge</w>
schle cht.</w>
sch au</w>
r i</w>
publie k,</w>
program me
pinguïn s</w>
par as
ontdekk ingen</w>
on afhankelijke</w>
oké .</w>
oef enen</w>
n ur
n d</w>
mon at
middel s</w>
micro -
men ge</w>
le s.</w>
lag .</w>
kra ft,</w>
kor rel
kon kurr
kompliz ierte</w>
kl eren</w>
kin d
kenn is.</w>
k ron
k oude</w>
k art
ik ken.</w>
ier ungs
ho n</w>
hel der
he et,</w>
handel en</w>
han d,</w>
h äu
gän ge</w>
grundle gend</w>
groß artig</w>
glückl ich.</w>
gev ende</w>
gesch ei
gelu id.</w>
gelov en.</w>
gel äh
gef ol
gebouw d,</w>
ga ssen</w>
ga s.</w>
g y
g it
f ten,</w>
f isch</w>
et ter
erkann te,</w>
er stellen,</w>
ep .</w>
einzi ges</w>
e kt.</w>
die zelfde</w>
cur su
cruci aal</w>
cor tex
conclu sie</w>
chimpanse es</w>
c e.</w>
bom bar
bo d
bew onder
be kijkt,</w>
be denken.</w>
at h</w>
arbei tung</w>
ar en,</w>
al om
act ies</w>
ach ten,</w>
a da
Zu g</w>
Wor t,</w>
Wissenschaft lern</w>
Wiss en,</w>
Wir d</w>
Wei ßt</w>
We ge,</w>
Verge et</w>
Tur k
T ja,</w>
Sp rech
Sp iegel</w>
Schicks al</w>
Sch wein
Sch icht</w>
S t.</w>
Robo ter,</w>
R it
R enn
Ob am
O u
O -
Null sum
Mar y</w>
Mandel a</w>
M ale</w>
L aufen</w>
Kult ur
Ken ne
Kap az
Jon athan</w>
Ja ?</w>
J az
J F:</w>
Insel n</w>
Hoffn ung,</w>
Herausforder ung,</w>
Hei m
Glüh bir
Gemein schaft,</w>
Gefän gn
G en</w>
G anz
For d</w>
Fl äche</w>
Fil me
F äl
F ein
Erwart ungen</w>
Energ ie.</w>
Eis en
Durchschnit ts
Dunkel heit</w>
Detro it</w>
Dar auf</w>
Compu tern</w>
Co ca-
Char l
C op
C D
Bus h</w>
Brun o</w>
Brie f</w>
Brazil ië</w>
Boven dien</w>
Bo den
Ba se
Arz nei
App ar
An wäl
An hän
An alog
20 e</w>
20 -
1 30</w>
" Ma
öffent lich
äng stig
äl teren</w>
Ä th
Äth iop
zwak ke</w>
zich tig</w>
wissenschaf t</w>
wij .</w>
vorzu stellen,</w>
vor m,</w>
verwijder d</w>
vern etz
ver stor
ver heirat
ver dra
un n
um welt
uitst oot</w>
uitgevo erd</w>
twij fel</w>
tra ge
tr end</w>
ten ;</w>
te gre
syste em
sub je
str it
ston d.</w>
st ip</w>
sorg fäl
so ort
sla pen</w>
ser .</w>
sel ec
schön er</w>
schätz en,</w>
schle ch
schaf ten.</w>
sch wei
sch lei
sch e.</w>
sc ore</w>
sa ge:</w>
s zins</w>
s ...</w>
s ".</w>
re gier
qu e</w>
pra cht
plast ic
plan ten.</w>
phys ischen</w>
ontwikkel en,</w>
ongelijk heid</w>
on lin
omstandig heden.</w>
om ie</w>
om ar
n s</w>
mus eu
mo di
middel en,</w>
met abol
medi a
me d</w>
m igr
lie dje</w>
lie d,</w>
letz tlich</w>
let ters</w>
leer krachten</w>
le m
lan gen,</w>
lach en,</w>
kun gen.</w>
kk ingen</w>
inter face</w>
inn en
in klusive</w>
in heem
immu un
i um.</w>
ho tel
her stel</w>
her haal
he ct
hab en."</w>
h h
geëvolu eerd</w>
gezin nen</w>
gewel dig
gestal ten.</w>
gest alten</w>
geslaa gd</w>
gedra gs
gebeurten is</w>
geb la
ge train
ge keken</w>
fl it
fascin erend</w>
far mac
est het
erzeu gen,</w>
erg ie</w>
er wachsen
er möglichen</w>
ein schließlich</w>
ei .</w>
een heid</w>
drin gend</w>
dr en
door ,</w>
doe ,</w>
di agra
da pp
consum ptie</w>
cir ca</w>
bro ers</w>
bre ken.</w>
binnen kort</w>
besch reib
ben oe
beg on,</w>
be vindt</w>
be fest
außergewöhn liche</w>
aus schließlich</w>
aus :</w>
ass ung</w>
arm ste</w>
aktu elle</w>
air .</w>
af zonder
ac c
aan dacht.</w>
a kt
Zähn e</w>
Web sei
W inter
W ieder</w>
Vrouw :</w>
Vor gang</w>
Vis u
Versu chen</w>
Versu che</w>
V ul
Un fall</w>
To k
Teru g</w>
T ag
Ster ker</w>
Standar d
St rand</w>
Sch on</w>
Satell iten</w>
S per
S erie</w>
R ob</w>
Pri vi
Poli o</w>
Per fe
Op en-
O E
No ti
N B
Mom ent
Mill ion
Mil ch
M ut</w>
L icht.</w>
L ich
L ED
K .</w>
Instru mente</w>
Her ren,</w>
Her an
H ät
Gedan ken,</w>
Ge wel
G ut</w>
Frau .</w>
Flor ida</w>
F lo
Erwachsen e</w>
Erfol gs
Ent stehung</w>
Eli zabet
Ein blick</w>
Demo cr
DN A.</w>
C amer
Brow n</w>
Bo sn
Blu men</w>
Betra chten</w>
Beru f</w>
Bedan kt</w>
Be ss
B and</w>
B ,</w>
Auto s,</w>
Ar ten
Ap p</w>
Anti -
Algorith men</w>
A tem
A si
A ri
19 e</w>
19 60</w>
" I
" Be
über wa
ä um
zw öl
zorg vul
wor t
woon t</w>
wohl hab
wa y</w>
w jet
vre de
voor stel</w>
voor keur</w>
vlie g</w>
verschwin den</w>
verkauf en.</w>
verk ehr
verdwijn en.</w>
verbin det</w>
vel d.</w>
unter halb</w>
trin ken</w>
tief e</w>
teken ing</w>
t ak
symmet r
straa t.</w>
ste te</w>
ste ken.</w>
st rand</w>
st ieke</w>
spr ingt</w>
sp oor</w>
sp aar
sie ve</w>
schul dige</w>
schn elle</w>
schl agen,</w>
sa gen
s for
qu o
pri ma
passier te.</w>
pap ier.</w>
over igens</w>
op gelei
op :</w>
oor zaken</w>
on gelu
ol ie.</w>
ol a</w>
oka y,</w>
nu ?</w>
noor den</w>
nog maals,</w>
net werk.</w>
ne o
natuur kunde</w>
nach hal
n ag
moslim s</w>
mit .</w>
mel o
mei ster
mede werkers</w>
materi al</w>
m elt</w>
levens verwachting</w>
len gte</w>
le eg
laa g
la te</w>
kon vention
kon serv
kn oo
kijk t.</w>
kapit aal</w>
k sh
ië n.</w>
ingenie ur</w>
huiz en.</w>
hoof d,</w>
hl ,</w>
hei sst</w>
hei m</w>
he mel
glückl ich,</w>
gericht et</w>
genann t,</w>
gemein nütz
ge werkt.</w>
ge makkelijker</w>
ervar ing,</w>
erstaun lichen</w>
ersch einen</w>
er fahr
er en?</w>
en ge</w>
en '.</w>
duidelijk .</w>
du iken</w>
do u
do en:</w>
diep te</w>
die et</w>
d ij
convention ele</w>
ck ta
c en
br icht</w>
bo ard</w>
bl ät
bl ijken</w>
bij voorbeeld.</w>
bewerk stell
beobach ten.</w>
ben ."</w>
bemerkenswer te</w>
bemer kt,</w>
belei ds
bele ef
bekann t.</w>
aus reich
aus gesch
au dit
ass ist
arbei ds
anf ing,</w>
ander half</w>
aller eerste</w>
ak adem
afbeel dingen</w>
a den
Zu hör
Wäl der</w>
W om
W and
Unter haltung</w>
Um gang</w>
To ur
Tha il
T V</w>
Sympt ome</w>
Su ch
Schwar z
Roll stu
P E
Ox for
Ordn ung.</w>
O hren</w>
Nat ur.</w>
Letz tes</w>
L ive
Ka bel</w>
K ämpf
K ijk,</w>
Je den</w>
J ag
H aus.</w>
Goe d.</w>
Gl amo
Gesch en
Founda tion</w>
Folgen des:</w>
Fir ma,</w>
Ed ward</w>
Deta il</w>
Del fin
DN A,</w>
Chine zen</w>
Chanc en</w>
Bü hn
Bi ologen</w>
B all</w>
Ar gent
Anfan g.</w>
199 0</w>
" Hier</w>
ö h
ärm sten</w>
än ger
Über all</w>
zü g
zufrie den</w>
zorg de</w>
zie ,</w>
z ier
z et,</w>
wer te</w>
wer fen.</w>
w ijn</w>
vor sichtig</w>
vor der
voorspell ingen</w>
vij and</w>
verwandel n</w>
versteck t</w>
verminder en.</w>
verjaar dag</w>
verdwen en</w>
verbrei ten</w>
ver werken</w>
unglü cklich
ung ser
un i
un d.</w>
uit spraak</w>
uit maken</w>
uit gevonden</w>
tä gliche</w>
toll .</w>
to ver
te urs</w>
t is
stär k
stil te</w>
stei gen,</w>
stat t.</w>
stan den.</w>
spann ing</w>
sp oe
sp lan
sp in
sp ei
slachtoff er</w>
situ atie.</w>
sh ir
sens oren</w>
schwier igen</w>
schrecklich e</w>
schol en,</w>
sch rik
sag t.</w>
s '
result aten.</w>
re tro
raa k</w>
qu elle</w>
qu a</w>
plan .</w>
person alis
pap ier
p ond</w>
p aard</w>
ontwikkelings landen.</w>
o ft
moo iste</w>
mass a
mal aria</w>
maa tre
m issen</w>
län ge</w>
lu x
lu kt</w>
lief ern</w>
lichkei ts
lei sten.</w>
le be</w>
lau tet</w>
kn ü
ket te</w>
invest ieren,</w>
ing rij
in i</w>
in eens</w>
im eter</w>
if iz
ier e
i ppe</w>
hör ten</w>
hoff nungs
handel n.</w>
h aar,</w>
goed koo
glamo ur
gera ken.</w>
ger et
geobse deerd</w>
geme ten</w>
gel d
gehol pen</w>
geh en?</w>
gegan gen.</w>
gefahr en</w>
ge fr
ga st
funktion ieren,</w>
fu hren</w>
fei te,</w>
ev entu
erforsch t</w>
er st,</w>
er door</w>
en quê
el s,</w>
domin ante</w>
docu menten</w>
de el,</w>
da me</w>
cr at
con sequ
ch el
c e,</w>
c al</w>
bur ge
bo s
bewe gende</w>
best aan,</w>
bese ssen</w>
begr ü
be steed
be mü
be kijkt</w>
au w</w>
an t.</w>
an en,</w>
also .</w>
al co
act ie.</w>
ach t,</w>
Worl d
Wel k</w>
Wat son</w>
Wahrneh m
Wa hlen</w>
Ver brau
Van uit</w>
Universitä ten</w>
Ten den
Ta ges
Staa ten.</w>
Schul d</w>
Sch iff</w>
S wa
Richt lin
R at</w>
Proje kten</w>
P ollen</w>
P eri
P aar</w>
Oce aan</w>
Mitt leren</w>
Mitglie d</w>
Meer ess
Man n.</w>
Lut her</w>
Lei ter</w>
L aut
Kra ft,</w>
Kontro l
Kinder sterb
K ,</w>
Ie dere</w>
Hawa i
Ha iti</w>
Ge dichte</w>
Gan zen</w>
G än
Fü ße</w>
Fun ktionen</w>
Flag ge</w>
Et wa</w>
Er schein
Der ek</w>
De cke</w>
D AR
Bu dget</w>
B eu
Arbeitsp lat
Ar ten,</w>
Antar c
An geb
Amerik aans</w>
Also f</w>
A G:</w>
9 /
7 2</w>
1 /
" Aber</w>
za kelijke</w>
vor men,</w>
volgor de</w>
vlieg tu
versteh t</w>
versn ell
verl or
verl oop</w>
verander den</w>
ver ne
ver hal
va der.</w>
unterstütz en,</w>
unter neh
un ten,</w>
un eh
um ar
uit vinden</w>
uit ?</w>
tu ur</w>
toegan kelijk</w>
tijd schrift</w>
telefo ont
struct uur,</w>
stij ging</w>
stere ot
steck t.</w>
stap el</w>
sor gen</w>
sl oeg</w>
schizo fr
schick te</w>
sche pp
s ",</w>
religiö sen</w>
reclam e</w>
raa g</w>
ra .</w>
prototyp e</w>
posit iv</w>
po t</w>
p reis</w>
p ion
overeen kom
op ent</w>
oorlo g,</w>
onder zee
omhoo g.</w>
neem t.</w>
nachhalt ige</w>
motiv atie</w>
mer s</w>
me et</w>
machin e,</w>
ma ken
ma g.</w>
linker kant</w>
lijk t.</w>
le eren</w>
kop ie
klo k</w>
klein en,</w>
k nie
je der,</w>
janu ari</w>
jah r</w>
ja gen</w>
in tr
in kt</w>
ig heid,</w>
ie ver</w>
hier :</w>
groe p,</w>
grapp ige</w>
gra p
gewis ser
gest imm
gest art</w>
geschrie ben,</w>
ger o
gelukk iger</w>
gel t</w>
gekopp eld</w>
ge ur</w>
frag te,</w>
ff er</w>
er forschen</w>
entschei dende</w>
ent en
emot ie</w>
een s,</w>
dru g
draad loze</w>
dra stisch</w>
dicht heid</w>
cre atie</w>
communic eren.</w>
buur t.</w>
besu chen</w>
beschrei ben,</w>
belan gen</w>
batter ij</w>
bas ierte</w>
aus einander</w>
at he
an nehmen,</w>
allge meinen</w>
allge meine</w>
all zu</w>
al tet</w>
al :</w>
ad s</w>
ach tet</w>
aard se</w>
aar d,</w>
a de.</w>
Z ü
Wiss ens
Vide o,</w>
U p
T rot
Stat t</w>
Se bast
Schmer zen</w>
Proble ms</w>
Portu g
Person .</w>
P fa
Mus iker</w>
Mit tage
Midden-Oo sten</w>
Mich el
Lehr er,</w>
L .
Kon kurr
Kom m</w>
K ub
K oor
Inter pret
Institu t</w>
Inst all
Indon esi
Ig nor
Hol z</w>
Her stellung</w>
Har d
H istor
Got tes</w>
Gedan ken
Gebäu de,</w>
Gebur ts
Fin an
Erfol g.</w>
Ent schuldig
Duit se</w>
Dies en</w>
Chr is,</w>
Cel si
Bru ce</w>
Blut gefä
Ber at
B us</w>
Aristotel es</w>
Afrik aner</w>
6 0.000</w>
4 -
3 000</w>
3 0,</w>
"O ké
ö st
änder te</w>
än ger</w>
äl tere</w>
wör tlich</w>
wir kt</w>
wij z
waarne m
w aal
vorm ige</w>
von den.</w>
von d,</w>
voe den.</w>
vlo er</w>
verwen det.</w>
verwandel t</w>
versp ill
verrass ing</w>
vermei d
verkl aart</w>
verbess ern,</w>
verbaas d</w>
ver woest
ver kennen</w>
ver kennen.</w>
van :</w>
vac cin</w>
v en?</w>
tag s
t ellen</w>
sy l
succe s.</w>
stu if
stral ing</w>
str eng
stoff en,</w>
sto ßen</w>
star ben</w>
st ün
smo s</w>
sm artphon
sex y</w>
sear ch</w>
schu il
schre ven</w>
schnei den</w>
sch ro
sch rieben</w>
sch ij
samenlev ing.</w>
s ab
rich ter</w>
rapp ort</w>
polit isch</w>
po ten</w>
plan ten,</w>
phil osop
person age</w>
ori zon
opti mis
op ath
ontwer p.</w>
onderzoe ken.</w>
on verwachte</w>
näm lich,</w>
no dige</w>
net t</w>
nann ten</w>
n atie</w>
moe dig</w>
minder .</w>
me st
mat ri
makkel ijk
läu ft,</w>
lu i
lern te,</w>
leist ung</w>
leiden schaf
le ken</w>
künst liche</w>
kre ativ</w>
kran ten
kapit al
k ing.</w>
j ü
j enseits</w>
is eerde</w>
in zichten</w>
in spire
in es</w>
ik a</w>
ij s.</w>
han dig</w>
hab en:</w>
gev allen,</w>
gev al.</w>
getrenn t</w>
gesch rit
ges ne
gen des</w>
geheu gen
gefäll t</w>
gef allen</w>
gee stes
geb onden</w>
ge wer
ge speci
ge dood</w>
ge contro
gab en,</w>
fü hle,</w>
ent hüll
end heid</w>
em pl
efficiën t</w>
eer ste:</w>
e-ma il</w>
e quivalent</w>
e '</w>
dynam isch</w>
dro eg</w>
dre mp
doe .</w>
dien en.</w>
di -
democr atie.</w>
defin ie
dar auf.</w>
dacht en:</w>
cht s
cell ul
brei ten</w>
bre chen,</w>
bra k</w>
bla d
bil der</w>
bij dragen</w>
beïn vloed</w>
bew under
beun ruhig
bestimm en,</w>
beste ed</w>
besch a
berei kt.</w>
ben o
belast ing
bel ohn
bede uten</w>
be ter,</w>
be spro
ba d</w>
b s</w>
aufge wachsen</w>
ar t,</w>
ar ro
anschau t,</w>
an geb
an den.</w>
an den,</w>
an a,</w>
ab gesehen</w>
a res</w>
Wurzel n</w>
Verbesser ung</w>
Ver sicher
Ur he
Theor ien</w>
Syste ms</w>
Sus an</w>
Stu dium</w>
St art
Sp en
Sit z
Si mon</w>
Schul en,</w>
Sch laf</w>
Sch izop
Risik o
Richt ig?</w>
Rei sen</w>
R in
Qu ant
Protot ypen</w>
Proje kt.</w>
Par adig
N i
N aar</w>
Mü ll</w>
Mo de
Mar s.</w>
Mag ie</w>
Lin col
Lei den</w>
Kop f-
Kon inkr
Kohlen stoff</w>
Janu ar</w>
He y,</w>
H onder
H aut
Gri pp
Gra vit
Gra s</w>
Geburt stag</w>
G all
Fün f</w>
Fe bru
F inger
E-Ma il</w>
D V
Col umbi
Ch ip</w>
Cana da</w>
Ber ühr
Be ste
Be at
B ern
B M</w>
Aufmerksam keit.</w>
Aufga be,</w>
Atlan tische</w>
Ar duin
An sichten</w>
An ruf</w>
Al an</w>
8 0
8 .000</w>
21 ste</w>
2 7
18 .</w>
% ,</w>
’ n</w>
über nehmen</w>
Änder ung</w>
zu gr
zeichn et.</w>
wonder baar
winz ige</w>
west liche</w>
weiter zu
waar digheid</w>
voer tuig</w>
versch wun
versch ijnen</w>
ver lassen.</w>
v .</w>
un e</w>
uitda ging.</w>
tä glich
tri vi
ter s,</w>
team .</w>
ta x
t um</w>
t ools</w>
t iger</w>
t aal,</w>
stu dieren</w>
star ten,</w>
st ücke</w>
spre che,</w>
sper son
spekt akul
sogar ,</w>
sen det</w>
schrei bt</w>
scho k
schließ t</w>
scher m.</w>
resp on
recent elijk</w>
proc ess
por tre
plattel and</w>
person ages</w>
pa kken,</w>
p um
p ijn.</w>
over winn
organis me</w>
organis eren</w>
or t.</w>
opmer kelijk</w>
opge groeid</w>
op tische</w>
ontvan gen</w>
ont moeten</w>
onder aan</w>
on d.</w>
nu kle
nie t:</w>
nah m,</w>
n ut</w>
muzik ale</w>
mittel ,</w>
men ten
melk weg
mein en,</w>
mathemat ische</w>
masch in
mal ari
ma ch</w>
lo hn
literat uur</w>
lig t.</w>
lei t
lei d.</w>
lei ch
keu ze.</w>
j ou,</w>
j ob
in mitten</w>
imp ul
im et
i dische</w>
hiel t,</w>
her ein
har ten</w>
grün dete</w>
gra ben</w>
glücklich erweise</w>
glei ch.</w>
gez et,</w>
gewel d,</w>
gespro chen,</w>
gesch akel
ger echt</w>
gebie te</w>
ge ord
g at
fü gt</w>
ft ?</w>
fo ut
filmp je</w>
fascin erende</w>
f an</w>
f alen</w>
errei cht,</w>
em ar
el imin
econom en</w>
e ".</w>
durch s</w>
dre hen.</w>
dra ht
di ct
den en,</w>
del ingen</w>
d ler</w>
c et
bü cher</w>
bibliothe ek</w>
beschik bare</w>
ber g.</w>
beel den,</w>
b aan.</w>
am pu
al iteit.</w>
akter ist
adel ph
accep teren</w>
ab sicht
aar s.</w>
aa gd</w>
a ro
a 's.</w>
Zwi schen
Wo her</w>
Wissenschaf ts
Wet ter
Vo gel</w>
Vir tu
Ver fahren</w>
Unter richt</w>
Um ständen</w>
Uit er
Tran sport
Tr enn
Sy mp
Schwar ze</w>
Sch rei
Reg ul
R on
Platt form</w>
Phil adelph
Pflan ze</w>
Pan dem
P as</w>
Mo un
Mat ri
Mal ari
Literat ur</w>
L K
L H
L A
Kon gress</w>
Kin d.</w>
Ira k.</w>
Ie der</w>
IJ s
Ho u</w>
H orizon
Glücklich erweise</w>
Gesch enk</w>
G il
Fla sche</w>
Fett leib
Ex tra
Dor f
D ol
D enn
Charl ie</w>
Car l</w>
Bro ad
Beh au
Be ge
Batter ie</w>
Auss age</w>
Arbeitsp l
3 1</w>
3 0-
20 ste</w>
1 50.000</w>
00 ,</w>
zwei tes</w>
zusätz liche</w>
zeich nete</w>
wä ss
werk te,</w>
wed strijd</w>
warm te</w>
waar dig
wa pen</w>
w ing
vor en.</w>
vor auss
vor :</w>
voor stellen,</w>
vleu gels</w>
vi br
versu chten,</w>
verlie zen.</w>
verklar en</w>
ver klein
ver gleichen</w>
val se</w>
va ders</w>
us -
ungeheu er</w>
ung "</w>
ulti m
uitgeno digd</w>
tevre den</w>
ster -
steed s.</w>
standaar d
st eine</w>
st alen</w>
spiel t,</w>
spann end.</w>
sp l
sp art
soor t.</w>
sla vern
sit zen,</w>
schwier iger</w>
schw äch
sch ot
sc re
ro ut
ret t</w>
rei se</w>
reduz ieren</w>
re da
psych o
program m</w>
pro the
partij en</w>
p el</w>
op groei
ood se</w>
onzicht baar</w>
ol y
oka y.</w>
nor men</w>
nieman den</w>
ne ss</w>
n ör
moeilijk ste</w>
milieu .</w>
mel n</w>
me sser</w>
me s.</w>
ma ken."</w>
lu cht,</w>
lief ert</w>
let ter</w>
lei d,</w>
leef t.</w>
laat st</w>
krit isch</w>
kompliz ier
kommen den</w>
kla gen</w>
kl ah
k weken</w>
k s.</w>
k at</w>
interess iert.</w>
interag ieren</w>
in stelling</w>
ich en</w>
hr .</w>
hallu cin
groot se</w>
grei fen,</w>
goedkop er</w>
glücklich er</w>
gev uld</w>
genoem d,</w>
genie ten</w>
gel ang</w>
gel ang
ge wassen</w>
g af.</w>
for tsch
f el,</w>
exper t</w>
ex ped
eu tische</w>
erklär te</w>
erkenn ung</w>
er we
ent täusch
en .“</w>
einzig artige</w>
ec ologische</w>
dubbel e</w>
druck s
dr ie.</w>
dr an</w>
dop pel
dom ,</w>
dar ,</w>
da zu.</w>
d wan
d get
contro leren.</w>
compu ter,</w>
chemical iën</w>
blijk baar</w>
bit ten</w>
bin den</w>
beteken is
besch lossen</w>
beroe m
bere chtig
benut ze</w>
belan g.</w>
be ken
ban k.</w>
auth ent
art ie
ar m.</w>
antibio tica</w>
ang st
alle l</w>
afhankelijk heid</w>
Z or
Wol fra
Win ter</w>
Weib chen</w>
War en</w>
W ein
Vroe ger</w>
Versor gung</w>
Verk ehr</w>
Ver teilung</w>
Tri ck
Techn ik,</w>
Te d</w>
St ap
Sar ah</w>
S ele
Richt ungen</w>
Rei hen
Pflan zen
NG O
Mus kel
Mus ik.</w>
Mat t</w>
Ma ß</w>
L en
Könn ten</w>
Kun st.</w>
Krankenh äuser
Krank heit.</w>
Kin des</w>
K ür
Jun i</w>
Jose ph</w>
J etzt,</w>
J H:</w>
Israë l
Investit ionen</w>
Ingenie ure</w>
Ha ie</w>
HIV /
H ell
Geschichten erzähl
Gebäu den</w>
Franc is</w>
Fo ss
Fab rik</w>
F as
F O
Er g</w>
Det e
D oppel
Cha os</w>
Bru st</w>
Besch äft
B ut
B rau
An fän
Al ice</w>
20 30</w>
' 8
éé n-
zu vor.</w>
zu sätzlich</w>
zu id
zoog dieren</w>
ze ven
zaa m.</w>
y rig
y pt
wij st</w>
wer ker</w>
wei ten</w>
wal vissen</w>
voor malige</w>
vol doen
vlie gende</w>
vertrouw d</w>
verk oop</w>
verfol gen.</w>
verbin dt</w>
ver zon
ver wezen
ver we
ver vol
ver halen,</w>
var ken
van avond</w>
twin tig</w>
ts am</w>
ti ende</w>
terror isten</w>
teken ingen</w>
t heit</w>
t al</w>
studen ten.</w>
stoff ,</w>
stimm t.</w>
ste den,</w>
staat lichen</w>
sin dsdien</w>
sel .</w>
schwer er</w>
sche ep
schaff t,</w>
sch icht</w>
sa s</w>
s a</w>
s ;</w>
ru we</w>
ru b
riff e</w>
realis eerden</w>
real iteit.</w>
produ ktion</w>
pro vin
prik kel
po et
pian o</w>
per t</w>
p ure</w>
ou d
ot isch</w>
origin ele</w>
op nemen</w>
op in
ob ser
noe m.</w>
neg atief</w>
natuur kun
mus sten.</w>
mo or
mens en?</w>
mannet jes</w>
letz t</w>
leg den</w>
leben dig</w>
kwets baar</w>
kt on
kt ar</w>
kree g,</w>
kosm ische</w>
ko elk
klass ische</w>
kl ang</w>
kat hol
k ter</w>
je der
j ung</w>
inheem se</w>
ing ssysteem</w>
industri elle</w>
illu sie</w>
ier ungen</w>
ier ten.</w>
hör t,</w>
hou d.</w>
ho w</w>
heraus gefunden</w>
he dr
ha ven</w>
h ä
groo tou
gr aus
gev er</w>
gev allen.</w>
ger ed</w>
genees middel</w>
genau e</w>
gel ass
gefascin eerd</w>
gebe ten</w>
ge mä
ge geb
ge detail
form .</w>
fahr er</w>
f ä
f elt</w>
f den</w>
et -
ess im
er ste,</w>
enor m.</w>
enig szins</w>
engl ischen</w>
eigen dom</w>
efficiën tie</w>
ef .</w>
duist ern
diep ste</w>
demonstr atie</w>
daar aan</w>
contin u</w>
con cre
computer s,</w>
ch ip</w>
centr a</w>
ce ptie</w>
car toon
bra chte.</w>
bot ten</w>
boo g</w>
bewe ging,</w>
besu chte</w>
bemer kte</w>
bel eu
be ë
be voor
ban d.</w>
auton ome</w>
atem berau
ar it
apparat uur</w>
angef angen,</w>
ange sehen</w>
an gew
an atom
am s</w>
ala i</w>
af rik
achter kant</w>
Zwei tens,</w>
Weltkrie g</w>
Wel ten</w>
W ellen
Verein ten</w>
Un sicher
U S</w>
Tele skop
T in
T ast
Studen ten,</w>
Sie :</w>
Samm lung</w>
S aal</w>
S S:</w>
Russ land</w>
Re du
Prä sidenten</w>
Off ensicht
O t
O K</w>
Nation ale</w>
Nah en</w>
Mathemat iker</w>
Materi al,</w>
M E
Lös ung.</w>
L är
Kur ve</w>
Kon tex
K eit
Joshu a</w>
Jah res
Jac qu
Haus auf
Hand l
Go d
Glück .</w>
Ger icht</w>
Gegen den</w>
Flug haf
Fleder m
F örder
E é
E he</w>
Dien st</w>
De an</w>
Dam e</w>
DN S</w>
D alai</w>
C N
Bo y
Bi bel</w>
Al bert</w>
Abhäng igkeit</w>
A sso
A bed</w>
3 4</w>
200 2</w>
1 60</w>
, 000</w>
" de</w>
änder t,</w>
zo :</w>
zeld zame</w>
z ö
wähl en.</w>
woe de</w>
wir ?</w>
wi tz
wi g
werel den</w>
wer s</w>
wer det</w>
wer den."</w>
we :</w>
waarde volle</w>
voorbeel den.</w>
voor :</w>
vol too
vle es
vier ten</w>
verfol gt</w>
verbr ingen,</w>
verander t,</w>
ve get
v is.</w>
v inger
um fass
tö ten.</w>
tre den</w>
toe stemming</w>
tet e,</w>
temp or
te ure</w>
t je,</w>
syn these</w>
symb olen</w>
städ tischen</w>
stuur den</w>
stu die
stimm t,</w>
stij gen.</w>
steu ern.</w>
st ippen</w>
st i
spiritu ele</w>
speel goed</w>
sn el,</w>
sequ enz
sch ran
sa gen?</w>
rug gen
ru fe</w>
raff in
r ijker</w>
plan n
pas st.</w>
p ft</w>
ou deren</w>
oplo ssen,</w>
oo it.</w>
ontwikkel t</w>
ontmo eten.</w>
omgek eerde</w>
oefen ing</w>
ob serv
o ct
neer .</w>
n on
man nen
mach ten,</w>
mach st</w>
ma chtige</w>
m är
lo sl
lijk en,</w>
lich er,</w>
let ten</w>
lern ,</w>
lat er.</w>
lan delijke</w>
la s,</w>
kö mm
kredie t
kra chtig
kontroll ieren.</w>
kon ze
kn u
ke ken.</w>
k ontro
jeu g
iti v</w>
it ali
individu ellen</w>
in stell
ig heid.</w>
huis hou
hoofd stuk</w>
hol te</w>
hol en,</w>
herinner ing</w>
hel der</w>
heb en,</w>
he ette</w>
hal te,</w>
hal ben</w>
groß e,</w>
gra p</w>
gl ij
gig anti
gez icht.</w>
gew ähr
gevo ed</w>
gesam melt</w>
gesag t.</w>
geru fen</w>
ger en.</w>
gelukk ig.</w>
gebro chen</w>
geboor te
gebe ten,</w>
gebas eerde</w>
ge maa
ge kommen,</w>
g il
foto graaf</w>
flo g</w>
fe bru
etz ung</w>
er weise,</w>
er re
ent zün
ein setzen</w>
ei ,</w>
efficiën te</w>
eer dere</w>
dro e
dichter bij</w>
der zeit
der er</w>
deel den</w>
da mes</w>
d ü
cultu re
bl ö
bl ut
bijdra ge</w>
bi olum
besch eiden</w>
bereken en</w>
at or,</w>
arbei ter</w>
ar ische</w>
ar is</w>
anschau en.</w>
ang st.</w>
an gio
am ine</w>
am es</w>
alternat ieve</w>
algorit me</w>
act u
aa d</w>
a iss
Zu cker</w>
Z im
Weltbevölker ung</w>
We sterse</w>
W ände</w>
W ie
Vor les
Ver langen</w>
Ver der</w>
Un abhäng
Techn iken</w>
Ta i
TED Global</w>
Stu dien
Strei t
St ar</w>
Spezi al
Sm artphon
Sin ne
Ro de</w>
Re ser
Popul ation</w>
Par is</w>
O ri
O klah
Mot or</w>
Min u
Mam mo
M ul
M ov
Lat ijn
Kon go</w>
Kompon enten</w>
Ko hle</w>
Kin d:</w>
K omm
In der
He eft</w>
Hall o,</w>
H ipp
H ad
Gol d</w>
Gesch äft
Ge fahr
Fre e
For m.</w>
Fl äch
Feyn man</w>
F eind</w>
Er forschung</w>
En kel</w>
Eigenschaf t</w>
E ast</w>
Dan ny</w>
Cra ig</w>
Bild ung,</w>
Berechn ungen</w>
Bei trag</w>
Behau pt
Bang al
Aufl ös
Ara bi
An griff</w>
Am ster
All ge
A tem</w>
A st
A na
9 8</w>
19 0
10 -
"H all
überrasch ende</w>
zerstör en</w>
zeker .</w>
z lich</w>
y er</w>
wär m
wunder schönen</w>
wij d
wen den.</w>
w üt
viel erlei</w>
vide o.</w>
versch il.</w>
verl iert</w>
verbeter ing</w>
verab schie
ver se</w>
ver heer
vent il
unter wegs</w>
uit en
typ es</w>
tu in
tru g</w>
tol les</w>
to -
tig keit</w>
theor ieën</w>
ter echt.</w>
t ollen</w>
syste m.</w>
stat istisch</w>
stan den,</w>
soor ten,</w>
sk al
schreckl ich</w>
schick en,</w>
schaff te</w>
sch te</w>
sch t.</w>
sch eu
s ke
s !</w>
reu zen
rei sen</w>
rei cher</w>
re -
program ma.</w>
pro mis
op tie</w>
omat eri
om ring
om men</w>
nie dri
ne st</w>
mä chtige</w>
met alen</w>
mee ?</w>
materi aal,</w>
m s.</w>
m pf
lu st</w>
lern ten</w>
lei ten</w>
le mma</w>
kult ur</w>
kr is
kor e
kop pen</w>
konzentr ieren.</w>
kon ing</w>
kompliz iert</w>
j i
j az
itä ts
im pf
hulp middelen</w>
hou ten</w>
hie ß</w>
her stell
her hal
ha gen</w>
h iër
graa d</w>
goo ien.</w>
gewor fen</w>
gestuur d</w>
gekre gen.</w>
gehens weise</w>
gedra g,</w>
gebruik .</w>
gebouw .</w>
ge teilt</w>
ge schaffen,</w>
ge financier
gage ment</w>
führ te,</w>
förder n.</w>
fl uit
fil m,</w>
ff ekt</w>
fant as
f en?</w>
europä ischen</w>
erfun den.</w>
er ien</w>
er "</w>
en mar
elektr isch</w>
eingesch rän
dr au
dig t,</w>
d ik</w>
cyc lop
ct ies.</w>
cris is.</w>
busin ess
brit ischen</w>
bra chte,</w>
biolog ie,</w>
bio -
beïnvloe den.</w>
bewon ers</w>
bevr oren</w>
best än
berühr t</w>
berühm ten</w>
behandel n,</w>
beeinflu ssen.</w>
be her
bar riè
bacter ie</w>
b om</w>
b am
auth enti
aufzu bauen,</w>
auf gereg
auf bauen</w>
auf :</w>
ato om
armoe de,</w>
ar en
appar aat.</w>
ant hrop
ander es,</w>
analy seren</w>
an fäll
als maar</w>
allge mein</w>
all gemein
academ ische</w>
Zo dat</w>
Web sit
Waf fe</w>
W K:</w>
Vor träge</w>
Ver pf
Unterschie d.</w>
Un i
Tit an
Tex t</w>
Teu fel</w>
Teen ag
Tanz an
Syl via</w>
Ste wart</w>
Sen i
Sch reiben</w>
Sam en
S tern</w>
S I
Ru f</w>
Ra dio</w>
R ond</w>
R ett
P harma
On der</w>
Olymp ische</w>
O L
Nullsum men
Not wen
Mensch lichkeit</w>
Maschin e,</w>
Mar k
Mar gar
Mam a,</w>
Lie bes
L et</w>
L ater</w>
L amp
Kop f,</w>
Kon zer
Kommunik ations
Kla ssen
Innov ation,</w>
I BM</w>
Höhe punkt</w>
Hin weise</w>
Hand lungen</w>
H ier,</w>
Gesund heit,</w>
Gefän gnis
Ge brauch</w>
Fil m,</w>
Erleb nis</w>
Einricht ungen</w>
Effizi enz</w>
E ur
E .
Dienstleist ungen</w>
Den noch</w>
Daar bij</w>
Cit y,</w>
Chirur gen</w>
Car neg
C ent</w>
Be darf</w>
BI P</w>
B ell</w>
Aut ismus</w>
Anwen dungen</w>
Americ an</w>
Ale x</w>
A ktion</w>
A kti
A kt</w>
5 -
3 0.</w>
3 .
15 .</w>
1, 3</w>
-jähr ige</w>
über tragen.</w>
Ö konom
Ö k
zu tief
z et.</w>
z ern
z entrum</w>
z ellen,</w>
wol k</w>
wir ken.</w>
will st</w>
wereld bevolking</w>
wer t.</w>
wen det</w>
wen den,</w>
well en
wel vaart</w>
weg zu
wach sende</w>
vor bei.</w>
vol .</w>
vervo er</w>
verlie t</w>
ver plaatsen</w>
ver einfach
ver dom
vaardig heid</w>
v in</w>
v ille</w>
ursprün glichen</w>
universu m,</w>
universitei t.</w>
un .</w>
ul in
uitdru kking</w>
tr ein</w>
to .</w>
teken en.</w>
stu deren</w>
stro o
stro men</w>
stra ks</w>
ster ven,</w>
sozi ales</w>
sozi al</w>
son sten</w>
so wieso</w>
sle chter</w>
seksu eel</w>
se :</w>
schau t,</w>
sch ijn</w>
s maa
ro ze</w>
religiö se</w>
rei s.</w>
ra c
produc ten.</w>
produc eert</w>
pro test
prij s.</w>
polit ik</w>
part ij</w>
par all
p ten</w>
ordn ung</w>
op van
op merk
oo s.</w>
onth ull
on voorstel
n t</w>
myster ie</w>
mon sters</w>
meene men</w>
mede do
me en
me da
m ist</w>
lief des
lieb te</w>
lei chter
le se</w>
le es</w>
kra chten.</w>
kont in
kommer zi
kie zen,</w>
kauf s
kar ten</w>
k reis</w>
k ak
journal isten</w>
is on</w>
irgend einer</w>
inspir eren</w>
inn er</w>
ies en,</w>
ie bt</w>
i mag
hu ur
he y,</w>
har der</w>
größ e</w>
großart ig,</w>
graf isch</w>
glei ch,</w>
glaub te</w>
gezam en
gewel d.</w>
gesellschaf tlichen</w>
ger s.</w>
genees middelen</w>
gelan gen,</w>
ge prä
ge ha
ge dichten</w>
ge activ
fort ab
finanzi ellen</w>
financ ieel</w>
fa ir
f ische</w>
et abl
erle ben.</w>
erforsch en.</w>
elk aars</w>
el tern</w>
einz iger</w>
eil s</w>
efficiën ter</w>
e or
e d.</w>
dur en</w>
dru k,</w>
doe k</w>
dies mal</w>
destij ds</w>
der de,</w>
der -
dat gene</w>
dan sen</w>
ck ten</w>
blo g</w>
bit te,</w>
bil det</w>
bij en
betriff t,</w>
bet rieben</w>
bereken ingen</w>
bep alen.</w>
bemer kt</w>
be für
be drie
ban g.</w>
ba re,</w>
auto 's.</w>
auf en.</w>
archite cten</w>
alis eren</w>
af sluiten</w>
aan bo
Wil l</w>
Wieder auf
Welt raum
We er</w>
W oo
Verzwei fl
Verenig d</w>
V iel</w>
Ul tra
U sha
T oe
T anz</w>
T -S
Südafrik a</w>
Sz ene</w>
Syste men</w>
Sum me</w>
Strate gien</w>
Stand punkt</w>
Spiel ,</w>
Spa ß.</w>
Som it</w>
Se ktor</w>
Schizop hren
Russ ische</w>
Prot ein</w>
Oper ationen</w>
O ut
New ton</w>
Nan o
Nam ibi
Nachbar schaft</w>
Na iro
M oo
Lös ung,</w>
Länder n.</w>
Log ik</w>
Le sen</w>
L iz
Kre at
Kor allen</w>
Knop f</w>
Klu ft</w>
Kana da</w>
K nie</w>
J A:</w>
Inter nationale</w>
In halte</w>
Gi pfel</w>
Get rei
Gemü se</w>
Gel oof</w>
GP S-
Frie d
Fre und,</w>
Flu g</w>
F emin
Drei e
Dan k,</w>
D ich
Col om
Bo x</w>
Bo den,</w>
Be wohner</w>
Be kijk</w>
Autom ob
Ant hrop
Alter s
A kadem
A h,</w>
20 10.</w>
12 ,</w>
. -
" V
" J
überzeu gt</w>
über schrei
éé r</w>
Ägyp ten</w>
zu gleich</w>
zinn ige</w>
zi en:</w>
zei den,</w>
za kken</w>
z ens
wunder vollen</w>
wonder lijke</w>
win zig</w>
win ter</w>
wi ck
wesen heit</w>
wee k.</w>
wechsel n</w>
wach ten,</w>
waar na</w>
w an</w>
w !</w>
vrijwillig ers</w>
virtu ellen</w>
vir ale</w>
vide og
versprei den.</w>
verschie den</w>
verschei denheid</w>
verrück t.</w>
vernün ft
verl iest</w>
verho gen</w>
verhinder n.</w>
verhinder n,</w>
verga dering</w>
verbun den,</w>
verbluff ende</w>
ver en,</w>
ver bergen</w>
vari atie</w>
vanda an?</w>
va k</w>
ursprün gliche</w>
um ul
um gehen.</w>
uit ziet.</w>
twij fel
tr ends</w>
toe voegen</w>
tegenover gestelde</w>
t 's</w>
sto k</w>
stimm ung</w>
staan ja
staa ten</w>
sp on
snap t</w>
sle cht.</w>
slag en,</w>
sl immer</w>
sign ific
sen si
schil d
sat z.</w>
ro mmel
rij dt</w>
rick et</w>
revolut ie.</w>
pro even</w>
person eel</w>
perman ent</w>
perfe kten</w>
par allel</w>
p ein
op roep</w>
op geleid</w>
onder weg</w>
nive au,</w>
my the</w>
menta ire</w>
mechanis men</w>
man u
leg t.</w>
leef tijd.</w>
le sc
lam pen</w>
la s
kop ie</w>
ken mer
jähr lich</w>
jo b</w>
j o</w>
izz a</w>
is ieren</w>
interact ieve</w>
ing t.</w>
ies en.</w>
ier t?</w>
ic it
hy dro
hul p.</w>
hor mon
hoe k
hel ikop
hei mlich</w>
handel n,</w>
ha .</w>
h us
h mt</w>
h le.</w>
grei fen.</w>
glob aler</w>
gewöhn lich</w>
geweldda dige</w>
gesell schaft</w>
geschre ven.</w>
geproduc eerd</w>
geograf ische</w>
gelan gen.</w>
gel eerd.</w>
gebil det</w>
ge op
ge eig
g ?</w>
fort geschrit
flu g
fehl t</w>
feder ale</w>
f st</w>
er maßen</w>
el ijk.</w>
el :</w>
duur zaam
draa i
draa g</w>
door gaan
do sis</w>
do ctor
dich t.</w>
design ers</w>
dat a,</w>
dan ach,</w>
broo d
bre u
br äu
br aa
beïnvloe dt</w>
beïnvloe den</w>
beë in
betro ffen</w>
best immen</w>
besit zt</w>
beantwor ten.</w>
be denken,</w>
b z
auto 's,</w>
aussie ht</w>
aus län
auf hören,</w>
athe ï
ass oc
anfan gen.</w>
an gebo
abil ität</w>
ab gel
aanwij zingen</w>
a bel</w>
Zwe den</w>
Wohl tät
Welt raum</w>
Viel zahl</w>
Ver halten,</w>
Tri ck</w>
Syn dro
Stra f
Stor y
Ster b
Sov jet
Situ ation,</w>
Schwe den</w>
Result ate</w>
Raum sch
Proze sse</w>
Produ kt
Palä stin
Mus keln</w>
M ah
Le ster
Kult ur.</w>
Ken ia.</w>
K ategor
Jeff er
Jap an.</w>
Hor mon
H ob
Glob alisierung</w>
Ger ade</w>
Gelegen heit,</w>
Geb ru
Frankrei ch</w>
Filme mach
F rucht
Ex ped
Erfin der</w>
Er schaff
En trop
Ele ment</w>
Ein mal</w>
Do kument
De ze
D A</w>
Christ op
C her
Blät ter</w>
Bi o-
Beweg ung,</w>
Be st
Be eld</w>
B ob
Augen blick
A A
"Wo w,</w>
"N ein
" Wissen</w>
" Een</w>
é cht</w>
zo ’n</w>
zelf :</w>
zeichn en.</w>
wissenschaf tlich</w>
wi er</w>
wetenschapper s,</w>
we eg</w>
wa t,</w>
w än
w d
vor han
voor bereid</w>
voer tuigen</w>
vloo g</w>
verstan den.</w>
verletz t</w>
verge ssen.</w>
verbrei tete</w>
verbra cht,</w>
verb a
ver tra
ver tik
ver langsam
ver hoog
vacu ü
unterschei den.</w>
unter bro
ungspro gram
un ver
un möglich.</w>
un möglich,</w>
um wandel
trei bt</w>
tra f,</w>
tion en</w>
tele scoop</w>
te ge
t te,</w>
t aten,</w>
su chten</w>
stil l</w>
stelsel .</w>
spür en</w>
spun kt</w>
spar en,</w>
skran k
sicher er</w>
sich t.</w>
sich eren</w>
sh i
sen :</w>
se chs
schick ten</w>
samm elt</w>
s om</w>
richt ungen</w>
rei ste</w>
reage ert</w>
reag eren.</w>
raa kten</w>
pu ur</w>
produc tiviteit</w>
pog ingen</w>
over heid.</w>
os feer</w>
or y</w>
oorlo gen</w>
ons zelf.</w>
olog ie
o besit
noo it.</w>
nom men</w>
neu esten</w>
nat ur
na denken.</w>
model ,</w>
mm er</w>
mit hilfe</w>
mis st</w>
middel .</w>
met ingen</w>
me s,</w>
me erde</w>
mat ik</w>
m ie
lu kte</w>
lei cht,</w>
la den.</w>
kur zer</w>
kt oren,</w>
kn app</w>
klimaat verandering.</w>
klim men</w>
kl at
ist e.</w>
is a</w>
irgend ein</w>
inter pre
inspann ingen</w>
ing ss
industri ellen</w>
iPo d</w>
hör te,</w>
herauszu finden</w>
her n</w>
hem :</w>
h eld</w>
gl or
geïn fec
gewisser maßen</w>
gewalt ige</w>
geve cht</w>
[...]
