de 145264
en 96809
een 88131
het 79100
van 75324
dat 58514
in 57356
is 56528
te 52716
. 46251
je 45628
e@@ 39897
, 37998
d@@ 36546
ik 36544
k@@ 35880
ver@@ 35745
c@@ 35715
ge@@ 35357
die 34787
v@@ 34101
we 33594
en. 31721
be@@ 31348
er 30857
d 30626
p@@ 30452
t@@ 30115
s@@ 30113
st@@ 29838
t 29796
op 28988
den 28966
g@@ 27796
on@@ 27263
en@@ 27170
s 27054
om 26857
b@@ 26730
er@@ 26350
in@@ 25429
zijn 25297
f@@ 25282
m@@ 24729
niet 24614
ze 24566
met 24256
en, 23958
u@@ 23453
o@@ 22933
re@@ 22513
voor 22466
Ik 22298
z@@ 22276
e 22079
i@@ 21867
op@@ 21248
l@@ 20364
als 20034
k 19950
aan 19553
h@@ 18760
ie@@ 18551
el@@ 18320
ten 18010
Het 17937
a@@ 17883
or@@ 17735
n@@ 17508
: 16455
at@@ 16105
-@@ 16018
le@@ 15837
an@@ 15692
sch@@ 15686
t. 15380
wat 15263
ing 15217
d. 14735
gen 14670
ie 14599
de@@ 14547
w@@ 14537
al@@ 14134
naar 14088
oo@@ 14086
g 14024
a 14018
over 13913
r@@ 13769
deze 13748
maar 13389
st 13382
dit 13273
uit@@ 13267
mo@@ 13191
ar@@ 13123
was 12843
voor@@ 12809
We 12801
ter@@ 12479
al 12477
dan 12329
of 12269
da@@ 12212
om@@ 12142
aan@@ 11891
ro@@ 11719
t, 11717
sp@@ 11673
"@@ 11627
aa@@ 11553
-- 11440
mijn 11396
ij@@ 11388
hebben 11158
we@@ 11039
En 10958
De 10926
? 10892
te@@ 10814
kunnen 10642
to@@ 10597
ur@@ 10555
aar@@ 10538
door 10535
D@@ 10462
mensen 10219
p 10003
d, 9997
der@@ 9957
s. 9950
is@@ 9814
den@@ 9720
do@@ 9688
lo@@ 9593
uit 9589
ons 9503
wer@@ 9429
Maar 9271
gen@@ 9246
gel@@ 9234
vo@@ 9213
it@@ 9127
ig@@ 9059
S@@ 9030
me 8928
waar@@ 8915
kan 8907
et@@ 8865
ste 8859
m 8824
vol@@ 8706
ra@@ 8648
ma@@ 8543
Ze 8469
Dit 8418
ch@@ 8408
O@@ 8313
s, 8283
ei@@ 8227
Dat 8181
j@@ 8151
af@@ 8111
zo@@ 8110
am@@ 8028
y@@ 8012
ook 7997
per@@ 7977
ken 7972
ne@@ 7968
M@@ 7941
l 7920
'@@ 7920
bij 7891
ol@@ 7863
ont@@ 7827
he@@ 7810
veel 7745
W@@ 7711
di@@ 7688
oe@@ 7686
pro@@ 7655
ou@@ 7646
B@@ 7623
ken@@ 7616
el 7607
N@@ 7545
A@@ 7515
kl@@ 7452
gev@@ 7445
ic@@ 7438
C@@ 7426
onder@@ 7425
ijk 7416
hij 7369
hun 7330
ter 7315
wa@@ 7297
geen 7271
onze 7262
men 7199
f 7175
V@@ 7170
zou 7134
den. 7112
du@@ 7109
eer@@ 7077
ap@@ 7061
meer 7036
ul@@ 7016
et 7011
T@@ 7007
je@@ 6997
1@@ 6988
hoe 6972
ijk@@ 6927
H@@ 6918
der 6902
waar 6872
me@@ 6859
over@@ 6846
nen 6809
ti@@ 6699
ven 6674
ige 6673
ze@@ 6662
lie@@ 6654
zo 6643
nog 6608
Als 6534
ische 6498
ct@@ 6438
tot 6413
ingen 6401
Z@@ 6399
ijke 6383
Je 6266
heid 6225
o 6201
lijk 6138
nie@@ 6099
la@@ 6098
pen 6085
jaar 6032
cht 5952
se 5911
im@@ 5908
dig@@ 5905
il@@ 5865
lan@@ 5833
del@@ 5822
ist@@ 5821
aal 5799
G@@ 5790
atie 5693
K@@ 5648
iets 5643
ik@@ 5608
so@@ 5589
zien 5575
kom@@ 5563
stu@@ 5543
P@@ 5535
ger@@ 5518
her@@ 5509
rij@@ 5455
ru@@ 5400
J@@ 5399
aal@@ 5371
andere 5363
nu 5350
an 5336
gro@@ 5331
den, 5321
heeft 5311
w 5309
eren 5303
ss@@ 5266
E@@ 5260
L@@ 5253
ë@@ 5238
cht@@ 5237
kan@@ 5213
kt 5192
ij 5191
sl@@ 5162
es 5153
men@@ 5153
ent@@ 5149
wij@@ 5122
ho@@ 5109
un@@ 5108
ale 5098
In 5096
ijn@@ 5072
com@@ 5060
ste@@ 5049
moeten 5048
maa@@ 5038
lu@@ 5006
heb 5003
ster@@ 4994
ende 4975
Hij 4973
gaan 4937
is. 4933
tel@@ 4919
man@@ 4913
ag@@ 4904
ein@@ 4883
- 4878
toe@@ 4868
jullie 4803
I@@ 4785
hu@@ 4766
con@@ 4753
Dus 4739
ies 4660
hoo@@ 4644
vin@@ 4641
aat 4640
ken. 4623
hier 4618
oor@@ 4605
ach@@ 4604
ber@@ 4585
hei@@ 4537
ing@@ 4524
." 4512
lev@@ 4503
hou@@ 4476
had 4472
zijn. 4462
gr@@ 4440
mee@@ 4435
em@@ 4413
se@@ 4397
Wat 4391
ie. 4389
dingen 4368
ker@@ 4364
omdat 4363
kel@@ 4360
ri@@ 4357
ke 4353
k. 4332
worden 4329
zal 4327
geb@@ 4307
heel 4290
bl@@ 4279
Er 4269
ci@@ 4266
ac@@ 4263
ell@@ 4256
van@@ 4253
i 4244
no@@ 4244
gen. 4239
zoals 4225
moe@@ 4201
Een 4182
hel@@ 4178
e, 4151
pa@@ 4146
wereld 4136
au@@ 4118
za@@ 4115
ing. 4110
moet 4095
echt 4088
ent 4073
vor@@ 4038
ele 4034
zich 4028
ig 3994
ef@@ 3976
gaat 3949
's 3938
doen 3932
and 3924
ir@@ 3914
ab@@ 3907
wel@@ 3902
wil 3893
krij@@ 3890
dus 3887
leven 3881
ond 3836
ben 3824
beg@@ 3774
ve@@ 3746
twee 3744
wel 3721
ten. 3691
is, 3690
eu@@ 3685
gt 3678
em 3660
één 3655
wordt 3648
alleen 3619
ier@@ 3612
aten 3601
min@@ 3596
br@@ 3581
sn@@ 3576
tij@@ 3575
R@@ 3564
han@@ 3561
gebeur@@ 3551
ken, 3545
u 3541
ie, 3528
zie@@ 3525
ben@@ 3504
♫ 3473
war@@ 3458
end 3457
su@@ 3446
aar 3417
ex@@ 3407
y 3401
ut@@ 3397
tu@@ 3396
haar 3396
verander@@ 3394
eerste 3392
hal@@ 3378
werel@@ 3374
isch 3368
ran@@ 3367
hoe@@ 3363
kun@@ 3362
proble@@ 3361
spe@@ 3358
werd 3350
sten 3344
zen 3334
bij@@ 3321
goed 3304
mer@@ 3291
ot@@ 3287
zelf 3286
ko@@ 3283
icht 3283
ich@@ 3282
maken 3275
vi@@ 3263
gra@@ 3251
wil@@ 3234
tijd 3225
2@@ 3206
bo@@ 3175
alle 3168
waren 3157
ging 3156
mid@@ 3141
laten 3141
goe@@ 3140
tro@@ 3133
belangr@@ 3127
gebruik@@ 3125
kwa@@ 3118
n 3098
g. 3097
ce@@ 3093
kte 3064
gelijk@@ 3062
F@@ 3062
sle@@ 3056
all@@ 3056
gele@@ 3046
k, 3032
daar 3029
ple@@ 3026
pre@@ 3021
zon@@ 3021
vro@@ 3008
x@@ 3004
app@@ 2998
denk 2966
pr@@ 2950
na@@ 2948
dig 2940
dan@@ 2939
daar@@ 2927
mee 2915
toen 2911
met@@ 2903
zeg@@ 2889
en? 2888
ov@@ 2878
zi@@ 2860
a, 2853
grote 2845
ct 2843
nieu@@ 2832
kken 2819
hele 2804
nieuwe 2802
wor@@ 2802
sit@@ 2795
ing, 2769
inn@@ 2751
besch@@ 2739
woor@@ 2738
manier 2734
ï@@ 2734
bel@@ 2734
soort 2732
mij 2731
lei@@ 2731
eil@@ 2718
lijk@@ 2715
eerd 2707
na 2705
aan. 2689
ker 2689
allemaal 2682
ten, 2667
beel@@ 2665
delijk 2663
komen 2645
ts 2639
weet 2638
sc@@ 2634
sel@@ 2620
inter@@ 2617
de, 2611
zijn, 2607
dra@@ 2589
zouden 2588
bin@@ 2583
lich@@ 2582
0@@ 2580
pu@@ 2569
ed@@ 2564
tre@@ 2560
' 2557
ga@@ 2546
ge 2545
mat@@ 2542
ellen 2539
gen, 2534
str@@ 2531
sen 2530
uur 2514
kra@@ 2504
een@@ 2500
ding 2499
gens 2497
zelfde 2492
ens 2491
erg 2488
de. 2486
kt. 2481
elen 2476
gebru@@ 2473
heb@@ 2470
vert@@ 2461
e. 2456
eens 2436
net 2423
zor@@ 2421
plan@@ 2413
doen. 2406
best@@ 2403
it 2401
eigen@@ 2396
weten 2395
hem 2392
sen@@ 2390
on 2389
Deze 2388
gelu@@ 2384
kijk@@ 2380
ha@@ 2378
.@@ 2375
proc@@ 2374
dt 2372
a. 2370
want 2370
technolog@@ 2349
sta@@ 2322
deel 2320
chten 2317
raa@@ 2314
Hoe 2314
ers 2311
kt@@ 2308
boe@@ 2307
rei@@ 2305
oor 2304
denken 2300
wetensch@@ 2299
zelfs 2294
ke@@ 2290
jes 2289
ft 2287
kinderen 2279
door@@ 2273
syste@@ 2271
cre@@ 2271
verb@@ 2269
ap 2268
open 2267
pl@@ 2265
ron@@ 2265
verh@@ 2263
komt 2262
va@@ 2262
iemand 2259
dru@@ 2251
ur 2243
tegen 2239
dag 2237
4@@ 2235
geda@@ 2228
zullen 2224
willen 2222
dr@@ 2217
maakt 2215
5 2212
beeld 2209
werk 2207
bren@@ 2206
3@@ 2205
per 2199
po@@ 2190
hier@@ 2188
5@@ 2178
zeer 2175
" 2169
misschien 2160
zit@@ 2156
tussen 2155
kon 2152
natuur@@ 2152
dige 2147
ies@@ 2147
mens@@ 2145
zoe@@ 2144
zonder 2143
g, 2141
id@@ 2135
eld 2133
wi@@ 2124
ontwikkel@@ 2124
bi@@ 2124
ide@@ 2123
um@@ 2116
gesch@@ 2115
bouw@@ 2113
kunt 2112
ten@@ 2112
staat 2106
geven 2097
aak 2097
00 2092
... 2091
men. 2081
stell@@ 2080
plaat@@ 2076
ssen 2074
kleine 2072
beteken@@ 2071
paar 2071
ff@@ 2070
jon@@ 2069
af 2056
ieder@@ 2052
TED 2049
é@@ 2046
bu@@ 2043
onder 2039
iteit 2038
ast@@ 2036
produ@@ 2035
wij 2034
var@@ 2034
oren 2028
kk@@ 2027
har@@ 2023
antwoor@@ 2020
Hier 2011
fo@@ 2008
drie 2008
gewoon 2004
alles 2003
sto@@ 2002
art@@ 1997
st. 1997
vrouw@@ 1997
eg 1988
ser@@ 1983
ië@@ 1979
eigen 1971
kon@@ 1970
hadden 1967
ieve 1966
tra@@ 1966
miljo@@ 1964
zelf@@ 1963
uw@@ 1963
jar@@ 1957
mu@@ 1957
mil@@ 1956
groe@@ 1954
ief 1953
bedrij@@ 1952
for@@ 1951
nooit 1949
gew@@ 1947
ein 1944
8@@ 1943
aar. 1942
versch@@ 1941
mom@@ 1940
kre@@ 1939
ieren 1936
ingen. 1936
maal 1932
uur@@ 1931
er, 1931
zet@@ 1927
vanda@@ 1926
groot@@ 1924
Amerik@@ 1914
?" 1911
nam@@ 1910
vra@@ 1905
erd 1904
gelijk 1900
begin@@ 1899
act@@ 1898
zu@@ 1897
zien. 1896
die@@ 1892
ek 1891
Toen 1890
het@@ 1884
et. 1883
ele@@ 1883
erde 1881
onderzoe@@ 1881
idee 1880
oon 1879
ver 1877
aarom 1876
er. 1874
0 1873
win@@ 1873
verschillende 1873
gende 1866
m. 1865
ongeveer 1856
land 1854
keer 1844
delen 1844
iel@@ 1841
elke 1839
ant@@ 1834
chte 1831
le 1831
aaro@@ 1827
Al@@ 1825
ant 1820
twe@@ 1820
ga 1815
sy@@ 1811
geloo@@ 1810
zei: 1805
blij@@ 1796
ziet 1793
On@@ 1792
eerde 1791
baar 1789
zij 1787
hen 1784
ruim@@ 1784
eel 1776
spre@@ 1771
elkaar 1769
steeds 1767
samen@@ 1765
omm@@ 1760
and@@ 1757
nodig 1746
plaats 1745
noe@@ 1745
pun@@ 1742
Ver@@ 1741
as@@ 1740
fil@@ 1740
ool@@ 1740
ings@@ 1734
aam 1734
Mijn 1733
gevo@@ 1733
fa@@ 1731
bewe@@ 1730
begrij@@ 1722
aant@@ 1720
maken. 1719
altijd 1719
ist 1718
6@@ 1717
iken 1710
ders 1710
hebben. 1704
genoe@@ 1702
mensel@@ 1701
zie 1698
ati@@ 1697
werk@@ 1691
stru@@ 1688
alis@@ 1686
tegen@@ 1684
Talk 1680
eren. 1676
fe@@ 1675
9@@ 1674
lin@@ 1670
vre@@ 1669
bare 1668
vri@@ 1667
ijn 1666
jaren 1665
weg 1662
ens@@ 1662
19@@ 1662
ert 1662
doo@@ 1660
.000 1660
kijken 1658
us@@ 1658
7@@ 1657
ds@@ 1653
ag 1653
Op 1648
energ@@ 1646
og@@ 1643
el. 1638
gest@@ 1637
Subtitles 1632
Transcript: 1632
lijke 1631
waarom 1630
zeggen 1628
hebt 1627
ontde@@ 1627
iz@@ 1623
olog@@ 1622
mar@@ 1622
draa@@ 1619
ban@@ 1617
St@@ 1617
Dan@@ 1615
gez@@ 1609
ub@@ 1609
ed 1607
ensch@@ 1606
par@@ 1605
'n 1603
ch 1602
ën 1594
geme@@ 1591
wijl 1590
alen 1589
Nu 1585
ger 1578
stel@@ 1577
vis@@ 1576
conom@@ 1575
laat@@ 1571
werken 1570
Die 1567
kelijk 1565
ess@@ 1562
terug 1558
vraag 1558
eit 1557
pass@@ 1556
gewel@@ 1552
bep@@ 1552
pt 1552
enen 1551
man 1547
teru@@ 1547
deel@@ 1542
dacht 1541
sam@@ 1540
ef 1535
wanneer 1533
verk@@ 1527
eg@@ 1524
was. 1523
pen. 1522
leg@@ 1520
worden. 1518
rel@@ 1513
ad@@ 1511
icht@@ 1510
wet@@ 1509
ult@@ 1509
wen@@ 1501
or 1500
gebie@@ 1500
el, 1499
handel@@ 1498
zei 1494
kenn@@ 1493
ander@@ 1490
chts 1488
dit@@ 1484
aat@@ 1482
anders 1481
ob@@ 1474
interess@@ 1471
form@@ 1471
berei@@ 1469
co@@ 1463
te, 1462
et, 1457
ot 1457
us 1456
ds 1452
sla@@ 1449
allen 1449
pp@@ 1445
Afrik@@ 1445
Ne@@ 1444
ill@@ 1433
um 1426
ation@@ 1423
medi@@ 1420
enden 1416
kop@@ 1409
net@@ 1403
iver@@ 1400
ak@@ 1394
zei@@ 1390
eft 1387
ooit 1385
kin@@ 1378
ks 1377
kten 1375
ouw@@ 1366
lat@@ 1365
polit@@ 1363
te. 1363
m, 1363
lang 1362
kt, 1360
elt 1345
stan@@ 1343
was, 1339
igen 1337
alle@@ 1321
dro@@ 1318
wie 1310
uren 1304
st, 1304
2 1302
ben, 1297
the@@ 1295
Be@@ 1294
vat@@ 1292
Y@@ 1292
eff@@ 1288
aut@@ 1283
10 1283
il 1280
dur@@ 1279
! 1278
h 1266
kle@@ 1264
gan@@ 1258
werden 1258
mon@@ 1255
ta@@ 1251
mach@@ 1242
del 1239
en: 1239
enor@@ 1237
; 1234
kkel@@ 1231
ve 1230
organis@@ 1228
We@@ 1226
verl@@ 1226
ven@@ 1224
men, 1223
ck@@ 1218
tig 1218
sche 1216
vier 1215
wan@@ 1214
U@@ 1210
zin@@ 1209
bet@@ 1208
cht. 1208
peri@@ 1205
yp@@ 1203
ion@@ 1202
eri@@ 1198
anderen 1196
qu@@ 1194
En@@ 1184
fun@@ 1181
kel 1181
ander 1180
let@@ 1180
mis@@ 1178
sin@@ 1177
stre@@ 1169
ler@@ 1163
Ge@@ 1156
kam@@ 1156
ingen, 1154
rie@@ 1153
,@@ 1150
rit@@ 1149
Chin@@ 1147
bew@@ 1136
fl@@ 1131
Indi@@ 1127
un 1123
fin@@ 1113
gen: 1110
bas@@ 1109
pt@@ 1106
20@@ 1103
tel 1080
tr@@ 1072
ip@@ 1063
iss@@ 1061
gewe@@ 1061
bre@@ 1055
ontro@@ 1054
t: 1053
si@@ 1052
amil@@ 1052
ts@@ 1051
tion@@ 1037
jo@@ 1034
stellen 1032
vraa@@ 1030
gang 1029
dien@@ 1023
ort 1022
20 1021
ne 1010
ment 1009
50 1009
An@@ 1006
gi@@ 1000
son@@ 996
lang@@ 996
ene 992
en." 992
gl@@ 990
von@@ 987
es@@ 977
200@@ 976
ine 968
kor@@ 965
kinder@@ 964
3 964
les 952
1 948
ann@@ 947
li@@ 943
oll@@ 939
mm@@ 937
ble@@ 936
ollar 935
eite 931
ier 921
mand 918
isch@@ 915
mp@@ 913
Men@@ 909
4 909
". 909
an. 903
nat@@ 900
inder@@ 899
end@@ 893
ass@@ 881
cht, 880
8 880
weg@@ 880
b 879
ter. 878
sie 876
ieden@@ 871
mei@@ 860
genom@@ 858
t? 858
ern@@ 855
ief@@ 853
wal@@ 849
In@@ 847
get@@ 843
bra@@ 836
schien 835
stat@@ 834
% 833
mor@@ 832
zijn@@ 832
Re@@ 831
Mar@@ 822
rop@@ 812
x 804
zel@@ 796
nor@@ 796
A 796
To@@ 792
6 790
issen 788
wo@@ 783
ig. 782
teken@@ 782
New 781
Le@@ 780
30 780
elk@@ 779
sol@@ 778
richt@@ 769
neer 768
ort@@ 765
r 762
TE@@ 760
ft@@ 755
as 754
tsch@@ 748
ë 745
am 736
enn@@ 731
spro@@ 721
entr@@ 717
7 716
♪ 715
fer@@ 712
y, 709
c 709
ster 707
ull@@ 701
ffen 700
De@@ 699
stand 698
onge@@ 695
sie@@ 694
neu@@ 690
geh@@ 683
00@@ 683
ges@@ 679
belan@@ 674
El@@ 669
sign@@ 669
ment@@ 668
age 667
ir 658
Ma@@ 655
will@@ 651
lange 646
én 635
S 633
ter, 628
Nat@@ 628
au 622
dre@@ 618
Wel@@ 613
ijken 611
Ar@@ 610
an, 603
Da@@ 602
n. 602
fra@@ 602
Ro@@ 590
amer@@ 590
hr@@ 588
at 581
ien 580
mel@@ 576
tit@@ 573
9 571
im 567
Te@@ 567
Sp@@ 566
fr@@ 565
", 565
Sch@@ 556
bar@@ 555
ssen. 548
Me@@ 547
Mo@@ 546
verschill@@ 535
he 534
n, 532
volu@@ 529
ere 526
Gro@@ 522
bei@@ 521
è@@ 511
kr@@ 509
had@@ 507
schei@@ 503
ge, 495
[@@ 494
ka@@ 485
Wie 479
ó@@ 473
;@@ 472
star@@ 471
zwe@@ 471
ig, 468
Man@@ 464
voll@@ 461
ullie 452
sig@@ 447
drij@@ 447
tig@@ 443
’@@ 438
itu@@ 435
erg@@ 431
des 431
heu@@ 430
Zu@@ 430
Pro@@ 429
] 427
&@@ 427
iger 419
macht 418
!@@ 413
ah@@ 411
son 408
/@@ 405
inner@@ 395
ieren. 393
‘@@ 389
wikkel@@ 387
Wer@@ 384
sa@@ 383
hy@@ 382
nach@@ 381
mal@@ 378
rum 375
da 369
Bo@@ 362
ar 357
gu@@ 357
es, 352
rich@@ 352
Do@@ 348
gt, 346
begr@@ 344
Au@@ 343
chn@@ 338
bil@@ 338
eit@@ 338
imm@@ 336
gef@@ 334
ber 333
spr@@ 331
?@@ 329
sor@@ 328
iel 323
” 322
..@@ 320
stem 319
000 318
enz@@ 313
“@@ 311
erst 307
Inter@@ 306
Ho@@ 302
ll@@ 302
Wa@@ 299
des@@ 294
ss 293
denen 288
Se@@ 288
ssen, 283
arbei@@ 275
dem 270
mus@@ 269
eh@@ 268
ieren, 266
dar@@ 265
fan@@ 261
v 261
Gen@@ 261
– 259
z 256
I 256
ck 255
schie@@ 255
ge. 249
hil@@ 247
hat@@ 245
tes 239
mit@@ 238
elle 238
ade 236
Q@@ 236
é 233
Univer@@ 233
ben. 231
Na@@ 228
wach@@ 225
So@@ 221
C 219
Ber@@ 217
Sy@@ 213
D 212
O 209
ist. 209
Bu@@ 209
U 207
veer 207
Her@@ 206
Je@@ 206
La@@ 205
ein, 203
aus 201
tz@@ 199
’ 198
ges 194
Ab@@ 194
ick@@ 193
X@@ 191
gier@@ 191
Ein@@ 190
wei@@ 190
ch, 188
Com@@ 187
dies 184
Di@@ 180
Er@@ 180
Kon@@ 180
steed@@ 177
For@@ 169
T 169
Per@@ 168
Bil@@ 166
rau@@ 162
Mon@@ 161
Ex@@ 161
Or@@ 159
… 158
einen 156
viel 155
Mat@@ 153
Ant@@ 149
ation 147
her 143
ohn@@ 142
Tal@@ 142
Kinder@@ 140
— 140
Bi@@ 138
N 138
einer 137
V 136
Ta@@ 134
ser 134
fen 133
gebe@@ 133
hab@@ 133
%@@ 132
Medi@@ 131
ist, 129
all 127
Vor@@ 126
viel@@ 125
Fre@@ 124
Wo@@ 122
Mus@@ 120
P 119
ê@@ 116
erste 116
du 115
und 115
á@@ 113
$@@ 113
kti@@ 111
War@@ 110
und@@ 110
ör@@ 109
Stu@@ 108
noch 107
B 107
tun@@ 105
ung@@ 104
Un@@ 104
olit@@ 103
Geb@@ 102
bei 102
nie 101
Bei@@ 101
ob 98
Gr@@ 98
ü@@ 98
llen 97
hin@@ 96
erz@@ 95
under@@ 93
K 93
te: 90
Kin@@ 89
ht 88
versu@@ 86
werden. 86
à 85
ön@@ 85
nis 85
aus@@ 83
wie@@ 82
ler 82
sonder@@ 82
M 80
lau@@ 80
Technolog@@ 79
Was 78
í@@ 77
immer 77
eine 74
G 74
inge 74
fol@@ 73
The@@ 73
ion 73
dies@@ 72
zou@@ 71
ö@@ 71
]@@ 69
Mill@@ 69
E 67
schaf@@ 66
:@@ 64
Ger@@ 63
L 63
/ 61
R 58
Tran@@ 57
ich 55
ich, 53
ih@@ 53
etz@@ 53
zur@@ 52
hn@@ 51
werden, 51
”@@ 51
plaa@@ 50
ganis@@ 50
eil 49
be 48
X 47
un, 46
É@@ 46
kei@@ 46
che 45
ats@@ 45
Man 45
Mit@@ 45
q@@ 44
gend@@ 43
wa 41
hl@@ 41
chnolog@@ 40
war 40
Sub@@ 39
Ide@@ 38
ó 37
#@@ 37
ç@@ 37
pf@@ 36
H 36
scri@@ 35
Art 34
ung 34
F 33
aus, 32
j 32
$ 32
Q 31
soll@@ 31
Fra@@ 31
olla@@ 31
be, 30
Geh@@ 30
​@@ 30
enn 30
+ 29
Y 29
à@@ 29
Leu@@ 29
nich@@ 29
einige 29
chen 28
ahr@@ 28
script@@ 27
ã@@ 27
Wei@@ 27
hat 26
Z 26
½ 25
= 25
°@@ 25
woll@@ 24
Rei@@ 24
schaff@@ 24
von 24
ckl@@ 24
über@@ 23
Nach@@ 23
) 22
bin 22
wiss@@ 21
so 21
wir@@ 21
das 21
gab@@ 21
viele 21
brau@@ 21
wicht@@ 21
_@@ 21
selb@@ 20
wur@@ 20
sein@@ 20
ñ@@ 20
@@ 20
W 19
Schul@@ 18
mal 18
♫@@ 17
J 17
@@@ 16
+@@ 15
unter@@ 15
schaft 15
´@@ 15
Gesch@@ 15
iert 15
kur@@ 14
Proble@@ 14
° 14
ehr@@ 14
mit 13
ï 13
unden 13
ün@@ 13
gar 13
bt 12
zwi@@ 12
Sach@@ 12
steh@@ 12
–@@ 11
weil 10
ú@@ 10
schau@@ 10
ì@@ 10
ò@@ 10
zeu@@ 10
@@ 10
komm@@ 9
chen. 9
bau@@ 9
ersten 9
º@@ 9
auf@@ 9
glich@@ 9
ú 8
ierte 8
ä@@ 8
bess@@ 8
gib@@ 8
zwei@@ 8
Um@@ 8
 8
ür@@ 7
*@@ 7
ung, 7
chen, 7
Rau@@ 7
 @@ 7
zu 7
²@@ 7
unter 7
ø@@ 7
± 7
á 7
wissen 6
`@@ 6
² 6
war, 6
sich@@ 6
sein 6
wo 5
ionen 5
q 5
(@@ 5
iert. 5
sag@@ 5
å@@ 5
—@@ 5
Wir@@ 5
merik@@ 5
Ges@@ 5
nicht 5
Zei@@ 5
kann@@ 5
ň@@ 5
än@@ 5
glei@@ 4
so, 4
=@@ 4
mir 4
lich 4
ung. 4
tet 4
€ 4
¼ 4
hl 4
vor 4
@@ 4
í 4
อ@@ 4
^ 4
nicht, 3
` 3
glau@@ 3
¨@@ 3
¨ 3
Jah@@ 3
doch 3
neh@@ 3
^@@ 3
* 3
mensch@@ 3
mö@@ 3
º 3
heit 3
£@@ 3
einf@@ 3
einem 3
 3
ć@@ 3
@@ 3
@@ 3
´ 3
_ 3
teil@@ 2
kommen 2
@ 2
…@@ 2
aber 2
î@@ 2
schen 2
Aus@@ 2
½@@ 2
â@@ 2
für 2
ern 2
uns 2
Ó@@ 2
tun 2
€@@ 2
Der 2
Ö@@ 2
è 2
@@ 2
nah@@ 2
ร@@ 2
่@@ 2
Á@@ 2
¡@@ 2
sein. 1
♪@@ 1
Das 1
Ich 1
habe 1
sind 1
mein@@ 1
ganz 1
wird 1
fahr@@ 1
weise 1
durch 1
neue 1
™@@ 1
‘ 1
halten 1
¾ 1
gab 1
auf 1
ā@@ 1
“ 1
Frau@@ 1
dass 1
ù@@ 1
© 1
iert, 1
Dies@@ 1
# 1
hat, 1
utz@@ 1
zur 1
﻿@@ 1
Über@@ 1
oder 1
» 1
Es 1
Ï@@ 1
Ò@@ 1
ย 1
ย@@ 1
Č@@ 1
  1
Ent@@ 1
ć 1
Å@@ 1
werde 1
ě@@ 1
ī@@ 1
ô@@ 1
det 1
seh@@ 1
