de 121195
een 83610
het 79041
van 73272
en 68061
dat 54693
in 53020
is 51190
te 42788
je 41414
ik 34967
die 34335
we 33181
op 27431
zijn 24978
om 24938
niet 24614
met 24209
ze 22419
voor 21455
Ik 21238
als 19232
er 19089
Het 17594
aan 15701
wat 15120
naar 13828
deze 13748
maar 13328
dit 13273
over 13259
was 12824
We 12521
dan 12320
of 11658
-- 11390
mijn 11284
hebben 11158
En 10919
kunnen 10642
De 10566
mensen 10219
door 9607
ons 9255
Maar 9199
kan 8907
Ze 8414
Dit 8263
Dat 8015
uit 7923
ook 7863
hij 7369
hun 7330
onze 7262
geen 7191
zou 7134
meer 7036
hoe 6972
waar 6714
zo 6643
nog 6608
bij 6578
tot 6413
Als 6324
me 6114
jaar 6032
Je 6028
al 5867
veel 5720
andere 5363
nu 5350
heeft 5311
iets 5201
In 5056
heb 5003
moeten 4983
Hij 4919
jullie 4803
- 4803
Dus 4739
zien 4646
hier 4618
zijn. 4395
gaan 4380
omdat 4363
zal 4327
zoals 4225
had 4211
Er 4195
worden 4163
'@@ 4144
heel 4132
Een 4123
wereld 4088
zich 4028
dingen 4022
moet 3952
is. 3941
Wat 3935
echt 3904
wil 3893
gaat 3888
dus 3862
doen 3848
twee 3744
leven 3667
één 3655
wordt 3648
alleen 3619
ben 3589
♫ 3473
haar 3396
werd 3350
eerste 3323
"@@ 3216
ver@@ 3214
goed 3197
maken 3174
alle 3168
waren 3127
op@@ 3122
is, 3091
laten 2996
daar 2977
toen 2911
denk 2839
grote 2822
hele 2804
nieuwe 2802
manier 2734
mij 2731
soort 2713
allemaal 2682
tijd 2662
uit@@ 2647
on@@ 2643
weet 2638
zouden 2588
wel 2563
zijn, 2560
in@@ 2544
aan@@ 2485
erg 2482
af@@ 2441
? 2440
ge@@ 2422
-@@ 2397
hem 2392
weten 2363
: 2360
Deze 2358
want 2342
doen. 2340
zelfs 2294
be@@ 2237
zullen 2224
kinderen 2222
willen 2222
tegen 2201
eens 2169
misschien 2160
kon 2152
na 2123
. 2112
kunt 2112
en, 2087
Hoe 2075
paar 2071
TED 2049
kleine 2049
ging 2049
komt 2047
dag 2041
zeer 2035
wij 2034
tussen 2016
drie 2008
alles 2003
iemand 1995
staat 1977
Hier 1975
hadden 1967
nooit 1949
eigen 1945
denken 1921
net 1896
per 1896
en. 1892
Toen 1890
verschillende 1873
, 1869
idee 1864
werk 1864
ongeveer 1856
and 1846
over@@ 1846
t. 1844
elke 1839
gewoon 1838
zonder 1823
ga 1815
zei: 1805
ing 1802
s. 1797
." 1776
komen 1774
elkaar 1769
steeds 1767
d. 1757
ziet 1757
nodig 1746
plaats 1728
altijd 1719
keer 1715
onder 1710
ten 1707
hebben. 1704
s, 1703
hen 1700
deel 1675
maken. 1675
jaren 1665
Mijn 1656
Talk 1652
d 1644
Subtitles 1632
Transcript: 1632
waarom 1630
zeggen 1628
Op 1628
hebt 1627
u 1616
... 1606
zie 1604
den 1601
Nu 1585
mee 1567
terug 1558
t, 1552
Die 1550
vraag 1542
s@@ 1536
wanneer 1533
d, 1532
niet. 1524
was. 1523
eigenlijk 1521
af 1520
gebruiken 1514
verhaal 1511
ing. 1504
zien. 1504
zij 1500
zei 1494
laat 1489
kwam 1474
aantal 1470
probleem 1464
beter 1464
weer 1461
meest 1460
goede 1459
geven 1455
k@@ 1452
s 1447
anders 1438
voor@@ 1425
iedereen 1424
procent 1412
' 1408
kijken 1407
miljoen 1405
zodat 1403
land 1398
laatste 1390
er@@ 1379
man 1361
konden 1353
geleden 1352
wilde 1347
was, 1339
t 1336
worden. 1335
minder 1324
vinden 1323
wie 1310
ooit 1306
zo'n 1300
beetje 1297
vrouwen 1288
volgende 1274
weg 1269
ing, 1263
vandaag 1261
werden 1258
p@@ 1256
zit 1254
enkele 1253
en@@ 1250
zelf 1249
elk 1244
doen, 1236
maakt 1226
begon 1218
geld 1218
groot 1216
slechts 1213
betekent 1212
moment 1209
dezelfde 1207
werken 1204
samen 1204
10 1201
krijgen 1198
's 1198
hoop 1191
leren 1190
lang 1189
belangrijk 1189
wereld. 1174
den. 1173
binnen 1172
technologie 1172
en? 1167
ont@@ 1166
even 1164
om@@ 1162
terwijl 1156
moest 1139
doet 1138
Zo 1136
Dan 1132
meeste 1130
helemaal 1130
d@@ 1129
vragen 1122
onder@@ 1117
niets 1113
water 1111
toe 1110
vaak 1110
waarin 1108
vier 1107
ander 1107
hebben, 1104
waarop 1102
menselijke 1100
her@@ 1095
vertellen 1087
grootste 1086
bijna 1086
proberen 1080
ter 1078
den, 1075
enige 1063
beste 1062
leven. 1057
ende 1048
geeft 1046
informatie 1041
genoeg 1039
e@@ 1034
Dank 1032
snel 1031
door@@ 1031
mogelijk 1017
Waarom 1016
lijkt 1008
Met 1003
Voor 1003
beginnen 1000
re@@ 999
t@@ 984
Daar 984
vele 983
zoveel 977
waarschijnlijk 969
"Ik 963
systeem 962
je, 961
" 960
e, 958
a 953
20 953
bent 952
sociale 951
gebruik 950
de@@ 945
eerst 944
zag 942
problemen 942
Wij 942
deed 942
Want 940
gaan. 939
hetzelfde 938
?" 932
uur 932
dacht 931
nemen 930
dollar 928
e 926
gebeurt 925
tweede 924
gemaakt 920
end 919
zien, 916
vijf 916
de, 916
c@@ 910
natuurlijk 910
echte 908
landen 906
op. 901
zeker 901
a@@ 899
ding 899
graag 897
g@@ 894
toch 885
zitten 878
staan 878
atie 873
Omdat 871
rond 867
zegt 867
! 862
verder 862
tijdens 861
uit. 861
gebruikt 859
terug@@ 858
Om 849
ingen 848
klein 847
kind 847
i@@ 845
ruimte 842
onderzoek 840
ste 838
miljard 837
achter 832
vorm 832
werkt 830
delen 830
o@@ 827
groep 827
hand 824
kans 820
ken 819
begrijpen 819
de. 819
vrouw 817
gingen 815
i 815
precies 814
Laten 811
al@@ 806
welke 804
toekomst 802
mannen 802
Misschien 802
reden 799
later 798
moeilijk 798
ervan 797
maken, 795
komen. 794
'. 792
k 786
kreeg 785
ie. 784
eren 784
Mensen 782
houden 782
Of 782
sommige 781
vroeg 781
New 781
o 775
je. 775
school 773
ie, 766
vond 766
gevoel 765
ie@@ 763
Zij 763
beeld 762
persoon 761
huis 760
begin 760
jij 759
jaar. 758
punt 755
licht 754
vind 752
oude 747
men 747
gegevens 746
soorten 745
le@@ 745
data 744
eerder 743
foto 741
st@@ 741
ing@@ 739
soms 739
energie 738
mensen. 738
stad 736
zichzelf 735
zorgen 735
buiten 733
boek 732
maakte 730
kracht 728
praten 727
weg@@ 726
derde 725
er. 720
blijven 718
y 718
enorme 718
vooral 715
♪ 715
ideeën 713
vanuit 710
ten. 707
en: 707
zeggen: 707
Amerikaanse 706
geven. 705
lichaam 705
st 704
antwoord 704
S@@ 703
kun 703
Niet 702
30 701
m@@ 701
niemand 701
feite 696
duidelijk 691
dagen 689
y@@ 688
maanden 688
nieuw 686
stuk 685
begonnen 685
ings@@ 684
ver 684
ie 683
te@@ 683
alsof 679
gedaan 677
el@@ 677
verhalen 675
eren. 674
volgens 672
kwamen 671
A@@ 671
bijvoorbeeld 671
helpen 670
plek 669
kant 669
; 667
wel. 667
jes 667
doe 665
enkel 665
or@@ 665
gebied 663
toe@@ 662
Daarom 662
voorbeeld 661
bepaalde 661
hersenen 660
Zoals 659
ten, 658
se 657
moesten 655
werken. 654
f@@ 654
da@@ 653
k. 652
". 651
e. 650
krijgen. 647
wist 647
aan. 647
ers 646
der 645
uiteindelijk 645
ro@@ 645
anderen 644
es 644
moeder 643
wereld, 641
is@@ 641
an@@ 641
manieren 639
geloof 639
project 635
vrij 632
bij@@ 630
jonge 628
100 626
is: 626
50 626
dingen. 626
bedrijf 624
overal 623
volledig 623
krijgt 622
gezien 621
opnieuw 621
brein 615
mensen, 614
zes 614
lange 612
brengen 612
ingen. 612
hoofd 611
P@@ 610
kijk 609
geval 608
eerde 607
boven 607
basis 605
bestaat 603
ik, 603
veranderen. 602
et@@ 601
b@@ 601
ogen 599
en." 596
hoeveel 595
heen 595
bedrijven 594
bouwen 594
woord 593
begint 591
juiste 587
k, 587
zaken 583
kijkt 583
via 583
in. 581
ige 580
ma@@ 580
wetenschap 579
achter@@ 579
woorden 579
verschil 577
vormen 577
belangrijkste 575
Waar 574
deden 574
den@@ 573
er, 572
Ook 570
h@@ 570
dieren 570
leven, 569
minuten 569
ene 568
aarde 568
afgelopen 567
Verenigde 566
belangrijke 566
isch 566
u@@ 564
worden, 564
open 564
v@@ 563
Afrika 562
waarmee 561
krijg 560
gaf 559
ingen, 559
stellen 555
allerlei 555
Door 555
Onze 554
w@@ 554
beelden 554
geschiedenis 553
aal 553
z@@ 552
vol 552
veranderen 552
heet 552
studenten 551
wilden 550
ische 550
zetten 549
Eén 549
E@@ 545
water@@ 544
niet, 543
15 542
gaan, 540
vinden. 539
nam 538
a, 538
ra@@ 538
Wanneer 538
C@@ 537
gen@@ 537
waarvan 537
model 537
waarbij 536
ig 535
Al 534
naam 534
plaatsen 534
gen 533
V@@ 533
bezig 533
voordat 533
meter 530
na@@ 529
Ten 528
nogal 528
T@@ 527
ar@@ 527
heid 526
Is 526
ne@@ 524
zeg 523
muziek 523
me@@ 523
r@@ 522
eten 522
zat 522
sp@@ 521
Na 520
mens 520
taal 519
auto 518
proces 518
weinig 518
foto's 517
einde 517
cellen 516
nodig. 515
sch@@ 514
economische 514
planeet 514
ter@@ 513
mooie 512
eruit 512
vader 512
dat, 511
der@@ 509
Bij 509
vrienden 509
B@@ 508
feit 508
zegt: 508
H@@ 508
jouw 508
Kijk 508
gemeenschap 506
houden. 504
K@@ 503
baar 502
kaart 501
a. 500
ervaring 500
eren, 500
pas 500
mee@@ 496
bare 496
st. 495
rest 495
denkt 495
Ver@@ 494
', 494
gebruiken. 493
jaar, 493
ij@@ 492
meestal 490
ken. 490
geweldige 488
ieder 486
M@@ 486
groter 485
vertelt 485
zin 485
het. 484
slecht 484
samen@@ 484
at@@ 484
voedsel 483
ten@@ 482
vonden 481
it@@ 480
Stel 479
werk@@ 479
duizenden 478
vast 478
do@@ 476
blijkt 476
gebeurde 475
verandering 475
2 474
familie 473
waren. 473
gedrag 473
India 472
creëren 472
Laat 472
op, 471
waardoor 471
vertelde 469
D@@ 469
Zijn 469
ch@@ 468
L@@ 467
ergens 466
ken, 466
neemt 466
betere 465
geloven 465
geef 463
menselijk 463
kom 463
Van 462
st, 461
eerd 460
houdt 460
doel 458
daarvan 457
G@@ 457
stond 456
to@@ 456
O@@ 456
ervoor 455
film 455
internet 454
publiek 454
R@@ 452
we@@ 452
computer 452
spelen 452
natuur 451
kanker 451
gel@@ 450
ouders 450
heeft. 449
ster@@ 448
40 447
", 447
brengen. 446
he@@ 446
vast@@ 446
weken 446
spel 446
kennen 445
binnen@@ 445
zoeken 444
steden 443
ies 443
nieuws 442
erop 442
el. 442
atie. 442
kennis 441
te, 440
Z@@ 440
dood 440
hoge 440
oud 440
tijd. 438
hulp 436
ligt 436
China 436
geweldig 436
wereld@@ 436
zelf@@ 435
vol@@ 435
l@@ 434
enorm 433
te. 433
ur@@ 432
j@@ 432
Iedereen 432
politieke 432
et 431
heid, 431
jou 429
kt 429
interessant 429
tegen@@ 428
Terwijl 428
Wie 428
liet 428
ru@@ 427
3 426
werkelijk 425
men@@ 425
sc@@ 425
kijken. 425
Jullie 424
aandacht 424
maak 423
zoek 422
miljoenen 422
noemen 422
leerde 422
ziekte 421
stap 420
g 420
kl@@ 420
goed. 420
n@@ 419
onszelf 419
W@@ 419
am@@ 419
Geen 419
macht 418
mooi 417
zei, 416
land. 416
klaar 415
gebieden 415
sinds 415
best 414
p 414
maakten 414
kunst 414
N@@ 414
midden 413
toont 413
leuk 412
doen? 411
week 411
mo@@ 411
gen. 410
horen 410
nemen. 410
naast 409
les 409
CA: 409
"Wat 409
thuis 408
mag 408
komen, 407
[@@ 407
beweging 407
langer 406
lucht 402
werk. 402
VS 401
heid. 401
di@@ 399
geweest 399
geluk 399
team 399
huidige 398
helft 398
ste@@ 398
kregen 398
m 398
f 397
ale 396
in, 396
blijft 396
Veel 395
ik. 395
interessante 395
Zelfs 395
computer@@ 395
hand@@ 394
geluid 394
slechte 394
boeken 393
waarde 393
ko@@ 392
wer@@ 391
levens@@ 391
ken@@ 390
‘@@ 389
me, 389
vermogen 389
gedurende 388
zagen 388
keek 387
werkte 386
ik@@ 386
Dus, 386
machine 385
d? 384
lo@@ 384
economie 383
ic@@ 383
had. 382
ker@@ 382
per@@ 381
Amerika 381
zeiden: 381
Denk 381
langs 380
g, 380
stel 379
mogelijkheid 379
rij@@ 379
gemaakt. 379
namen 379
cultuur 379
super@@ 379
geven, 377
bekend 377
natuurlijke 377
voelen 377
toegang 377
zeven 376
open@@ 376
zo. 375
geleerd 375
besloot 375
persoonlijke 374
halen 374
bo@@ 374
gebouw 374
oe@@ 374
rond@@ 373
schreef 373
hou 373
hersen@@ 373
oorlog 372
iedere 372
delen. 372
York 372
sl@@ 371
se@@ 370
zo@@ 370
wordt. 370
pen 370
grotere 370
oplossing 369
zowel 369
voor. 369
handen 369
namelijk 369
vriend 368
denken. 368
Ja, 368
gedaan. 368
God 368
1 367
recht 367
bestaan 367
omgeving 367
wilt 366
jezelf 366
ei@@ 366
mezelf 366
5 365
gaat. 365
aan, 365
bent, 365
gebaseerd 364
g. 364
wetenschappers 364
waar@@ 363
universum 363
relatie 362
I@@ 362
regels 362
structuur 361
niveau 360
middelen 360
ook. 360
werkt. 360
een@@ 360
Nou, 360
kosten 360
oo@@ 359
eeuw 358
school@@ 358
onderwijs 358
probleem. 357
t: 357
3@@ 357
zeggen, 357
verhaal. 356
bracht 356
pa@@ 355
ha@@ 355
Weet 355
tonen 355
kende 355
opge@@ 354
systemen 354
Be@@ 354
lokale 354
baan 353
il@@ 353
hoofd@@ 353
del@@ 352
vindt 352
tje 351
rol 351
dt 351
gaat, 351
Aan 351
s: 351
Ge@@ 351
brengt 350
el, 350
zeiden 350
weg. 350
Nog 349
schrijven 349
groei 349
hebt, 349
bepaald 349
ster 348
Elke 348
materiaal 348
eert 348
grond 348
lijken 348
af. 348
lopen 348
Le@@ 347
moderne 346
ja, 346
weer@@ 346
anders. 346
tijd@@ 346
patiënten 346
Sommige 345
dachten 344
lijn 344
meer. 344
bouwen. 343
spelen. 343
ontwerp 342
erin 342
video 342
ber@@ 342
korte 341
hart 341
tien 340
F@@ 340
genaamd 339
Tot 339
gelijk 339
i. 339
el 338
sterk 338
lu@@ 338
uit, 338
land, 338
atie@@ 338
vanaf 337
aa@@ 337
kte 337
verbonden 337
wel, 337
eraan 336
hier, 336
ger@@ 336
beide 335
sen 335
situatie 335
druk 334
J@@ 334
gebeuren 333
ontwikkeling 332
werken, 332
voelt 332
acht 331
honderden 331
ac@@ 331
co@@ 331
ies, 331
niet? 331
ven 331
staan. 330
d: 330
Vandaag 330
wellicht 330
hier. 330
bang 329
man@@ 328
gen, 328
la@@ 328
prijs 328
markt 327
bewust 327
sneller 326
4 326
liefde 326
stelt 326
ig@@ 326
daar@@ 324
Natuurlijk 324
wetenschappelijke 324
sten 324
on 324
mogelijkheden 323
hard 323
ol@@ 323
eind 323
letterlijk 323
com@@ 322
ent@@ 322
gelukkig 322
lucht@@ 322
prachtige 322
ti@@ 321
halen. 321
zitten. 321
ons. 320
wa@@ 320
online 320
leggen 320
ies. 320
fantastische 320
zwarte 320
12 320
hel@@ 320
voelde 320
van. 319
zet 319
hoeveelheid 319
gemiddelde 318
aties 318
schaal 317
i, 317
geest 317
komende 317
begrijpen. 316
theorie 316
ontwerpen 315
zijn? 315
overheid 315
han@@ 315
aar 315
kinderen. 315
waren, 314
richting 314
ze@@ 314
probeerde 314
ongelooflijk 313
25 313
vinden, 313
du@@ 313
po@@ 313
stoppen 312
oceaan 312
gev@@ 312
geboren 312
atie, 311
kiezen 311
daarom 311
wisten 311
ist 311
stem 311
nadat 310
vertellen. 310
t? 310
hoeft 310
u. 310
geleden, 310
onderdeel 310
60 309
bouw@@ 309
gezicht 309
an 309
onge@@ 309
kom@@ 309
stellen. 309
me. 308
ve@@ 308
eenvoudige 308
probeert 308
olie 307
6 307
levens 307
zen 307
Heel 307
krijgen, 307
belang 307
geïnteresseerd 307
generatie 306
leren. 305
je@@ 305
hart@@ 305
ook, 305
velen 304
eer@@ 304
bedoel 304
reis 304
dag. 304
DNA 304
dag, 303
eerd. 303
"Het 302
voorbeelden 302
meisje 302
daarna 301
doet, 301
erover 301
Volgens 301
plekken 301
vertrouwen 300
niet-@@ 300
uw 300
des 300
van@@ 300
leiden 299
vrij@@ 299
resultaat 298
neem 298
kunst@@ 298
kt. 298
probeer 297
noemen. 297
fout 297
vallen 297
bewijs 297
blij 297
verandert 297
ds 296
gro@@ 296
buiten@@ 296
ss@@ 296
studie 296
arm 296
groepen 296
wel@@ 296
tra@@ 296
kilometer 295
komt. 295
2@@ 295
heeft, 295
energie@@ 295
Soms 295
vanwege 295
licht@@ 295
aten 294
invloed 294
teren 294
ders 294
zon 294
bel@@ 294
ig. 293
y, 293
grootte 293
80 292
uitdaging 292
geweest. 292
digitale 292
aal. 292
ze, 292
aar@@ 291
plan 291
pre@@ 291
programma 291
Alles 291
gek@@ 291
sto@@ 291
s? 291
echter 290
ontdekte 290
ven@@ 289
!" 289
auto's 289
mon@@ 289
par@@ 289
voel 289
leer@@ 289
meesten 289
geleden. 289
effect 288
straat 288
ig, 288
Europa 287
komt, 287
jes. 287
jongen 287
Nee, 287
200 287
ri@@ 287
politiek 286
controle 286
groot@@ 286
meisjes 286
Staten 285
pro@@ 285
gebruiken, 285
basis@@ 285
mij. 285
bu@@ 285
half 285
s-@@ 285
had, 285
technologie. 285
m. 284
gegeven 284
gang 284
y. 284
land@@ 283
jongens 283
nemen, 283
us 283
wereldwijde 283
hoorde 283
groene 282
tijd, 282
ding. 282
totaal 282
product 281
geb@@ 281
allen 281
iteit 281
Twee 281
ieve 281
contact 281
beneden 281
ho@@ 281
daadwerkelijk 281
ziet, 281
zon@@ 281
het, 280
hoog 280
"De 280
Oké, 280
ot@@ 280
zetten. 280
diep 279
oren 279
wijze 279
," 279
.' 279
leidt 278
micro@@ 278
rode 278
bleef 278
gevallen 278
gebeuren. 277
spreken 277
uren 277
redenen 277
man, 277
werk, 277
mis@@ 277
ontwikkelen 276
voort@@ 276
elkaar. 276
lezen 276
wij@@ 276
angst 276
kort 275
gezondheid 275
uitge@@ 275
ermee 275
kijken, 275
bedoel, 275
wor@@ 275
middel 274
maatschappij 274
medische 274
.@@ 273
aat 273
vraagt 273
ze. 273
voorstellen 273
kinder@@ 273
h 273
heden 273
hier@@ 272
gewone 272
kan@@ 272
juist 272
Al@@ 271
gevolg 271
bijzonder 271
em@@ 271
resultaten 271
mogelijke 271
oog 271
Chris 270
praat 270
kken 270
mar@@ 270
con@@ 269
vervolgens 269
dig 269
besloten 269
kamer 269
fysieke 269
leiders 268
dacht: 268
gek 268
doet. 268
met@@ 268
gehoord 267
betrokken 267
mogen 267
kost 267
talk 267
zorg 266
vroegen 266
top 266
on. 266
“@@ 266
mer@@ 265
den? 265
blauwe 265
Re@@ 265
liep 265
dan@@ 265
ouder 265
over. 264
Niemand 264
leek 264
ele 264
media 264
dier 264
ab@@ 264
fundamentele 264
ap@@ 263
huis@@ 263
e-@@ 263
evolutie 263
kken. 263
baar. 262
on, 262
ag@@ 262
specifieke 262
robot 262
no@@ 262
zekere 262
ine 262
versie 261
heleboel 261
bevolking 261
extra 261
lijst 261
dat. 261
zoiets 261
gezien. 261
zee@@ 261
behalve 260
f. 260
ba@@ 260
houden, 260
es, 260
pijn 260
– 259
impact 259
manier. 259
openbare 259
geweld 259
ontdekken 259
hoewel 259
gebeurt. 259
helpen. 259
maand 258
zeggen. 258
ers. 258
ontworpen 258
p. 258
elen 258
ul@@ 258
loopt 258
as@@ 258
gemakkelijk 257
wordt, 257
computers 257
waarheid 257
experiment 257
voedsel@@ 257
revolutie 257
Alle 257
wachten 257
praten. 256
tjes 256
aange@@ 256
veilig 256
makkelijk 256
dingen, 256
word 256
loop 256
arme 255
gaven 255
ik: 255
spel@@ 255
eenvoudig 255
ons, 255
Neem 255
favoriete 254
im@@ 254
verschillen 254
noem 254
Net 254
dicht 254
traditionele 253
absoluut 253
neer@@ 253
gezegd 252
ct@@ 252
hield 252
omhoog 252
technologieën 251
mobiele 251
planten 251
8 251
hal@@ 251
bent. 251
pen. 250
simpele 250
18 250
sten. 250
volgen 250
levende 250
normale 250
mee. 249
toe. 249
"We 249
oor@@ 249
tegenwoordig 249
stelde 249
o, 249
sommigen 249
netwerk 249
internationale 248
regering 248
l 248
Ons 248
helpt 248
laag 248
David 247
geschreven 247
meteen 247
o. 247
eerd, 247
Bedankt. 247
ci@@ 246
kinderen, 246
vliegen 246
honderd 246
cel 246
succes 246
lopen. 246
kern@@ 246
genomen 245
projecten 245
Google 245
weten. 245
ven, 244
afhankelijk 244
d-@@ 244
systeem. 243
m, 243
lieten 243
terug. 243
verband 243
ven. 243
zaak 243
hoog@@ 243
donkere 243
denken, 242
ke@@ 242
] 242
ters 242
best@@ 241
end. 241
valt 241
kijkt, 241
normaal 241
za@@ 241
stre@@ 241
direct 240
bron 240
eerlijk 240
dige 240
ent 239
zelf. 239
eten. 239
ie-@@ 239
hebt. 239
ker 239
p, 239
scholen 239
maakt. 238
bor@@ 238
zu@@ 238
"Je 238
patiënt 238
90 238
eld 237
Sommigen 237
periode 237
daarmee 237
dank. 237
kwaliteit 237
leert 237
water. 236
ief 236
snelheid 236
nou 236
stukje 236
ga@@ 236
vandaan 235
producten 235
ger 235
oog@@ 235
moeite 235
In@@ 234
Elk 234
pt 234
goed, 234
middelbare 234
vis 234
zoon 233
as 233
ts 232
wereldwijd 232
beschikbaar 232
modellen 232
ers, 232
su@@ 232
Hun 232
4@@ 232
bomen 231
7 231
zit. 231
centrum 231
chemische 231
ben. 231
ant@@ 231
mat@@ 231
gratis 231
afstand 231
dit. 230
den: 230
kken, 230
veranderen, 230
reactie 230
bi@@ 230
ad@@ 230
Nu, 230
eigen@@ 230
idee. 230
ka@@ 230
risico 230
vaardigheden 230
kopen 229
democratie 229
f, 229
vo@@ 229
inter@@ 229
camera 229
veranderingen 229
Afrikaanse 229
kt, 228
gra@@ 228
gehad 228
visie 228
welk 228
organisatie 228
11 228
aal, 228
nummer 228
complexe 228
onmogelijk 228
ep@@ 228
Chinese 228
belangrijk. 227
staat. 227
links 227
boodschap 227
hoe@@ 227
nacht 226
gest@@ 226
sten, 226
herinner 226
kent 226
bleek 225
vertel 225
is? 225
vroege 225
Tijdens 225
visuele 225
men. 225
tro@@ 225
behandeling 225
gebouwd 225
es. 225
af, 224
Ma@@ 224
De@@ 224
hoger 224
keuze 224
Amerikanen 223
waarover 223
we, 223
Hoeveel 223
punten 223
klinkt 223
aal@@ 222
km 222
afge@@ 222
hiervan 222
Meer 222
telefoon 222
betekenis 222
tu@@ 222
pen, 222
verleden 222
ex@@ 222
duizend 222
strijd 222
it 221
bacteriën 221
ser@@ 221
scherm 221
taak 221
go@@ 221
en?" 221
18@@ 221
Mar@@ 221
vorige 220
ontwikkeld 220
volledige 220
werkelijkheid 220
ou@@ 220
"Hoe 220
zette 220
stel@@ 220
teerde 219
mij, 219
hadden. 219
ert 219
machines 219
un@@ 219
ijs 219
ut@@ 218
reeks 218
behulp 218
gevonden 218
bewegen 218
hoeven 218
teerd 218
om. 217
John 217
gemeenschappen 217
toch? 217
zult 217
ziet. 217
ontdekt 217
so@@ 217
ondanks 217
cijfers 217
bekijken 216
ist@@ 216
innovatie 216
boven@@ 216
hoort 216
recht@@ 216
oppervlak 216
financiële 216
Hartelijk 215
vroeger 215
huizen 215
ton 215
kwam, 215
vrijheid 215
vooruitgang 214
kend 214
dra@@ 214
elektrische 214
gebouwen 213
milieu@@ 213
brengen, 213
a-@@ 213
isten 213
heen. 213
or 213
negen 213
realiseerde 213
sterke 213
wen@@ 213
oplossingen 212
Kan 212
li@@ 212
genen 212
procent. 212
realiteit 212
vis@@ 212
's, 211
algemeen 211
zij@@ 211
aars 211
rijk 211
1@@ 211
banen 211
landen. 211
delen, 211
tel@@ 211
bepalen 211
ing: 211
wiskunde 211
On@@ 211
eer 210
sprak 210
gevolgen 210
verloren 210
et. 210
gesch@@ 210
bedankt. 210
software 210
bro@@ 210
zorgt 210
muur 210
ak@@ 210
door. 210
school. 210
begrip 210
auto@@ 209
kennen. 209
draait 209
fantastisch 209
onderwerp 209
wan@@ 209
70 209
Engels 209
patronen 209
ron@@ 209
leeftijd 209
ware 209
vraag: 209
A 209
dag@@ 209
erde 209
gedachten 208
papier 208
300 208
luisteren 208
gt 208
patroon 208
zin@@ 208
aard 207
toekomst. 207
ed@@ 207
us@@ 207
iek 207
Aarde 207
wet 207
bewustzijn 207
bereiken 206
industrie 206
baar@@ 206
technologie, 206
grenzen 206
eu@@ 206
ontstaan 206
kwam. 206
sla@@ 206
bloed@@ 206
veld 206
gebruikte 206
morele 206
ens@@ 206
beslissingen 206
nationale 206
ongelooflijke 205
kt@@ 205
meer@@ 205
jes, 205
neuronen 205
gaten 205
gelijk@@ 205
buurt 205
sin@@ 205
waard 205
positieve 205
groeien 204
wi@@ 204
ds@@ 204
man. 204
nee, 204
isme 204
biologische 204
gers 204
dood@@ 204
culturele 204
vliegtuig 203
toon 203
teren. 203
vrije 203
dollar. 202
qu@@ 202
sturen 202
productie 202
men, 202
teken@@ 202
U@@ 202
bekijken. 202
dragen 202
seconden 202
min 202
stappen 201
creatieve 201
totdat 201
um@@ 201
Eigenlijk 201
Y@@ 201
sociaal 201
krachtig 201
kel@@ 201
kn@@ 201
design 200
ere 200
ontdekten 200
robots 200
end, 200
genetische 200
gesprek 200
min@@ 200
eerden 200
speciale 200
Uiteindelijk 200
neer 200
individuele 200
tre@@ 200
bar@@ 200
beleid 200
daarvoor 199
an. 199
naartoe 199
500 199
sterven 199
keren 199
bio@@ 199
je? 199
speelt 199
heelal 199
drie@@ 199
behoorlijk 199
hoek 198
Toch 198
antwoorden 198
U 198
"Waarom 198
problemen. 198
vlak 198
get@@ 198
’ 198
gebeurd 197
veranderde 197
sterren 197
stad. 197
dank 197
vi@@ 197
horen. 197
bedenken 196
zitten, 196
huis. 196
sk@@ 196
zen@@ 196
betalen 196
geldt 196
creëren. 196
dat@@ 196
Iemand 196
erende 196
vreemde 196
keken 196
water, 196
verkeerd 196
deur 196
apparaat 196
en-@@ 196
gekomen 195
for@@ 195
dorp 195
zaal 195
hopen 195
7@@ 195
spre@@ 195
Afrika. 195
materialen 194
stand 194
verzamelen 194
gere@@ 194
enzovoort. 194
legt 193
leidde 193
ï@@ 193
Mo@@ 193
meerdere 193
zen, 193
zit, 193
aire 193
wetten 193
pakken 193
we. 192
collega's 192
ben, 192
verlies 192
universiteit 192
armoede 191
kwestie 191
trekken 191
veranderd 191
lab 191
leden 191
zaten 191
val@@ 191
har@@ 191
besteden 190
lijk 190
"Als 190
5@@ 190
test 190
der. 190
medicijnen 190
twee@@ 189
kor@@ 189
10.000 189
dienst 189
gebruikt. 189
besefte 189
ta@@ 189
stroom 189
raa@@ 189
plastic 189
ij 189
speel@@ 189
weten, 189
blijven. 188
bouwen, 188
ell@@ 188
veranderd. 188
Daarna 188
lezen. 188
gedaan, 188
an, 188
ruimte. 188
voorbij 188
crisis 187
8@@ 187
mis 187
bereiken. 187
boom 187
TED-@@ 187
bereid 187
veiligheid 187
om, 187
zulke 187
zee 187
kop@@ 187
diep@@ 187
Over 187
ple@@ 187
um 187
keuzes 186
voorkomen 186
band 186
actief 186
ein@@ 186
stemmen 186
Waarom? 186
rand 186
els 186
bedacht 186
perfecte 186
é@@ 186
achtige 186
Eerst 185
stem@@ 185
staat, 185
erd 185
bieden 185
ding, 185
volle 185
concept 185
gesproken 185
stukken 185
ment@@ 185
don@@ 185
gebeurt, 185
zonne@@ 185
onderzoeken 185
principe 185
natuur@@ 185
al. 185
.” 185
burgers 185
ing? 184
perfect 184
x@@ 184
heids@@ 184
passie 184
activiteit 184
samenleving 184
pen@@ 184
lan@@ 184
o-@@ 184
San 184
inzicht 184
heid@@ 184
gen? 184
ge 184
vier@@ 184
sh@@ 184
6@@ 184
richten 184
nadenken 183
geworden. 183
ijk@@ 183
experimenten 183
begrijpen, 183
gebruik@@ 183
geweldig. 183
bijvoorbeeld, 183
thuis@@ 183
voortdurend 183
pl@@ 183
trots 183
ff@@ 182
gebracht 182
bel 182
ben@@ 182
hu@@ 182
liever 182
ban@@ 181
ontwikkelde 181
mensen@@ 181
sta 181
dichter 181
kleur 181
planeet. 181
slimme 181
gew@@ 181
vragen. 181
lage 181
ef@@ 181
olie@@ 180
eel 180
ft 180
verkeerde 180
a's 180
19@@ 180
student 179
organisaties 179
boe@@ 179
termen 179
fa@@ 179
vissen 179
kaarten 179
ach@@ 179
internet@@ 179
actie 179
schrijven. 179
ervaren 179
nu, 178
diepe 178
air 178
website 178
markt@@ 178
h, 178
wezen 178
heb, 178
14 178
publieke 178
voelen. 178
mij@@ 178
podium 177
dde 177
gebrek 177
ier 177
rijke 177
bot@@ 177
tijdperk 177
probeerden 177
avond 177
elijk 177
houd 177
Heb 176
istische 176
n 176
recente 176
moeders 176
techniek 175
win@@ 175
br@@ 175
krachtige 175
type 175
context 175
voeren 175
24 175
rit@@ 175
dig@@ 175
art@@ 175
deel@@ 175
ging. 175
gericht 175
tegelijkertijd 175
raken 175
ks 175
voordeel 175
testen 175
top@@ 175
werkten 174
eindelijk 174
lij@@ 174
schoonheid 174
aar. 174
sle@@ 174
hoogte 174
zen. 174
vreemd 174
stonden 174
Ja. 174
doel@@ 174
ier@@ 174
verb@@ 174
behoefte 174
wind 174
Kunnen 173
gebruikten 173
werkt, 173
16 173
snel@@ 173
ip@@ 173
dagelijks 173
mocht 173
Wel, 173
industriële 173
gewerkt 173
voor, 173
waarvoor 172
rechten 172
heb. 172
zetten, 172
alen 172
gl@@ 172
volgen. 172
sche@@ 172
kie@@ 172
zwe@@ 172
gende 172
erbij 172
berg 172
val 172
der, 172
oud. 172
massa 171
St@@ 171
degenen 171
id 171
Alleen 171
samenwerking 171
ontmoette 171
vorig 171
kunnen. 171
witte 170
ker. 170
India. 170
miljarden 170
burger@@ 170
vertellen, 170
gemaakt, 170
tegelijk 170
code 170
sen@@ 170
maa@@ 170
leef@@ 170
ofwel 170
leven@@ 170
woorden, 170
stof 170
-jarige 170
igheid 169
aanpak 169
pla@@ 169
produceren 169
landen, 169
plaats@@ 169
stoppen. 169
zogenaamde 169
leeft 169
later, 169
relaties 169
omstandigheden 169
leggen. 169
gat 169
doo@@ 169
wal@@ 169
algemene 169
kle@@ 169
ia 169
klein@@ 168
elt 168
al, 168
aat. 168
Grote 168
int@@ 168
onbe@@ 168
Dankjewel. 168
pad 168
telkens 168
meten 167
moeilijke 167
ging, 167
10@@ 167
staan, 167
vraag. 167
baby's 167
vrouwen. 167
pe@@ 167
droom 167
film@@ 166
de: 166
wakker 166
baby 166
maakt, 166
geworden 166
ervaringen 166
es@@ 166
moleculen 166
nog, 166
"Dat 166
passen 166
halve 166
ziekenhuis 166
rechts 166
duurzame 166
centrale 166
uur@@ 165
perspectief 165
waar. 165
wet@@ 165
duurt 165
snelle 165
aarde. 165
Dr. 165
king 165
biologie 165
gezond 165
ziekten 165
dan, 165
vrede 165
gezien, 165
neuro@@ 165
kanker@@ 165
eigenschappen 165
niks 165
lang. 165
Daardoor 165
Ro@@ 165
20@@ 165
vallen. 165
se. 165
ide@@ 165
verander@@ 165
Ben 165
gezondheidszorg 165
bijen 165
kon@@ 164
positie 164
vrouwen, 164
Noord-@@ 164
cht 164
vel@@ 164
9 164
wezens 164
prachtig 164
kal@@ 164
alles. 164
Haar 164
onderdelen 164
kansen 164
iger 164
bekende 164
mensheid 164
diensten 163
verwachten 163
eeuw. 163
kop 163
stat@@ 163
Jij 163
The 163
ur 163
lichaam. 163
technologische 163
sel@@ 163
end@@ 163
films 163
sa@@ 163
hersenen. 163
waarden 163
krachten 162
verantwoordelijkheid 162
hulp@@ 162
geschiedenis. 162
lijnen 162
ijk. 162
eten, 162
bestaan. 162
maal 162
draa@@ 162
dier@@ 162
ie? 162
bre@@ 162
ator 162
mondiale 162
bloe@@ 162
president 161
momenten 161
fil@@ 161
deeltjes 161
dromen 161
moe@@ 161
ce@@ 161
gevraagd 161
age 161
bestuderen 161
kra@@ 161
ijn@@ 161
ts@@ 161
elijke 161
object 161
versch@@ 161
klas 161
kopen. 160
brand@@ 160
ens 160
400 160
nodig, 160
ment 160
ed 160
stoffen 160
ssen, 160
erachter 160
inge@@ 160
Zou 160
reageren 160
Zuid-@@ 160
brein. 160
9@@ 160
vergeten 160
meer, 160
gewicht 160
wetenschapper 159
dieren. 159
tafel 159
slim 159
enen 159
sn@@ 159
grond@@ 159
Zie 159
spelen, 159
web 159
Europese 159
hoor 159
handel 158
armen 158
tenminste 158
erd, 158
niets. 158
cre@@ 158
x 158
geheel 158
terecht 158
verteld 158
id@@ 158
bij. 158
zoe@@ 158
kers 158
erend 158
interactie 158
… 158
koolstof@@ 157
Welke 157
hoogste 157
hadden, 157
verbinding 157
d." 157
compleet 157
los 157
kant. 157
artikel 157
weefsel 157
iteit. 157
fl@@ 157
school, 157
inderdaad 157
reken@@ 156
inkomen 156
ruim@@ 156
mor@@ 156
oper@@ 156
tientallen 156
volwassen 156
va@@ 156
kwa@@ 156
extreem 156
verborgen 156
Britse 156
werd, 156
tegenover 156
lie@@ 156
’s 156
viel 155
verkopen 155
gebracht. 155
dis@@ 155
gener@@ 155
"Dit 155
orde 155
licht. 155
veroorzaakt 155
regel@@ 155
vorm@@ 155
liggen 155
ke 155
kantoor 155
uur. 155
leerden 155
lessen 155
gend 154
toonde 154
ja@@ 154
tische 154
stelden 154
ze: 154
c 154
anderen. 154
ov@@ 154
w 154
zover 154
lijke 154
natuurlijk, 154
toekomstige 154
netwerken 154
ant 153
zet@@ 153
kjes 153
lang@@ 153
iel@@ 153
leuke 153
wacht@@ 153
Ga 153
punt. 153
dru@@ 153
seks 153
hielden 153
uitdagingen 153
et, 153
die, 153
succesvol 153
aanse 153
hogere 153
opleiding 153
raakte 152
Richard 152
Car@@ 152
cor@@ 152
geweest, 152
praten, 152
aanwezig 152
degene 152
Oké. 152
emotionele 152
gemeenschap. 152
Ar@@ 152
vogels 152
zware 152
k? 152
lopen, 152
dochter 152
hor@@ 152
lijden 152
goed@@ 152
doden 151
verk@@ 151
afval 151
t-@@ 151
isch. 151
ur. 151
verliezen 151
Con@@ 151
herinneren 151
Publiek: 151
genomen. 151
creativiteit 151
ct. 151
teren, 151
kje 151
au@@ 151
gaande 151
verbeteren. 151
leraren 151
spe@@ 151
ton@@ 150
deelt 150
voordelen 150
stellen, 150
hemel 150
functie 150
pp@@ 150
dood. 150
allemaal. 150
'-@@ 150
kern 150
aard@@ 150
ist. 150
belangrijker 150
artsen 150
doordat 149
vooruit 149
geld. 149
ste. 149
genoom 149
virus 149
redden. 149
hond 149
Bo@@ 149
Sp@@ 149
beroemde 149
planeten 149
objecten 149
bodem 148
milieu 148
dend 148
Ne@@ 148
ctie 148
bet@@ 148
rekening 148
test@@ 148
An@@ 148
ruimte, 148
weg, 148
beperkt 148
schu@@ 148
noemen, 148
carrière 148
beschermen 148
duur 148
lag 148
politie 148
oudere 148
doelen 148
dergelijke 147
slag 147
lin@@ 147
pers 147
ste, 147
simpel 147
duurde 147
jong 147
plezier 147
grafiek 147
baarheid 147
car@@ 147
gehele 147
woon@@ 147
app@@ 147
and@@ 147
studies 147
individuen 146
Zodra 146
discussie 146
Nee. 146
Iets 146
iek. 146
ve 146
Paul 146
ies@@ 146
programma's 146
vaker 146
eenmaal 146
aar, 146
even@@ 146
Arabische 146
mate 146
wetenschappelijk 146
Tegen 146
ter. 146
unieke 146
pass@@ 146
compassie 146
stelling 145
Bill 145
overtuigen 145
kten 145
fundamenteel 145
ob@@ 145
denken: 145
Me@@ 145
leren, 145
aat@@ 145
stukjes 145
stop@@ 145
isch, 145
simpelweg 145
fouten 145
stenen 145
zer 145
werd. 145
dende 145
alis@@ 145
pagina 145
jo@@ 145
kant, 145
James 145
moment. 145
ct 145
ouder@@ 145
mieren 145
ham@@ 144
persoonlijk 144
oplossen 144
spreken. 144
design@@ 144
hangt 144
Mars 144
ica 144
gezet 144
gez@@ 144
wonen 144
gevangenis 144
beginnen. 144
zwart 144
kk@@ 144
ill@@ 144
willen. 144
steun 144
Indi@@ 144
bal 144
voet 143
winst 143
leiden. 143
ruimte@@ 143
deed. 143
aliteit 143
/@@ 143
stil@@ 143
halen, 143
en; 143
pan@@ 143
ur, 143
voorbeeld. 143
ijke 143
systeem, 143
ente 143
kennen, 143
huid 143
gegeven. 143
stu@@ 143
kro@@ 143
Sch@@ 143
bewegingen 143
vliegen. 142
rie@@ 142
elektriciteit 142
verantwoordelijk 142
regen@@ 142
gemiddeld 142
entie 142
zorg@@ 142
redden 142
definitie 142
ien 142
bed 142
groen 142
oren. 142
conferentie 142
gebied. 142
bouw 142
...@@ 142
de-@@ 142
kerel 142
dom@@ 142
temperatuur 142
ie: 142
benen 142
volgt 142
hou@@ 142
graden 142
kan. 141
brachten 141
ernaar 141
ding@@ 141
Dankuwel. 141
zocht 141
ir@@ 141
steken 141
schap 141
beseffen 141
wapens 141
instellingen 141
tan@@ 141
beter. 141
t." 141
stro@@ 141
hem. 141
andere. 141
rondom 141
inhoud 141
Ongeveer 141
eentje 141
gigantische 141
gr@@ 141
la 141
dokter 141
vandaag. 141
energie. 140
ideeën. 140
zel@@ 140
betreft 140
voldoende 140
koe@@ 140
wou 140
13 140
methode 140
morgen 140
eg@@ 140
las 140
deed, 140
Zonder 140
Velen 140
ele@@ 140
leg@@ 140
ruim 140
the 140
leiding 140
kust 140
— 140
"Nee, 140
omgeving. 139
moment, 139
boeren 139
denk@@ 139
wens 139
handel@@ 139
geloof@@ 139
zul 139
veel. 139
vrouwelijke 139
gedachte 139
exact 139
doos 139
momenteel 139
plu@@ 139
Afrika, 139
roo@@ 139
lok@@ 139
signalen 139
dan? 139
lagen 139
George 139
was: 139
zomaar 139
ran@@ 139
ontdekking 139
regel 139
overtuigd 139
vierde 139
effectief 138
teveel 138
twee, 138
oos 138
kleuren 138
teert 138
serieus 138
oceanen 138
genoemd. 138
wegen 138
zijn@@ 138
specifiek 138
din@@ 138
ssen 138
tig 138
jarige 138
willekeurige 138
leraar 138
gehad. 137
zomer 137
issen 137
leger 137
verwacht 137
kracht@@ 137
draaien 137
haalde 137
baar, 137
zaa@@ 137
groeien. 137
groeide 137
fe@@ 137
werking 137
groei@@ 137
Her@@ 137
dheid 137
gi@@ 137
ler@@ 137
kijk@@ 136
over, 136
waaraan 136
stroom@@ 136
vooruit@@ 136
technische 136
tegenstelling 136
ontwikkel@@ 136
ijk, 136
ander@@ 136
verkocht 136
si@@ 136
o's 136
blik 136
structuren 136
Charles 136
vrijwel 136
missie 136
markten 136
dr@@ 136
klimaat@@ 135
architectuur 135
verhaal, 135
veel@@ 135
lossen. 135
stoel 135
oplossen. 135
TED@@ 135
iet 135
wetenschap. 135
harde 135
hetzelfde. 135
haa@@ 135
Par@@ 135
begrijp 135
brood 135
complex 135
bloed 135
stij@@ 134
combinatie 134
huis, 134
plaat@@ 134
project. 134
zag, 134
zoeken. 134
ervan. 134
let@@ 134
rechter@@ 134
potentieel 134
tekenen 134
dro@@ 134
vreem@@ 134
17 134
National 134
onderwijs. 134
bronnen 134
uiteraard 134
Se@@ 134
energie, 134
kun@@ 133
zelf, 133
e: 133
atmosfeer 133
iets. 133
organismen 133
bijzondere 133
pu@@ 133
schrij@@ 133
video@@ 133
nieuws. 133
ervaring. 133
stad, 133
Los 133
oorspronkelijke 133
plan@@ 133
informatie. 133
me: 133
rijden 133
interesse 133
totale 133
druk@@ 133
seconde 133
heb@@ 132
ment. 132
stap@@ 132
Gelukkig 132
vin@@ 132
infrastructuur 132
militaire 132
100.000 132
plaatsen. 132
slaan 132
buitengewoon 132
reizen 132
foto@@ 132
all@@ 132
complexiteit 132
mp@@ 132
vóór 132
zodra 132
lichaams@@ 132
loo@@ 132
rel@@ 132
ster. 132
soci@@ 132
ijk 132
spel. 132
Uit 132
tonen. 132
waa@@ 132
vergelijking 132
slagen 132
sta@@ 132
elen, 132
leveren 131
nu. 131
mens@@ 131
overleven 131
ë@@ 131
Gro@@ 131
ft. 131
rei@@ 131
insecten 131
religieuze 131
bal@@ 131
en... 131
schei@@ 131
vlees 131
digen. 131
verbazingwekkende 131
bl@@ 131
materie 131
ca@@ 131
sen. 131
jullie. 131
elen. 131
politie@@ 131
Da@@ 131
gezegd, 131
"Ja, 130
kat@@ 130
vervangen 130
oorzaak 130
maken? 130
zie@@ 130
sie 130
minst 130
bra@@ 130
redelijk 130
ken? 130
telefoon@@ 130
vrouw, 130
manier, 130
kleiner 130
voornamelijk 130
ar 130
bos 130
nauwelijks 130
net@@ 130
creëert 130
nergens 130
openbaar 130
rol@@ 130
investeren 130
ziekte. 130
arts 130
hoef 130
identiteit 130
feitelijk 130
Drie 129
ver. 129
ck 129
ssen. 129
w, 129
cel@@ 129
vertelden 129
toe, 129
ontwikkelen. 129
ju@@ 129
interessant. 129
dieren, 129
bla@@ 129
zi@@ 129
verder. 129
vrouwen@@ 129
behandel@@ 129
na. 129
hiermee 129
rij 129
ist, 129
delijk 129
bescherming 129
meet@@ 129
groeit 128
zijn: 128
uren. 128
ball@@ 128
toevallig 128
Amerika. 128
samen. 128
var@@ 128
cellen, 128
vergeleken 128
hen. 128
boot 128
kru@@ 128
zo, 128
geheim 128
vierkante 128
omgaan 128
Mil@@ 128
onderzoekers 128
India, 128
daar. 128
cognitieve 128
geh@@ 127
Staten. 127
tr@@ 127
act@@ 127
grens 127
y-@@ 127
verdienen 127
verbeter@@ 127
kin@@ 127
verl@@ 127
To@@ 127
deren 127
erden 127
krij@@ 127
plaats. 127
ief. 127
winkel@@ 127
verspreid 127
dje 127
2000 127
C 127
straat@@ 127
het? 127
1000 127
slag@@ 127
Mc@@ 127
dit, 126
ne 126
vormen. 126
Helaas 126
start 126
vat@@ 126
duur@@ 126
z 126
?' 126
cht@@ 126
voorspellen 126
"H@@ 126
wil. 126
beslissen 126
werelds 126
lijk@@ 126
veer@@ 126
uitleggen 126
vaar@@ 126
landschap 126
oppervlakte 126
ck@@ 126
35 126
bewegen. 126
er: 126
lab@@ 126
presentatie 125
Do@@ 125
staten 125
iteit, 125
wiskundige 125
ket@@ 125
entie@@ 125
plat@@ 125
fer@@ 125
details 125
aat, 125
Michael 125
anti@@ 125
gedeelte 125
begreep 125
decennia 125
eens. 125
kend. 125
vragen: 125
signaal 125
Voor@@ 124
us. 124
actieve 124
Afghanistan 124
voort 124
communicatie 124
verschillend 124
aties. 124
cit@@ 124
menten 124
besef 124
DNA-@@ 124
terecht@@ 124
hierover 124
ziek 124
cent@@ 124
s." 124
dig, 124
198@@ 124
ogen. 124
delijke 124
steen 124
idee, 124
tij@@ 124
kunstenaar 124
sm@@ 124
vragen, 124
feiten 124
igen 124
da, 124
kosten. 124
kleur@@ 124
Hoewel 124
bewijzen 124
tijden 124
ë 124
brug 124
dicht@@ 124
robot@@ 124
machine. 124
indruk 123
gesp@@ 123
fo@@ 123
150 123
belangrijk@@ 123
gebruikt, 123
museum 123
begrepen 123
pr@@ 123
ontwerp@@ 123
gesteld 123
ziektes 123
Co@@ 123
daar, 123
or, 123
mijn@@ 123
doorheen 123
mel@@ 123
gezonde 123
zit@@ 123
ce 123
percentage 123
langzaam 123
westerse 123
dt, 123
weet, 123
vechten 123
recent 123
populatie 123
Oost-@@ 123
toon@@ 123
s' 123
elkaar, 123
risico's 122
45 122
geld, 122
y: 122
's. 122
hopelijk 122
fase 122
vriend@@ 122
geneeskunde 122
vor@@ 122
baby@@ 122
onderzoek. 122
elementen 122
serie 122
gebeurde. 122
enden 122
En@@ 122
taal@@ 122
voet@@ 122
enthousiast 122
oorlog. 122
gel 122
vers 121
beslissing 121
merk 121
drukken 121
onderwij@@ 121
gen." 121
mening 121
woe@@ 121
spreekt 121
Go@@ 121
proces. 121
verrassend 121
stam@@ 121
kar@@ 121
motor 121
past 121
"Weet 121
gevoelens 121
verlaten 121
ster, 121
straten 121
the@@ 121
moeilijker 121
zwaar@@ 121
les@@ 121
internet. 121
stedelijke 121
atieve 121
gesloten 120
eiland 120
jaar@@ 120
creatief 120
gar@@ 120
daardoor 120
zijde 120
dig. 120
geleid 120
ast@@ 120
doen." 120
heen, 120
gan@@ 120
ek@@ 120
emoties 120
heden. 120
war@@ 120
schrijven, 120
k: 120
maar, 120
berg@@ 120
ijn 120
debat 120
ijs@@ 120
winkel 120
zaken. 119
zwaar 119
onmiddellijk 119
Robert 119
gezondheids@@ 119
lijk. 119
ek 119
leider 119
or. 119
eert, 119
vak@@ 119
mentale 119
diversiteit 119
vergelijken 119
open. 119
erger 119
wij, 119
nachts 119
moeder, 119
beeld. 119
drei@@ 119
Har@@ 119
cellen. 119
u, 119
gezet. 119
opkomst 119
bru@@ 119
aardig 119
bord 119
ologen 119
probleem, 119
biedt 119
verbindingen 119
gemeenschap, 119
deels 119
zeg: 119
Indiase 119
gisteren 118
dieper 118
verandering. 118
bouwde 118
tijdje 118
tele@@ 118
voorkomen. 118
produc@@ 118
kam@@ 118
bestaande 118
vrouw. 118
groeiende 118
vorm. 118
droog@@ 118
zicht 118
pot@@ 118
de? 118
aren 118
hand. 118
fabriek 118
red@@ 118
ch 118
gevaar 118
ingewikkelde 118
relatief 118
pel@@ 118
oon 118
speciaal 118
anen 118
Enkele 117
hoeveelheden 117
sleutel 117
raakt 117
Binnen 117
wacht 117
ir 117
Waarschijnlijk 117
microben 117
17@@ 117
ering 117
scher@@ 117
dus. 117
won@@ 117
grond. 117
aller@@ 117
mende 117
dt. 117
schade 117
natuur. 117
geluiden 117
iss@@ 117
verspreiden 117
Kun 117
houding 117
iek, 117
intelligentie 117
Engelse 117
sters 117
bedrei@@ 117
teken 116
lastig 116
leer 116
campagne 116
technieken 116
Op@@ 116
ieën 116
markt. 116
ontzettend 116
kwamen. 116
virussen 116
geprobeerd 116
kleinere 116
icus 116
spul 116
wees 116
vreselijke 116
boek. 116
geme@@ 116
Nou 116
Amerika, 116
wijzen 116
winnen 116
enig 116
boek@@ 116
vert@@ 116
VS. 116
lit@@ 116
loze 116
mond 116
getallen 116
kilo 116
maar. 116
spraken 116
gebruikers 115
organis@@ 115
da 115
willen, 115
cent 115
leuk. 115
goo@@ 115
last 115
set 115
é 115
bevinden 115
essentie 115
il 115
pt@@ 115
moeilijk. 115
gen: 115
erd. 115
stimul@@ 115
eeuw, 115
kenmerken 115
Universiteit 115
neiging 115
getal 115
publiek. 115
geeft. 115
i-@@ 115
beschermen. 115
Ber@@ 115
overtuig@@ 115
weer. 115
ongelofelijk 115
extreme 115
schoenen 114
zuurstof 114
berei@@ 114
bestuur@@ 114
bevat 114
verzamel@@ 114
log@@ 114
zegt, 114
Hu@@ 114
doe@@ 114
horen, 114
trouwens 114
ku@@ 114
schijn@@ 114
grote, 114
lichaam, 114
oren, 114
ft@@ 114
trekken. 114
ochtend 114
volk 114
genoeg. 114
ologie 114
volwassenen 114
afbeelding 114
overleven. 114
religie 114
klimaatverandering 113
hon@@ 113
ief, 113
gele@@ 113
sector 113
eel. 113
zijn." 113
voel@@ 113
middel@@ 113
He@@ 113
dieren@@ 113
dom 113
ziekte@@ 113
plaatje 113
niet@@ 113
taal. 113
ontwerpen. 113
Doe 113
sterven. 113
Kinderen 113
bericht 113
mens. 113
vuur@@ 113
lachen 113
gegevens. 113
effecten 113
Ja@@ 113
schaal@@ 113
Man@@ 113
eerste, 112
CO2 112
termijn 112
nu@@ 112
verbeteren 112
goedkope 112
ontwikkelings@@ 112
bleven 112
historische 112
am 112
uur, 112
som@@ 112
heet. 112
alle@@ 112
I 112
ma 112
echt. 112
constant 112
hartelijk 112
hij, 112
speelde 112
slaap 112
3D-@@ 112
scho@@ 112
echt@@ 112
Westen 112
vre@@ 112
bedoeling 111
’. 111
vandaag, 111
Andere 111
behandelen 111
A, 111
bedoeld 111
ma. 111
slot 111
luisteren. 111
cu@@ 111
ier. 111
rug 111
China, 111
wissel@@ 111
zaken@@ 111
bergen 111
tri@@ 111
dankzij 111
fle@@ 111
plek. 111
ende, 111
betekende 111
vrienden. 111
Pro@@ 111
gevangen 111
onlangs 111
gemeenschappelijke 111
zien? 111
spijt 111
voeding 111
kloof 111
linker@@ 111
zwa@@ 111
hiervoor 110
Men 110
jongeren 110
lezing 110
fun@@ 110
gegaan 110
maan 110
pie@@ 110
tes 110
families 110
muis 110
wetenschap, 110
computer. 110
vuur 110
noemde 110
gezin 110
aten. 110
capaciteit 110
dagelijkse 110
rot@@ 110
gelooft 110
600 110
los@@ 110
en' 110
bedrijven. 110
us, 110
$@@ 110
heel, 110
conflict 110
achtergrond 110
spoor@@ 110
golven 110
bereikt 110
grotendeels 110
verre 109
zoekt 109
ergste 109
tweede, 109
fysiek 109
train@@ 109
Oh, 109
cr@@ 109
if@@ 109
fenomeen 109
levend 109
Ze@@ 109
stell@@ 109
rood 109
teer@@ 109
web@@ 109
gef@@ 109
Ch@@ 109
ertoe 109
tien@@ 109
rec@@ 109
gedicht 109
status 109
lev@@ 109
ja 109
Waar@@ 109
realiseren 109
hoofd. 109
succesvolle 109
197@@ 109
stra@@ 109
inclusief 109
verbinden 109
oor 109
vloei@@ 109
zwem@@ 109
informatie@@ 109
vall@@ 109
aties, 108
gezondheid@@ 108
sluit 108
bon@@ 108
lang, 108
pakt 108
verbeelding 108
proberen. 108
ctie. 108
We@@ 108
sturen. 108
zowat 108
familie. 108
son@@ 108
voer@@ 108
produceren. 108
berichten 108
stil 108
199@@ 108
van, 108
rivier 108
ess@@ 108
het@@ 108
tussen@@ 108
seksuele 108
econom@@ 108
mannen. 108
ent, 108
legde 108
che@@ 108
samenwerken 108
muziek@@ 108
lied 108
vrienden, 108
Irak 108
"O@@ 108
ble@@ 108
pakken. 108
broer 108
China. 108
TEDx@@ 108
betaald 107
zeg@@ 107
levert 107
noch 107
aspecten 107
gebeurtenissen 107
geïnspireerd 107
OK, 107
person@@ 107
overheden 107
sen, 107
blauw 107
plots 107
belde 107
typ@@ 107
veren 107
gedragen 107
ine@@ 107
verlangen 107
klassieke 107
vij@@ 107
geraakt 107
binnen. 107
to 107
negatieve 107
ja. 107
bedoel@@ 107
doen@@ 107
aan? 107
schat@@ 107
park 107
B 107
bouwden 107
verhouding 107
die@@ 107
internet, 107
gevonden. 107
bedrijfs@@ 107
daarop 107
gam@@ 107
operatie 107
klopt 106
landbouw 106
afval@@ 106
Thomas 106
instrument 106
ut 106
eindigen 106
ade@@ 106
voedsel. 106
beschaving 106
gedrag. 106
poging 106
beweegt 106
up 106
pun@@ 106
vaste 106
universele 106
instrumenten 106
dit? 106
strategie 106
gevaarlijk 106
den." 106
hard@@ 106
plannen 106
opname 106
gesteld. 106
een, 106
helaas 105
af: 105
vergelijk@@ 105
gebied, 105
borst@@ 105
diverse 105
opzichte 105
trekt 105
stopt 105
standaard 105
iedereen. 105
onderzoeks@@ 105
virtuele 105
boek, 105
mee, 105
lezen, 105
woorden. 105
vormt 105
gehoord. 105
koo@@ 105
lijk, 105
zicht@@ 105
soldaten 105
dit: 105
at, 105
.. 105
gehouden 105
name 105
ert, 105
buitenlandse 105
m'n 105
statistieken 105
ctie@@ 105
leerlingen 105
Anderson: 104
persoon. 104
economie. 104
waarde@@ 104
economisch 104
zorgen. 104
vlo@@ 104
bank 104
bovenop 104
ontwerpers 104
verliefd 104
schilder@@ 104
um. 104
essentieel 104
breken 104
biologisch 104
dus, 104
kracht, 104
gereedschap 104
wijsheid 104
krijgt. 104
slaap@@ 104
bestond 104
proef@@ 104
term 104
cultuur, 104
kost@@ 104
telefoons 104
cht, 104
niet." 104
ontmoet 104
off@@ 104
nuttig 104
wo@@ 104
% 104
stor@@ 104
jon@@ 104
onderwijs, 104
Tweede 104
daarbij 104
apparaten 104
keer. 104
Ste@@ 103
bekeken 103
stopte 103
verwar@@ 103
function@@ 103
eert. 103
kaar@@ 103
ige, 103
spullen 103
motor@@ 103
verklaring 103
geheugen 103
Te@@ 103
geloofde 103
lief@@ 103
muren 103
iel 103
onderzoek@@ 103
kwaad 103
cul@@ 103
deden. 103
ving 103
verzameling 103
pak 103
kostte 103
lich@@ 103
opmerkelijke 103
ges@@ 103
ert. 103
informatie, 103
tenzij 103
ruimtes 103
leggen, 103
lat@@ 103
bus 103
jur@@ 103
ner@@ 103
col@@ 102
eind@@ 102
Vervolgens 102
raad 102
politici 102
Onder@@ 102
werkte. 102
teerd. 102
gebroken 102
len@@ 102
ft, 102
kunst. 102
mannen, 102
waaronder 102
verst@@ 102
koolstof 102
"Nou, 102
liggen. 102
vogel@@ 102
kind. 102
apen 102
bus@@ 102
lossen 102
kanker. 102
richt@@ 102
ieren 102
oze 102
12@@ 102
komst 102
bedrijf, 102
genetisch 102
muziek. 102
tz@@ 102
jaren. 102
communiceren 102
lagere 102
boom@@ 102
verbazingwekkend 102
naarmate 102
voelen, 102
gezondheid. 102
Iran 102
son 102
houdt. 102
papieren 102
Com@@ 102
Hetzelfde 101
minstens 101
generaties 101
Wil 101
Du@@ 101
ad 101
Mon@@ 101
merken 101
hij: 101
plaatselijke 101
bedrijf. 101
voeren. 101
verkeer@@ 101
dre@@ 101
thuis. 101
zolang 101
Einstein 101
tje. 101
opdracht 101
wil, 101
cht. 101
th@@ 101
reacties 101
multi@@ 101
ter, 101
activ@@ 101
15@@ 101
duik@@ 101
Zeer 101
bepaalt 101
model. 101
gevaarlijke 101
oom 101
spo@@ 101
moeder@@ 101
eh@@ 101
been 101
oudste 101
haal@@ 100
geavanceerde 100
kking 100
md 100
genoemd 100
dia 100
regio 100
haalt 100
pagina's 100
betekent. 100
pt. 100
ure 100
sporen 100
professor 100
D 100
dichtbij 100
acht@@ 100
verschrikkelijke 100
principes 100
vraag@@ 100
Engeland 100
mogelijk. 100
iste 100
cultuur. 100
onzichtbare 100
vlag 100
verzeker@@ 100
steden. 100
conflicten 100
hoor@@ 100
sub@@ 100
kers, 100
psych@@ 100
aarde, 100
plant 100
kanten 100
ide 100
draaien. 100
ang@@ 100
collectieve 100
moslim@@ 100
kunstenaars 100
beschrijft 99
kken@@ 99
ec@@ 99
bin@@ 99
ting 99
gekomen. 99
schip 99
locatie 99
glas 99
god@@ 99
boor@@ 99
dui@@ 99
ger, 99
York. 99
waarom. 99
lichten 99
contro@@ 99
le 99
keer@@ 99
Geef 99
gde 99
gele 99
startte 99
um, 99
wit 99
lid 99
ts. 99
cyber@@ 99
iers 99
gebeuren, 99
tv 99
str@@ 99
ders, 99
begrijpt 99
licht, 99
Londen 99
graa@@ 99
tekst 99
opwarming 99
ub@@ 99
gesprekken 99
nat@@ 99
vlucht 99
metafoor 99
Af@@ 98
betalen. 98
Over@@ 98
ernstige 98
brandstof 98
nam@@ 98
omvang 98
respect 98
Bijna 98
omwille 98
kocht 98
gebeurd. 98
geval, 98
briljante 98
ion@@ 98
Bijvoorbeeld 98
uren, 98
talen 98
dings@@ 98
spreken, 98
veel, 98
ond 98
kracht. 98
grij@@ 98
naa@@ 98
terug, 98
dokters 98
lijn. 98
16@@ 98
tevens 98
hoorden 98
Bar@@ 98
deze, 98
mislu@@ 98
Welnu, 98
kers. 98
beperkingen 98
a: 98
hij. 98
vul@@ 98
medicijn 98
organen 98
plotseling 97
partner 97
creëren, 97
werknemers 97
jar@@ 97
ogen, 97
enten 97
voren 97
succes@@ 97
factor 97
post@@ 97
ultieme 97
snel. 97
genoeg, 97
tal@@ 97
drie, 97
werkelijke 97
individu 97
blin@@ 97
diegenen 97
"Oh, 97
vallen, 97
verrassende 97
is." 97
tocht 97
Jo@@ 97
zoektocht 97
aspect 97
ders. 97
afkomstig 97
Man: 97
hedendaagse 97
uitzien. 97
dragen. 97
hoof@@ 97
Daarmee 97
mede@@ 97
herinner@@ 97
live 97
nul 97
verlie@@ 97
deze. 97
midden@@ 97
Adam 97
gehoor@@ 97
fossiele 96
veilige 96
kelijk 96
pt, 96
ren@@ 96
moed 96
ari@@ 96
familie, 96
Vele 96
diging 96
kamer. 96
bovenste 96
automatisch 96
rechtstreeks 96
opgenomen 96
aam@@ 96
Steve 96
dagen. 96
schoon@@ 96
ontstaat 96
h. 96
k-@@ 96
digen, 96
bellen 96
analyse 96
fysica 96
God, 96
75 96
moeder. 96
kundige 96
ge, 96
ve, 96
speler 96
ic 96
professionele 96
vroeg: 96
leiderschap 96
directeur 96
makkelijker 96
og@@ 96
data. 96
beel@@ 95
belangrijk, 95
jullie, 95
hout 95
democratische 95
minste 95
En, 95
Maar, 95
voorwerpen 95
krijgt, 95
auto. 95
iemands 95
beteken@@ 95
je: 95
verge@@ 95
laat@@ 95
opeens 95
z'n 95
sterker 95
lei@@ 95
evenwicht 95
rijk@@ 95
erom 95
arch@@ 95
keren. 95
buitengewone 95
jaren, 95
bank@@ 95
show 95
voeten 95
zichtbaar 94
Lu@@ 94
gegeven, 94
eel, 94
landbouw@@ 94
verdienen. 94
versprei@@ 94
iseren 94
bezig@@ 94
rechts@@ 94
dden 94
trok 94
14@@ 94
titel 94
Kom 94
decennium 94
iet@@ 94
schilderij 94
at 94
gelei@@ 94
dol 94
haar. 94
knop 94
groep. 94
epidemie 94
oorsprong 94
medisch 94
draad 94
erg@@ 94
houdt, 94
wiens 94
afvragen 94
hol@@ 94
sor@@ 94
ium 94
por@@ 94
krant 94
drij@@ 94
daad 94
le. 94
em 94
draagt 94
productie@@ 94
steek 94
kind, 94
verschrikkelijk 94
rechte 94
pij@@ 94
stand@@ 94
persoon, 94
positief 94
winn@@ 94
twe@@ 94
blind 94
ief@@ 93
Voordat 93
S 93
rijkdom 93
Nadat 93
oven 93
ontwikkelden 93
situaties 93
ij, 93
thema 93
Even 93
spelers 93
onderzoek, 93
zin. 93
benadering 93
starten 93
nee. 93
Meestal 93
gt. 93
vertel@@ 93
manieren. 93
start@@ 93
schrijver 93
bie@@ 93
honger 93
mannelijke 93
er-@@ 93
dor@@ 93
vijf@@ 93
kopen, 93
w. 93
ken: 93
kte, 93
ent. 93
Gedurende 93
geboorte 93
moleculaire 93
openen 93
meter. 93
geheime 93
verspreiding 93
volkomen 93
dode 93
of@@ 93
il. 93
haaien 93
globale 92
gelegd 92
bedrijf@@ 92
voed@@ 92
Echt 92
september 92
vullen 92
bit@@ 92
commerciële 92
le, 92
lege 92
zag. 92
ine, 92
syn@@ 92
gedacht 92
os@@ 92
groot. 92
stop 92
opt@@ 92
aangetoond 92
2, 92
kamp 92
boeken. 92
zenuw@@ 92
werkende 92
bezoek 92
gebieden. 92
planeet, 92
tekort 92
lucht. 92
gene@@ 92
meten. 92
zus 92
bezorgd 92
besluiten 92
lichamen 92
cten 92
21 92
ongeluk 92
anders, 92
hielp 92
gezondheid, 92
spiegel@@ 92
weer, 92
zak 92
allebei 92
mass@@ 92
fla@@ 92
sten@@ 92
slachtoffers 92
toepassing 92
stress 92
oceaan. 92
beeld@@ 92
zochten 91
pers@@ 91
V.S. 91
daarover 91
Overal 91
beelden. 91
ingenieurs 91
hoop. 91
ontwerper 91
kolon@@ 91
8, 91
hieraan 91
sprong 91
imp@@ 91
Times 91
bak@@ 91
"A@@ 91
andere, 91
staan@@ 91
toepassen 91
afdeling 91
klinische 91
depressie 91
systemen. 91
behoeften 91
digheid 91
colle@@ 91
platform 91
jes@@ 91
è@@ 91
draaide 91
kleine, 91
ingewikkeld 91
vergelijkbare 91
controle@@ 91
minuten. 91
heden, 91
letter@@ 91
dollars 91
centimeter 91
golf 91
oefen@@ 91
biljoen 91
dar@@ 91
er? 91
besl@@ 91
lokaal 90
gevolgd 90
inn@@ 90
Japanse 90
ideeën, 90
0@@ 90
proces, 90
serieuze 90
vat 90
oloog 90
hangen 90
schuld 90
herkennen 90
bewuste 90
verdwijnen 90
kanker, 90
blijf 90
achtig 90
antwoord. 90
iv@@ 90
gu@@ 90
ijnen 90
ma, 90
Sinds 90
,@@ 90
haar@@ 90
verder@@ 90
slaat 90
activiteiten 90
film. 90
wil@@ 90
eet 90
lot 90
ten: 90
cur@@ 90
bun@@ 90
goedkoop 90
klimaat 90
kre@@ 90
aten, 90
yp@@ 90
stuurde 90
maatschappelijke 90
dood, 90
adem@@ 90
C. 90
mot@@ 89
brief 89
schel@@ 89
pje 89
partij@@ 89
economie, 89
minister 89
nood@@ 89
digen 89
del 89
loop@@ 89
gaan@@ 89
schaal. 89
prim@@ 89
Japan 89
lever@@ 89
afgelegen 89
klanten 89
Vrouwen 89
Tegenwoordig 89
cap@@ 89
kr@@ 89
standpunt 89
blik@@ 89
behandeld 89
istisch 89
als: 89
gezichten 89
plo@@ 89
prima 89
spreek 89
gekregen 89
ische, 89
onen 89
gelijk. 89
toepassingen 89
verkiezingen 89
ev@@ 89
niveaus 89
combineren 89
Per@@ 89
lee@@ 89
rust 89
vriendin 89
zand@@ 89
effectieve 89
ë. 89
gevoel@@ 89
bestuderen. 89
gezichts@@ 89
zelden 89
dacht, 88
b 88
populaire 88
brengt. 88
stuk. 88
VS, 88
toekomst, 88
gang. 88
igen, 88
ontstond 88
onafhankelijk 88
50.000 88
evolutionaire 88
hom@@ 88
react@@ 88
vangen 88
ellen@@ 88
vingers 88
dimensies 88
geschikt 88
vernietig@@ 88
toestand 88
nen 88
beste@@ 88
minuut 88
behoe@@ 88
verster@@ 88
inspiratie 88
kamer@@ 88
bestaat. 88
wapen@@ 88
beroep 88
neus 88
deden, 88
Bu@@ 88
dak 88
deren. 88
cirkel 88
grappig 88
Niets 88
plaatsen, 88
foto. 88
kwantum@@ 88
pol@@ 88
niveau. 88
besliss@@ 88
sterrenstelsels 88
beweging. 88
Afrik@@ 88
tit@@ 88
macht@@ 88
video's 88
stof@@ 88
bestu@@ 88
real@@ 88
waar, 87
etten 87
spannend 87
klo@@ 87
hebben? 87
mogelijkheden. 87
oer@@ 87
1.@@ 87
bedrijven, 87
project, 87
sluiten 87
Chinees 87
kap@@ 87
helpen, 87
herstellen. 87
anti-@@ 87
architect 87
woonde 87
bouwt 87
stru@@ 87
mechanisme 87
blad 87
allemaal, 87
magische 87
cties 87
slaan. 87
rijden. 87
verhalen. 87
kunst, 87
ati@@ 87
5. 87
factoren 87
was@@ 87
jongste 87
klaar@@ 87
adem 87
Washington 87
A-@@ 87
duurzaam 87
Samen 87
it, 87
zon. 87
symbool 87
tuin 87
roept 87
vel 86
betaal@@ 86
voorstellen. 86
ië@@ 86
groeien, 86
stierf 86
vlucht@@ 86
groei. 86
doel. 86
eenvoudig. 86
gemeen 86
kunstmatige 86
werden. 86
ontwikkelingslanden 86
gt, 86
donker 86
betre@@ 86
bren@@ 86
twee. 86
suggereert 86
golf@@ 86
fantastisch. 86
rare 86
13@@ 86
moeilijk@@ 86
Vanaf 86
product@@ 86
koffie 86
vader, 86
dollar, 86
goe@@ 86
kijk, 86
stads@@ 86
ef 86
maakte. 86
gouden 86
lager 86
geconfronteerd 86
gebouwd. 86
mu@@ 86
universum. 86
prijzen 86
een. 86
Wereld@@ 86
eer, 86
zojuist 85
advies 85
iz@@ 85
laboratorium 85
Californië 85
passen. 85
meerderheid 85
functies 85
1.000 85
vliegen, 85
private 85
alles, 85
doden. 85
verwacht@@ 85
koud 85
willekeurig 85
velden 85
Azië 85
verkopen. 85
iseerd 85
schap. 85
à 85
geschiedenis, 85
liepen 85
popul@@ 85
natuur, 85
O 85
zichzelf. 85
ge. 85
spellen 85
geluk. 85
ment, 85
Daar@@ 85
stoppen, 85
ën@@ 85
controleren 85
lichte 85
oversch@@ 85
schrift 85
genees@@ 85
ade 85
gegaan. 85
1, 85
kte. 85
ers@@ 84
Uit@@ 84
Vooral 84
ondernemers 84
middelen. 84
drugs 84
tar@@ 84
vliegtuigen 84
est@@ 84
regeringen 84
sie@@ 84
en" 84
te-@@ 84
oceaan@@ 84
Ha@@ 84
combin@@ 84
glazen 84
't 84
radi@@ 84
moo@@ 84
5, 84
winnen. 84
Vaak 84
boo@@ 84
wandel@@ 84
kiezen. 84
kend, 84
opkomende 84
se, 84
Goed 84
vet@@ 84
complete 84
Wil@@ 84
echt, 84
dure 84
tran@@ 84
traditie 84
At@@ 84
binnen, 84
tanden 84
bevolking. 84
band@@ 84
aanpa@@ 84
moreel 84
digd 84
plus 84
isten, 84
begelei@@ 84
onbekende 84
/&gt;@@ 84
reed 83
dienen 83
kunnen, 83
amb@@ 83
baas 83
sol@@ 83
ali@@ 83
soorten. 83
kt? 83
il, 83
stuur 83
merkte 83
ingsc@@ 83
up@@ 83
benader@@ 83
doorgaan 83
gooien 83
2. 83
leefden 83
tumor 83
ontplo@@ 83
ct, 83
beroemd 83
vraag, 83
televisie 83
voegen 83
feedback 83
beïnvloe@@ 83
"Waar 83
spot@@ 83
graf@@ 83
ger. 83
Staten, 83
Wal@@ 83
processen 83
hop@@ 83
gewend 83
verwij@@ 83
aanwezigheid 83
hi@@ 83
kwijt 83
noemden 83
verkeer 83
kraa@@ 83
Golf 83
ort 83
reeds 83
Vorig 83
gecreëerd 83
kerst@@ 83
eit@@ 83
ondernemer@@ 83
ij. 83
tie 82
Hier@@ 82
zonne-energie 82
partners 82
cruciale 82
trek@@ 82
ernstig 82
verdubbel@@ 82
auto-@@ 82
liefde, 82
herinnert 82
volgend 82
zonlicht 82
heilige 82
bereiken, 82
tempo 82
"E@@ 82
aantallen 82
psychologische 82
gaan? 82
stral@@ 82
ere@@ 82
2.000 82
bena@@ 82
bureau 82
ramp 82
ine. 82
ker, 82
teruggaan 82
ieten 82
blog@@ 82
stelling. 82
luister@@ 82
camera's 82
ecosysteem 82
public@@ 82
kan, 82
muziek, 82
sur@@ 82
sport@@ 82
ke, 82
City 82
bil@@ 82
dankbaar 82
nucleaire 82
ijn. 82
zingen 82
fde 82
hersenen, 82
stak 82
goederen 82
dron@@ 82
vogel 82
laten. 82
hoeken 82
BG: 82
dige, 81
bij, 81
tests 81
technisch 81
staats@@ 81
corruptie 81
noodzakelijk 81
inspir@@ 81
beginnen, 81
aant@@ 81
hierin 81
maatschappij. 81
nood 81
oorlog@@ 81
York, 81
verra@@ 81
cell@@ 81
blij@@ 81
ici 81
besch@@ 81
eet@@ 81
heu@@ 81
vergelijkbaar 81
..." 81
geeft, 81
antwoor@@ 81
won 81
Kan@@ 81
begin@@ 81
brein@@ 81
hen@@ 81
onderhandel@@ 81
sel 81
medi@@ 81
ing-@@ 81
Ju@@ 81
air@@ 81
besluit 81
toename 81
zozeer 81
ale, 81
problemen, 81
leven? 81
kunde 81
atomen 81
rechterkant 81
populair 81
breng 81
omlaag 81
kozen 81
verschuiving 81
wit@@ 81
verdeling 81
privacy 81
DH: 81
Twitter 81
Wees 80
leu@@ 80
betekenen 80
één. 80
tienduizenden 80
drugs@@ 80
NASA 80
pil@@ 80
cra@@ 80
3.000 80
oud, 80
nationaal 80
gedeelde 80
beslist 80
hetgeen 80
intellectuele 80
eerde, 80
raam 80
beschrijven 80
verstand 80
overal. 80
27 80
kreeg. 80
stamcellen 80
Nogmaals, 80
ern@@ 80
noemt 80
voorouders 80
foto, 80
oneindig 80
definit@@ 80
vreselijk 80
hem, 80
cijfer 80
personen 80
studeerde 80
ellen 80
lachen. 80
Pa@@ 80
gebeurde, 80
Boe@@ 80
X@@ 80
ieke 80
detail 80
Zo@@ 80
ongeacht 80
eeuwen 80
onderzoeker 80
typische 80
gelijke 80
gas 80
balans 80
fiets@@ 80
zaak. 80
heid? 80
Israël 80
gekke 80
For@@ 80
'De 80
Franse 80
makers 80
chirurg 80
Facebook 80
anderen, 79
tv-@@ 79
mt 79
prestaties 79
Duitsland 79
Ru@@ 79
vlieg@@ 79
auto, 79
omgeving, 79
centraal 79
dagen, 79
Gu@@ 79
laptop 79
zat. 79
3, 79
4, 79
schoon 79
keer, 79
duidelijke 79
haast 79
bewegen, 79
site 79
eiwitten 79
pau@@ 79
Aarde. 79
uitzoeken 79
ett@@ 79
antie 79
voedsel, 79
ieven 79
Mu@@ 79
kader 79
digitaal 79
ah@@ 79
alen, 79
droom@@ 79
chten. 79
opende 79
ull@@ 79
kwamen, 79
wolken 79
gedwongen 79
isme, 79
bezit 79
alsjeblieft 79
veroor@@ 79
gelezen 79
helden 79
bede@@ 79
Australië 79
uniek 79
Europa, 79
mid@@ 79
regen 79
deelnemers 79
em. 79
begin. 79
spor@@ 79
gedreven 79
snij@@ 79
redenen. 79
rat@@ 79
verwachtingen 79
nieuws@@ 79
heren, 79
herinneringen 79
humor 78
y's 78
vervuiling 78
bijeen@@ 78
pon@@ 78
MIT 78
ia. 78
breed 78
194@@ 78
zich. 78
fout. 78
ne. 78
even. 78
ontde@@ 78
creë@@ 78
compon@@ 78
oorlogs@@ 78
ica, 78
bereik 78
mes 78
techn@@ 78
open, 78
ris@@ 78
99 78
zat, 78
geboren. 78
geest. 78
gewoon@@ 78
stan@@ 78
delijk@@ 78
vindt, 78
punt, 78
ongelofelijke 78
Telkens 78
%. 78
zoek@@ 78
directe 78
20.000 78
illen 78
alisme 78
Je@@ 78
Allemaal 78
bestaat, 78
toch, 78
media. 78
x. 78
wol@@ 78
vijfde 78
röntgen@@ 78
klin@@ 78
explo@@ 78
beg@@ 78
Zo'n 78
len 78
deel. 78
beren 78
beiden 78
re, 78
zee. 78
praktijk 78
onderscheid 78
Goed, 78
2008 78
2007 78
aanpassen 77
Ho@@ 77
elde 77
jeugd 77
196@@ 77
1. 77
leest 77
interess@@ 77
gescheiden 77
ver, 77
beschik@@ 77
terrorisme 77
as. 77
dodelijke 77
gevangen@@ 77
kkel@@ 77
volgde 77
koos 77
oma 77
gevol@@ 77
doen?" 77
improvis@@ 77
honden 77
uitvinding 77
eit 77
dorpen 77
gegevens, 77
"Mijn 77
Vertel 77
raad@@ 77
donker@@ 77
maakte, 77
kamers 77
onthouden 77
woord. 77
intelligente 77
Christ@@ 77
last@@ 77
sho@@ 77
innovatie. 77
raken. 77
blok 77
buur@@ 77
gehad, 77
logisch 77
Sa@@ 77
honderdduizenden 77
liggende 77
streven 77
kwesties 77
recyc@@ 77
jou. 77
alleen. 77
familie@@ 77
ziekenhuizen 77
dy@@ 77
pijn@@ 76
materiaal. 76
enz. 76
entie. 76
overheids@@ 76
gol@@ 76
8. 76
project@@ 76
hen, 76
Jon@@ 76
4. 76
bovenaan 76
"-@@ 76
"N@@ 76
mooi. 76
dalen 76
vast. 76
ouders. 76
worden? 76
"The 76
eigenschap 76
spannende 76
hypothe@@ 76
samen, 76
daarin 76
sj@@ 76
bedekt 76
soe@@ 76
gem@@ 76
regelmatig 76
zaam 76
vende 76
testen. 76
Ont@@ 76
gepubliceerd 76
els. 76
versla@@ 76
lijn@@ 76
dynam@@ 76
onderzocht 76
T 76
vet 76
continent 76
e? 76
elders 76
stoe@@ 76
gs@@ 76
staart 76
Bijvoorbeeld, 76
re 76
arbei@@ 76
transformatie 76
Afrikanen 76
gevoelig 76
domin@@ 76
kw@@ 76
Or@@ 76
sluiten. 76
gelegenheid 75
collega 75
haalden 75
Daarvoor 75
omgevingen 75
radio@@ 75
macht. 75
El@@ 75
gevormd 75
Hebben 75
Ondanks 75
achter. 75
toet@@ 75
stuurt 75
druk. 75
pap@@ 75
bossen 75
culturen 75
beschouwen 75
tonen, 75
iken 75
bloemen 75
op? 75
handen. 75
domein 75
dit@@ 75
poëzie 75
onver@@ 75
uiterst 75
boeken, 75
fu@@ 75
opnieuw. 75
Vijf 75
terrein 75
men? 75
Francisco 75
veren. 75
fles 75
zoeken, 75
voorwaar@@ 75
Peter 75
ieën. 75
ensch@@ 75
dringen 75
onderste 75
spectrum 75
verloor 75
pal@@ 75
blok@@ 75
bezig. 75
experts 75
aliseerde 75
molecuul 75
kol@@ 75
ged@@ 75
zwaartekracht 75
and, 75
innerlijke 75
noo@@ 75
tekens 75
symptomen 75
restaurant 75
do 75
zinnen 75
wind@@ 75
aas 75
bevatten 75
sek@@ 75
investeringen 74
gekozen 74
voornaamste 74
ool@@ 74
versus 74
dollar@@ 74
onderwerpen 74
voorwaarden 74
gebeur@@ 74
ontdekken. 74
minuten, 74
emotioneel 74
citaat 74
liefde. 74
zuiden 74
ets 74
"Er 74
schrijf 74
Probeer 74
age@@ 74
trek 74
kort@@ 74
brein, 74
gd 74
Tom 74
tegen. 74
blijven, 74
iedereen, 74
focus 74
zeer, 74
verenig@@ 74
waaruit 74
schakel@@ 74
War@@ 74
auteur 74
ons@@ 74
behandelen. 74
toespraak 74
oké, 74
noe@@ 74
ley 74
ors 74
ia@@ 74
sleutel@@ 74
roep@@ 74
graven 74
hete 74
verandert. 74
digde 74
schap@@ 74
oplossing. 74
ontstaan. 74
stellingen 74
stam 74
Dan@@ 74
s" 74
journalist 74
kamer, 74
telefoon. 74
replic@@ 74
rots@@ 74
gels 74
voorbij@@ 74
heer@@ 74
aanval 74
kwart 74
vla@@ 74
on: 74
ervaren. 74
gd. 74
hy@@ 74
leg 74
tes, 74
been@@ 74
spel, 74
ië, 74
agen@@ 74
YouTube 74
trainen 73
aangepast 73
cursus 73
haal 73
gelov@@ 73
Ko@@ 73
deren, 73
elijk, 73
genomen, 73
alternatief 73
tenslotte 73
Slechts 73
na, 73
vindt. 73
woorden@@ 73
stadium 73
warm 73
Gewoon 73
neemt, 73
teerden 73
slechtste 73
ze? 73
ber 73
gede@@ 73
slagen. 73
Oo@@ 73
pakte 73
klop@@ 73
hout@@ 73
zinn@@ 73
wonen. 73
Po@@ 73
19 73
herstel@@ 73
bewe@@ 73
eruit. 73
wijs 73
bezoe@@ 73
amp@@ 73
plaats, 73
samenlevingen 73
volgen, 73
uitgevonden. 73
wat? 73
overgang 73
Martin 73
leefde 73
mer 73
verschijn@@ 73
No@@ 73
vergeten. 73
ppen 73
steun@@ 73
sit@@ 73
gelegd. 73
alledaagse 73
versp@@ 73
hierop 73
vond. 73
waarschuw@@ 73
kenden 73
tieners 73
Tenslotte 73
bekijken, 73
kleinste 73
stad@@ 73
lach@@ 73
West-@@ 73
mogelijk@@ 73
geleidelijk 73
tes. 73
radicale 73
aag 73
beneden. 73
da. 73
star@@ 73
banden 73
uitvoer@@ 73
aap 73
wachten. 73
vertegenwoor@@ 73
roepen 73
neu@@ 73
hiv-@@ 73
haat 73
deling 73
stijgen 73
fic@@ 73
buren 73
mde 73
Ra@@ 73
Lo@@ 73
&lt;br 73
ontwerpen, 72
beperkte 72
Anders 72
ontwikkeling. 72
ander. 72
vermenigvul@@ 72
maanden. 72
'Ik 72
vertrouwen. 72
ikt 72
communicatie@@ 72
not@@ 72
veiligheids@@ 72
één, 72
lop@@ 72
Maak 72
zam@@ 72
5.000 72
overeen@@ 72
ziekte, 72
natuurlijk. 72
maar@@ 72
huwelijk 72
eling 72
Nummer 72
mier 72
procent, 72
speel 72
hem@@ 72
experiment. 72
vergeet 72
chten 72
ia, 72
stijl 72
verbin@@ 72
beschermd 72
kent, 72
te: 72
igen. 72
"Maar 72
systemen, 72
Darwin 72
waarts 72
kerk 72
bestuur 72
radicaal 72
vaccin@@ 72
ctie, 72
rond. 72
Vol@@ 72
evenveel 72
voer 72
it. 72
zand 72
fin@@ 72
verdeeld 72
sels 72
medeleven 72
kaart. 72
waarde. 72
oot. 72
teer 72
ontvan@@ 72
beantwoor@@ 72
aanvallen 72
operaties 72
Bedenk 72
r 71
koop 71
ing' 71
Bovendien 71
800 71
boven. 71
oké. 71
hiv 71
micro-@@ 71
verstre@@ 71
geë@@ 71
stammen 71
absolute 71
195@@ 71
ieren, 71
geloven. 71
gren@@ 71
uwen 71
ontdekkingen 71
bekijkt, 71
geluid. 71
fan@@ 71
blanke 71
chimpansees 71
training 71
geda@@ 71
bom@@ 71
lijken. 71
Big 71
beur@@ 71
spieren 71
heet, 71
woestijn 71
voorzien 71
publiek, 71
bewonder@@ 71
Ser@@ 71
tijds@@ 71
ps 71
vlie@@ 71
schie@@ 71
magie 71
woorden: 71
spro@@ 71
oot@@ 71
in-@@ 71
leerd 71
praat@@ 71
diezelfde 71
roe@@ 71
vle@@ 71
gehaald 71
kennis. 71
laa@@ 71
sal@@ 71
organische 71
Vergeet 71
gebouwd, 71
welzijn 71
Was 71
richt 71
cruciaal 71
stierven 71
ges 71
onafhankelijke 71
conclusie 71
'The 71
mag@@ 71
Brazilië 71
tand@@ 71
handelen 71
anim@@ 71
50@@ 71
voorspel@@ 71
bron@@ 71
arm@@ 71
acties 71
stress@@ 71
kleren 71
vreugde 71
A. 71
taken 71
School 71
oefenen 71
visueel 71
koude 71
Harvard 71
praktische 71
ië 71
Noor@@ 71
ort@@ 71
fr@@ 71
20e 71
PM: 71
BF: 71
pinguïns 71
merk@@ 70
des@@ 70
wij. 70
twijfel 70
erkennen 70
middelen, 70
bepaal@@ 70
systeem@@ 70
est 70
toel@@ 70
spann@@ 70
besmet@@ 70
wijken 70
maan@@ 70
toepass@@ 70
liedje 70
Terug 70
verwijderd 70
omstandigheden. 70
trouw@@ 70
verouder@@ 70
genom@@ 70
letters 70
gedeel@@ 70
infe@@ 70
von@@ 70
verwer@@ 70
vou@@ 70
koppel@@ 70
binnenkort 70
Bedankt 70
aandacht. 70
slapen 70
ondersteun@@ 70
broers 70
eenheid 70
drin@@ 70
ieren. 70
man: 70
begon, 70
geëvolueerd 70
gekeken 70
trend 70
relevant 70
sper@@ 70
Sterker 70
geweldig@@ 70
geslaagd 70
chemie 70
beschreven 70
ologische 70
19e 70
gebeurtenis 70
Vrouw: 70
rechter 70
22 70
leerkrachten 70
TED. 70
talent 70
oppervla@@ 70
fre@@ 70
vorm, 70
gewe@@ 70
stuur@@ 70
wie@@ 70
Mor@@ 70
breken. 70
stond. 70
wagen 70
benoe@@ 70
wei@@ 70
doe, 70
demo@@ 70
Sha@@ 70
zwakke 70
uitgevoerd 70
Ka@@ 70
sticht@@ 70
ontwikkelen, 70
ier, 70
ser 70
amen 70
herstel 70
gezinnen 70
Fa@@ 70
ante 70
armste 70
mm@@ 70
kruis@@ 70
fascinerend 70
bevindt 70
gezicht@@ 70
ongelijkheid 70
diagnose 70
onderzoe@@ 70
mam@@ 70
gedrags@@ 70
consumptie 70
vrede@@ 69
afbeeldingen 69
historisch 69
gemakkelijker 69
kapitaal 69
nogmaals, 69
diplom@@ 69
vorming 69
conventionele 69
waardig 69
zien@@ 69
was? 69
atief 69
hand, 69
anderhalf 69
woont 69
ve. 69
geru@@ 69
voorstel 69
bas@@ 69
baarheid. 69
gewerkt. 69
World 69
tel 69
oorzaken 69
dere 69
dieet 69
ien. 69
hoofd, 69
veld. 69
gras 69
mens, 69
wild 69
ll@@ 69
spoor 69
door, 69
overigens 69
gla@@ 69
nu? 69
allereerste 69
presen@@ 69
vrouw@@ 69
planten. 69
energie-@@ 69
doen: 69
ijen 69
speci@@ 69
blo@@ 69
medewerkers 69
prin@@ 69
fotograf@@ 69
noorden 69
tekening 69
ervaring, 69
rug@@ 69
geïn@@ 69
wen 69
straat. 69
blijken 69
duidelijk. 69
late 69
vouw@@ 69
bijvoorbeeld. 69
route 69
ra 69
lengte 69
sites 69
Tur@@ 69
Han@@ 69
natuurkunde 69
kijkt. 69
verdwijnen. 69
levensverwachting 69
air. 69
kust@@ 69
Goed. 69
diepte 69
minder@@ 69
netwerk. 69
interface 69
?” 69
vlieg 69
dien@@ 69
duiken 69
voorkeur 69
hin@@ 69
steken. 69
toer@@ 69
psychologie 69
laag@@ 69
woestijn@@ 69
Ab@@ 69
Chinezen 69
Kijk, 69
op: 69
moslims 69
eisen 68
verminderen. 68
ontwikkelingslanden. 68
vervuil@@ 68
vaardig@@ 68
Amerikaans 68
uitgevonden 68
chten, 68
spanning 68
dran@@ 68
ziel 68
verdwenen 68
sne@@ 68
isten. 68
Oceaan 68
alen. 68
meren 68
stilte 68
Er@@ 68
Alsof 68
dan. 68
ot 68
0, 68
HIV 68
malaria 68
haar, 68
simpel. 68
chte 68
Welk 68
geraken. 68
beschouw@@ 68
zing 68
verlen@@ 68
vervan@@ 68
plant@@ 68
uitmaken 68
ken." 68
clu@@ 68
ds, 68
actie. 68
Iedere 68
erdoor 68
documenten 68
inst@@ 68
Vanuit 68
slachtoffer 68
scholen, 68
verwerken 68
serv@@ 68
ië. 68
zet, 68
interne 68
geobsedeerd 68
feite, 68
Chicago 68
situatie. 68
Mexico 68
spect@@ 68
gebracht, 68
paard 68
typisch 68
uw@@ 68
bekijkt 68
gemeten 68
verjaardag 68
bestaan, 68
uitspraak 68
bereken@@ 68
pond 68
stig@@ 68
voorspellingen 68
demonstr@@ 68
Ba@@ 68
flu@@ 68
resultaten. 68
lukt 68
geholpen 68
zorgde 68
vijand 68
ineens 68
blinde 68
spaar@@ 68
mooiste 68
strand 68
wijn 68
erf@@ 68
budget 67
januari 67
gekoppeld 67
Di@@ 67
bedenken. 67
toegankelijk 67
vormen, 67
uit? 67
ele, 67
Kat@@ 67
iaanse 67
Bij@@ 67
gestart 67
volgorde 67
draadloze 67
qua 67
groep, 67
gelu@@ 67
communiceren. 67
vader. 67
therapie 67
ry 67
bevrij@@ 67
emotie 67
stijging 67
uitvinden 67
lig@@ 67
oot, 67
tijdschrift 67
reclame 67
ech@@ 67
motivatie 67
bos@@ 67
oorlog, 67
Midden-Oosten 67
studenten, 67
hyper@@ 67
experimen@@ 67
element 67
prote@@ 67
opent 67
Vo@@ 67
veranderden 67
E 67
ch, 67
zakelijke 67
aliseerd 67
grappige 67
refle@@ 67
prototype 67
omhoog. 67
interessant@@ 67
neemt. 67
sloeg 67
ras 67
Na@@ 67
coördin@@ 67
drijven 67
buurt. 67
ha 67
Duitse 67
scann@@ 67
geraa@@ 67
linkerkant 67
posit@@ 67
creatie 67
beper@@ 67
olie. 67
250 67
ingsp@@ 67
warm@@ 67
rou@@ 67
feest@@ 67
dichtheid 67
Europa. 67
verloop 67
lijf 67
"S@@ 67
lanc@@ 67
gelukkiger 67
klok 67
Bel@@ 67
meet 67
batterij 67
geur 67
lijkt. 67
"] 67
2009 67
app 67
makkelijk@@ 66
bereikt. 66
ass@@ 66
nodige 66
democratie. 66
besteed 66
21ste 66
eren? 66
brak 66
model@@ 66
belasting@@ 66
miljar@@ 66
samenleving. 66
teams 66
blad@@ 66
tellen 66
beoor@@ 66
ontwerp. 66
onderzoeken. 66
kno@@ 66
straling 66
mi@@ 66
ethische 66
gebonden 66
geheugen@@ 66
gevallen, 66
biologen 66
schap, 66
elijk@@ 66
schreven 66
had@@ 66
leken 66
well@@ 66
Fran@@ 66
succes. 66
und 66
verrassing 66
will@@ 66
vertro@@ 66
her 66
verklaart 66
wijn@@ 66
vond, 66
verbaasd 66
vaccin 66
Stephen 66
verkennen 66
Naar 66
verdient 66
doe. 66
bestrij@@ 66
droeg 66
geslagen 66
inzichten 66
simul@@ 66
bijdragen 66
autor@@ 66
poten 66
transpar@@ 66
v 66
onverwachte 66
westen 66
equivalent 66
agen. 66
beïnvloed 66
geval. 66
hoo@@ 66
handig 66
moedig 66
e-mail 66
efficiënt 66
mochten 66
ss 66
zon, 66
vloer 66
schuil@@ 66
voeden. 66
personage 66
as, 66
drukt 66
Video: 66
natie 66
gedood 66
rapport 66
vonden. 66
geestes@@ 66
eerste: 66
proto@@ 66
ouders, 66
minder. 66
sonder@@ 66
vormige 66
iseerde 66
Kar@@ 66
gene 66
naar@@ 66
koor@@ 66
ven? 66
Obama 66
machine, 66
"B@@ 65
consu@@ 65
aliteit. 65
platteland 65
keuze. 65
Cor@@ 65
nut 65
wortel@@ 65
beschikbare 65
tools 65
probleem@@ 65
Sh@@ 65
wonder@@ 65
tem@@ 65
split@@ 65
ontvangen 65
niet: 65
baan. 65
organisme 65
scherm. 65
Gra@@ 65
Kl@@ 65
uitdaging. 65
os 65
en'. 65
acc@@ 65
fascinerende 65
gezet, 65
geweld, 65
Pas 65
bibliotheek 65
verkennen. 65
begonnen. 65
neder@@ 65
"M@@ 65
staande 65
stuk@@ 65
verdien@@ 65
ica. 65
ium@@ 65
poly@@ 65
onderaan 65
Ieder 65
planten, 65
pakken, 65
waardigheid 65
eens, 65
ctor 65
beter, 65
fout@@ 65
economen 65
aagd 65
beelden, 65
muzikale 65
ret@@ 65
icht@@ 65
Hou 65
verschijnen 65
design. 65
jou, 65
effect@@ 65
opmerkelijk 65
ender 65
literatuur 65
filmpje 65
ssen@@ 65
ingen@@ 65
organiseren 65
Eric 65
isme. 65
rie 65
taal, 65
belangen 65
papier. 65
accepteren 65
ligt. 65
loos 65
recentelijk 65
nut@@ 65
aars. 65
Ta@@ 65
voertuig 65
opgegroeid 65
verz@@ 65
ontmoeten 65
slecht@@ 65
personages 65
ric@@ 65
cool 65
gram 65
Mark 65
sno@@ 65
n. 65
pijn. 65
20ste 65
mammo@@ 65
Atlantische 64
zame 64
houd@@ 64
Vier 64
test. 64
voedings@@ 64
mest@@ 64
milieu. 64
igt 64
sele@@ 64
even, 64
industrie. 64
brandstof@@ 64
verliezen. 64
team@@ 64
goedkoper 64
gaf. 64
schen@@ 64
onzichtbaar 64
lucht, 64
centr@@ 64
rollen 64
Ander@@ 64
gewassen 64
grond, 64
chemicaliën 64
zie, 64
ecologische 64
Au@@ 64
blijkbaar 64
leeft. 64
laatst 64
Hoe@@ 64
slo@@ 64
belang. 64
32 64
!@@ 64
dans 64
partijen 64
10, 64
steeds. 64
aam 64
maken." 64
tsch@@ 64
Vroeger 64
fon@@ 64
expert 64
ing." 64
vaders 64
Ke@@ 64
2005 64
kind@@ 64
yn@@ 64
Gen@@ 64
van: 64
ann@@ 64
drie. 64
buiten. 64
simpel@@ 64
ero@@ 64
ander, 64
standaard@@ 64
tor@@ 64
controleren. 64
realis@@ 64
verg@@ 64
tevreden 64
grootse 64
meter, 64
ings 64
ts, 64
huid@@ 64
werkte, 64
Ken@@ 64
stalen 64
beheer@@ 64
dubbele 64
geld@@ 64
genoten 64
soort. 64
2010 64
seren 64
antibiotica 64
moeilijkste 64
zwer@@ 64
falen 64
Erg 64
gevuld 64
uitgenodigd 64
ins 64
staat@@ 64
instelling 64
ses 64
warmte 64
ek. 64
wapen 64
avont@@ 64
wedstrijd 64
valse 64
mun@@ 64
aanvaar@@ 64
kweken 64
genieten 64
genoemd, 64
communic@@ 64
voorstellen, 64
verklaren 64
tab@@ 64
algorit@@ 64
vleugels 64
dank@@ 63
efficiëntie 63
negatief 63
rappor@@ 63
kies 63
kwetsbaar 63
diepste 63
dal@@ 63
mobiel@@ 63
verrass@@ 63
kreeg, 63
concurr@@ 63
tiende 63
"de 63
voormalige 63
sindsdien 63
ds. 63
twintig 63
erin. 63
enen. 63
continu 63
originele 63
verkoop 63
matig 63
wijst 63
scop@@ 63
verde@@ 63
inheemse 63
apparatuur 63
opnemen 63
gor@@ 63
imit@@ 63
zoogdieren 63
werkers 63
vertrouwd 63
legden 63
merkt 63
id, 63
stude@@ 63
tekeningen 63
pot 63
parkeer@@ 63
voeden 63
noem. 63
enigszins 63
Cal@@ 63
ruwe 63
piano 63
sende 63
daaraan 63
Men@@ 63
hei@@ 63
realiseerden 63
Pe@@ 63
verhalen, 63
bewer@@ 63
theorie. 63
mannetjes 63
elektronische 63
gevallen. 63
bevoor@@ 63
deelde 63
Am@@ 63
st: 63
verbindt 63
eigendom 63
vliegende 63
achterkant 63
stapel 63
realiteit. 63
dynamische 63
cartoon@@ 63
gin@@ 63
centra 63
2,5 63
honger@@ 63
illegale 63
demonstratie 63
geneesmiddel 63
olog@@ 63
poë@@ 63
pian@@ 63
kosm@@ 63
lopende 63
walvissen 63
gered 63
zeven@@ 63
exper@@ 63
mensen? 63
steden, 63
verh@@ 63
illusie 63
isol@@ 63
vanavond 63
botten 63
rin@@ 63
prikkel@@ 63
gefascineerd 63
terroristen 63
Pre@@ 63
beweging, 63
maat 63
zuid@@ 63
ffen. 63
ë, 63
gingen. 63
stom@@ 63
oud@@ 63
watt 63
ina 63
boog 63
Nigeria 62
zo: 62
berekenen 62
toestemming 62
alternatieve 62
zuiver@@ 62
zeldzame 62
werelden 62
voorbeelden. 62
ma's 62
oefening 62
Bur@@ 62
ontwikkelt 62
treden 62
verloren. 62
oplossen, 62
sex@@ 62
computers, 62
focu@@ 62
stuurden 62
oog. 62
700 62
heette 62
klap@@ 62
grap 62
dichterbij 62
voltoo@@ 62
eerdere 62
?@@ 62
enn@@ 62
lijken, 62
omgekeerde 62
structuur. 62
glij@@ 62
gron@@ 62
id. 62
tje, 62
dient 62
geboorte@@ 62
spra@@ 62
wiskun@@ 62
tic@@ 62
50% 62
voor: 62
G 62
spirituele 62
zeker@@ 62
efficiënte 62
entie, 62
7, 62
drukken. 62
gelukkig. 62
gun@@ 62
normen 62
Verder 62
eruit@@ 62
ontmoeten. 62
waardevolle 62
luist@@ 62
deelden 62
ya 62
Su@@ 62
dames 62
fotograaf 62
Wikipedia 62
stemming 62
elektro@@ 62
muizen 62
helder 62
ouderen 62
olen 62
hoofdstuk 62
ta 62
pet@@ 62
sprei@@ 62
wetenschappen 62
gebaseerde 62
gezicht. 62
klasse 62
snel, 62
bijdrage 62
woede 62
symbolen 62
landelijke 62
prof@@ 62
ooit. 62
denkt: 62
verandert, 62
Aar@@ 62
rijker 62
machtige 62
Amerik@@ 62
we: 62
neer. 62
stoor@@ 62
stijgen. 62
Westerse 62
mannen@@ 62
stippen 62
Pakistan 62
port@@ 62
straf 62
herinnering 62
Heeft 62
mus@@ 62
zelfde 62
speelgoed 62
algoritme 62
keten 61
ks@@ 61
ologie. 61
graad 61
crisis. 61
hulpmiddelen 61
bran@@ 61
gebruik. 61
uitbrei@@ 61
studenten. 61
nor@@ 61
debat@@ 61
23 61
Rode 61
beveilig@@ 61
gestuurd 61
OK. 61
materiaal, 61
groe@@ 61
zicht. 61
gave 61
dur@@ 61
optim@@ 61
soorten, 61
hebben@@ 61
vari@@ 61
later. 61
ide. 61
chem@@ 61
"Z@@ 61
post 61
Microsoft 61
ideale 61
Let 61
analyseren 61
Zodat 61
Natuur@@ 61
gedrag, 61
alsmaar 61
begr@@ 61
Ken 61
Canada 61
terecht. 61
metalen 61
types 61
bacterie 61
gre@@ 61
gebouw. 61
rust@@ 61
Nat@@ 61
eien 61
integr@@ 61
vis. 61
apparaat. 61
koning 61
verschil. 61
Onder 61
direc@@ 61
theorieën 61
wetenschap@@ 61
nee 61
telijk 61
bewoners 61
gekregen. 61
verbinden. 61
academische 61
sam@@ 61
n, 61
tuin@@ 61
luid@@ 61
ap 61
Ex@@ 61
leiden, 61
prij@@ 61
telijke 61
metho@@ 61
station 61
bid@@ 61
x, 61
3. 61
C, 61
armoede, 61
ator@@ 61
dering 61
studie@@ 61
/ 61
verbetering 61
als, 61
dubbel@@ 61
mit@@ 61
bevroren 61
roof@@ 61
Rond 61
bom 61
atoom@@ 61
houten 61
dame 61
optie 61
Lan@@ 61
programma. 61
sensoren 61
La@@ 61
gooien. 61
zeker. 61
business@@ 61
woord@@ 61
Later 61
O, 61
onden 61
beïnvloeden. 61
contac@@ 61
springen 61
reuzen@@ 61
crimin@@ 61
Daarbij 61
externe 61
Sam@@ 61
fluit@@ 61
AB: 61
Bekijk 60
spiegel 60
elkaars 60
berekeningen 60
ingenieur 60
lees 60
producten. 60
produceert 60
missen 60
financieel 60
wereldbevolking 60
20, 60
aantre@@ 60
inspireren 60
diger 60
vervoer 60
Russische 60
son, 60
efficiënter 60
auto's. 60
vier, 60
dansen 60
bepalen. 60
telt 60
bol@@ 60
afsluiten 60
strij@@ 60
harder 60
kiezen, 60
tru@@ 60
geneesmiddelen 60
monsters 60
score 60
destijds 60
zin, 60
studeren 60
universiteit. 60
vol. 60
geweld. 60
derde, 60
verliet 60
trein 60
Hon@@ 60
schol@@ 60
sterven, 60
Frank 60
architecten 60
ó@@ 60
seksueel 60
markt, 60
vaardigheid 60
vermoor@@ 60
mysterie 60
liefdes@@ 60
druk, 60
stromen 60
jun@@ 60
Geloof 60
mix 60
huur@@ 60
slechter 60
selen 60
vertrouw@@ 60
sign@@ 60
yl@@ 60
Museum 60
bot 60
wee@@ 60
zet. 60
Weer 60
wolk 60
í@@ 60
partij 60
aliseren 60
tekenen. 60
ite@@ 60
prijs. 60
tot@@ 60
ren 60
maker 60
meenemen 60
ity 60
roze 60
Boston 60
bedrie@@ 60
uitdrukking 60
geheimen 60
datgene 60
doek 60
straks 60
Verenigd 60
bew@@ 60
sig@@ 60
gedichten 60
welvaart 60
iPhone 60
verplaatsen 60
bibliothe@@ 60
E: 60
bijen@@ 60
personeel 59
geschreven. 59
lim@@ 59
hulp. 59
brood@@ 59
oh 59
auto's, 59
slecht. 59
Bob 59
en". 59
gevonden, 59
warme 59
infra@@ 59
scre@@ 59
snapt 59
Wa@@ 59
Toe@@ 59
sers 59
hoop@@ 59
draag 59
95 59
computer, 59
zien: 59
verspreiden. 59
28 59
krachten. 59
revolutie. 59
long@@ 59
meester@@ 59
Oh 59
zeiden, 59
zinnige 59
"Een 59
ën 59
waarna 59
Br@@ 59
Beeld 59
verhogen 59
wonderlijke 59
toevoegen 59
rommel@@ 59
vandaan? 59
ijnse 59
oproep 59
zakken 59
kennis@@ 59
sterren@@ 59
onderweg 59
vrijwilligers 59
interactieve 59
huil@@ 59
rijdt 59
duidelijk@@ 59
ck-@@ 59
gewelddadige 59
federale 59
rische 59
kant@@ 59
pak@@ 59
loc@@ 59
Kenia 59
bang. 59
atheï@@ 59
opgeleid 59
uitziet. 59
discuss@@ 59
niveau, 59
slimmer 59
tegenovergestelde 59
twijfel@@ 59
bevolkings@@ 59
schat 59
beïnvloedt 59
herstellen 59
verbluffende 59
aden 59
Zu@@ 59
vergadering 59
leeftijd. 59
universum, 59
verscheidenheid 59
veren, 59
ffen 59
vliegtuig@@ 59
fabrie@@ 59
innovat@@ 59
geleerd. 59
voorberei@@ 59
griep 59
zone 59
geproduceerd 59
week. 59
opp@@ 59
sluit@@ 59
verliest 59
stok 59
aanwijzingen 59
variatie 59
belan@@ 59
winter 59
mythe 59
beïnvloeden 59
Zweden 59
weefsel@@ 59
lam@@ 59
aak 59
proeven 59
KB: 59
klimaatverandering. 58
vloog 58
betaalt 58
zo’n 58
ën, 58
fd 58
vak 58
angst. 58
fiets 58
reger@@ 58
video. 58
30.000 58
Apple 58
accep@@ 58
zelf-@@ 58
machin@@ 58
Tussen 58
enten. 58
doods@@ 58
raakten 58
studio 58
ijker 58
maal@@ 58
middel. 58
inspanningen 58
pogingen 58
iteit@@ 58
eigenaar 58
letter 58
eeuwig 58
R 58
slagen, 58
categor@@ 58
a? 58
reageren. 58
Yor@@ 58
uitda@@ 58
focussen 58
wed@@ 58
ikken 58
productiviteit 58
coole 58
voertuigen 58
fel@@ 58
im 58
yc@@ 58
kloo@@ 58
king. 58
telescoop 58
6, 58
geluids@@ 58
tax@@ 58
droge 58
gevecht 58
puur 58
nooit. 58
Steven 58
oorlogen 58
Vij@@ 58
model, 58
Tor@@ 58
foto's. 58
lukte 58
ingspro@@ 58
breed@@ 58
mechanische 58
metingen 58
genezen 58
contin@@ 58
wetenschappers, 58
e' 58
schro@@ 58
vra@@ 58
nadenken. 58
fabrieken 58
onszelf. 58
overheid. 58
Eerste 58
reageert 58
pende 58
bele@@ 58
écht 58
creëerde 58
hat@@ 58
geluid@@ 58
Palest@@ 58
antrop@@ 58
ervar@@ 58
zer@@ 58
keu@@ 58
hem: 58
schatten 58
50, 58
voorbereid 58
Congres 58
menselijkheid 57
kent. 57
praatte 57
mut@@ 57
stran@@ 57
verminder@@ 57
toestel 57
inder@@ 57
introduc@@ 57
kelijk, 57
em, 57
juni 57
Che@@ 57
beschrij@@ 57
nadenkt, 57
gelaten. 57
bad@@ 57
oll@@ 57
designers 57
moment@@ 57
gek. 57
staal 57
ori@@ 57
data@@ 57
schatting 57
gas@@ 57
selectie 57
bio-@@ 57
vro@@ 57
Mac@@ 57
presiden@@ 57
vriendelijk@@ 57
delijk. 57
stopten 57
ard 57
lijden. 57
groepen, 57
Sindsdien 57
onvermijdelijk 57
s... 57
misschien, 57
kenn@@ 57
ten." 57
loopt. 57
daalt 57
oos. 57
opnieuw, 57
opgelost. 57
cin@@ 57
cel. 57
geneigd 57
appen 57
Van@@ 57
eerde. 57
wat, 57
cultureel 57
jou@@ 57
politiek, 57
geraakt. 57
documen@@ 57
verwachten. 57
dimensionale 57
hier? 57
vermoed 57
klimmen 57
Bon@@ 57
Cha@@ 57
wereld? 57
Engels. 57
ïn@@ 57
unt 57
kleinkinderen 57
stige 57
tende 57
data, 57
bewezen 57
Sc@@ 57
groep@@ 57
Olympische 57
Jim 57
suiker 57
tjes, 57
interview 57
Ri@@ 57
"Oké, 57
mooi, 57
gee@@ 57
creëerden 57
bieden. 57
gaat@@ 57
kolonie 57
winst@@ 57
wers 57
waarderen 57
liter 57
ramp@@ 57
ire 57
groot, 57
vee 57
slag. 57
gezegd: 57
ontmoet@@ 57
juridische 57
gelijkheid 57
bescherm@@ 57
iden 57
lijn, 57
langere 57
soort, 57
bloot@@ 57
beantwoorden. 57
eilanden 57
je." 57
gestopt 57
transformat@@ 57
wap@@ 56
innovaties 56
ein 56
logica 56
projecten. 56
ool 56
mobil@@ 56
iteiten 56
oploss@@ 56
wegen, 56
i: 56
richtte 56
ationele 56
'9@@ 56
So@@ 56
gehaald. 56
50. 56
200.000 56
ilt 56
waterstof@@ 56
betekent, 56
drukken, 56
afwijk@@ 56
hart, 56
tjes. 56
inten@@ 56
schreeuw@@ 56
beneden, 56
lastige 56
veroorzaken. 56
zuurstof@@ 56
uitzondering 56
complex@@ 56
verticale 56
schrijft 56
Dingen 56
hart. 56
ien@@ 56
wezens. 56
niets, 56
schieten 56
"Wij 56
verder, 56
mail@@ 56
voorstel@@ 56
0,@@ 56
vanzelfsprekend 56
heel@@ 56
gebruik, 56
nauw 56
romantische 56
Rom@@ 56
macht, 56
dier. 56
Ben@@ 56
nieuw@@ 56
technolog@@ 56
Uiteraard 56
sprekers 56
gewoon. 56
wier 56
aus 56
bril 56
Californië. 56
smaak 56
internationaal 56
leeftijd, 56
gezon@@ 56
kel 56
Tra@@ 56
gevo@@ 56
on-@@ 56
wonder 56
punten. 56
volks@@ 56
amer@@ 56
cirkel@@ 56
veilig@@ 56
hoefde 56
dertig 56
verbonden. 56
vouwen 56
satellie@@ 56
plek, 56
are@@ 56
iets@@ 56
overeen 56
weiger@@ 56
pat@@ 56
rac@@ 56
armoede. 56
resultaat. 56
daling 56
se-@@ 56
Steek 56
ering. 56
prior@@ 56
elk@@ 56
favorie@@ 56
of, 56
isch@@ 56
ok@@ 56
ant. 56
walvis@@ 56
zagen. 56
vervoer@@ 56
scheppen 56
4.000 56
verantwoordelijk@@ 56
wortels 56
raar 56
frustr@@ 56
én 56
som 56
kil@@ 56
schaduw 56
klein. 56
wassen 56
Ca@@ 56
mijzelf 56
fol@@ 56
ventil@@ 56
leed 56
medit@@ 56
islam@@ 56
pleeg@@ 56
gedragen. 56
netwerk@@ 56
lading 56
bedreiging 56
dinosaurussen 56
patiënten. 56
waardevol 56
vracht@@ 55
un 55
kool@@ 55
bekeek 55
noodzaak 55
eeuw@@ 55
keerde 55
buik 55
privé-@@ 55
betrekking 55
ontwer@@ 55
sprake 55
consumenten 55
mann@@ 55
bad 55
gingen, 55
tranen 55
Kleine 55
méér 55
sequentie 55
uitgebreid 55
definiëren 55
igste 55
pte 55
onderkant 55
for 55
spraak@@ 55
ha, 55
zwaa@@ 55
reden. 55
gehoord, 55
onvermij@@ 55
boos 55
knie 55
beschouwd 55
visualis@@ 55
roll@@ 55
verzamelen. 55
zor@@ 55
belangrijker, 55
truc 55
"W@@ 55
bese@@ 55
oot 55
reis. 55
vriendelijk 55
demon@@ 55
hoek. 55
journalisten 55
zijden 55
onderwijs@@ 55
65 55
wiskunde. 55
gelukkige 55
vliegt 55
woor@@ 55
aantonen 55
zaken, 55
overleden 55
bescher@@ 55
verschuiv@@ 55
bronnen. 55
ey 55
"K@@ 55
lui 55
groepen. 55
autisme 55
aut@@ 55
verdiep@@ 55
valt, 55
verzor@@ 55
behandelingen 55
aanpakken. 55
Project 55
atmosfeer. 55
bloem 55
boord 55
buiten, 55
volstrekt 55
biolog@@ 55
aangedreven 55
vereist 55
beurt 55
gevende 55
scholen. 55
geve@@ 55
mensheid. 55
roep 55
medel@@ 55
moei@@ 55
drinken 55
dy 55
onmogelijke 55
geslacht 55
verhuisde 55
grondig 55
slim@@ 55
rennen 55
wiskundig 55
islamitische 55
nieuwsgierig 55
hielpen 55
"Ze 55
papier@@ 55
dol@@ 55
2,@@ 55
bedenk 55
s'. 55
veranderende 55
concentr@@ 55
let 55
testen, 55
RB: 55
Zeg 55
herkennen. 55
tonijn 55
straal@@ 54
"Hij 54
verminderen 54
koken 54
ut. 54
risico@@ 54
financiering 54
economieën 54
praktisch 54
opzetten 54
iem 54
paar@@ 54
bedro@@ 54
hangen. 54
intelligent 54
ontwikkeld. 54
ontdekken, 54
jongens. 54
zeg, 54
cou@@ 54
princip@@ 54
gden 54
ografie 54
tum@@ 54
individueel 54
praat, 54
gemaakte 54
orgaan 54
uitleg 54
nieuwe, 54
week, 54
ws 54
gras@@ 54
trouwen 54
oxytocine 54
San@@ 54
vezels 54
verpa@@ 54
verbeteren, 54
Kevin 54
Brian 54
els, 54
held 54
worstel@@ 54
eg 54
verover@@ 54
koffie@@ 54
weegt 54
foto's, 54
ten? 54
toeval 54
voe@@ 54
refer@@ 54
les. 54
opgezet 54
ich@@ 54
ijsk@@ 54
verspreidt 54
schrijvers 54
enz@@ 54
Zuid-Afrika 54
.000. 54
valt. 54
blan@@ 54
William 54
contra@@ 54
wegen. 54
dragen, 54
d?" 54
banken 54
Angeles 54
satellieten 54
bedreigde 54
zachte 54
misdaad 54
veiligheid@@ 54
winnaar 54
kopie 54
speelden 54
boven, 54
eerlijk@@ 54
verwonder@@ 54
ed. 54
Anderen 54
Homo 54
gers. 54
levensduur 54
atie-@@ 54
moer@@ 54
team. 54
eer. 54
ondernem@@ 54
deuren 54
ligt, 54
dramatische 54
bedrag 54
duw@@ 54
profession@@ 54
Andrew 54
vr@@ 54
Global 54
Gar@@ 54
'de 54
stem. 54
dromen. 54
oel 54
voorbeeld: 54
uitzonderlijk 54
richting. 54
radio 54
noord@@ 54
omen 54
slij@@ 54
gezamenlijke 54
de." 54
behoud 54
stand. 54
weerspiegel@@ 54
Tegelijkertijd 54
iseren. 54
Noord@@ 54
onderliggende 54
aardbeving 54
aliseren. 54
gehandicap@@ 54
Hierdoor 54
frequ@@ 54
Ac@@ 54
games 54
psychische 54
programmeren 54
John@@ 54
vriend, 53
CO2-@@ 53
brandstoffen 53
uitstoot 53
denkt. 53
vrijwillig@@ 53
av@@ 53
vielen 53
aids 53
Afghanistan. 53
trekken, 53
trans@@ 53
schone 53
wel? 53
Zal 53
dynamiek 53
2003 53
maatschappijen 53
duren 53
binnenin 53
iteiten, 53
menten, 53
iets, 53
weergave 53
5000 53
re. 53
my@@ 53
nauwkeurig 53
frag@@ 53
jarenlang 53
lekker 53
TED, 53
gevoelige 53
gaf, 53
delijk, 53
dus: 53
weerstand 53
gebruiken? 53
wilde, 53
ente@@ 53
hij@@ 53
vingen 53
en! 53
Bi@@ 53
trends 53
aars, 53
denk, 53
bezorg@@ 53
Mat@@ 53
sel. 53
stof. 53
geko@@ 53
voorstelling 53
suggereren 53
pom@@ 53
blog 53
schilderijen 53
verwacht. 53
treff@@ 53
stijgt 53
ation@@ 53
computers. 53
verdiepingen 53
verle@@ 53
soldaat 53
Qu@@ 53
methoden 53
vernieuw@@ 53
Chine@@ 53
gebruikelijke 53
veld, 53
concentreren 53
P 53
keur@@ 53
goud@@ 53
under@@ 53
luisteren, 53
ring 53
extra@@ 53
trap 53
time 53
rekenen 53
tal 53
vermijden 53
dramatisch 53
kritische 53
oog, 53
bezocht 53
schep@@ 53
illegaal 53
aans 53
molecu@@ 53
diagram 53
nature 53
chip 53
kregen. 53
put@@ 53
indi@@ 53
eender 53
Engel@@ 53
les, 53
geving 53
voorspellen. 53
gy@@ 53
nieuws, 53
parle@@ 53
slu@@ 53
kantoor@@ 53
overvloed 53
berekening 53
abstra@@ 53
vernieu@@ 53
vangen. 53
draag@@ 53
stapte 53
out@@ 53
teleur@@ 53
verandering, 53
omvat@@ 53
aanpakken 53
vermin@@ 53
liedjes 53
ondersteunen 53
kat 53
adolesc@@ 53
kantoor. 53
touw 53
glimlach@@ 53
homo@@ 53
reage@@ 53
wek@@ 53
zwemmen 53
vertal@@ 53
maatschappelijk 53
binnenkant 53
ile@@ 53
starten. 53
stur@@ 53
koraal@@ 53
kopp@@ 53
ip, 53
advis@@ 53
natuurlijk@@ 53
synchron@@ 53
dikke 53
eieren 53
haai 53
koralen 53
oceaan, 52
aangezien 52
betrokkenheid 52
houden? 52
Aarde, 52
Haïti 52
suiker@@ 52
leeg 52
malen 52
strategieën 52
Econom@@ 52
mist 52
conc@@ 52
kwal@@ 52
Rusland 52
artistieke 52
val, 52
wonen, 52
fiet@@ 52
Hopelijk 52
immers 52
zeil@@ 52
ille 52
getuig@@ 52
biologie, 52
e-mail@@ 52
cont@@ 52
standaar@@ 52
9, 52
uitzonderlijke 52
verf 52
fig@@ 52
h-@@ 52
kampen 52
toneel@@ 52
vloe@@ 52
spraak 52
dheid. 52
patroon. 52
opgelost 52
slaa@@ 52
vloeistof 52
sche 52
elektron@@ 52
technologie@@ 52
lichaam@@ 52
meerd 52
van? 52
staar@@ 52
geweldig, 52
6. 52
install@@ 52
perceptie 52
vend 52
voorheen 52
melk 52
koel@@ 52
draaien, 52
voorzichtig 52
stoel@@ 52
crash@@ 52
"Wel, 52
vermel@@ 52
voorbeeld, 52
ologie, 52
verdwenen. 52
opgebouwd 52
stick@@ 52
betaalde 52
ongelooflijk. 52
mend 52
voetbal@@ 52
Stille 52
uitste@@ 52
faal@@ 52
correct 52
zil@@ 52
vrijheid. 52
zekerheid 52
ontro@@ 52
iteits@@ 52
schaal, 52
miljoen. 52
cy@@ 52
Azië, 52
Tre@@ 52
Dra@@ 52
besp@@ 52
raak 52
thuis, 52
vervangen. 52
nie@@ 52
Gel@@ 52
geneeskunde. 52
sleep@@ 52
bed@@ 52
achterhalen 52
implic@@ 52
VN 52
universiteiten 52
Hans 52
Sal@@ 52
Hel@@ 52
cli@@ 52
zorgvuldig 52
truc@@ 52
aparte 52
ese 52
keuken 52
Mr. 52
pool@@ 52
doorgaans 52
ch. 52
Ghana 52
regels. 52
depress@@ 52
goud 52
ek, 52
springen. 52
gedrag@@ 52
prothe@@ 52
University 52
beschermde 52
7. 52
’@@ 52
ingrediënten 52
Kort 51
restauran@@ 51
neg@@ 51
doel, 51
vriendelijke 51
fijn 51
context. 51
statist@@ 51
kritiek 51
interessanter 51
Internet 51
bewegende 51
beter@@ 51
competit@@ 51
nog. 51
cro@@ 51
audit@@ 51
boel 51
S. 51
werden, 51
"V@@ 51
document 51
ziekten, 51
aandoeningen 51
gezondheidszorg. 51
nest 51
traditioneel 51
scha@@ 51
giftige 51
blader@@ 51
spier@@ 51
archite@@ 51
minim@@ 51
klan@@ 51
zeggen? 51
inderdaad, 51
anden 51
heid: 51
verleden. 51
ieken 51
zetting 51
eiwit 51
plan. 51
nano@@ 51
verwerk@@ 51
druppel 51
chtige 51
opzichten 51
evolutie. 51
centrum. 51
vind, 51
oef@@ 51
grijpen 51
onderneming 51
hotel@@ 51
eindigt 51
organisatie. 51
dan: 51
al-@@ 51
verkeerd. 51
steekt 51
God@@ 51
durende 51
loopt, 51
krijgen? 51
poe@@ 51
dou@@ 51
veiliger 51
erde, 51
an: 51
abstracte 51
overlev@@ 51
kosten@@ 51
d' 51
wat. 51
dste 51
blokken 51
mil@@ 51
Normaal 51
kten. 51
wijk 51
"Wie 51
onderwerp. 51
S-@@ 51
"Is 51
Ray 51
exponentiële 51
toege@@ 51
nieuwste 51
buizen 51
ratten 51
krachtiger 51
groter. 51
winter@@ 51
sje 51
grijze 51
Interessant 51
verei@@ 51
zintuigen 51
voert 51
gang@@ 51
onthult 51
betrekken 51
constructie 51
maakten. 51
schepen 51
trokken 51
inwoners 51
liefst 51
Ethiop@@ 51
Medi@@ 51
vermoe@@ 51
geestelijke 51
dronken 51
enten, 51
dominante 51
wat@@ 51
ator. 51
opgewonden 51
vermogen. 51
interacties 51
Egypte 51
vezel@@ 51
vertraa@@ 51
dw@@ 51
geste@@ 51
richtingen 51
bacter@@ 51
toestellen 51
snijden 51
massa@@ 51
bevolking, 51
at. 51
volg@@ 51
metaf@@ 51
interpretatie 51
"Oh 51
patiënten, 51
100% 51
verschillen. 51
elektrisch 51
deeltje 51
boten 51
dik 51
Bal@@ 51
belofte 51
o: 51
millenn@@ 51
robot. 51
plastic@@ 51
veiligheid. 51
commentaar 51
f-@@ 51
optreden 51
boerderij 50
kosten, 50
denkt, 50
rechten. 50
seconden. 50
voorgesteld 50
bestude@@ 50
pre-@@ 50
inkomsten 50
geweld@@ 50
terror@@ 50
breekt 50
instructies 50
verp@@ 50
verslag 50
meester 50
wis@@ 50
ogenblik 50
dialoog 50
gep@@ 50
satelliet@@ 50
geno@@ 50
paren 50
nuttige 50
al: 50
website. 50
paste 50
grapp@@ 50
belast@@ 50
st? 50
alt@@ 50
Don@@ 50
Pun@@ 50
verdrie@@ 50
roken 50
liggen, 50
communiceren, 50
Nelson 50
onderzoeken, 50
gooide 50
fen@@ 50
ang 50
arbeids@@ 50
ouw 50
85 50
interessant, 50
eigenlijk, 50
duurzaamheid 50
beseften 50
ics 50
biologie. 50
uitgestorven 50
bol 50
igheid, 50
Tien 50
steren. 50
ak 50
weet. 50
advocaat 50
ochtend@@ 50
vertalen 50
'? 50
deu@@ 50
massa's 50
wer 50
maken@@ 50
stoel. 50
toenemende 50
ondersteunen. 50
hemel@@ 50
lamp 50
definie@@ 50
tragedie 50
piek 50
betal@@ 50
zes@@ 50
dans@@ 50
uitleggen. 50
snelste 50
inzetten 50
kip 50
zeer. 50
goochel@@ 50
33 50
sport 50
plaa@@ 50
200@@ 50
"T@@ 50
ronde 50
belo@@ 50
90% 50
gebieden, 50
farmaceutische 50
neuronen. 50
ologisch 50
hierdoor 50
ieën, 50
in: 50
overheid, 50
dochter@@ 50
Bir@@ 50
beginn@@ 50
peri@@ 50
gebruiker 50
optre@@ 50
ik? 50
vlakken 50
beschavingen 50
vaten 50
bat@@ 50
Arthur 50
vernietiging 50
veront@@ 50
2006 50
plaatste 50
geschenk 50
mers 50
zagen, 50
beleids@@ 50
omhoog, 50
ck, 50
Pri@@ 50
cijfers. 50
vullen. 50
belasting 50
atoren 50
olifan@@ 50
beschermen, 50
strip@@ 50
beroeps@@ 50
levens. 50
evalu@@ 50
rivier@@ 50
brieven 50
samenleving, 50
dochters 50
dinosauru@@ 50
zee, 50
Om@@ 50
ton. 50
keren, 50
kwetsbaarheid 50
leeg@@ 50
Long 50
criminelen 50
onderzee@@ 50
muzikanten 50
medic@@ 50
karakter 50
borst 50
koraal 50
software@@ 49
managers 49
sturen, 49
klaar. 49
getest 49
uitzonder@@ 49
implicaties 49
inc@@ 49
are 49
betekenis. 49
wilt. 49
vervel@@ 49
eersten 49
zich@@ 49
overleven, 49
pop@@ 49
volu@@ 49
niets@@ 49
voorkomende 49
verzameld 49
essentiële 49
opgericht 49
Een@@ 49
luister 49
versies 49
kiest 49
lied@@ 49
zoiets. 49
C-@@ 49
gezonder 49
film, 49
vissen. 49
bladeren 49
bestuderen, 49
toegeven 49
veld@@ 49
hoop, 49
sheid 49
gevaarlijk@@ 49
bloedvaten 49
Mal@@ 49
potentiële 49
gehe@@ 49
biom@@ 49
kilometers 49
Helemaal 49
dun@@ 49
ib@@ 49
oplo@@ 49
neuron 49
Moet 49
gesteld, 49
ming 49
ppen. 49
Howard 49
makkelijk. 49
analys@@ 49
0. 49
omar@@ 49
men." 49
Ker@@ 49
boodschappen 49
gescho@@ 49
ffen, 49
dwingen 49
innovatieve 49
Cre@@ 49
Latijns-@@ 49
Min@@ 49
recept 49
ire@@ 49
schan@@ 49
geest, 49
hierbij 49
Nieuwe 49
ramen 49
D. 49
jongens, 49
Street 49
hoog. 49
aten@@ 49
ingewikkel@@ 49
jongere 49
mogelijk, 49
dunne 49
ikken. 49
tegenstrij@@ 49
symbol@@ 49
noor@@ 49
werkelijkheid. 49
ijs. 49
comfortab@@ 49
geloofden 49
kleur. 49
stelen 49
verwijder@@ 49
veranderen? 49
Super@@ 49
arbeid 49
fra@@ 49
zaden 49
ontmoet, 49
dec@@ 49
wensen 49
g-@@ 49
aanleiding 49
fus@@ 49
fact@@ 49
olie, 49
motoren 49
filosof@@ 49
gehouden. 49
Vietnam@@ 49
uitgebreide 49
brei@@ 49
Mis@@ 49
financier@@ 49
daaruit 49
ontmoeting 49
links, 49
identificeren 49
cat@@ 49
beloning 49
geven? 49
ieel 49
aanzienlijk 49
2.@@ 49
richten. 49
bedreigd 49
Sar@@ 49
scheiding 49
veer 49
gevangenen 49
relig@@ 49
meten, 49
geel 49
Tim 49
erde. 49
praatje 49
kolonies 49
delingen 49
bescheiden 49
lui@@ 49
microscoop 49
., 49
grafisch 49
Fil@@ 49
Fo@@ 49
georganiseerde 49
burger 49
pas@@ 49
visser@@ 49
fijne 49
ernst@@ 49
raken, 49
ijd 49
thee 49
trill@@ 49
Koran 49
La 49
gps-@@ 49
zei@@ 48
Ok, 48
mei@@ 48
jaarlijks 48
rook 48
stabilis@@ 48
io@@ 48
getroffen 48
toegepast 48
campag@@ 48
kapitalisme 48
voor? 48
Groot-Brittannië 48
alisten 48
duren. 48
stoelen 48
concepten 48
leef 48
cyc@@ 48
voorspelling 48
ving. 48
koff@@ 48
vraagstuk 48
Indische 48
genen. 48
line@@ 48
verbeel@@ 48
T-@@ 48
lez@@ 48
vertonen 48
begon. 48
be 48
behouden 48
verlam@@ 48
vernietigen 48
polit@@ 48
Alzheimer 48
avonds 48
straat, 48
samenwerken. 48
burgemeester 48
roman@@ 48
geslachts@@ 48
inspirerende 48
verboden 48
evolu@@ 48
flit@@ 48
soor@@ 48
digt 48
grootvader 48
ble 48
enen, 48
buitenaardse 48
wiel@@ 48
boom. 48
Spe@@ 48
prik@@ 48
rechten@@ 48
vluchtelingen 48
hebben: 48
schil@@ 48
ctieve 48
arm. 48
ochtends 48
distributie 48
brand 48
tijde 48
waardering 48
ific@@ 48
Nationale 48
wonnen 48
beeld, 48
driedimensionale 48
az@@ 48
collectie 48
DNA. 48
g: 48
februari 48
and. 48
journal@@ 48
vers. 48
waardige 48
job 48
deel, 48
cortex 48
100@@ 48
klopt. 48
stappen. 48
onderlinge 48
voorraad 48
elektriciteit. 48
oppen 48
zonnestelsel 48
metro@@ 48
verklar@@ 48
goeds 48
-, 48
absor@@ 48
arm, 48
activisten 48
beperking 48
bewustzijn. 48
komst. 48
scenario 48
Neder@@ 48
vagin@@ 48
bijn@@ 48
geluk, 48
” 48
persoonlijkheid 48
Bijbel 48
hand? 48
bei@@ 48
Verteller: 48
gesloten. 48
eft 48
blijvende 48
gebe@@ 48
schaamte 48
comman@@ 48
ballen 48
gerichte 48
ien, 48
gedeeltelijk 48
angst@@ 48
gepassioneerd 48
gelegen 48
eveneens 48
gezonder@@ 48
patiënt. 48
nach@@ 48
frequentie 48
Mike 48
samenvat@@ 48
permanent 48
pin@@ 48
papier, 47
kranten 47
uitgaven 47
certific@@ 47
moet. 47
opwindende 47
stroomt 47
uiteen@@ 47
gezegd. 47
egoï@@ 47
ast 47
vaart 47
gekomen, 47
uitzien 47
vooruitgang. 47
ages 47
uitvin@@ 47
voelt, 47
cool. 47
schuldig 47
klant 47
maanden, 47
agenda 47
ron 47
prie@@ 47
X 47
schakelen 47
ultra@@ 47
29 47
beslag 47
ces 47
gebo@@ 47
ondersteuning 47
klikken 47
verdi@@ 47
ontbrekende 47
verlichting 47
mannet@@ 47
spelletjes 47
ans 47
voorwerp 47
multination@@ 47
verzamelde 47
media@@ 47
ip. 47
belangstelling 47
fruit@@ 47
betalen, 47
schaam@@ 47
gie@@ 47
rijden, 47
hotel 47
reizen. 47
functionele 47
d; 47
voelt. 47
seks@@ 47
neurale 47
langetermijn@@ 47
educ@@ 47
talenten 47
lief 47
t?" 47
roei@@ 47
zett@@ 47
Silicon 47
gif 47
afvragen: 47
scène 47
Dezelfde 47
één-@@ 47
bez@@ 47
aard. 47
vonden, 47
scherpe 47
"Ver@@ 47
media, 47
dels 47
Dag 47
astro@@ 47
anc@@ 47
antwoorden. 47
.com 47
Chil@@ 47
passen, 47
Bedrijven 47
primaire 47
vuilnis@@ 47
aas@@ 47
Oké? 47
vanzelf 47
verlei@@ 47
gebouwen. 47
besmet 47
saai 47
geloven, 47
thema's 47
huizen, 47
lad@@ 47
hypothese 47
eenheden 47
volgende. 47
bezoeken 47
organiseren. 47
hectare 47
mode@@ 47
stof, 47
construct@@ 47
ration@@ 47
oc@@ 47
Pal@@ 47
afstand. 47
bruggen 47
bul@@ 47
voort. 47
beschrijving 47
veroorzaken 47
kran@@ 47
maat@@ 47
mische 47
wiel 47
cyclus 47
pul@@ 47
isering 47
Mach@@ 47
argument 47
geboor@@ 47
huiswerk 47
zal@@ 47
raden 47
conservat@@ 47
fysische 47
ette 47
glo@@ 47
betrouw@@ 47
tiener@@ 47
bood 47
vertegenwoordigt 47
beangstig@@ 47
verwoe@@ 47
polio 47
aandoening 47
Pat@@ 47
uitsterven 47
Mer@@ 47
komen? 47
mensen: 47
bewustzijn, 47
aanwij@@ 47
I. 47
l. 47
heen@@ 47
greep 47
spreek@@ 47
naam@@ 47
generatie. 47
pijnlijk 47
hoogtepunt 47
tentoon@@ 47
God. 47
woord, 47
ath@@ 47
Ram@@ 47
kleding 47
beantwoorden 47
netten 47
commun@@ 47
inkomens@@ 47
Plotseling 47
Luister 47
inzet 47
grot 47
2: 47
42 47
edi@@ 47
tijdelijke 47
hernieuwbare 47
artikelen 47
risic@@ 47
woordenboek 47
lens 47
verplicht 47
elektroden 47
galer@@ 47
vallei 47
slavernij 47
SW: 47
Wereldoorlog 47
muggen 47
wachtwoorden 47
informat@@ 46
verwachting 46
net. 46
geplaatst 46
alleen, 46
opwin@@ 46
jaar? 46
ool. 46
besparen 46
ingsin@@ 46
vandaan. 46
paradig@@ 46
nation@@ 46
Parijs 46
ook@@ 46
Degenen 46
iteiten. 46
'8@@ 46
ooit, 46
figuur 46
dachten: 46
bur@@ 46
vakantie 46
produceren, 46
gens, 46
dict@@ 46
logische 46
kunstmatig 46
talloze 46
Te 46
domme 46
we? 46
5% 46
traag 46
verkoo@@ 46
downlo@@ 46
Bra@@ 46
á@@ 46
getoond 46
illa@@ 46
hoorde, 46
fascin@@ 46
borstkanker 46
beroem@@ 46
sessie 46
laat. 46
officiële 46
haven 46
brengt, 46
vide@@ 46
persoon@@ 46
dri@@ 46
altijd, 46
gers, 46
Of, 46
plaatst 46
genezen. 46
iën 46
medium 46
un, 46
stond, 46
wiskunde, 46
gigantisch 46
onen. 46
stellen: 46
deeltjes@@ 46
bomen, 46
stichting 46
onderwijzen 46
talen. 46
vers@@ 46
draai 46
kende, 46
kels 46
link 46
onmogelijk. 46
fot@@ 46
begrafen@@ 46
zwemmen. 46
ul 46
verrast 46
epidem@@ 46
worden." 46
jet@@ 46
uitdru@@ 46
instor@@ 46
regist@@ 46
prijs@@ 46
theater 46
Joe@@ 46
sneeuw 46
ontdekt. 46
begonnen, 46
Sir 46
uiteindelijk, 46
links@@ 46
1,5 46
Mount 46
ay@@ 46
non-profit@@ 46
kanaal 46
volgende: 46
democratie, 46
40.000 46
gelden 46
ondernemer 46
diepgaande 46
25@@ 46
analy@@ 46
nietwaar? 46
muiz@@ 46
Met@@ 46
schalen 46
sterren. 46
implant@@ 46
ge-@@ 46
geest@@ 46
fabric@@ 46
heelal. 46
geï@@ 46
26 46
demonstreert 46
bijeen 46
terende 46
kwetsbare 46
non-@@ 46
regio. 46
ijen. 46
arbeiders 46
Moo@@ 46
blu@@ 46
ston@@ 46
den?" 46
tevoren 46
orke@@ 46
schouder 46
80% 46
toen@@ 46
son. 46
win 46
etnische 46
tig, 46
onderwater@@ 46
slapen. 46
und@@ 46
ellen, 46
Frankrijk 46
drijvende 46
garn@@ 46
dolfijnen 46
microbiële 46
gezamenlijk 46
functioneren 46
ministerie 46
zak. 46
Korea 46
overtuiging 46
lon@@ 46
bureaucr@@ 46
pers, 46
2-@@ 46
aqu@@ 46
beurs 46
noten 46
constante 46
hoort, 46
communicatie. 46
sparen 46
30@@ 46
lampen 46
uiting 46
omet@@ 46
storm 46
beweg@@ 46
longen 46
vergelijkingen 46
hechten 46
rif 46
zout@@ 46
klas. 46
gs 46
tak 46
:@@ 45
"Ge@@ 45
copyrig@@ 45
boer 45
diam@@ 45
tuig 45
enkel@@ 45
men: 45
git@@ 45
jonger 45
werel@@ 45
globalis@@ 45
stuk, 45
kennis, 45
vijan@@ 45
vlogen 45
technologieën. 45
uitzicht 45
Jeff 45
verlo@@ 45
filosofie 45
fi@@ 45
ijen, 45
Grand 45
ontmoetten 45
creatie@@ 45
cties. 45
brede 45
overzicht 45
zingen. 45
gemak 45
pure 45
eenvoud 45
koopt 45
kt." 45
kochten 45
ar, 45
vaat@@ 45
pandem@@ 45
Jane 45
regenwoud 45
persoonlijk@@ 45
breken, 45
verleden, 45
nog? 45
omringd 45
Rob@@ 45
ys 45
mama 45
Stanford 45
Mi@@ 45
altijd. 45
stoffen, 45
My@@ 45
"Ga 45
misbruik 45
kamp@@ 45
ziel@@ 45
intense 45
laag. 45
vaardigheden. 45
jag@@ 45
geassocieerd 45
gen?" 45
dop@@ 45
buitenkant 45
draden 45
Zes 45
Technologie 45
ens, 45
mis. 45
erop. 45
Behalve 45
baan, 45
startten 45
55 45
mas@@ 45
Aan@@ 45
rechts. 45
Mars. 45
Kon@@ 45
Air@@ 45
beweren 45
Gewel@@ 45
L 45
belachelijk 45
Londen, 45
discussies 45
verslagen 45
gevangenis@@ 45
doden, 45
bruikbaar 45
geesten 45
schepp@@ 45
Ou@@ 45
ick@@ 45
Pol@@ 45
Amazon@@ 45
spij@@ 45
vechten. 45
genet@@ 45
menten. 45
spir@@ 45
hing 45
toiletten 45
vormde 45
Ga@@ 45
zende 45
top-@@ 45
bericht@@ 45
geschreven, 45
kranten@@ 45
vertrouwen, 45
nan@@ 45
2011 45
gestelde 45
acht, 45
veroorzaakt. 45
teerd, 45
schild@@ 45
vleer@@ 45
Lat@@ 45
wetgeving 45
onderling 45
spannend. 45
boar@@ 45
volwassen@@ 45
vinger 45
probleem: 45
verkl@@ 45
veronder@@ 45
voetgan@@ 45
Gebruik 45
collectief 45
einen 45
ziekten. 45
ervaringen. 45
ber. 45
optimistisch 45
onwaarschijnlijk 45
klimaatverandering, 45
ruis 45
Mexico. 45
ving@@ 45
inspanning 45
D-@@ 45
antwoordde: 45
Herinner 45
maaltijd 45
Ja 45
ssysteem 45
posities 45
ate 45
ën. 45
draait. 45
duur. 45
regener@@ 45
iërs 45
stuit@@ 45
Allereerst 45
krediet@@ 45
geboren, 45
hemel, 45
ef, 45
ijs, 45
val. 45
Azië. 45
hersens 45
atle@@ 45
grotten 45
mechan@@ 45
onthul@@ 45
rat 45
ding: 45
schoot 45
histor@@ 45
griep@@ 45
psychiat@@ 45
stimuleren 45
geren 45
deeg 45
rijken 45
origami 45
Fellow 45
MT: 45
Gore 44
Witte 44
ey@@ 44
Gor@@ 44
doorgaan. 44
wijzig@@ 44
ein. 44
reclame@@ 44
massaal 44
kans. 44
Smith 44
kindersterfte 44
stroming 44
rivieren 44
digden 44
naar. 44
T. 44
beschikken 44
bedrijfsleven 44
moeilijk, 44
handelen. 44
Ti@@ 44
cties, 44
Ku@@ 44
december 44
tweede: 44
Italiaanse 44
raket@@ 44
gaa@@ 44
ar. 44
genieten. 44
volume 44
verbeteringen 44
All@@ 44
drang 44
waarheid. 44
urs 44
zich, 44
naam, 44
ontwierp 44
synthetische 44
poli@@ 44
groots 44
breder 44
opties 44
broek 44
jagen 44
mentaal 44
gist@@ 44
tijden. 44
bbel@@ 44
lab. 44
ervan, 44
luisterde 44
arti@@ 44
begin, 44
120 44
geleverd 44
verlaten. 44
verhoogde 44
gewezen 44
algoritmes 44
puzzel@@ 44
verkrijgen 44
vuil@@ 44
spin@@ 44
6.000 44
onderschei@@ 44
uitkomst 44
tevre@@ 44
sess@@ 44
belang@@ 44
praatten 44
blogs 44
Open 44
Washington, 44
foute 44
gens 44
zan@@ 44
transformeren 44
onderwijzen. 44
gesneden 44
open-@@ 44
N 44
ex-@@ 44
Zeker 44
grafie 44
b, 44
New@@ 44
wanhopig 44
Wall 44
uitvoeren 44
ongelu@@ 44
zuig@@ 44
briljant 44
nal@@ 44
verwon@@ 44
Man 44
etc. 44
transparantie 44
Gr@@ 44
di 44
tingen 44
Col@@ 44
veroorloven 44
benen. 44
huizen. 44
scoop 44
nummer@@ 44
openheid 44
boeken@@ 44
matige 44
sie, 44
kla@@ 44
beschrijven. 44
ce. 44
mes. 44
toepassen. 44
hemel. 44
bomen. 44
issen, 44
koppelen 44
transfor@@ 44
grondstoffen 44
cks 44
monster 44
daag@@ 44
kwetsbaar@@ 44
categorie 44
concurrentie 44
bereikt, 44
half@@ 44
gekleurde 44
que 44
kliniek 44
knuff@@ 44
oplossingen. 44
mijnen 44
wier@@ 44
borden 44
Google, 44
Irak. 44
plaat 44
chaos 44
ther@@ 44
stin@@ 44
klim@@ 44
herhaal@@ 44
kapit@@ 44
ving, 44
ein, 44
plafond 44
medicatie 44
tell@@ 44
blijft. 44
volgt. 44
programmeer@@ 44
res 44
ingssyste@@ 44
heroï@@ 44
Congo 44
woon 44
identific@@ 44
schrijf@@ 44
IJs@@ 44
itie 44
jezelf. 44
tatoe@@ 44
kerels 44
constru@@ 44
kenmerk 44
pijn, 44
uitst@@ 44
autoriteit 44
1: 44
warmer 44
Hill@@ 44
vertaald 44
naam. 44
mysterieuze 44
gast@@ 44
verslaving 44
vis, 44
gig@@ 44
benzin@@ 44
autonome 44
chronische 44
productief 44
gevoerd 44
opleiding. 44
familiel@@ 44
hallucin@@ 44
verhandel@@ 44
pel 44
kernenergie 44
klassen 44
LG: 44
TK: 44
herinnerde 43
geef@@ 43
invest@@ 43
miss@@ 43
proef 43
verbijster@@ 43
mest 43
opmer@@ 43
geraken 43
opbouwen 43
drug@@ 43
tige 43
Oxford 43
leveren. 43
2001 43
N. 43
partner@@ 43
ed, 43
zaal. 43
aler 43
sexy 43
dial@@ 43
des. 43
beseft 43
"L@@ 43
dreiging 43
voorrecht 43
jaarlijkse 43
Sorry, 43
klik@@ 43
gent@@ 43
gelijk, 43
igheid. 43
mannetje 43
schappen. 43
samenwerking. 43
voelden 43
klein, 43
laten, 43
reden, 43
beschadig@@ 43
zaam@@ 43
vull@@ 43
age. 43
verliezen, 43
effect. 43
meneer 43
publiceren 43
hang@@ 43
Darwin@@ 43
toler@@ 43
nieuw. 43
Japan, 43
hebben." 43
genie@@ 43
elementaire 43
tevoren. 43
kosmische 43
wetenschappen. 43
gewoon, 43
vooroordelen 43
perspectief. 43
oneindige 43
kering 43
formule 43
belangrijk? 43
smaa@@ 43
rood@@ 43
stoffen. 43
Inter@@ 43
--- 43
veroudering 43
West 43
vooroor@@ 43
kelen 43
letten 43
to, 43
El 43
referentie@@ 43
st-@@ 43
Leonardo 43
fract@@ 43
haren 43
leun@@ 43
kindertijd 43
Cit@@ 43
veranderde. 43
slaan, 43
academ@@ 43
toelaten 43
makkelijke 43
scor@@ 43
Th@@ 43
probe@@ 43
tentoonstelling 43
alit@@ 43
media-@@ 43
enorm. 43
bestand 43
gevangenis. 43
portret 43
goden 43
kopie@@ 43
akel@@ 43
amper 43
b. 43
ongelukkig 43
diensten, 43
Bro@@ 43
pagina. 43
koningin 43
aren. 43
kom, 43
zinvol 43
virtu@@ 43
explosie 43
paradigma 43
prestatie 43
cal@@ 43
resolutie 43
mechanismen 43
"Laten 43
innovatie, 43
vertrok 43
skelet 43
afhankelijk@@ 43
vlam@@ 43
opnam@@ 43
kken? 43
halverwege 43
naï@@ 43
getuige 43
scheep@@ 43
ends 43
beschav@@ 43
iër@@ 43
toonden 43
het: 43
Naarmate 43
inkom@@ 43
Wer@@ 43
oktober 43
kelijke 43
gezelschap 43
verbazingwekkend. 43
oeg 43
duisternis 43
interview@@ 43
appen, 43
alcohol@@ 43
stoornis 43
schrik@@ 43
formu@@ 43
snap 43
Mur@@ 43
trend@@ 43
situ@@ 43
zoon, 43
onthull@@ 43
gebre@@ 43
controle. 43
zenden 43
camer@@ 43
schedel 43
m: 43
Goede 43
uiterste 43
aliteit, 43
dodelijk 43
verwoest@@ 43
troepen 43
human@@ 43
genocide 43
redden, 43
gaven. 43
Dames 43
hinder@@ 43
noem@@ 43
ting. 43
getrouwd 43
magnetisch 43
miljard. 43
dien 43
zwar@@ 43
benutten 43
besturen 43
films, 43
enti@@ 43
Science 43
empathie 43
zou@@ 43
nadruk 43
kring 43
hartslag 43
seizoen 43
hackers 43
dosis 43
cip@@ 42
klagen 42
CEO 42
kingen 42
izen 42
ca, 42
omgezet 42
durf@@ 42
capac@@ 42
rampen 42
nuttel@@ 42
reisde 42
erend. 42
terre@@ 42
kon. 42
uitvinder 42
bespreken 42
voorwer@@ 42
autom@@ 42
esthet@@ 42
baby. 42
samenkomen 42
loss@@ 42
biodiversiteit 42
Pan@@ 42
Rock@@ 42
gemeenschappelijk 42
nege@@ 42
den; 42
hardware 42
branden 42
enzy@@ 42
verhaal@@ 42
B. 42
aanraking 42
omzet 42
consequ@@ 42
mee? 42
dorp, 42
Gates 42
schermen 42
ian@@ 42
sterf@@ 42
voorkomen, 42
website, 42
profiel 42
vooraf 42
denheid 42
gewer@@ 42
virus. 42
tumoren 42
progress@@ 42
knop@@ 42
rijst 42
lun@@ 42
psycholoog 42
zaam, 42
vele, 42
gerelateerd 42
"Ja." 42
regul@@ 42
hit@@ 42
levensvormen 42
machines. 42
aantrekkelijk 42
rom@@ 42
supermarkt 42
rijk, 42
anderhalve 42
aast 42
industrie, 42
mij: 42
uiter@@ 42
studen@@ 42
waarnem@@ 42
tast@@ 42
ingss@@ 42
uitgeven 42
privé@@ 42
Pra@@ 42
chter 42
mod@@ 42
femin@@ 42
ood@@ 42
instin@@ 42
uiteindelijke 42
verhoogt 42
eenvoudig@@ 42
handel. 42
op-@@ 42
koe 42
ïne 42
tere 42
gewor@@ 42
vergelijkt 42
één@@ 42
afloop 42
del. 42
May@@ 42
satelliet 42
podium. 42
menings@@ 42
betekenen. 42
King 42
religies 42
projec@@ 42
geografische 42
meisje, 42
Park 42
sloppenwijken 42
materiële 42
gewoonlijk 42
ks, 42
verscheen 42
akkoord 42
Joodse 42
nou, 42
werktu@@ 42
groei, 42
tas 42
comple@@ 42
leeft, 42
bruine 42
zwaarlijv@@ 42
dichte 42
Ster@@ 42
cijfer@@ 42
landbouw. 42
snap@@ 42
ater 42
gewerkt, 42
Ham@@ 42
..@@ 42
geving. 42
Hong 42
evenals 42
fal@@ 42
dheid, 42
trouw 42
doelstellingen 42
daken 42
habit@@ 42
geliefde 42
omgeven 42
ood 42
den-@@ 42
inwon@@ 42
toilet 42
Ontwer@@ 42
aanbod 42
afzonderlijke 42
sterren, 42
Hollywood 42
adre@@ 42
productieve 42
winkels 42
berg. 42
ritueel 42
grafische 42
son: 42
nis 42
tig@@ 42
verzoek 42
voegen. 42
Plots 42
oli@@ 42
verscheur@@ 42
exam@@ 42
deert 42
sloten 42
telefoon, 42
ators 42
viru@@ 42
toegan@@ 42
wikkel@@ 42
verschilt 42
rationeel 42
hoek@@ 42
uitmaakt 42
verniel@@ 42
Bre@@ 42
agent 42
mijl 42
stisch 42
elit@@ 42
Australië, 42
dadelijk 42
speelt. 42
ipp@@ 42
spr@@ 42
aanvallen. 42
knipper@@ 42
one 42
kwe@@ 42
193@@ 42
gegevens@@ 42
Grie@@ 42
kandida@@ 42
Zwitser@@ 42
gewoonte 42
glim@@ 42
negeren 42
verbrand@@ 42
inger 42
CA@@ 42
Blijf 42
klass@@ 42
grootouders 42
werken? 42
benodigde 42
krijgs@@ 42
fundament@@ 42
RM: 42
zei. 41
gebeurd, 41
maximale 41
productie. 41
h: 41
voorbije 41
voorzien@@ 41
isatie 41
proble@@ 41
ation 41
Ban@@ 41
diver@@ 41
elijk. 41
samenwerken, 41
centrum, 41
24@@ 41
dozijn 41
kten, 41
help 41
riep 41
City. 41
X-@@ 41
ethisch 41
kwest@@ 41
revolution@@ 41
beoordelen 41
manier@@ 41
Pr@@ 41
Center 41
hieruit 41
Beide 41
maatregelen 41
stijl. 41
uitbreiding 41
einde. 41
elektronisch 41
doden@@ 41
icht. 41
eit. 41
elimin@@ 41
intuïtief 41
vraagt: 41
tekenen, 41
platen 41
keert 41
Vraag 41
belt 41
grappig. 41
klinken 41
Mag 41
Eens 41
Gol@@ 41
icus, 41
bevinden. 41
hoofden 41
toneel 41
if 41
obsess@@ 41
moor@@ 41
groenten 41
ploe@@ 41
21e 41
gooit 41
process@@ 41
Valley 41
silic@@ 41
vloeibaar 41
verplaatsen. 41
meel 41
aanpass@@ 41
gesproken, 41
ecosystemen 41
diegene 41
aus. 41
psycho@@ 41
entje 41
reputatie 41
democrat@@ 41
sters, 41
schreef, 41
lijkt, 41
stok@@ 41
mmen 41
vlakbij 41
tse 41
ice 41
digitalis@@ 41
droom. 41
zuin@@ 41
alisme. 41
eur@@ 41
bedachten 41
teksten 41
A: 41
nieuwsgierigheid 41
Zouden 41
organisch 41
verwerken. 41
ium, 41
bende 41
respe@@ 41
bord. 41
dire@@ 41
nen. 41
eenvou@@ 41
rende 41
'm 41
ling 41
oop 41
atief. 41
Stu@@ 41
beken@@ 41
bevat@@ 41
gend@@ 41
'Het 41
gemeenschappen. 41
Yo@@ 41
beetje. 41
Dankzij 41
bestrijden 41
consumenten@@ 41
programma, 41
vast, 41
toen, 41
subtiele 41
lag@@ 41
vergeten, 41
gevolgen. 41
leidt. 41
volgden 41
Sen@@ 41
minist@@ 41
toch. 41
poster 41
systematisch 41
ziekenhuis. 41
nul@@ 41
versnell@@ 41
y' 41
ograf@@ 41
oorspronkelijk 41
vechten, 41
verbruik 41
iële 41
onderscheiden 41
rechtvaardigheid 41
bou@@ 41
kwij@@ 41
am, 41
plekke 41
business 41
handels@@ 41
bewon@@ 41
zinnig 41
in? 41
schal@@ 41
eid 41
ix@@ 41
nachtmer@@ 41
mondiaal 41
dete@@ 41
offic@@ 41
zie. 41
obstakels 41
front@@ 41
stabiliteit 41
VN-@@ 41
team, 41
stemmen. 41
nom@@ 41
verdwijnt 41
tion@@ 41
interpre@@ 41
intuïtie 41
stoornissen 41
daklo@@ 41
heuvel 41
vatten 41
d" 41
gestel@@ 41
President 41
bank. 41
kreef@@ 41
seconde. 41
handige 41
dolfijn@@ 41
wijs@@ 41
onbekend 41
lift 41
Midden-Oosten, 41
rop@@ 41
beleef@@ 41
jij@@ 41
gevaarlijk. 41
fysi@@ 41
Tony 41
betaalbaar 41
overbrengen 41
doc@@ 41
gever 41
ingen? 41
gedaan? 41
grafieken 41
immuunsysteem 41
zomer@@ 41
acti@@ 41
real 41
IS@@ 41
8.000 41
locaties 41
bben 41
vissen, 41
S: 41
schijnbaar 41
clip 41
abl@@ 41
zwanger 41
caf@@ 41
leerkracht 41
vakant@@ 41
steren 41
ian 41
Fer@@ 41
liegen 41
”@@ 41
realiseer 41
tunn@@ 41
studeren. 41
verval@@ 41
Arab@@ 41
EM: 41
bedanken 40
opslag 40
overwegen 40
Samen@@ 40
Larry 40
massale 40
Amy 40
rik@@ 40
verhogen. 40
rechten, 40
omdat, 40
getraind 40
inlichtingen@@ 40
inno@@ 40
gegaan, 40
verkenn@@ 40
spron@@ 40
lol 40
spellet@@ 40
toevoegen. 40
ck. 40
verkeers@@ 40
Henry 40
mal@@ 40
gedeeld 40
ister 40
monu@@ 40
intens 40
Trouwens, 40
verscheidene 40
componenten 40
kritisch 40
uitbreiden 40
synthese 40
oké 40
trachten 40
verkoopt 40
Ooit 40
nadenken, 40
omm@@ 40
kens 40
vit@@ 40
situatie, 40
nauwkeur@@ 40
"In 40
wegl@@ 40
Frans 40
IM@@ 40
Daarnaast 40
ontwikkelingen 40
herinneren, 40
tek@@ 40
150.000 40
eet, 40
koppen 40
regi@@ 40
passieve 40
zichzelf, 40
"Kom 40
andermans 40
gebouwen, 40
Li@@ 40
gaan." 40
opro@@ 40
kaa@@ 40
chocol@@ 40
gezicht, 40
opgroei@@ 40
voorsp@@ 40
bioloog 40
voorkomt 40
idee: 40
zoet 40
versnel@@ 40
gespeeld 40
daarvan, 40
grafiek. 40
dische 40
uitdrukk@@ 40
p-@@ 40
plaatjes 40
el: 40
ga, 40
war 40
ieuze 40
begraven 40
actie@@ 40
sluiten, 40
bevrijden 40
elektronica 40
ne, 40
cursussen 40
meen@@ 40
navig@@ 40
gecreëerd. 40
Mart@@ 40
verkopen, 40
video, 40
reg@@ 40
graaf 40
wilt, 40
ieders 40
oh, 40
kapot 40
appartement 40
des, 40
board 40
ctor@@ 40
ise 40
fei@@ 40
generatie, 40
bedien@@ 40
wetenschapper, 40
oranje 40
verspill@@ 40
laboratori@@ 40
10% 40
heldere 40
materialen. 40
verwerking 40
architect@@ 40
maak, 40
cm 40
Bor@@ 40
tweemaal 40
bes@@ 40
ana 40
rechts, 40
verneder@@ 40
gebeurd? 40
ler 40
ouw@@ 40
websites 40
kost. 40
fenomeen. 40
simulatie 40
profit@@ 40
kansen. 40
eerden. 40
2010. 40
gestolen 40
opgeven 40
fractie 40
geloof, 40
imen 40
gewon@@ 40
aties@@ 40
stralen 40
roepen. 40
gas. 40
braa@@ 40
rechtvaardig@@ 40
plank 40
feest 40
crisis, 40
zaamheid 40
afval. 40
religie, 40
ieus 40
enigen 40
infrastructuur. 40
48 40
hervormingen 40
eindeloos 40
uitgegeven 40
kanalen 40
mishandel@@ 40
vervol@@ 40
gooi 40
bewijs. 40
helling 40
eenvoudiger 40
jongen. 40
ner 40
maatschappij, 40
monit@@ 40
mega@@ 40
lawaa@@ 40
stip 40
identieke 40
middag 40
verbondenheid 40
plekken. 40
Kam@@ 40
tank 40
Rwanda 40
honderd@@ 40
calorieën 40
zwanger@@ 40
ven." 40
zorgen, 40
kent@@ 40
voortplant@@ 40
vermoord 40
transparant 40
Ondertussen 40
kel, 40
beer 40
waarden, 40
fit@@ 40
overtuigingen 40
genoegen 40
ham 40
Middel@@ 40
te? 40
vibr@@ 40
zeep@@ 40
lied, 40
verwan@@ 40
dert 40
1,@@ 40
duc@@ 40
fantasie 40
bommen 40
aantrekkel@@ 40
mooie, 40
bood@@ 40
batter@@ 40
falen. 40
350 40
hack@@ 40
sat@@ 40
Jongen: 40
hr@@ 40
subje@@ 40
eco@@ 40
eland 40
interact@@ 40
lachen, 40
MA@@ 40
verbergen 40
nemers 40
me-@@ 40
rolstoel 40
Niveau 40
2012 40
aardige 39
zacht 39
voeg 39
laagste 39
geïnvesteerd 39
rest@@ 39
uitvindingen 39
tegemoet 39
Zie@@ 39
koken. 39
milieu, 39
iele 39
bag@@ 39
Char@@ 39
gelukkig, 39
graan 39
geworden, 39
fer 39
ies? 39
herhal@@ 39
Geb@@ 39
machts@@ 39
genereren 39
drie-@@ 39
schitterende 39
She@@ 39
gebeuren? 39
allen, 39
Kunst 39
relaties. 39
maand, 39
schetsen 39
planten@@ 39
honder@@ 39
mill@@ 39
Far@@ 39
reden@@ 39
m-@@ 39
club 39
tekst@@ 39
database 39
tiener 39
camera. 39
erger. 39
concentratie 39
afhankelijkheid 39
misbruik@@ 39
Twe@@ 39
voetafdruk 39
drijft 39
Institute 39
sie. 39
proc@@ 39
verf@@ 39
cha@@ 39
Bla@@ 39
s', 39
ontmoet. 39
Kortom, 39
stabiel 39
geluk@@ 39
chtig 39
verdere 39
Links 39
evolutionair 39
primitieve 39
zichtbare 39
allen. 39
volk. 39
South 39
meisje@@ 39
Design 39
ick 39
Saturnus 39
olifanten 39
e" 39
ah 39
klas@@ 39
Opeens 39
tekende 39
eur 39
smel@@ 39
methodes 39
ich 39
Harry 39
enties 39
eindeloze 39
Sin@@ 39
specul@@ 39
ingssysteem 39
by@@ 39
prototypes 39
vl@@ 39
verdiende 39
ideeën@@ 39
koop@@ 39
restaurants 39
schij@@ 39
buurten 39
veroordeeld 39
overeenkom@@ 39
Daarin 39
bewijzen. 39
overheen 39
plaatsten 39
uni@@ 39
tafel. 39
sterft 39
ontmoette, 39
Islam 39
natuurkundige 39
recht, 39
Kenia. 39
gespre@@ 39
plei@@ 39
verdelen 39
stal@@ 39
Onlangs 39
achtergrond. 39
verzekeren 39
spontaan 39
aannemen 39
lineaire 39
thermo@@ 39
gerelateerde 39
technologieën, 39
neurologische 39
redenen, 39
intervent@@ 39
toeneem@@ 39
gei@@ 39
gloeil@@ 39
verdeel@@ 39
onderzoekt 39
stelsels 39
Joe 39
9. 39
opslag@@ 39
belich@@ 39
wapens. 39
overlevings@@ 39
appel 39
staat: 39
vrede. 39
olie-@@ 39
energieverbruik 39
voorspell@@ 39
Zoveel 39
gepaard 39
vocht 39
x-@@ 39
ontbreekt 39
gevend 39
ama 39
weder@@ 39
prakt@@ 39
erz@@ 39
icht 39
gezin@@ 39
gedood. 39
nul. 39
curve 39
Alexander 39
gevoel. 39
pleit 39
ijken 39
voudige 39
"En 39
opnames 39
gesprek. 39
uitput@@ 39
week@@ 39
kop. 39
wiskundigen 39
onschuldige 39
keek, 39
hervorm@@ 39
verhe@@ 39
staten. 39
jij, 39
bekijk 39
hiel@@ 39
beweegt, 39
Wel 39
Tele@@ 39
woont, 39
stroo@@ 39
Tu@@ 39
uitsluitend 39
conflic@@ 39
opgeslagen 39
breinen 39
verstoor@@ 39
comfortabel 39
fotografie 39
-S@@ 39
Die@@ 39
broeikasgassen 39
verzo@@ 39
voorbereiding 39
jarig 39
bel, 39
kilometer. 39
vlag@@ 39
Zuid@@ 39
tica, 39
kker 39
schul@@ 39
beëin@@ 39
prachtig. 39
bestemming 39
grootte, 39
reu@@ 39
neus@@ 39
vanzelfspre@@ 39
eerlijke 39
ca 39
patronen. 39
lawaai 39
rekenen. 39
moedig@@ 39
3% 39
Earth 39
laser@@ 39
leiders, 39
omzetten 39
et: 39
bestudeert 39
glimlach 39
stem, 39
fictie 39
varkens 39
Stem 39
Za@@ 39
avontuur 39
ballon 39
vader@@ 39
bodem. 39
sief 39
Bijvoorbeeld: 39
uitwisseling 39
oefeningen 39
vierkant 39
aren@@ 39
applic@@ 39
wagens 39
vloed 38
dia@@ 38
cti@@ 38
jaa@@ 38
lente 38
kook@@ 38
doodt 38
uit: 38
continent. 38
sneller. 38
opbrengst 38
maand. 38
overdracht 38
zonne-@@ 38
conversatie 38
organ@@ 38
regime 38
beheer 38
terrorisme. 38
waard. 38
anen. 38
overleef@@ 38
piloot 38
twaalf 38
kwijt. 38
dienst. 38
gestuurd. 38
daaro@@ 38
-jar@@ 38
ruimtet@@ 38
aanra@@ 38
organisatie, 38
functie. 38
dimens@@ 38
bijkom@@ 38
ontdekt, 38
stukken, 38
west@@ 38
waterstof 38
hydro@@ 38
21@@ 38
gens. 38
een-@@ 38
Japan. 38
Media 38
ore@@ 38
microfoon 38
gedron@@ 38
flink 38
eerst, 38
opper@@ 38
geïnteress@@ 38
1960 38
gecompliceerde 38
geleefd 38
diversiteit. 38
misbru@@ 38
smer@@ 38
honden@@ 38
Canada, 38
leert, 38
idee@@ 38
fouten. 38
age, 38
is... 38
ney 38
post-@@ 38
TV 38
getrokken 38
voorbij. 38
pen." 38
scheiden 38
ontwerp, 38
iën. 38
Nam@@ 38
vrucht@@ 38
ef. 38
stische 38
rijk. 38
neven@@ 38
Gl@@ 38
traject 38
sieve 38
speelt, 38
well 38
over? 38
soort@@ 38
Toch? 38
chirurgie 38
ven: 38
conne@@ 38
ontwikkeld, 38
da's 38
.500 38
verkracht 38
Mid@@ 38
tenen 38
kopiëren 38
parti@@ 38
Web 38
bis@@ 38
schappen, 38
zwak 38
meisjes. 38
muur. 38
Gi@@ 38
bak 38
stoten 38
introductie 38
resul@@ 38
gebouw, 38
hut 38
Oosten@@ 38
illa 38
Colombi@@ 38
ra. 38
am. 38
erheen 38
langs@@ 38
zige 38
bedoelde 38
Bush 38
anonieme 38
vergader@@ 38
voerde 38
gelaten 38
onvoorspel@@ 38
E-@@ 38
elden 38
voorziening 38
ijn, 38
instituut 38
oppervlak. 38
obser@@ 38
glimp 38
bevestig@@ 38
uitvoering 38
Jack 38
schiet 38
vermijden. 38
bill@@ 38
energ@@ 38
pion@@ 38
Manhattan 38
Green@@ 38
veiligheid, 38
schaps@@ 38
spar@@ 38
Begrijp 38
tsunami 38
t... 38
broe@@ 38
Polit@@ 38
gewonnen 38
Nooit 38
buurt, 38
kort, 38
ongemakkelijk 38
keuze@@ 38
patenten 38
creëer 38
Eén: 38
dorp@@ 38
ritu@@ 38
multi-@@ 38
uitgerust 38
doctor@@ 38
ften 38
rustig 38
munt 38
genaamd. 38
geven: 38
gestorven 38
dom, 38
stelling, 38
nader@@ 38
drastisch 38
slag, 38
fen 38
Benjamin 38
voortkomt 38
Bet@@ 38
prima. 38
uitvoeren. 38
Vergelijk 38
verzamelden 38
OK 38
kleur, 38
Wereldbank 38
vinger@@ 38
E.@@ 38
overtre@@ 38
Israëlische 38
schappen 38
stelsel 38
é, 38
Sierra 38
verschil@@ 38
volwassenen. 38
opwe@@ 38
kast 38
beweegt. 38
eenzame 38
akkoor@@ 38
zom@@ 38
baarheid, 38
ters, 38
voedingsstoffen 38
analogie 38
schudden 38
touw@@ 38
universeel 38
luxe 38
noordelijke 38
terugkeren 38
verzamelen, 38
zingen, 38
1950 38
presenteren 38
haten 38
osfeer 38
inje@@ 38
sterfte 38
kwaliteiten 38
exacte 38
kelijk. 38
eth@@ 38
experimenteren 38
zwak@@ 38
misdaden 38
schok 38
vereenvou@@ 38
wit, 38
oep 38
drinken. 38
zenuwen 38
ischer 38
euro 38
namen. 38
omarmen 38
eri@@ 38
jonge@@ 38
li 38
web. 38
Ant@@ 38
spelletje 38
mycel@@ 38
giftig 38
ens. 38
olifant 38
puzzels 38
Facebook, 38
stuifmeel 38
LT: 38
oosten 37
mei 37
actu@@ 37
wonderen 37
daad. 37
gepassioneerde 37
observ@@ 37
modellen, 37
investering 37
plannen. 37
notie 37
elektriciteits@@ 37
Afghanistan, 37
verfijn@@ 37
Afghaanse 37
alist 37
scheppen. 37
bewaren. 37
ctief 37
kijkje 37
geïnspire@@ 37
digd. 37
gedachten, 37
bevindt. 37
verplicht@@ 37
slan@@ 37
liep. 37
iken. 37
stille 37
creativiteit. 37
expeditie 37
duiz@@ 37
staken 37
zuur@@ 37
DNA, 37
methaan 37
proberen, 37
nagedacht 37
vergroten. 37
eindig 37
printer@@ 37
Oke@@ 37
ellende 37
pri@@ 37
ala@@ 37
tropische 37
bestudeer 37
bewust@@ 37
liep, 37
nummers 37
iëren, 37
altruï@@ 37
aanget@@ 37
wapens, 37
tisch 37
cel, 37
zeld@@ 37
sugger@@ 37
dienstverlen@@ 37
gekocht 37
ra, 37
ieder@@ 37
gefocust 37
vergroot 37
drijf@@ 37
demografische 37
hoogst 37
fantas@@ 37
uitstekende 37
expressie 37
geschool@@ 37
zelfmoord 37
vertrekken 37
o's. 37
product. 37
optische 37
MR@@ 37
behoren 37
koelk@@ 37
daarvan. 37
complexiteit. 37
Engeland, 37
tril@@ 37
eerden, 37
melk@@ 37
pit@@ 37
B, 37
Tro@@ 37
oprichter 37
onderhouden. 37
recht. 37
leden. 37
intelligentie. 37
erin, 37
datab@@ 37
snappen 37
waar? 37
lees@@ 37
appel@@ 37
Had 37
vastber@@ 37
ademen. 37
animatie 37
design, 37
intellectueel 37
beru@@ 37
hield. 37
theorie, 37
ssp@@ 37
cteren 37
grootschalige 37
hoogte. 37
auton@@ 37
samenbrengen 37
Brazilië. 37
amateur@@ 37
dies 37
weken. 37
sd 37
meisje. 37
werkelijk@@ 37
structuur, 37
genoot 37
schouders 37
verbranden 37
innen, 37
leiding@@ 37
verkozen 37
betrouwbaar 37
Cam@@ 37
magnetische 37
gang, 37
strikt 37
stel, 37
kwets@@ 37
redelijke 37
zorg. 37
betrouwbare 37
vuur. 37
iken, 37
helder@@ 37
humanitaire 37
vroegere 37
e-eeuwse 37
fijn@@ 37
verpleeg@@ 37
reerde 37
tig. 37
mobieltje 37
variaties 37
chemisch 37
bezoeken. 37
M 37
bel. 37
industrie@@ 37
gewoontes 37
vochten 37
60.000 37
rivier. 37
rijkste 37
nodig? 37
Drie@@ 37
vreemden 37
Ethiopië 37
verdedig@@ 37
autoriteiten 37
kaart, 37
verdediging 37
gecombineerd 37
a's, 37
iën@@ 37
pensioen 37
aats@@ 37
donder@@ 37
belon@@ 37
bedoelen 37
benadrukken 37
Griekse 37
realiseert 37
schieten. 37
denk: 37
geloof. 37
seks. 37
zes, 37
toekomst@@ 37
stijgende 37
O-@@ 37
glas@@ 37
el-@@ 37
cir@@ 37
geneeskunde, 37
deelnemen 37
zuidelijke 37
dynamisch 37
archief 37
draai@@ 37
m? 37
mechanis@@ 37
geluid, 37
Bas@@ 37
Scott 37
Hul@@ 37
beperken 37
zelfstandig 37
neer, 37
onwetendheid 37
gekend 37
toren 37
euw@@ 37
helikop@@ 37
permanente 37
waanzinn@@ 37
verwachtte 37
stil. 37
ritme 37
brandweer@@ 37
psychologen 37
zeep 37
rau@@ 37
depressief 37
nacht@@ 37
eeuwige 37
schouw@@ 37
misda@@ 37
god 37
zelfmoord@@ 37
onthullen 37
algoritmen 37
mobiel 37
markten. 37
moe 37
versterken 37
gewicht@@ 37
vooraan 37
diameter 37
--@@ 37
mer. 37
"Jij 37
R-@@ 37
arche@@ 37
wet. 37
aardapp@@ 37
publiceerde 37
dierlijke 37
verlamd 37
inmiddels 37
symmetrie 37
prat@@ 37
schaa@@ 37
besturen. 37
dwang@@ 37
tol@@ 37
heer 37
eel@@ 37
kenmer@@ 37
buit@@ 37
Via 37
buis 37
rituelen 37
f: 37
honing@@ 37
spraak. 37
koraalriffen 37
smartphon@@ 37
Iran@@ 37
Iraanse 37
cartoons 37
drones 37
vieren 36
present@@ 36
ps@@ 36
vest@@ 36
ontkenn@@ 36
assist@@ 36
democratisch 36
geletter@@ 36
tijdperk. 36
indrukwekkende 36
2004 36
activiteit. 36
vlu@@ 36
mogelijkheden, 36
vreemd. 36
Wist 36
Star@@ 36
Duitsland, 36
mezelf: 36
feestje 36
woonden 36
goede, 36
wielen 36
slot, 36
Oceaan. 36
sequ@@ 36
ontdekkings@@ 36
enis 36
infecties 36
laboratoria 36
complexer 36
adres 36
"Hier 36
rib@@ 36
herkenn@@ 36
pagin@@ 36
zó 36
magnet@@ 36
software, 36
houd, 36
levensstijl 36
prevent@@ 36
scans 36
rood, 36
Aziatische 36
twee-@@ 36
bijeenkomst 36
verontreinig@@ 36
regenw@@ 36
expertise 36
wezens, 36
ure@@ 36
hoezeer 36
spreker 36
grootmoeder 36
tox@@ 36
termin@@ 36
respons 36
architectuur. 36
"Kijk, 36
lunch 36
vin 36
cocaïne 36
stijd 36
sy@@ 36
Mannen 36
gemiddel@@ 36
gezins@@ 36
verho@@ 36
duurzaam@@ 36
wit. 36
ode 36
Ven@@ 36
alisatie 36
cla@@ 36
heerlijk 36
midden. 36
braken 36
wilde. 36
aro@@ 36
etik@@ 36
ontwikkeling, 36
waarden. 36
revolutie, 36
meren, 36
mezelf. 36
leerd. 36
praat. 36
eraan. 36
wijk@@ 36
staand 36
afstanden 36
verklaren. 36
sop@@ 36
activist 36
besteden. 36
wijd 36
open-source 36
re-@@ 36
winkel. 36
georganiseerd 36
ste-@@ 36
aald 36
handen, 36
Ziet 36
scan 36
Kor@@ 36
chips 36
dwars 36
lamp@@ 36
cep@@ 36
bizarre 36
veranderd, 36
ziekenhuis@@ 36
twee: 36
riv@@ 36
zijn?" 36
stal 36
ongelukkige 36
eerste@@ 36
test, 36
bewij@@ 36
taar@@ 36
ampu@@ 36
dergelijk@@ 36
160 36
negen@@ 36
taf@@ 36
Ger@@ 36
achteruit 36
ontmoeten, 36
ber, 36
stren@@ 36
strengen 36
H 36
advocaten 36
moleculair 36
bert 36
beleid. 36
kere 36
gemeenschaps@@ 36
elektronen 36
leuk, 36
iseren, 36
metabol@@ 36
veroorzaa@@ 36
passie. 36
vleu@@ 36
gels. 36
leerling 36
mechanisch 36
stemde 36
onvoldoende 36
Fin@@ 36
pend 36
atische 36
beest@@ 36
uiteraard, 36
drukte 36
decenn@@ 36
Zullen 36
bezitten 36
eff@@ 36
Detroit 36
daalde 36
werkloo@@ 36
netwerken. 36
medicijnen. 36
Edward 36
gepraat 36
Californië, 36
voetaf@@ 36
pokken 36
reactie. 36
toezicht 36
va 36
aankon@@ 36
flessen 36
karakter@@ 36
wezen. 36
poet@@ 36
sluiting 36
putten 36
voeren, 36
stevig 36
interactief 36
vertrouwen@@ 36
heerlijke 36
connectie 36
echtgenoot 36
sensor 36
gelen 36
Beh@@ 36
rollen. 36
brilj@@ 36
modern 36
bijzonder@@ 36
wijze. 36
span@@ 36
voordracht 36
maand@@ 36
heilig@@ 36
ks. 36
Schot@@ 36
bare, 36
betekenis@@ 36
sters. 36
ijt 36
sla 36
netwerk, 36
bron. 36
Ministerie 36
vogels, 36
vernietigen. 36
Ier@@ 36
burgeroorlog 36
hiv@@ 36
district 36
bed. 36
troo@@ 36
kunsten@@ 36
beschreef 36
verzon@@ 36
huilen. 36
springt 36
blauw@@ 36
hil@@ 36
succes, 36
gekregen, 36
bedankt 36
angsten 36
voorzicht@@ 36
rotsen 36
oppervlakte@@ 36
3D 36
inzake 36
sprongen 36
anten 36
kleuren@@ 36
aan: 36
iver@@ 36
roman 36
stel. 36
sneeuw@@ 36
islam 36
elle@@ 36
zaad@@ 36
besliste 36
krank@@ 36
katten 36
me? 36
wach@@ 36
mel 36
klimaat. 36
nabij@@ 36
nachtelijke 36
wijz@@ 36
paden 36
homoseksuele 36
verbouw@@ 36
martel@@ 36
FBI 36
ter: 36
straal 36
leid@@ 36
letjes 36
buigen 36
diensten. 36
motivat@@ 36
nieuwsgier@@ 36
Gal@@ 36
depressie. 36
entjes 36
gauw 36
Daniel 36
beloofde 36
Cur@@ 36
deerde 36
familieleden 36
ca. 36
bloem@@ 36
chirurgen 36
Bruno 36
&amp;@@ 36
foie 36
dienen. 36
JF: 36
Tru@@ 35
nieuw, 35
bedan@@ 35
fantoom@@ 35
I-@@ 35
graden. 35
aandeel 35
upda@@ 35
ademen 35
mol@@ 35
staal@@ 35
oogst 35
vooruit. 35
abel 35
herinnerd 35
Europe@@ 35
ontwikkelingslanden, 35
contract 35
ieerde 35
"O, 35
Zoiets 35
ontworpen. 35
oplever@@ 35
verlies, 35
verlies. 35
t; 35
ph@@ 35
indic@@ 35
gestap@@ 35
Bru@@ 35
toenemen. 35
fragmenten 35
Stat@@ 35
gefinancierd 35
waarschuwing 35
imm@@ 35
luistert 35
ell 35
alternat@@ 35
bellen. 35
ringen 35
ce-@@ 35
"? 35
"St@@ 35
Haw@@ 35
IBM 35
elegan@@ 35
kabel 35
DP: 35
klik 35
mail 35
art 35
MRI 35
99@@ 35
talks 35
opgroeien 35
Honderden 35
Florida 35
rond, 35
gemaa@@ 35
Mandela 35
kill@@ 35
verwijderen 35
bloot 35
gal@@ 35
loy@@ 35
Mary 35
nacht. 35
krachtig. 35
plann@@ 35
uiten. 35
wiskunde@@ 35
ietwat 35
vertellen: 35
spoelen 35
gif@@ 35
voegt 35
bouwen@@ 35
dustrie 35
vleugel 35
condities 35
zuur 35
diversiteit, 35
Mont@@ 35
reiken 35
is; 35
Dat@@ 35
klu@@ 35
Zo, 35
voorbeel@@ 35
apart 35
vent@@ 35
Noord 35
bek@@ 35
sloe@@ 35
hoor, 35
levendige 35
dbaar 35
gemeenschap@@ 35
deling. 35
als@@ 35
grot@@ 35
gruwel@@ 35
omgaan. 35
Kap@@ 35
omstandigheden, 35
taa@@ 35
lossen, 35
koeien 35
oloog, 35
ijzel@@ 35
verdieping 35
she@@ 35
keuze, 35
wekkend 35
deld 35
econoom 35
effectiever 35
perfect. 35
basis. 35
achteraan 35
wandelen 35
stuw@@ 35
raakt. 35
schapp@@ 35
gedachte@@ 35
kleuren. 35
vens 35
stand, 35
ce, 35
begro@@ 35
Watson 35
opgevoed 35
Rio 35
waarneming 35
sloppen@@ 35
"Niet 35
Lang@@ 35
teur 35
a." 35
merendeel 35
procedure 35
antwoordde 35
overvloe@@ 35
vertegenwoordigen 35
machines, 35
30, 35
Rob 35
insect 35
feiten. 35
regering, 35
excuses 35
aanpak. 35
enzovoorts. 35
doorsnee 35
zenuwstelsel 35
grootte. 35
ieve, 35
opzet 35
verjaar@@ 35
ction@@ 35
begrepen. 35
millimeter 35
planeten. 35
verwe@@ 35
schijnen 35
stijgen, 35
eld. 35
ror@@ 35
Brit@@ 35
verplaatst 35
Mexic@@ 35
Gelu@@ 35
zesde 35
beheersen 35
printer 35
herhalen 35
installatie 35
kelijk@@ 35
termijn. 35
Ein@@ 35
benaderen 35
Afrikaans 35
competitie 35
Wacht 35
integreren 35
gras. 35
onvoorstel@@ 35
Londen. 35
voerden 35
immun@@ 35
deur. 35
vogels. 35
gezondheidszorg, 35
disciplin@@ 35
vredes@@ 35
Willen 35
voeding. 35
organisaties, 35
radic@@ 35
opgelei@@ 35
k." 35
verdo@@ 35
verkracht@@ 35
Taliban 35
z, 35
verondersteld 35
inzoom@@ 35
Wis@@ 35
kans@@ 35
vind. 35
ironie 35
Amerikaan 35
zorg, 35
fron@@ 35
Jezus 35
gedragen, 35
relaties, 35
opoff@@ 35
American 35
schapen 35
lenen 35
gekle@@ 35
verbru@@ 35
K 35
harmon@@ 35
spectaculaire 35
wand 35
Koninkrijk 35
vrees 35
wind, 35
confron@@ 35
iveau 35
inspann@@ 35
meisjes, 35
waarom? 35
blote 35
Nobelprijs 35
landbouw, 35
menigte 35
onderwer@@ 35
prefrontale 35
verd@@ 35
uitgestre@@ 35
eens@@ 35
ton, 35
wu@@ 35
ieerd 35
Lee 35
afel 35
kab@@ 35
dins@@ 35
baat 35
Q@@ 35
Weten 35
objectieve 35
mislukking 35
cultuur@@ 35
geheugen. 35
bakken 35
reis@@ 35
reserv@@ 35
vergro@@ 35
verminderen, 35
verkenning 35
bedenkt 35
Jonathan 35
pik@@ 35
taak. 35
scri@@ 35
raket 35
Nigeriaanse 35
aren, 35
drijven. 35
Ik: 35
institutionele 35
kakkerla@@ 35
effe@@ 35
optimis@@ 35
State 35
ërs 35
bond@@ 35
Tri@@ 35
reput@@ 35
AK: 35
agenten 35
sleut@@ 35
ethiek 35
’, 35
oordeel 35
voldoen 35
nen@@ 34
Ford 34
rennen. 34
temperatuur@@ 34
gemakkelijk. 34
begint. 34
duim 34
eenvoudig, 34
sproblemen 34
ademhal@@ 34
schon@@ 34
verbazing 34
ingenieurs@@ 34
aanpassingen 34
concurreren 34
armoede@@ 34
behandelen, 34
aanbevel@@ 34
opgeleide 34
vluchten 34
schema 34
Mus@@ 34
vliegtuig. 34
prest@@ 34
parallel 34
wereldwijd. 34
obsessie 34
draait, 34
marketing 34
wist, 34
zijde. 34
maatstaf 34
tellen. 34
Carl 34
Mag@@ 34
genen, 34
130 34
sei@@ 34
ters. 34
pool 34
how 34
wonden 34
overweldig@@ 34
telefoont@@ 34
tschap 34
Wor@@ 34
Welkom 34
je?" 34
verschijnt 34
sso@@ 34
haat@@ 34
aandoen@@ 34
middels 34
goedkop@@ 34
Goo@@ 34
bestudeerd 34
defin@@ 34
flexibel 34
volhar@@ 34
knappe 34
letje 34
reis, 34
Zon@@ 34
preventie 34
bevorder@@ 34
gespecialiseerd 34
controleren, 34
gedraa@@ 34
"Heb 34
zag@@ 34
Art 34
muzikan@@ 34
vult 34
verderop 34
den... 34
aris 34
form@@ 34
bracht, 34
leuk@@ 34
dich@@ 34
tradities 34
voeten. 34
37 34
drempel 34
illustr@@ 34
nodigde 34
knap@@ 34
circuits 34
aller 34
zien." 34
sterk. 34
Lab@@ 34
dak, 34
format@@ 34
Bruce 34
kast@@ 34
Momenteel 34
spiritu@@ 34
Cambridge 34
Pap@@ 34
ophouden 34
kato@@ 34
enthousiasme 34
zig 34
cus@@ 34
schre@@ 34
droev@@ 34
voorzitter 34
ondoor@@ 34
gou@@ 34
Hiermee 34
kikker@@ 34
Vro@@ 34
gegooid. 34
meegenomen 34
jeugd@@ 34
gesproken. 34
organisaties. 34
ons? 34
projecten, 34
regels, 34
rice 34
run@@ 34
Lov@@ 34
individu@@ 34
hè? 34
heet@@ 34
object. 34
expositie 34
geëx@@ 34
ontdekk@@ 34
ant, 34
Hy@@ 34
ums 34
leverde 34
top. 34
vriendschap 34
leidden 34
geleerd, 34
arbeid@@ 34
parken 34
opvan@@ 34
houd. 34
frontale 34
voorkant 34
bedacht. 34
aangenomen 34
opgesch@@ 34
ruimtelijke 34
dringende 34
voorzien. 34
Lau@@ 34
Hoo@@ 34
vertrouwde 34
snelheid, 34
vijanden 34
36 34
tent 34
woud 34
elektriciteit, 34
Turk@@ 34
profiteren 34
politiek. 34
Pet@@ 34
werknemer@@ 34
altijd: 34
ongewoon 34
inzien 34
wijziging 34
typen 34
kende. 34
60, 34
hoeveel@@ 34
gemerkt 34
ders@@ 34
ingrij@@ 34
doorbraak 34
uitbarst@@ 34
dichter@@ 34
spit@@ 34
oplossing, 34
initiatief 34
ontbre@@ 34
fe 34
bijzonder. 34
netjes 34
plaf@@ 34
onderhouden 34
enzovoort, 34
stort@@ 34
Naast 34
West@@ 34
deed@@ 34
stadi@@ 34
scala 34
aardbev@@ 34
harige 34
Zet 34
klam@@ 34
teert. 34
ikte 34
koning@@ 34
Foundation 34
B: 34
hoort. 34
Amerikanen, 34
fis@@ 34
dromen, 34
zakelijk 34
statistische 34
besmettelijke 34
seconden, 34
fietsen 34
onzekerheid 34
wed 34
hoek, 34
Susan 34
sha@@ 34
pad. 34
Onderzoek 34
pensio@@ 34
ici, 34
ationeel 34
ellen. 34
continenten 34
daarop@@ 34
atie? 34
onen, 34
opger@@ 34
Begin 34
race 34
gelukk@@ 34
vervo@@ 34
respect@@ 34
stap. 34
stapje 34
Hol@@ 34
figuren 34
droe@@ 34
schadelijk 34
waargenomen 34
padden@@ 34
wormen 34
kundig 34
Boven@@ 34
Jor@@ 34
noordelijk 34
primit@@ 34
hul@@ 34
hel 34
Somal@@ 34
terroristische 34
cab@@ 34
plezier. 34
normaal. 34
dun 34
daden 34
verander 34
onwet@@ 34
ach 34
aan." 34
aanpassing 34
baan@@ 34
Cro@@ 34
posters 34
neur@@ 34
nemen? 34
opvallende 34
temp@@ 34
landse 34
issen. 34
kabels 34
openen. 34
afscheid 34
onein@@ 34
theor@@ 34
aardig@@ 34
vrijwillig 34
input 34
kust, 34
emissies 34
tover@@ 34
hulpverlen@@ 34
kundigen 34
gronden 34
behandeling. 34
sculpturen 34
Del@@ 34
moeilijkheden 34
automat@@ 34
gevaren 34
tijden, 34
geweer 34
einen. 34
transa@@ 34
Wetenschappers 34
stormen 34
schilderen 34
reizen, 34
relatieve 34
levenslange 34
sterrenstelsel 34
steken, 34
beschikking 34
fan 34
televisie@@ 34
pir@@ 34
Fe@@ 34
missie. 34
klinkt, 34
nen? 34
]. 34
vertegenwoordigd 34
25.000 34
bewijst 34
enig@@ 34
polaris@@ 34
sms-@@ 34
gedetailleerde 34
siga@@ 34
reconstru@@ 34
gletsj@@ 34
vergunn@@ 34
Kore@@ 34
twit@@ 34
vlaggen 34
knie@@ 34
stations 34
Chris, 33
gevlo@@ 33
Huis 33
atief, 33
vrachtwagens 33
stoot 33
Word 33
dorp. 33
rijst@@ 33
ontwerpers, 33
context, 33
Moeten 33
aandacht, 33
durven 33
AG: 33
ium. 33
ma's. 33
commercieel 33
maan, 33
Alan 33
begint, 33
uitster@@ 33
ige. 33
Russ@@ 33
maan. 33
functioneel 33
gebruiks@@ 33
agress@@ 33
bracht. 33
schet@@ 33
Lief@@ 33
sme@@ 33
publiceerden 33
sporen. 33
cirkels 33
chro@@ 33
Binnen@@ 33
productie, 33
ironisch 33
a" 33
garage 33
san@@ 33
Dean 33
jam@@ 33
way 33
F 33
vage 33
vu@@ 33
bovenal 33
wanhoop 33
besluit@@ 33
to. 33
enter@@ 33
chemot@@ 33
ines 33
deze: 33
mom@@ 33
falen, 33
vanmorgen 33
gelukt 33
reageerde 33
voorzieningen 33
sponsor@@ 33
beet@@ 33
Simon 33
express@@ 33
repet@@ 33
scanner 33
sprin@@ 33
ondertussen 33
bouw. 33
berg, 33
walvis 33
Groene 33
rots 33
chocolade 33
verzamelt 33
gegener@@ 33
relatie. 33
%, 33
tom@@ 33
aus@@ 33
zaal, 33
horizontale 33
noemt. 33
hiërarch@@ 33
sta. 33
antie. 33
vertre@@ 33
by 33
bier@@ 33
meerde 33
betover@@ 33
900 33
Wetenschap 33
fenom@@ 33
mensenrechten 33
vliegtuig, 33
telefoontje 33
dapper@@ 33
gevers 33
verkocht. 33
muzie@@ 33
content 33
chat@@ 33
filosofische 33
kkige 33
anders@@ 33
Sil@@ 33
nag@@ 33
randen 33
skaar@@ 33
onden, 33
worksh@@ 33
raakt, 33
statistisch 33
ingewikkeld. 33
plat 33
evene@@ 33
juridisch 33
vormden 33
gel. 33
II 33
z. 33
meters 33
maart 33
klaslokaal 33
Intussen 33
Francis 33
tradit@@ 33
gods@@ 33
ka 33
ichting 33
bespre@@ 33
bene@@ 33
ator, 33
vrij. 33
Aangezien 33
ongetwijfeld 33
enties. 33
vacuüm 33
dimensie 33
robots. 33
therap@@ 33
zintuiglijke 33
kwaad. 33
ontsnappen 33
concrete 33
oppervlak, 33
pasten 33
werkten. 33
Cambod@@ 33
vijf, 33
marketing@@ 33
bekrit@@ 33
dimensionaal 33
behouden. 33
Rot@@ 33
afbeel@@ 33
patiën@@ 33
band. 33
naald 33
confer@@ 33
etz@@ 33
Ruim@@ 33
materie, 33
zo? 33
Afgelopen 33
metro 33
huishoudens 33
gelief@@ 33
straf@@ 33
reflec@@ 33
steunen 33
achtergrond, 33
klas, 33
vraagstukken 33
los. 33
intussen 33
onder. 33
15.000 33
kleding@@ 33
Naties 33
bekl@@ 33
telefo@@ 33
tend 33
komsten 33
ting@@ 33
ieden@@ 33
koers 33
medicijnen, 33
geren. 33
Steeds 33
ato@@ 33
gord@@ 33
ontra@@ 33
-en-@@ 33
kne@@ 33
balle@@ 33
apps 33
licham@@ 33
ecologie 33
Ofwel 33
vieren. 33
mani@@ 33
tamelijk 33
etn@@ 33
erkenning 33
materi@@ 33
"G@@ 33
vier. 33
consumeren 33
tour@@ 33
Braziliaanse 33
uitvinden. 33
SS: 33
olier@@ 33
aris@@ 33
ër@@ 33
Tar@@ 33
periode. 33
impul@@ 33
skel@@ 33
gezin. 33
wak@@ 33
aangetrokken 33
ji@@ 33
ima@@ 33
vermen@@ 33
verzorg@@ 33
tiger 33
toegepast. 33
"He@@ 33
café 33
toilet@@ 33
belangrijks 33
staten, 33
waarnaar 33
slechter@@ 33
winnaars 33
Brown 33
"Geen 33
glan@@ 33
stoff@@ 33
takken 33
vleermuizen 33
ns 33
daarboven 33
Jill 33
muzikant 33
fosfor@@ 33
hyp@@ 33
kar 33
religieus 33
verbazen 33
tanden@@ 33
kte@@ 33
tuur 33
muur, 33
verlaten, 33
identiek 33
zintuig@@ 33
associ@@ 33
steen@@ 33
foerage@@ 33
leiders. 33
liber@@ 33
hervorming 33
25% 33
landschappen 33
opstaan 33
Por@@ 33
fragment 33
woestijn. 33
leerde, 33
wachten, 33
lek@@ 33
zussen 33
priem@@ 33
emen, 33
kippen@@ 33
leert. 33
T, 33
pi@@ 33
gecon@@ 33
Oke, 33
psychiatrische 33
brengen? 33
ongewone 33
hot@@ 33
sfeer 33
alternatieven 33
getal. 33
eng@@ 33
diss@@ 33
euze 33
Dun@@ 33
spl@@ 33
haalt. 33
varkens@@ 33
identiteit. 33
nader 33
romp@@ 33
overwinnen 33
extre@@ 33
orkest 33
Industriële 33
Coll@@ 33
maaltijden 33
worstelen 33
Fl@@ 33
sociaal-@@ 33
Luther 33
sound@@ 33
vastgelegd 33
meedoen 33
continu@@ 33
meteor@@ 33
Buitenlandse 33
transplant@@ 33
psychop@@ 33
Facebook. 33
vic@@ 32
speech 32
Vorige 32
ontste@@ 32
treffen. 32
toevoer 32
groeit. 32
tap@@ 32
cool@@ 32
ondernemingen 32
scherp 32
accept@@ 32
Bl@@ 32
verantwoording 32
inbegrip 32
snelheid. 32
zodanig 32
blootgesteld 32
uitgero@@ 32
legaal 32
bent@@ 32
72 32
zijn; 32
capaciteiten 32
iel. 32
Moor@@ 32
"Doe 32
daarentegen 32
liefde@@ 32
artiesten 32
consument 32
kaarten. 32
ikzelf 32
Minder 32
opdra@@ 32
organismen. 32
opwindend 32
cartoon 32
maatschapp@@ 32
ase 32
lezers 32
zers 32
matri@@ 32
ep 32
zenu@@ 32
gehei@@ 32
grie@@ 32
diabetes 32
spectro@@ 32
overgewicht 32
laptop@@ 32
chimpansee 32
h! 32
meegemaakt. 32
Moeder 32
"Misschien 32
professoren 32
Internationale 32
Universit@@ 32
skelet@@ 32
heeft? 32
lach 32
Charlie 32
Ol@@ 32
z: 32
s; 32
Angeles. 32
Nor@@ 32
gen... 32
boot@@ 32
enzovoort 32
microfo@@ 32
evolutie, 32
opzij 32
MRI-@@ 32
bespreken. 32
denkers 32
Inderdaad, 32
bussen 32
boot. 32
wandeling 32
Albert 32
software. 32
fundamen@@ 32
prec@@ 32
geraakt, 32
spin 32
vaccins 32
Jan@@ 32
Danny 32
soortgelijke 32
stoom@@ 32
gangen 32
sem@@ 32
soep 32
plezier@@ 32
plakken. 32
"ik 32
stoel, 32
aus, 32
clusters 32
gat@@ 32
christ@@ 32
bereikte 32
bankreken@@ 32
machtig 32
planetaire 32
Ran@@ 32
telen 32
lijden, 32
contact@@ 32
verbanden 32
heten 32
j 32
uitkomen. 32
vertaal@@ 32
universitei@@ 32
uitgeschakel@@ 32
overdag 32
eigendom@@ 32
lic@@ 32
erg, 32
Ton@@ 32
aden. 32
pret@@ 32
press@@ 32
magazine 32
hol 32
zus, 32
onderdelen. 32
eraf 32
$ 32
presenteert 32
exclus@@ 32
part@@ 32
advoc@@ 32
veroorloven. 32
algemeen, 32
bleken 32
orium 32
elingen 32
intellig@@ 32
levens, 32
voortdurende 32
anden, 32
afstand, 32
visie. 32
vergroten 32
trouwens, 32
volwassene 32
verwerkt 32
westelijke 32
nam. 32
anen, 32
verhuizen 32
Nobelprijs@@ 32
mede-@@ 32
fysicus 32
compet@@ 32
'het 32
moess@@ 32
Kenia, 32
io 32
eus 32
ctiv@@ 32
wijzigingen 32
hulpmiddel 32
wisselen 32
plaatst, 32
hiernaar 32
aanpassen. 32
ond. 32
diabe@@ 32
regio's 32
St. 32
iever 32
Simp@@ 32
ingsvermogen 32
streng 32
had? 32
filantrop@@ 32
et? 32
klopt, 32
varen 32
gend. 32
anekdo@@ 32
pix@@ 32
november 32
zakken. 32
duistere 32
Nieuw@@ 32
knal 32
planeten, 32
Pu@@ 32
opvallend 32
facil@@ 32
gezondheidszorg@@ 32
10. 32
steunen. 32
gebaar 32
excuus 32
relevan@@ 32
zen? 32
dichtstbijzijnde 32
beleven 32
ys@@ 32
iere@@ 32
inkt 32
particuliere 32
absorbe@@ 32
universiteit, 32
trein@@ 32
vrien@@ 32
telt, 32
result@@ 32
cockta@@ 32
oproep@@ 32
contain@@ 32
V.@@ 32
klau@@ 32
3000 32
Noord-Amerika 32
grondslag 32
Revolutie 32
eil@@ 32
Engels, 32
Victori@@ 32
verkon@@ 32
P. 32
wijzen. 32
gefrustreerd 32
telescopen 32
bers 32
antwoord, 32
nek 32
sloot 32
zieke 32
vermo@@ 32
geweten 32
Vind 32
Sarah 32
kron@@ 32
out 32
onwaarschijnlijke 32
Palestijnse 32
inspirerend 32
vrolijk 32
voldoen@@ 32
kom. 32
gratis. 32
1998 32
dremp@@ 32
werktuigen 32
Clin@@ 32
duiv@@ 32
vertragen 32
eindigde 32
itaire 32
Ja? 32
gul@@ 32
Oeganda 32
distri@@ 32
"Laat 32
lab, 32
vloo@@ 32
vergt 32
destruct@@ 32
pieken 32
filmpjes 32
burgers, 32
behoeften. 32
esc@@ 32
ans. 32
Land@@ 32
stabiele 32
noodzakelijke 32
gelopen 32
systematische 32
taart 32
zater@@ 32
slaagden 32
dog@@ 32
tijdelijk 32
fondsen 32
Stem: 32
het." 32
ame 32
zomer, 32
strateg@@ 32
ut, 32
bedrog 32
geïnfecteerd 32
belemmer@@ 32
ing'. 32
opgenomen. 32
aannames 32
zur@@ 32
ervaren, 32
gerust 32
filosoof 32
volgt, 32
North 32
Can@@ 32
suggestie 32
Zwitserse 32
rijen 32
bureau@@ 32
heen? 32
ondergaan. 32
bestur@@ 32
Dam@@ 32
Vrij@@ 32
communicatie, 32
porno@@ 32
res@@ 32
moeten. 32
kathedr@@ 32
bier 32
lever 32
Instituut 32
vrouwtje 32
zelfmoor@@ 32
sectoren 32
paniek 32
2% 32
2050 32
manipul@@ 32
duwen. 32
daal 32
reactor 32
werpen 32
repareren. 32
origam@@ 32
ung 32
ance@@ 32
bo 32
schreef: 32
rout@@ 32
venster 32
raketten 32
veilig. 32
bieden, 32
condooms 32
aanmoedigen 32
warmte@@ 32
artie@@ 32
&amp; 32
Alice 32
oefenen. 32
ade. 32
overeenkomst 32
pijl@@ 32
bereiden 32
meerder@@ 32
habitat 32
fel 32
cardi@@ 32
docenten 32
Regel 32
provincie 32
groter, 32
uitdaging, 32
r, 32
Open@@ 32
tevoorschijn 32
JH: 32
machine@@ 32
oostelijke 32
voller 32
boren 32
ip 32
beloo@@ 32
robo@@ 32
Derek 32
schiet@@ 32
drone 32
ville 31
snelweg 31
openbar@@ 31
nacht, 31
herhalen. 31
recor@@ 31
transport 31
Zoek 31
ontwikkelaars 31
kker@@ 31
kolen 31
zeldzaam 31
oplei@@ 31
realiseren. 31
verdienen, 31
juli 31
stig 31
drukt. 31
reert 31
invester@@ 31
lands 31
190@@ 31
pog@@ 31
[onduidelijk] 31
heef@@ 31
gle@@ 31
tuig@@ 31
emotion@@ 31
gevoelens, 31
die. 31
pru@@ 31
betreft, 31
huren 31
beker@@ 31
hoopte 31
creativiteit, 31
gestoken 31
aas, 31
hoefden 31
Craig 31
datzelfde 31
cer@@ 31
cept@@ 31
families. 31
transp@@ 31
gesto@@ 31
ly@@ 31
bezorgdheid 31
w-@@ 31
ans, 31
verbluffend 31
fonds 31
avon@@ 31
Mac 31
1-@@ 31
Goe@@ 31
11@@ 31
ale. 31
2000. 31
eller 31
Wo@@ 31
st." 31
sterfgevallen 31
mer, 31
opzich@@ 31
vecht@@ 31
beschaving. 31
wagen. 31
ondergrondse 31
observat@@ 31
angst, 31
Natuurlijk, 31
hopeloos 31
studeren, 31
Australië. 31
las, 31
zwart-@@ 31
sel, 31
ung@@ 31
scherm, 31
studenten@@ 31
r. 31
AR@@ 31
chauffeur 31
kijkend 31
huwelijk@@ 31
oprecht 31
tweel@@ 31
servic@@ 31
bestuurder 31
gewijd 31
mmer@@ 31
eiwit@@ 31
product, 31
percent 31
ogen@@ 31
schijnt 31
nel@@ 31
deeltjes. 31
elegante 31
bevorderen. 31
mix@@ 31
gassen 31
mensheid, 31
zevende 31
vrijheid, 31
spuiten 31
'70 31
overheer@@ 31
tuin. 31
bekend. 31
Sher@@ 31
boterham 31
ingewikkelder 31
zichten 31
non@@ 31
vasthouden 31
gelegen@@ 31
genoten, 31
leugen@@ 31
onden. 31
geometrische 31
cursu@@ 31
bezoekers 31
inger@@ 31
aard, 31
lob@@ 31
baarder 31
pakk@@ 31
bestuurd 31
waarom, 31
bestond. 31
kking. 31
midden, 31
Gam@@ 31
City, 31
amp 31
efficiën@@ 31
snu@@ 31
Azi@@ 31
voc@@ 31
bezitten. 31
producenten 31
gemanipu@@ 31
place@@ 31
Jouw 31
conceptu@@ 31
uitdij@@ 31
activeren 31
nagaan 31
drinken, 31
schomm@@ 31
manipuleren 31
losse 31
Dalai 31
behoort 31
Dis@@ 31
mengen 31
augustus 31
verbr@@ 31
stik@@ 31
sollicit@@ 31
opleiding, 31
hl@@ 31
aankwam, 31
pten 31
Turkije 31
beleid, 31
dest@@ 31
es: 31
nano-@@ 31
sequenc@@ 31
exponentieel 31
versnellen. 31
programma's. 31
voorraden 31
mens-@@ 31
terugkomen 31
gezond@@ 31
selijk 31
bestaan@@ 31
repar@@ 31
iat@@ 31
strijk@@ 31
leeftijds@@ 31
bacteriën. 31
rechtop 31
insecten, 31
epen 31
gewijzig@@ 31
huid. 31
instantie 31
boeiend 31
resolut@@ 31
aald. 31
bouwstenen 31
kosmos 31
eigenschappen. 31
karak@@ 31
Joseph 31
perspectief, 31
stip@@ 31
gebeurden 31
veroorzaakte 31
betrekken. 31
interactie. 31
rie. 31
empath@@ 31
dozen 31
overduidelijk 31
zusje 31
verschillend. 31
conferentie. 31
concert 31
genoten. 31
Ts@@ 31
noot 31
Lin@@ 31
waarheden 31
relevante 31
koste 31
betrokken@@ 31
puzzel 31
pijnlijke 31
jongen, 31
versterkt 31
gevaar. 31
expor@@ 31
40% 31
Bronx 31
slaaf 31
opvatting 31
bepal@@ 31
cten. 31
veranderingen. 31
park. 31
ontbij@@ 31
vluchtelingen@@ 31
behoef@@ 31
naties 31
herkent 31
erst 31
bus. 31
zij, 31
300.000 31
tiv@@ 31
'We 31
gevoel, 31
kelder 31
Tom@@ 31
klap 31
Gaan 31
ingrediën@@ 31
ciale 31
stromen. 31
dens 31
muziekin@@ 31
getrouw@@ 31
schreeuwen 31
vertell@@ 31
ating 31
verslaafd 31
stukken. 31
wachtte 31
leiding. 31
intuïtieve 31
jongetje 31
artiest 31
ry, 31
interviews 31
theater@@ 31
getallen. 31
kloppen. 31
gooien, 31
informele 31
vals 31
moord 31
eronder 31
kaak 31
nastreven 31
duwen 31
staf@@ 31
daan@@ 31
ontcijfer@@ 31
yog@@ 31
diepere 31
voeding, 31
e." 31
Gan@@ 31
Wol@@ 31
verkiezingen. 31
belang, 31
bewaard 31
gelopen. 31
ideaal 31
ha. 31
seconde, 31
edt 31
cognitief 31
democratieën 31
burgers. 31
3,5 31
deelname 31
kloppen 31
armen. 31
lopend 31
Nic@@ 31
denten 31
reerd 31
boerderijen 31
gevangene 31
bereidheid 31
ieu@@ 31
wijzigen. 31
lag. 31
Noordpool 31
linker 31
Matt 31
doorgebracht 31
daar? 31
to-@@ 31
"Be@@ 31
mezelf, 31
norm 31
agno@@ 31
geactiv@@ 31
gegev@@ 31
loter@@ 31
verkiez@@ 31
wilden. 31
ruil 31
Ed@@ 31
kwantummechanica 31
Duizenden 31
telijk. 31
respec@@ 31
richting, 31
menselijk@@ 31
verbergen. 31
programma@@ 31
London 31
hervor@@ 31
do. 31
zeker, 31
Sahara 31
Nieuw 31
laser 31
Bol@@ 31
gedaan@@ 31
verzekering 31
nerveus 31
anen@@ 31
collega@@ 31
instruct@@ 31
Wel@@ 31
ms 31
behe@@ 31
intensieve 31
bizar 31
hoofdstad 31
omgev@@ 31
bevol@@ 31
bab@@ 31
vlees@@ 31
corre@@ 31
Texas 31
samenstelling 31
voldoening 31
blazen. 31
volg 31
dorps@@ 31
tent@@ 31
vermindert 31
eruit, 31
wen. 31
jongen@@ 31
kt: 31
ingsproces 31
olla@@ 31
Aristoteles 31
kandidaten 31
wets@@ 31
smelten 31
Sociale 31
Joshua 31
piramide 31
onzicht@@ 31
Generaal 31
Dar@@ 31
programmeurs 31
geheugen, 31
nam, 31
sparen. 31
Libi@@ 31
uitzonderingen 31
downloaden 31
Dankje@@ 31
tegels 31
duivel 31
benzine 31
M: 31
JA: 31
Sylvia 31
riffen 31
Abed 31
tafel@@ 30
ingaan 30
werkend 30
Democr@@ 30
instort@@ 30
ree@@ 30
waarde, 30
appen. 30
educatieve 30
gemeenschappen, 30
gerealiseerd 30
Anderson 30
vaart. 30
ontg@@ 30
lelijke 30
controle, 30
infrastructuur, 30
kanten. 30
banen. 30
inkomen, 30
steeg 30
opleveren 30
interessants 30
louter 30
K. 30
oppervlakken 30
klei@@ 30
fascinerend. 30
bijgedragen 30
ppen, 30
S, 30
pauze 30
pessim@@ 30
daarbuiten 30
1,3 30
iëren. 30
blootstelling 30
mijne 30
getrain@@ 30
urt 30
pop-@@ 30
er." 30
bewaren 30
oude, 30
toevoe@@ 30
HIV-@@ 30
verbeterde 30
middenin 30
vaak, 30
plekken, 30
jeugd. 30
metaal 30
ije, 30
maag@@ 30
breu@@ 30
stemd 30
ëren 30
bloedvat@@ 30
voordel@@ 30
spier 30
wetenschapper. 30
rock@@ 30
schreef. 30
contex@@ 30
authentiek 30
lood@@ 30
os, 30
anten@@ 30
bamboe 30
verlan@@ 30
myth@@ 30
gezeg@@ 30
Ted 30
antwoord@@ 30
wereld: 30
schoen@@ 30
​@@ 30
blau@@ 30
beziel@@ 30
Star 30
blazen 30
uitgaan 30
subti@@ 30
advertenties 30
gewonnen. 30
"O 30
baby, 30
onderwerp, 30
eng 30
beschouwen. 30
verklaringen 30
argumenten 30
illusies 30
zonnestelsel. 30
isteren 30
opzet@@ 30
intimi@@ 30
Daarover 30
personalis@@ 30
ster-@@ 30
500.000 30
ule 30
ive@@ 30
genie 30
draad@@ 30
lancering 30
producten, 30
eeuwse 30
tijdstip 30
knieën 30
weken, 30
prototyp@@ 30
weergegeven 30
Fantast@@ 30
ologie@@ 30
veil@@ 30
stellen? 30
objecten. 30
Jam@@ 30
patent 30
infor@@ 30
180 30
djes 30
reclam@@ 30
advertentie 30
adver@@ 30
realistisch 30
minste, 30
teur, 30
igra@@ 30
regionale 30
gewicht, 30
tegelijker@@ 30
3.@@ 30
,5 30
vertaling 30
opkomen 30
hev@@ 30
oort 30
dergelijks 30
pil 30
concre@@ 30
printen 30
dak. 30
ontstaan, 30
Dan, 30
Lei@@ 30
alistische 30
formaat 30
acteur 30
generaal 30
shows 30
dergelijke. 30
blaa@@ 30
klaslok@@ 30
culturen, 30
opbouwen. 30
kandidaat 30
gok 30
studie. 30
"Kan 30
Feynman 30
ziek. 30
ro 30
co 30
meedoen. 30
sch. 30
uiteen 30
is-@@ 30
eler 30
31 30
experimentele 30
ongekende 30
annen 30
verzinnen 30
leven." 30
duur, 30
Één 30
vanbinnen 30
daga@@ 30
eerste. 30
nabij 30
nogmaals 30
Leven 30
houdend 30
ruw 30
dia's 30
connecties 30
ffe@@ 30
dimensies. 30
immense 30
groeiden 30
elkaar@@ 30
Ide@@ 30
consult@@ 30
erbij. 30
diagno@@ 30
gerust@@ 30
bedoel: 30
overhe@@ 30
klonk 30
gd, 30
schitterend 30
bewijsmateriaal 30
deeltjes, 30
Austral@@ 30
voering 30
Zowel 30
aanzien 30
opbreng@@ 30
40@@ 30
wortel 30
East 30
volgt: 30
obesitas 30
etje 30
gelijkaardige 30
dubbel 30
ore 30
ktes 30
als. 30
TEDGlobal 30
verkrijgen. 30
zones 30
1/@@ 30
toon. 30
een: 30
dem@@ 30
innen 30
natie, 30
ondenk@@ 30
meesle@@ 30
toewijding 30
geschre@@ 30
leger@@ 30
stand-@@ 30
stier@@ 30
slotte 30
gevon@@ 30
broer, 30
professioneel 30
astronom@@ 30
formul@@ 30
getro@@ 30
Lie@@ 30
grens@@ 30
middenklasse 30
dinget@@ 30
neem@@ 30
ei 30
technie@@ 30
Kom@@ 30
onschuldig 30
bevatten. 30
"Hé, 30
onmis@@ 30
beschouw 30
kussen 30
verkent 30
ond, 30
1990 30
traa@@ 30
ieme 30
Black@@ 30
strategische 30
q@@ 30
Rechts 30
spiegel. 30
lex@@ 30
17e 30
benen, 30
ild 30
bele 30
vlinder@@ 30
30% 30
Amerikanen. 30
conflict. 30
klei 30
tragische 30
censu@@ 30
straffen 30
wond 30
werkten, 30
jammer 30
wind. 30
hoogte@@ 30
British 30
wein@@ 30
zee-@@ 30
hell@@ 30
woont. 30
wel: 30
ontwierpen 30
betro@@ 30
Raad 30
"Wanneer 30
heren 30
zweef@@ 30
ambit@@ 30
chirur@@ 30
merkten 30
machtig@@ 30
aangesloten 30
poot 30
milit@@ 30
seni@@ 30
geïsoleerd 30
protest@@ 30
M. 30
trot@@ 30
cortex, 30
nabije 30
schoonheid, 30
eier@@ 30
varken@@ 30
vinden? 30
shi@@ 30
budget@@ 30
lobby@@ 30
pic@@ 30
ingang 30
klinisch 30
gereedschappen 30
cteren. 30
mieren@@ 30
ruikt 30
peil@@ 30
rug. 30
prioriteit 30
AM: 30
wijzigen 30
parlement 30
"Deze 30
bedreigingen 30
bev@@ 30
snoe@@ 30
vig@@ 30
lanceren 30
loop, 30
selectief 30
Bat@@ 30
meesters 30
genoeg@@ 30
schalen. 30
Spelen 30
Carnegie 30
bloed, 30
nect@@ 30
moeders, 30
podium, 30
Gene 30
Meisje: 30
hersenhelft 30
kwijt@@ 30
operatie. 30
kraaien 30
Nathan 30
gie 30
kooi 30
maker@@ 30
medicijn@@ 30
clou@@ 30
Liber@@ 30
gespecialiseerde 30
marathon 30
Alex@@ 30
eerlijkheid 30
sequo@@ 30
tion 30
militair 30
.] 30
Namibi@@ 30
Facebook@@ 30
supergelei@@ 30
fosfor 30
BJ: 30
snaam 29
streek 29
weeg 29
Zolang 29
cris@@ 29
eenvoudigste 29
meel@@ 29
bevor@@ 29
opbouw 29
geha@@ 29
cho@@ 29
Volgende 29
veronderstelling 29
globaal 29
krit@@ 29
kapitaal@@ 29
corruptie. 29
jij. 29
ult@@ 29
T-shir@@ 29
legendarische 29
-jarigen 29
Oorlog 29
telefon@@ 29
kaartje 29
wint 29
ace 29
orde. 29
schoonheid. 29
gentie 29
apparte@@ 29
ingenieurs, 29
geladen 29
biomassa 29
gewoonweg 29
cus 29
reduc@@ 29
ol. 29
fru@@ 29
logo 29
vaa@@ 29
klaa@@ 29
aanslagen 29
doos. 29
cc@@ 29
iPod 29
rige@@ 29
maken: 29
AIDS 29
hart- 29
pompen 29
gebar@@ 29
Gre@@ 29
noem, 29
beschei@@ 29
jagers 29
vlees, 29
realiteit, 29
bed, 29
beloof 29
aanzetten 29
kamp. 29
bevindingen 29
resp@@ 29
genetica 29
ilen 29
eigenlijke 29
weefsels 29
dilem@@ 29
Hei@@ 29
onzeker@@ 29
schept 29
vent 29
verstopt 29
opgebouwd. 29
verhaal: 29
vulling 29
ves 29
baa@@ 29
mond. 29
+ 29
wagen@@ 29
dalen. 29
I, 29
Y 29
knij@@ 29
lacht 29
Shakespeare 29
"Geef 29
geni@@ 29
immuun@@ 29
voorkom@@ 29
pra@@ 29
slijn 29
d's 29
Pla@@ 29
sna@@ 29
tong 29
ite 29
aanbieden 29
stom 29
tekend 29
maandelijk@@ 29
waarschijnlijk@@ 29
uitrusting 29
astronomen 29
verbie@@ 29
illus@@ 29
jonge, 29
precieze 29
Der@@ 29
vertelde, 29
cy 29
yn 29
draagbare 29
source-@@ 29
Professor 29
vervangen, 29
inhoud. 29
lesgeven 29
Vandaar 29
opa 29
positie. 29
heden@@ 29
massa-@@ 29
uitzien, 29
viss@@ 29
market@@ 29
verspreiden, 29
distribut@@ 29
manager 29
carrière. 29
lichts@@ 29
gerespec@@ 29
Want, 29
7% 29
Nee 29
ouder. 29
middelste 29
robuu@@ 29
illen. 29
pillen 29
ee@@ 29
Reu@@ 29
plex@@ 29
wh@@ 29
lijst. 29
smokkel@@ 29
enheid 29
Mau@@ 29
Alex 29
diende 29
puin@@ 29
Red 29
anoniem 29
gran@@ 29
laden 29
voorspelt 29
geëvolu@@ 29
continue 29
patroon@@ 29
duik 29
therapieën 29
zing. 29
component 29
endheid 29
mutaties 29
optimisme 29
krab@@ 29
ki@@ 29
grenzen. 29
laptops 29
openen, 29
eens? 29
Tit@@ 29
vlek 29
stadia 29
bevinden, 29
intelligentie, 29
Wereldoorlog. 29
natuurkun@@ 29
verda@@ 29
opeen@@ 29
theoretisch 29
arts, 29
schitter@@ 29
zingt 29
Ok. 29
magisch 29
flow 29
gat. 29
precisie 29
materie. 29
waarschijnlijkheid 29
geopend 29
slotte, 29
Tal@@ 29
schrift, 29
Korea, 29
betaalbare 29
banen, 29
alisering 29
eiland@@ 29
statistiek 29
uitwissel@@ 29
schaar@@ 29
scoop. 29
uplo@@ 29
deerd 29
intrigerende 29
apparaten. 29
stuurd 29
ima 29
opspor@@ 29
neerkomt 29
koorts 29
blindheid 29
erfenis 29
Bell 29
lange, 29
eigenlijk. 29
cale 29
allemaal@@ 29
ziekenhuis, 29
Schrij@@ 29
Map@@ 29
fte 29
doodsoor@@ 29
percent@@ 29
bep@@ 29
pizza 29
Moe@@ 29
wetenschappen, 29
surf@@ 29
activiteiten. 29
stroom. 29
zegt. 29
verbo@@ 29
afgesloten 29
mach@@ 29
verhuis@@ 29
bar 29
inzoomen 29
morgen. 29
!' 29
infl@@ 29
Rachel 29
verbeelding. 29
gangbare 29
enge 29
moraliteit 29
waarderen. 29
ie." 29
hard. 29
sniveau 29
verkochte 29
betekent: 29
buig@@ 29
scannen 29
leider@@ 29
steunt 29
line 29
opzoeken. 29
snijden. 29
aad 29
lus. 29
au 29
onderhandelingen 29
varing 29
ijnen, 29
gevechten 29
Soe@@ 29
verslag@@ 29
positie, 29
Jul@@ 29
sar@@ 29
serieus. 29
Siber@@ 29
boerder@@ 29
Studenten 29
kud@@ 29
fysie@@ 29
unde 29
rationele 29
documentaire 29
morgens 29
Cra@@ 29
Un@@ 29
Zaken 29
wijze, 29
droomde 29
Mill@@ 29
zoekop@@ 29
uiterlijk 29
neo@@ 29
gedraagt 29
spreekt, 29
cortex. 29
motorische 29
Absolu@@ 29
CO@@ 29
Congre@@ 29
verrijk@@ 29
nadenkt 29
geo-@@ 29
rol. 29
comfort 29
moedige 29
bedekken 29
2008. 29
sect@@ 29
teweeg 29
WK: 29
anesthe@@ 29
ambten@@ 29
keuken@@ 29
pan 29
muis@@ 29
Melkweg 29
noordoo@@ 29
leeuwen 29
gend, 29
sport. 29
kwar@@ 29
zicht, 29
vermogen, 29
tool 29
kg 29
breuk 29
Nederlandse 29
geschikte 29
discussie. 29
vouwt 29
et-@@ 29
reddings@@ 29
dingen: 29
Newton 29
symmetrieën 29
ah, 29
rimp@@ 29
magie. 29
geactiveerd 29
inspireerde 29
ari 29
savan@@ 29
inkt@@ 29
concer@@ 29
scholieren 29
TEDTal@@ 29
ep, 29
namen, 29
W: 29
overwinnen. 29
Kind: 29
Dave 29
portretten 29
ooit: 29
strom@@ 29
detector 29
spu@@ 29
Mars, 29
Wat@@ 29
haar: 29
Nieuw-Ze@@ 29
exotische 29
zinvolle 29
vrouwtjes 29
entropie 29
Kn@@ 29
BBP 29
Indus@@ 29
smartphone 29
cricket 29
big 29
niet-dodelijke 29
Arabisch 29
perspect@@ 28
rit 28
gedaald 28
kondigde 28
s! 28
afzonder@@ 28
wettelijk 28
vroeger. 28
neocortex 28
einen, 28
vuren 28
bruikbare 28
kke, 28
erden, 28
ool, 28
niet-nulsom@@ 28
dringend 28
kapital@@ 28
overeenkomsten 28
memen 28
hulp, 28
tuigen 28
ruimteschip 28
activiteit, 28
luchtvaart@@ 28
financ@@ 28
esthetische 28
super-@@ 28
acht. 28
co-@@ 28
ida@@ 28
uss@@ 28
betekenisvolle 28
genoom. 28
mond@@ 28
ografische 28
begrijp@@ 28
12.000 28
hi 28
departe@@ 28
alomtegenwoordig 28
discipline 28
ies: 28
Hallo 28
e-mails 28
piep@@ 28
lijst@@ 28
herfst 28
verstan@@ 28
gezien? 28
kaart@@ 28
"D@@ 28
Hart@@ 28
spoort 28
batterijen 28
levendig 28
tak@@ 28
jeug@@ 28
chimpanse@@ 28
iden, 28
py@@ 28
bidden 28
klinken. 28
papa 28
stelsel. 28
weefsel. 28
verwijderen. 28
conver@@ 28
icoon 28
Totdat 28
bla 28
beleefd 28
Brazilië, 28
geplaatst. 28
verru@@ 28
stemm@@ 28
karakterist@@ 28
zout 28
reikt 28
Miljoenen 28
komen." 28
Belangr@@ 28
sh 28
roeien 28
dans, 28
derde: 28
chip@@ 28
vervorm@@ 28
plast@@ 28
cent. 28
singen 28
oplos@@ 28
roken. 28
kudde 28
spec@@ 28
versnellen 28
verschillen, 28
individuen. 28
beheren 28
icus. 28
moet, 28
zoet@@ 28
"Jullie 28
volgen@@ 28
iden@@ 28
"een 28
iseerd. 28
Plat@@ 28
gaven, 28
bedenken, 28
Typ@@ 28
leten 28
uit." 28
overleed 28
viel. 28
online-@@ 28
aanwijzing 28
poo@@ 28
geheim@@ 28
mater@@ 28
geprogrammeerd 28
an? 28
zestig 28
buitenland 28
voortz@@ 28
verbinden, 28
Ric@@ 28
xi@@ 28
wetenschaps@@ 28
modul@@ 28
gevormd. 28
schrift. 28
uitnodigen 28
ish 28
vloeit 28
onger@@ 28
onderste@@ 28
stapt 28
opmerking 28
B-@@ 28
enties, 28
kabel@@ 28
hiërarchie 28
fran@@ 28
geschoten 28
Ter 28
aandelen@@ 28
kantoor, 28
tact@@ 28
miljoen, 28
Ten@@ 28
lelijk 28
balk 28
botsing 28
goedkeur@@ 28
bero@@ 28
reusachtige 28
schud@@ 28
strategisch 28
huid, 28
blijvend 28
voet. 28
ser. 28
intensiteit 28
gebouwde 28
droegen 28
zaten. 28
Chan@@ 28
kwestie. 28
gasten 28
Islamitische 28
Islam@@ 28
films. 28
26@@ 28
resterende 28
nit@@ 28
daarnaast 28
stonden. 28
tegengestelde 28
schizofren@@ 28
den" 28
2030 28
ay 28
oler@@ 28
leveren, 28
goed? 28
kwaliteit. 28
IP@@ 28
grap@@ 28
alsjeblieft. 28
MI@@ 28
verschijnsel 28
ingezet 28
gecontroleerde 28
fusie 28
toenemen 28
argumen@@ 28
leden, 28
dilemma 28
mentele 28
gebas@@ 28
langzamer 28
Hallo. 28
toegenomen 28
ss. 28
hitte 28
klon@@ 28
stierf. 28
bloei@@ 28
overlevenden 28
verkregen 28
dergelijks. 28
salar@@ 28
start. 28
aangenaam 28
regering. 28
plakken 28
zonder@@ 28
losl@@ 28
gelanceerd 28
E. 28
heelal, 28
visualisatie 28
maxim@@ 28
ats@@ 28
eentje. 28
station@@ 28
aans-@@ 28
materialen, 28
schijn 28
bestemm@@ 28
ften, 28
ats 28
integratie 28
invloedr@@ 28
tis@@ 28
geïm@@ 28
klinieken 28
richtlijnen 28
sky 28
Great 28
belandde 28
gelaten, 28
vecht 28
wetenschappers. 28
34 28
slach@@ 28
beperkingen. 28
treffen 28
far@@ 28
overal, 28
campagne. 28
teleurgesteld 28
besproken 28
gered. 28
vie@@ 28
put 28
missies 28
helpen? 28
sms 28
a's. 28
V-@@ 28
begrij@@ 28
Mas@@ 28
ep. 28
intuï@@ 28
conclus@@ 28
onderwijssysteem 28
Stop 28
diploma 28
bb@@ 28
geïntegreerd 28
win-@@ 28
dok@@ 28
bewaar@@ 28
n-@@ 28
zend 28
Denemar@@ 28
landelijk 28
80, 28
welvar@@ 28
zak@@ 28
opstand 28
Rusland. 28
Kir@@ 28
deal 28
snapte 28
bacteriën, 28
oceanen. 28
verwant 28
voorgoed 28
terugkeer 28
Et@@ 28
ag 28
modernis@@ 28
richtten 28
bedragen 28
verklein@@ 28
Rwan@@ 28
Julia 28
hoed 28
aanvall@@ 28
pool. 28
teru@@ 28
opwarm@@ 28
gemengde 28
achter, 28
detail@@ 28
comment@@ 28
ontdekking. 28
70. 28
Oegan@@ 28
handha@@ 28
interpret@@ 28
verm@@ 28
nodig@@ 28
"I@@ 28
gestre@@ 28
uiteinde 28
ruiken 28
iven 28
meningen 28
gezegde 28
akoe@@ 28
verdwijnen, 28
tapij@@ 28
plant. 28
richten, 28
bestudeerden 28
verse 28
Johnny 28
vlucht. 28
zwijgen 28
medelijden 28
conversat@@ 28
tte 28
overtuigend 28
ladingen 28
9/11 28
20% 28
onthouden, 28
dergelijk 28
wild@@ 28
opdrachten 28
mededogen 28
gegooid 28
ingebouwd 28
ontworpen, 28
Stewart 28
graff@@ 28
werken@@ 28
bestudeerde 28
ola 28
ten-@@ 28
weinige 28
visserij 28
samenwerk@@ 28
deug@@ 28
Nigeria. 28
70% 28
verlagen 28
App@@ 28
assen 28
verhou@@ 28
2002 28
genezing 28
Emily 28
passief 28
waarnemen 28
kust. 28
innen. 28
bevall@@ 28
Den@@ 28
zorgden 28
gevoerd. 28
spul. 28
uitdrukkingen 28
werkwoord 28
populaties 28
slecht, 28
regel. 28
spenderen 28
depressie, 28
natuurkundigen 28
80.000 28
idi@@ 28
traje@@ 28
milieu-@@ 28
"Omdat 28
vermoei@@ 28
anden. 28
"P@@ 28
sleutels 28
verbruikt 28
schur@@ 28
voorbereiden 28
broo@@ 28
E, 28
stemmen, 28
crat@@ 28
insecten. 28
zoon. 28
Dor@@ 28
meda@@ 28
televis@@ 28
conservatieve 28
handicap 28
jazz@@ 28
der? 28
premier 28
ening 28
ideologie 28
instru@@ 28
hekel 28
snaartheorie 28
één: 28
vissers 28
iër 28
Cy@@ 28
volle@@ 28
dinosaurus 28
Julian 28
ontspannen 28
ctiviteit 28
onnen 28
carrière@@ 28
gedra@@ 28
geleide 28
kweken. 28
verantwoor@@ 28
TEDTalk 28
real-time 28
splan@@ 28
ko 28
besten@@ 28
zelfvertrouwen 28
donor@@ 28
exoplan@@ 28
spinnen 28
YR: 28
meen 27
voormalig 27
gekeken. 27
inschatten 27
erover. 27
Republik@@ 27
Help 27
ondergaan 27
overheid@@ 27
bovendien 27
Wright 27
nes 27
curator 27
participat@@ 27
gerechtig@@ 27
locale 27
hn@@ 27
power@@ 27
Egyptische 27
stedelijk 27
sector, 27
tech 27
op." 27
Bran@@ 27
vaart, 27
woede, 27
Moore 27
000 27
geaccepteerd 27
buurman 27
binnenuit 27
opin@@ 27
chen 27
geconfron@@ 27
sing 27
bedacht, 27
gedachten. 27
beschre@@ 27
spectrum. 27
telde 27
yo@@ 27
hersch@@ 27
Noorwegen 27
suik@@ 27
welkom 27
geschen@@ 27
grens. 27
tin@@ 27
herkenning 27
dv@@ 27
gegroeid 27
beïnvloeden, 27
CD@@ 27
zonnepanelen 27
avond. 27
harmonie 27
doorbrengen 27
daarna, 27
erna 27
sporen, 27
dige. 27
jungle 27
Wereld 27
vaak. 27
dringt 27
complex, 27
recept@@ 27
dring@@ 27
optreden. 27
past. 27
opening 27
Engeland. 27
Whit@@ 27
Yu@@ 27
seksu@@ 27
bespar@@ 27
uiten 27
gezel@@ 27
Ston@@ 27
leidingen 27
3,@@ 27
praktijk@@ 27
kalk@@ 27
miner@@ 27
rechtse 27
sing@@ 27
gevoed 27
Opnieuw 27
je-@@ 27
gemaakt? 27
beantwoorden, 27
samenhan@@ 27
aanname 27
ash@@ 27
dreef 27
toestaan 27
ere, 27
sa. 27
script@@ 27
orkaan 27
verstop@@ 27
stomme 27
besteedde 27
volk@@ 27
dienst, 27
rouw@@ 27
do-@@ 27
gecontroleerd 27
kau@@ 27
boom, 27
viel, 27
deeld 27
verzonnen 27
US@@ 27
source 27
kunde. 27
duiken, 27
3-@@ 27
gids 27
nog@@ 27
krachten, 27
ga. 27
drupp@@ 27
stere@@ 27
vezel 27
Werel@@ 27
maak. 27
uitvinder@@ 27
advert@@ 27
verzinn@@ 27
teur. 27
vriend. 27
vers, 27
album 27
naakt 27
criminaliteit 27
iven. 27
enquête 27
vruchten 27
eruit? 27
getalenteerde 27
geanalys@@ 27
remedie 27
oom, 27
ente, 27
ban 27
significant 27
opdat 27
aspir@@ 27
buitenwereld 27
orden@@ 27
begrijpt, 27
kwartier 27
schot@@ 27
Mij 27
stipp@@ 27
king, 27
As@@ 27
steed@@ 27
toevall@@ 27
Lam@@ 27
loosheid 27
jagen. 27
danken 27
dend. 27
steen. 27
bedra@@ 27
belastingen 27
pers. 27
dacht@@ 27
divers 27
uitgevo@@ 27
mark@@ 27
provoc@@ 27
formele 27
plein 27
daartoe 27
modellen. 27
verkiezing 27
dum@@ 27
voorspellen, 27
klinkt. 27
atleten 27
scenari@@ 27
zintuigen. 27
correl@@ 27
pro-@@ 27
ijzer@@ 27
ouder, 27
heid." 27
gedachte. 27
waartoe 27
neuronen, 27
Philip 27
ilis@@ 27
vooraf@@ 27
brug@@ 27
iger. 27
Antarctica 27
bacteriële 27
60. 27
seren, 27
verlicht 27
televisie. 27
Zeven 27
sterrenstelsel@@ 27
toestand. 27
atoom 27
asteroï@@ 27
decor@@ 27
producent 27
situaties. 27
loop. 27
indrukwek@@ 27
H: 27
objecten, 27
oogpunt 27
hond. 27
cover 27
specialisten 27
sector. 27
kolen@@ 27
obesit@@ 27
oos, 27
planning 27
fietsp@@ 27
gaand 27
zuidelijk 27
lezingen 27
Koso@@ 27
Mocht 27
kerel. 27
adembene@@ 27
landschap. 27
uitgesproken 27
'Wat 27
gecreë@@ 27
voorsteden 27
assem@@ 27
telefoons. 27
zend@@ 27
uitspraken 27
ruilen 27
twij@@ 27
felen 27
infectie 27
recessie 27
Health 27
doet? 27
ag, 27
extrem@@ 27
Af 27
Johnson 27
Rome 27
prioriteiten 27
mug@@ 27
Derde 27
vitamine 27
saaie 27
universiteit@@ 27
glijk 27
bewoog 27
vagina 27
testoster@@ 27
interag@@ 27
jarigen 27
vervelend 27
át 27
ist? 27
Niet@@ 27
chirurgie. 27
vertrokken 27
slaagde 27
beroer@@ 27
Kinder@@ 27
getal, 27
Mohammed 27
behandeld. 27
Westen. 27
ekt. 27
uitnodig@@ 27
winnen, 27
afgrond 27
schijf 27
ax@@ 27
Italië 27
opgeven. 27
horlo@@ 27
groen@@ 27
eter@@ 27
samenwerking, 27
pinguïn 27
"het 27
stoken 27
onafhankelijk@@ 27
knoo@@ 27
management@@ 27
krant. 27
nodigt 27
investeerders 27
gefilmd 27
flexibele 27
ondersteund 27
evenredig 27
bnp 27
aliseerd. 27
bank, 27
ambitie 27
wekkende 27
bodem@@ 27
handvol 27
bevorderen 27
driehoe@@ 27
bestudeerd. 27
Burger@@ 27
condit@@ 27
opgesloten 27
meegemaakt 27
zulk 27
verbre@@ 27
Rusland, 27
weeg@@ 27
Kerst@@ 27
datum 27
deprim@@ 27
genaamd, 27
waan@@ 27
dge@@ 27
breedte 27
elt, 27
verwel@@ 27
tonnen 27
overwinn@@ 27
waaro@@ 27
irrig@@ 27
Maakt 27
opvattingen 27
bere@@ 27
religie. 27
gewenste 27
zaad 27
ren. 27
uitgangspunt 27
ekt, 27
klopte 27
achterover 27
dokter@@ 27
dokter, 27
achtig@@ 27
Wit@@ 27
gero@@ 27
hormonen 27
etho@@ 27
constan@@ 27
het?" 27
52 27
pad@@ 27
sheid, 27
liberale 27
verdriet 27
kleuter@@ 27
afschuwel@@ 27
aanwezig@@ 27
triom@@ 27
lijke, 27
"... 27
groeper@@ 27
stilte. 27
Ad@@ 27
definiëren. 27
gesc@@ 27
Bay 27
Neuro@@ 27
experimenten. 27
ness 27
aans, 27
duiken. 27
omlaag. 27
maatre@@ 27
China's 27
dier, 27
plic@@ 27
controll@@ 27
tegenwoor@@ 27
discre@@ 27
Str@@ 27
nucleair 27
gepubliceerd. 27
mislukte 27
vermindering 27
conclusies 27
Tij@@ 27
embry@@ 27
nesten 27
verbazingwek@@ 27
ziekenhuizen, 27
Andre@@ 27
verwijderd. 27
plunder@@ 27
herinneren. 27
rechtvaar@@ 27
teu@@ 27
starten, 27
stit@@ 27
rund@@ 27
getiteld 27
omie 27
melkweg@@ 27
Sel@@ 27
klimmen. 27
fossielen 27
Pier@@ 27
Syri@@ 27
huiselijk 27
geschri@@ 27
master@@ 27
jas 27
tuinen 27
Kennedy 27
gepakt 27
Delhi 27
aanleren 27
chtigheid 27
zucht 27
atmosfeer, 27
Oke. 27
wervel@@ 27
kunstenaars, 27
Itali@@ 27
nar@@ 27
verteld. 27
Blijkt 27
uitgevoerd. 27
kampio@@ 27
compassie. 27
stap, 27
verdrag 27
schap: 27
circul@@ 27
anders? 27
al? 27
moeilijker. 27
cijfers, 27
slachtoff@@ 27
ast. 27
Center. 27
weekend 27
discussiëren 27
BR@@ 27
begra@@ 27
tur@@ 27
l, 27
Sta 27
haaien@@ 27
aly@@ 27
fluoresc@@ 27
chauffeurs 27
C: 27
quar@@ 27
Pop@@ 27
volkeren 27
plaatsvindt. 27
wegen@@ 27
kapitein 27
pinguïn@@ 27
Vanwege 27
bloeddruk 27
monument 27
Parkinson 27
sterkste 27
eerd? 27
wachtwoord 27
betaalden 27
ole@@ 27
scores 27
ieven, 27
Stap 27
videogames 27
Higgs@@ 27
politie. 27
mammoet@@ 27
Daaruit 27
strips 27
publicatie 27
homo 27
haaien. 27
Twitter@@ 27
realit@@ 27
prothese 27
privac@@ 27
iPhone. 27
JC: 27
uitzen@@ 27
eksu@@ 27
["@@ 27
HG: 27
wenden 26
th 26
keten, 26
lachten 26
successen 26
Vin@@ 26
toont. 26
mac@@ 26
Haï@@ 26
heuvels 26
sap 26
gerecht 26
middel, 26
geproduc@@ 26
inkomen. 26
Ash@@ 26
voorlop@@ 26
raamwerk 26
financi@@ 26
verzet 26
omvormen 26
uitroeiing 26
aal-@@ 26
tex@@ 26
idio@@ 26
geholpen. 26
high 26
jacht@@ 26
Wat? 26
geen. 26
gedacht, 26
ruimtevaar@@ 26
Waaro@@ 26
irration@@ 26
toegeven, 26
0 26
Tan@@ 26
job@@ 26
vergelijken. 26
Elizabeth 26
heeng@@ 26
tafel, 26
Cat@@ 26
goedkoop. 26
cop@@ 26
eenvoudigweg 26
00, 26
tracht 26
overlapp@@ 26
parasiet 26
vaststellen 26
afgeleid 26
duizenden, 26
reek@@ 26
Foto@@ 26
umn@@ 26
ema@@ 26
avond, 26
toe? 26
Gat@@ 26
horloge 26
Eerlijk 26
Achter 26
of-@@ 26
gepublic@@ 26
apen. 26
stelijke 26
Tanzania 26
tou@@ 26
wonderbaarlijke 26
vlees. 26
bouw, 26
stemt 26
an?" 26
Monterey 26
voedt 26
weefsel, 26
locatie, 26
doelwit 26
vergaderingen 26
toen. 26
alistisch 26
intuït@@ 26
dak@@ 26
waardig@@ 26
onderhandelen 26
neigen 26
trouwen. 26
verschrikkelijk@@ 26
persoonlijkheid. 26
duwt 26
cten, 26
hoopt 26
zer. 26
drinkt 26
wateren 26
secon@@ 26
alomtegenwoor@@ 26
onde 26
Mozart 26
plicht 26
spaghettis@@ 26
schattingen 26
aanpakken, 26
congre@@ 26
ap. 26
moster@@ 26
boeiende 26
125 26
kilo. 26
gedocumen@@ 26
toegankelijk@@ 26
paran@@ 26
ouderwetse 26
mira@@ 26
duidelijker 26
korrel@@ 26
kaas 26
versie. 26
non-profit 26
passage 26
peu@@ 26
wederom 26
inci@@ 26
enten@@ 26
9/@@ 26
aliseren, 26
Central 26
43 26
kkig 26
industrieel 26
data-@@ 26
"Le@@ 26
Chin@@ 26
negeren. 26
label 26
Yorker 26
saai. 26
bakker@@ 26
droog 26
kort. 26
fantast@@ 26
perfection@@ 26
verwachten, 26
vlakke 26
reële 26
zaten, 26
architectonische 26
versterken. 26
gecomplic@@ 26
overige 26
bredere 26
massa. 26
Keith 26
ya, 26
concept, 26
bestonden 26
icon@@ 26
naakte 26
portret@@ 26
fotografeerde 26
jacht 26
Kal@@ 26
einse 26
Lawrence 26
ro. 26
minuut. 26
sanitaire 26
markten, 26
virtueel 26
Japan@@ 26
i's 26
vrijwillige 26
neutr@@ 26
rich@@ 26
clan@@ 26
Rick 26
transformeren. 26
aanwezig. 26
drukpers 26
versnelling 26
productiv@@ 26
orie 26
engineer@@ 26
atig 26
langer. 26
vol, 26
scap@@ 26
keten. 26
bonob@@ 26
Stra@@ 26
pert 26
plaatje. 26
flexi@@ 26
parachute 26
spectaculair 26
horizon 26
geomet@@ 26
Menselijke 26
spannen 26
spell@@ 26
ingre@@ 26
binden 26
nen, 26
structurele 26
toegewijd 26
scoop, 26
70, 26
stev@@ 26
vorder@@ 26
vang@@ 26
verlicht@@ 26
impor@@ 26
bewa@@ 26
subsidies 26
aandrij@@ 26
verspilling 26
enkelen 26
agen, 26
raag 26
periode, 26
toxische 26
branden. 26
scent@@ 26
tsunam@@ 26
98 26
standig@@ 26
dokter. 26
beloning. 26
pandemie 26
globalisering 26
kippen 26
lazen 26
dheden 26
The@@ 26
gerecht@@ 26
druppel@@ 26
vergiftig@@ 26
angstaanjagende 26
nalatenschap 26
goeie 26
aanmoe@@ 26
elementen. 26
behandeling, 26
margin@@ 26
ingebouwde 26
handelingen 26
mes, 26
waarder@@ 26
unt@@ 26
verdwijn@@ 26
iga@@ 26
interageren 26
hiervan. 26
punten, 26
gebor@@ 26
der: 26
potlood 26
universitaire 26
academisch 26
aaf@@ 26
hersenhel@@ 26
tten 26
collega, 26
hier: 26
herhaaldelijk 26
kop-munt-@@ 26
ziektes. 26
lukken. 26
wetten. 26
voorstander 26
oosheid 26
huilen 26
ego 26
vertoont 26
fasen 26
Red@@ 26
digit@@ 26
vertragen. 26
psychologisch 26
officieel 26
mentaliteit 26
geniet 26
source@@ 26
tv, 26
lening 26
bestemd 26
gefinancier@@ 26
aanste@@ 26
bos. 26
millisecon@@ 26
ffe 26
agressief 26
Research 26
onverwacht 26
bass@@ 26
hat 26
vrede, 26
pleidooi 26
apen@@ 26
ruil@@ 26
erden. 26
ingrediënt 26
initi@@ 26
140 26
procedures 26
toegelaten 26
minimale 26
erwijs 26
vertegenwoordigers 26
zond 26
luchtha@@ 26
passag@@ 26
tica 26
Groen@@ 26
obstakel 26
Institu@@ 26
Zuid-Afrika. 26
opstellen 26
sprak, 26
beschaving, 26
ht@@ 26
christenen 26
prachtige, 26
ziel. 26
overkomen. 26
toekom@@ 26
Inder@@ 26
roekel@@ 26
reerd. 26
geliefden 26
begeleiding 26
filosofen 26
kkingen 26
et." 26
Z 26
illustreert 26
omstandig@@ 26
stellingen. 26
verbeterd 26
omgaat 26
sprogram@@ 26
deelt@@ 26
seizo@@ 26
en.' 26
stikstof 26
joen 26
Nik@@ 26
Brun@@ 26
handen@@ 26
plaatsvinden. 26
geduldig 26
strijd@@ 26
onderuit 26
euwen@@ 26
wijd@@ 26
teert, 26
onthouden. 26
opgezet. 26
publie@@ 26
gebruiker@@ 26
tag@@ 26
Dur@@ 26
volgor@@ 26
schilderen. 26
digt. 26
myster@@ 26
Oceaan, 26
lux@@ 26
spoedig 26
bestrijden. 26
gepersonaliseerde 26
sjes 26
herken@@ 26
band, 26
187@@ 26
balanc@@ 26
latere 26
asteroïden 26
ongeluk. 26
buik@@ 26
charmante 26
wist. 26
beschikbaar. 26
binaire 26
beeldhou@@ 26
box 26
Margaret 26
blauw. 26
ij: 26
consequenties 26
.-@@ 26
volk, 26
leng@@ 26
v. 26
Pin@@ 26
"J@@ 26
antie, 26
lanceerden 26
christelijke 26
Verschillende 26
Eil@@ 26
verkennen, 26
leugens 26
geïntroduceerd 26
operaties. 26
Titan 26
prop@@ 26
creëert. 26
imago 26
dachte 26
beroerte 26
kruisen 26
ontvanger 26
anische 26
doss@@ 26
Vi@@ 26
osf@@ 26
Cru@@ 26
15, 26
opera 26
lichten. 26
gh@@ 26
nieu@@ 26
correspon@@ 26
bal, 26
zelfverzeker@@ 26
aandacht@@ 26
eraan, 26
centi@@ 26
bescherming. 26
werker 26
schokkende 26
muse@@ 26
configur@@ 26
Joel 26
vluchtel@@ 26
Lincoln 26
High 26
Sam 26
uitgang@@ 26
lingen 26
game 26
Indonesi@@ 26
fruit 26
kse 26
voegde 26
paper 26
missen. 26
drie: 26
edel@@ 26
Wolfram 26
zoals: 26
koelkast 26
opvang@@ 26
luip@@ 26
stunt@@ 26
corrig@@ 26
detecteren 26
diersoorten 26
oogsten 26
Net@@ 26
uitdagingen. 26
beloningen 26
leuker 26
bijen. 26
Verslaggever: 26
D: 26
imin@@ 26
blokk@@ 26
hormo@@ 26
bijwerkingen 26
geïnfec@@ 26
criminele 26
neuron@@ 26
schadelijke 26
ongelijkheid. 26
sms'en 26
geprin@@ 26
Sebastian 26
MS: 26
Israël@@ 26
openden 25
deur, 25
Clinton 25
presentatie. 25
dwingt 25
graan@@ 25
keerden 25
analyse. 25
Californ@@ 25
termijn, 25
Ah@@ 25
toelaat 25
dien, 25
vooruitgang, 25
beheers@@ 25
functioneren. 25
12. 25
eid. 25
kredie@@ 25
landers 25
subsid@@ 25
mande 25
vijftien 25
wedstrij@@ 25
gestopt. 25
overla@@ 25
Space 25
verschijnen. 25
analog@@ 25
bevindt, 25
herken 25
Blue 25
gas, 25
Ni@@ 25
houders 25
opleveren. 25
aanval. 25
ieus, 25
voorwaarde 25
s". 25
que@@ 25
Gordon 25
ities 25
ademen, 25
1995 25
cellulaire 25
chromosoom 25
accuraat 25
Recent 25
verdragen 25
samengesteld 25
transplan@@ 25
biop@@ 25
an-@@ 25
interfa@@ 25
bemoedig@@ 25
ht 25
past, 25
kleiner. 25
elegant 25
word@@ 25
Saf@@ 25
verbaas@@ 25
pad, 25
ager 25
plotsel@@ 25
stevige 25
terugbrengen 25
"Kijk 25
Nancy 25
dé 25
letsel 25
lever, 25
beschadigd 25
artikel@@ 25
resistent 25
helemaal. 25
voorzien, 25
controleert 25
ico@@ 25
zamer 25
verantwoordelijkheid. 25
y? 25
architectuur, 25
], 25
Si@@ 25
2004. 25
zwaartekracht. 25
lunch@@ 25
performan@@ 25
inherent 25
mat 25
"Ja@@ 25
circuit 25
romant@@ 25
gelijkheid. 25
partner, 25
samenlevingen. 25
algemeen. 25
Australische 25
onbewuste 25
gezet@@ 25
overleeft 25
Lake 25
biedt. 25
flinke 25
mineralen 25
wordt? 25
materiaal@@ 25
96 25
stuifme@@ 25
meren. 25
bult@@ 25
lessen. 25
verbazende 25
reag@@ 25
eren: 25
ongelukken 25
beheersen. 25
gesl@@ 25
koninkr@@ 25
clich@@ 25
technologisch 25
catalog@@ 25
trucs 25
breiden 25
tie@@ 25
promo@@ 25
sta, 25
Oreg@@ 25
“Ik 25
longontste@@ 25
wintig 25
Oor@@ 25
Maria 25
betoog 25
observeren 25
uitermate 25
palm@@ 25
camera, 25
stokken 25
gedefinieerd 25
eten? 25
auteurs@@ 25
mogelijk? 25
site. 25
verwijst 25
'n 25
dek@@ 25
neef 25
instinct 25
gema@@ 25
innovatief 25
rap@@ 25
lost 25
vacuü@@ 25
bevest@@ 25
icht, 25
bevestigd 25
sterkte 25
verspreidde 25
luid 25
AC@@ 25
Pic@@ 25
afgezien 25
mogelijkheid. 25
geheel. 25
enquê@@ 25
verba@@ 25
arre@@ 25
afschrik@@ 25
flo@@ 25
vragen@@ 25
gebruiken." 25
wetten, 25
logi@@ 25
s?" 25
richtingen. 25
verbruik@@ 25
camera@@ 25
00. 25
Man, 25
opvat@@ 25
aircondition@@ 25
oof 25
Geweldig. 25
sociale, 25
omhoog@@ 25
hof 25
caus@@ 25
entertain@@ 25
form. 25
6000 25
Tam@@ 25
biljet 25
nik@@ 25
geduld 25
gearresteerd 25
verhuizen. 25
pe 25
?", 25
fout, 25
slimste 25
ler, 25
techniek. 25
kankers 25
pas. 25
morgen, 25
tige, 25
betra@@ 25
erkend 25
Times. 25
bewerk@@ 25
aarden 25
controver@@ 25
bijdra@@ 25
gebruikers, 25
professionals 25
ieman@@ 25
Wi@@ 25
voorspelbaar 25
theoretische 25
tweederde 25
Mob@@ 25
lijsten 25
verdubbelen 25
zelforganis@@ 25
beperk@@ 25
geselec@@ 25
insul@@ 25
apparaten, 25
fenomen@@ 25
strenge 25
malaria. 25
delijkheid 25
metabolisme 25
gewij@@ 25
catastrof@@ 25
herstellen, 25
onsterfelijk@@ 25
barsten 25
dwan@@ 25
Lab 25
leraren, 25
prijs, 25
oké? 25
echt? 25
sim@@ 25
puntjes 25
standige 25
veget@@ 25
reson@@ 25
struik@@ 25
verpleegster 25
Ap@@ 25
gemoe@@ 25
uitmaken. 25
universum@@ 25
vermeld 25
blij. 25
wolkenkrab@@ 25
Yves 25
iers@@ 25
stopt, 25
hef@@ 25
repareren 25
goedgekeurd 25
Canadese 25
hond, 25
daad@@ 25
organiseerde 25
wedstrijden 25
klanten. 25
Zuid 25
vlug 25
ader@@ 25
overgaan 25
Scho@@ 25
migr@@ 25
tegenaan 25
drong 25
baanbrekende 25
puberteit 25
motiveren 25
loslaten 25
melden 25
omheen 25
blinden 25
spraak, 25
eën 25
bevestigen 25
sma@@ 25
terrorist 25
ad, 25
Feitelijk 25
2008, 25
hoe, 25
honkbal@@ 25
theat@@ 25
geïnformeerde 25
BB@@ 25
creditcar@@ 25
"Sch@@ 25
groeps@@ 25
evenement 25
herkennen, 25
47 25
intentie 25
letterlijk, 25
achterin 25
Bovenaan 25
buitenaards 25
kunstenaar. 25
ongelijk@@ 25
danser@@ 25
omgaan, 25
vermogens 25
mysteries 25
verzin@@ 25
passie, 25
trivi@@ 25
ptie 25
onafhankelijkheid 25
Jammer 25
rech@@ 25
pijl 25
talk, 25
vuist@@ 25
geteld 25
uitingen 25
correlatie 25
moraal 25
basis, 25
ichten 25
ren, 25
geving, 25
legt, 25
observatie 25
ronen 25
kei@@ 25
introduceert 25
krachtigste 25
tips 25
voordeel. 25
ort. 25
onvoorstelbaar 25
vijandige 25
adv@@ 25
leningen 25
Twee: 25
Breng 25
gelegd, 25
geluiden. 25
position@@ 25
maten 25
bewegings@@ 25
verwoest 25
waarnemen. 25
kies@@ 25
gekomen? 25
weel@@ 25
houdende 25
documenta@@ 25
lau@@ 25
ijns 25
Indonesië 25
gestegen 25
wederzijdse 25
afname 25
diarree 25
BNP 25
katholieke 25
verwarr@@ 25
blie@@ 25
was." 25
voelde. 25
uitnodiging 25
sms'@@ 25
Kra@@ 25
ogra@@ 25
prober@@ 25
Frankrijk. 25
"Ben 25
Ed 25
bananen 25
landen@@ 25
Chili 25
gedom@@ 25
propag@@ 25
openlijk 25
Precies 25
fac@@ 25
bewust. 25
einde, 25
leren? 25
geren, 25
pakten 25
elektromagnetische 25
dat?" 25
Nick 25
Roger 25
doorgaan, 25
beroe@@ 25
del, 25
verbeelding, 25
gevar@@ 25
= 25
paarden 25
3: 25
90. 25
artsen, 25
twintigste 25
behoor@@ 25
ontzag 25
nucle@@ 25
paras@@ 25
SB: 25
Bedankt, 25
hobb@@ 25
entrop@@ 25
platteland. 25
iti@@ 25
MIT, 25
beweerde 25
automatische 25
lar@@ 25
delen? 25
Nu@@ 25
corrupte 25
dochter, 25
instellingen. 25
actuele 25
darm@@ 25
vreemd, 25
doorsne@@ 25
aid@@ 25
vertrekt 25
kameel 25
Irak, 25
specifie@@ 25
ille@@ 25
contacten 25
eis 25
operatie@@ 25
Eu@@ 25
Dru@@ 25
verwarm@@ 25
gedacht. 25
individu. 25
overbrug@@ 25
Frankrijk, 25
ijden. 25
prikkels 25
transformatie. 25
SO@@ 25
moois 25
us-@@ 25
wegens 25
bewu@@ 25
evolueren 25
robot, 25
gaten. 25
zoekt, 25
ight 25
zaak, 25
ffing 25
ic. 25
geslagen. 25
groen. 25
450 25
oplevert. 25
Allen 25
uiteenlopende 25
Tat@@ 25
noemden. 25
Gold@@ 25
tweede@@ 25
masker 25
weten? 25
hoe. 25
integriteit 25
ekt 25
bruik@@ 25
zuivere 25
itu@@ 25
samenvatting 25
intellectu@@ 25
gewaar@@ 25
sens@@ 25
begre@@ 25
transplantatie 25
irrit@@ 25
Niet? 25
dicht. 25
chaos. 25
machten 25
families, 25
classific@@ 25
antwoord: 25
Gary 25
compro@@ 25
vroe@@ 25
hetero@@ 25
he 25
Perfe@@ 25
barrières 25
timmer@@ 25
leerl@@ 25
rabb@@ 25
Christopher 25
sling@@ 25
paddenstoelen 25
gegeten 25
geïsoleerde 25
links. 25
slaap. 25
authentic@@ 25
chip. 25
gemotiv@@ 25
feedba@@ 25
stot@@ 25
collega's, 25
kunsten 25
nier@@ 25
iveau. 25
dansers 25
geworteld 25
kevers 25
sheid. 25
klimmers 25
&lt;@@ 25
pensioen@@ 25
sperma 25
golven. 25
strijd. 25
connectoom 25
geweldloze 25
Lester@@ 25
eten@@ 24
vliegveld 24
kker, 24
wisseling 24
Duur@@ 24
neutraal 24
beslissingen. 24
bemiddel@@ 24
verdrievou@@ 24
hout. 24
sterkere 24
Ghan@@ 24
gedomineerd 24
verenigd 24
19de 24
86 24
drugs. 24
27@@ 24
gesloten, 24
stilstand 24
doct@@ 24
dansen. 24
voordelen. 24
International 24
gestorven. 24
2020 24
Doordat 24
Acht 24
Blu@@ 24
pols 24
gestuurd, 24
naartoe. 24
verwacht, 24
verwezenlijken. 24
sequenties 24
minimaal 24
besturingssysteem 24
variëren 24
straling. 24
jan@@ 24
zuurstof. 24
metha@@ 24
cellul@@ 24
genoemde 24
arts. 24
bedoel. 24
klassiek 24
m?" 24
d! 24
nodig." 24
streep@@ 24
print@@ 24
ummer@@ 24
es-@@ 24
vouw 24
schelen. 24
verlaat 24
daan 24
langdurige 24
omhel@@ 24
dek 24
zakt 24
zij. 24
zovele 24
begaan 24
toekomst? 24
patri@@ 24
Vla@@ 24
trouwde 24
boot, 24
bescha@@ 24
artikels 24
long 24
herapie 24
differenti@@ 24
eviden@@ 24
samentre@@ 24
kunstenaar, 24
FG: 24
zweet 24
steden@@ 24
gebouw@@ 24
Mir@@ 24
tapijt 24
afron@@ 24
delic@@ 24
betekenis, 24
bellen, 24
verwerven 24
imet@@ 24
calci@@ 24
snor@@ 24
netwerken, 24
high@@ 24
verdamp@@ 24
samenvoegen 24
ketens 24
gluco@@ 24
omh@@ 24
geraken, 24
culti@@ 24
telen. 24
geling 24
evolueren. 24
keuzes, 24
kansen, 24
bell@@ 24
vlot 24
Oude 24
ppe 24
ologen, 24
hoopten 24
Norman 24
april 24
ontvangen. 24
path@@ 24
g? 24
gezichten. 24
kikkers 24
Eerder 24
blijk@@ 24
Jones 24
schoten 24
ervan@@ 24
Abu 24
filmp@@ 24
geslo@@ 24
Kit@@ 24
Texas, 24
Mexico, 24
Japans 24
remix@@ 24
exemplaar 24
Pot@@ 24
licentie 24
gezorgd 24
berekenen. 24
Hey, 24
lus 24
penis 24
vertalen. 24
ondersteboven 24
dorpje 24
verbinding. 24
Groot 24
vloeien 24
meubel@@ 24
complex. 24
gevouwen 24
saa@@ 24
still@@ 24
onzichtbaar. 24
strategie. 24
.000, 24
sier@@ 24
Chicago. 24
ppen@@ 24
hielden. 24
streven. 24
urige 24
onverschill@@ 24
concept. 24
ongevallen 24
moest. 24
kinderen? 24
bekeken, 24
duidelijk, 24
slacht@@ 24
versier@@ 24
ploo@@ 24
massa, 24
dimension@@ 24
schets 24
ion 24
poor@@ 24
per. 24
bureau. 24
bisch 24
ps. 24
keek. 24
fasciner@@ 24
M-@@ 24
tolerantie 24
wilder@@ 24
nis. 24
daarheen 24
voetbal 24
flexibiliteit 24
verklaarde 24
Boy@@ 24
vertonen. 24
erg. 24
schizofrenie 24
O'@@ 24
spons@@ 24
encyclopedie 24
uitgebrei@@ 24
controversiële 24
IR@@ 24
waardeloos 24
onzin 24
samenzwer@@ 24
afsch@@ 24
hipp@@ 24
sap@@ 24
Histor@@ 24
maakten, 24
experiment, 24
processor 24
goed." 24
muis. 24
akoestische 24
netvlies 24
de' 24
revolut@@ 24
omvat 24
hopel@@ 24
volging 24
levensverwacht@@ 24
verer@@ 24
ongelijk 24
voorgaande 24
routes 24
individuen, 24
dra 24
geprobeerd. 24
klank 24
defens@@ 24
asteroïde 24
bewogen 24
vraagt. 24
betrokken. 24
discipl@@ 24
beschikken. 24
laat, 24
vel. 24
staan? 24
zuiver 24
noemde. 24
reisden 24
gereden 24
schra@@ 24
Bill@@ 24
compli@@ 24
melo@@ 24
im. 24
geconcentreerd 24
financieren 24
netto 24
terecht, 24
ontdek 24
zelfs, 24
klasse. 24
mobiliteit 24
leger. 24
ie' 24
gewond 24
Island 24
spring@@ 24
hop 24
verantwoordelijke 24
verslechter@@ 24
ils 24
wens. 24
getrokken. 24
Bangladesh 24
Win@@ 24
General 24
wijken. 24
verzetten 24
schoenen. 24
bestand@@ 24
wekelijk@@ 24
anda 24
gelukkigste 24
Gods 24
volksgezondheid 24
lant@@ 24
iesyste@@ 24
treinen 24
verko@@ 24
stimulans 24
voorkomt. 24
ly 24
wa 24
N, 24
wees@@ 24
verstandig 24
zz@@ 24
uitwerp@@ 24
genege@@ 24
Lewis 24
gebeurtenis. 24
iter@@ 24
investeren, 24
vraagt, 24
gebruikers. 24
programme@@ 24
trof 24
afko@@ 24
toetsenbord 24
oppen@@ 24
aanraa@@ 24
gister@@ 24
von 24
dans. 24
lichamelijke 24
dicht, 24
accoun@@ 24
klaar, 24
allicht 24
gevangenis, 24
verhoogd 24
dwaa@@ 24
ering, 24
terugkoppel@@ 24
chirurg@@ 24
overdreven 24
eigenbelang 24
sport, 24
wezen, 24
"Wow, 24
Pur@@ 24
ve-@@ 24
amus@@ 24
dieper@@ 24
agu@@ 24
genoe@@ 24
namid@@ 24
zeven, 24
Hier, 24
helaas, 24
LED-@@ 24
vangen, 24
blig@@ 24
verdomde 24
identificeren. 24
armen, 24
Centraal 24
zacht@@ 24
hard, 24
het! 24
honger. 24
jullie@@ 24
c. 24
font@@ 24
statische 24
verzen@@ 24
2007, 24
abstract 24
fri@@ 24
vrijgev@@ 24
donker, 24
Kab@@ 24
ul, 24
Groot-Brittannië, 24
sterfte@@ 24
Tanzan@@ 24
gerekend 24
geschokt 24
deur@@ 24
kwaadaar@@ 24
"Waaro@@ 24
dankbaarheid 24
browser 24
marion@@ 24
zak, 24
ram@@ 24
aalde 24
huilde 24
na: 24
ss-@@ 24
pper@@ 24
groeit, 24
variabele 24
moti@@ 24
eens: 24
emotie. 24
Hawa@@ 24
verloren, 24
Plan@@ 24
wd 24
alledaags 24
beweert 24
voorouders, 24
anatomie 24
kleuren, 24
leraar. 24
Merk 24
rubberen 24
geïmprovis@@ 24
nich@@ 24
raster 24
vroegen: 24
simpel, 24
Sk@@ 24
Ye@@ 24
dwa@@ 24
fluist@@ 24
spanningen 24
kerk@@ 24
genezen, 24
Ivan 24
ser, 24
sme 24
Ada@@ 24
"Voor 24
Ang@@ 24
analyse, 24
verwarren 24
heren. 24
bedrij@@ 24
enthousia@@ 24
Kunst@@ 24
Wereldoorlog, 24
zand. 24
chi@@ 24
Boston, 24
Boston. 24
bureaus 24
vijftig 24
museum. 24
bezocht, 24
spat@@ 24
repti@@ 24
lezing. 24
eet. 24
strategie, 24
maak@@ 24
Nigeri@@ 24
8% 24
D.C. 24
leveranc@@ 24
tragisch 24
Egypte. 24
leger, 24
sciencef@@ 24
beperkt. 24
Geograph@@ 24
microscopische 24
Tesla 24
strat@@ 24
krat@@ 24
Wom@@ 24
Jonge 24
besparen. 24
vingeraf@@ 24
bronnen, 24
middelpunt 24
tunnel 24
faculteit 24
deling, 24
compa@@ 24
generaties. 24
cade@@ 24
simpl@@ 24
konden. 24
hal 24
droom, 24
opgroeide, 24
buff@@ 24
Republiek 24
huisvest@@ 24
jegens 24
hek 24
athie 24
vaardigheden, 24
waarnemingen 24
Nederland 24
geweldda@@ 24
Koude 24
regelen. 24
ke. 24
antibio@@ 24
tica. 24
kwaadaardige 24
Sur@@ 24
dook 24
gewo@@ 24
houding. 24
Midden-Oosten. 24
fest@@ 24
vest 24
bloed. 24
cadeau 24
Gaat 24
ag. 24
Enor@@ 24
stervende 24
steek@@ 24
verbruiken 24
vliegt. 24
aangename 24
Bri@@ 24
Cap@@ 24
begrijpelijk 24
bedrading 24
verlamming 24
Hij: 24
Ongeloofl@@ 24
wél 24
geschei@@ 24
gloei@@ 24
Lord 24
engineering 24
korrels 24
assistent 24
hecht@@ 24
AA@@ 24
4,@@ 24
lijnen, 24
Sorry. 24
trappen 24
achterlaten 24
Phil@@ 24
tandar@@ 24
inktvis 24
oct@@ 24
lettertyp@@ 24
vrachtwagen 24
niet?" 24
slapen, 24
iden. 24
graf 24
ckl@@ 24
gehouden, 24
oever 24
Francisco. 24
Zipcar 24
coöperat@@ 24
dos@@ 24
rak@@ 24
han 24
80. 24
docent 24
gekru@@ 24
Oer@@ 24
formen 24
elektron 24
link@@ 24
politicus 24
herin@@ 24
foo@@ 24
althans 24
deskundigen 24
ét 24
alli@@ 24
factoren. 24
adapt@@ 24
kopieën 24
filmmaker 24
eisen. 24
Natasha 24
stunts 24
aanslag 24
mm, 24
gehoor 24
Intel 24
stereot@@ 24
gematig@@ 24
Jordan@@ 24
Singapore 24
varie@@ 24
rek@@ 24
spoe@@ 24
virus, 24
brieven@@ 24
SETI 24
insect@@ 24
bedrijfsleven. 24
skateboar@@ 24
Syrië 24
verkoper 24
staren 24
darmen 24
kolommen 24
hersensch@@ 24
versleutel@@ 24
AO: 24
jihad 24
Snowden 24
Goals 24
hybride 23
illustreren 23
Letter@@ 23
grappen 23
herhaalde 23
izen. 23
houtsk@@ 23
gezocht 23
brandstoffen. 23
inbeelden 23
ontmoedig@@ 23
studeerden 23
genereren. 23
actie, 23
ervaart 23
armsten 23
onderwezen 23
opzetten. 23
kapitaal, 23
cruci@@ 23
bezighouden 23
onmiddellijke 23
juist. 23
Tijd 23
provinc@@ 23
vooral, 23
aantrekken 23
12, 23
dia. 23
Onthoud 23
hey, 23
makend 23
vervanging 23
intimiteit 23
bestuur. 23
rest. 23
Ve@@ 23
beslisten 23
frustratie 23
toevoeg@@ 23
zeewater 23
ocean@@ 23
minimum 23
beker 23
verbod 23
verwoestende 23
Broad@@ 23
alar@@ 23
u? 23
bruin 23
d... 23
smee@@ 23
aanhan@@ 23
Micro@@ 23
gevestigde 23
griep. 23
lichter 23
Louis 23
gedragingen 23
bevolkingsgroei 23
woestijn, 23
onszelf, 23
vlekken 23
opwinding 23
bloei 23
Canada. 23
stamcellen. 23
zaam. 23
kankercellen 23
Geh@@ 23
Disney 23
College 23
burg 23
mooier 23
afger@@ 23
wakker. 23
ade, 23
syste@@ 23
maal. 23
verschill@@ 23
Sol@@ 23
huwelijks@@ 23
kwaa@@ 23
seroton@@ 23
Tim@@ 23
mysterieus 23
Gla@@ 23
ped@@ 23
ontspann@@ 23
geven." 23
chemical@@ 23
linkse 23
mijnen. 23
Kelly 23
koester@@ 23
tegenkomen. 23
Jamie 23
ingen: 23
evenzeer 23
huishouden 23
7.000 23
's? 23
maï@@ 23
uitgevonden, 23
fys@@ 23
grafiek, 23
elt. 23
bodem, 23
olij@@ 23
confrontatie 23
besteedt 23
verontrustende 23
Duitsland. 23
verdween 23
opsporen 23
Florida. 23
verhaaltje 23
Da's 23
nest@@ 23
Jenn@@ 23
ani@@ 23
ssysteem. 23
auteurs 23
ank 23
maat. 23
teur@@ 23
chtig@@ 23
combineren. 23
knutsel@@ 23
staart. 23
intervie@@ 23
hun@@ 23
loos. 23
Ontwikkel@@ 23
entieel. 23
ky 23
schadu@@ 23
ilde 23
250.000 23
prostitue@@ 23
betaal 23
fat@@ 23
brood. 23
snelst 23
loon 23
oom. 23
gordel 23
crash 23
toeval. 23
statistieken. 23
gevraagd, 23
1500 23
oorspron@@ 23
beweeg 23
synthet@@ 23
invloe@@ 23
bekle@@ 23
Licht 23
rood. 23
gier@@ 23
hect@@ 23
onderbro@@ 23
park, 23
kkel 23
ativ@@ 23
overblijf@@ 23
schaduw@@ 23
chocolade@@ 23
museu@@ 23
Manhattan. 23
Lama 23
z-@@ 23
ka. 23
ici. 23
molecule 23
kopieer@@ 23
Spr@@ 23
namelijk: 23
autisme. 23
spraken. 23
,' 23
stranden 23
ruggengr@@ 23
verbetert 23
werknemers. 23
verloopt 23
perfect, 23
belachelijke 23
controversieel 23
begrijpt. 23
semi-@@ 23
legt. 23
verschrik@@ 23
procedu@@ 23
degelijk 23
verhaall@@ 23
2010, 23
televisie, 23
Wet 23
moleculen. 23
overlijden 23
Belangrijk 23
biotechnologie 23
nóg 23
zeeën 23
omvangr@@ 23
Tunesi@@ 23
jullie? 23
Tun@@ 23
Chris. 23
geboden 23
neef@@ 23
supernova@@ 23
ijzer 23
universa 23
aanvaarden 23
piepkleine 23
ign@@ 23
weliswaar 23
ondergang 23
ren? 23
minuscule 23
bewust, 23
inner@@ 23
namens 23
viool 23
origineel 23
Leu@@ 23
donker. 23
leerd, 23
verza@@ 23
overweldigende 23
vormgeving 23
bijzonder, 23
ballon@@ 23
kostbaar 23
Detro@@ 23
bouwen? 23
noemde, 23
speelgoed. 23
miljo@@ 23
introduceren 23
transit@@ 23
sagen@@ 23
Diegenen 23
beide. 23
waardel@@ 23
aansluiten 23
vervuiling, 23
vervoer. 23
grafie. 23
down@@ 23
vervolg 23
servat@@ 23
inzam@@ 23
blaas@@ 23
oplossingen, 23
coach@@ 23
kje. 23
Shan@@ 23
duurzaamheid. 23
brand. 23
spreekt. 23
d'. 23
Iran, 23
vandaar 23
óf 23
opgemerkt 23
zol@@ 23
verwarring 23
leeuw 23
besmettings@@ 23
corruptie, 23
afmet@@ 23
prijzen. 23
famil@@ 23
malari@@ 23
discussie@@ 23
R&amp;D-@@ 23
verkeerd, 23
broed@@ 23
Beter 23
sourc@@ 23
brie@@ 23
en," 23
nis@@ 23
zender 23
geleverd. 23
hoekje 23
genot 23
Square 23
"C@@ 23
toetsen@@ 23
Rosl@@ 23
talen, 23
ervaringen, 23
visu@@ 23
disciplines 23
chore@@ 23
ippen 23
vatbaar 23
ft." 23
beto@@ 23
ophe@@ 23
videogam@@ 23
verwijzen 23
Grieken 23
fatso@@ 23
Solom@@ 23
staf 23
geschapen 23
schilder 23
bepalen, 23
alsook 23
ls 23
stijgt. 23
wandelen. 23
wrij@@ 23
chan@@ 23
eeuwig@@ 23
motto 23
mediabedrijven 23
Google. 23
os. 23
snijdt 23
Centraal-@@ 23
speciaals 23
Ny@@ 23
institu@@ 23
plezierige 23
Pak 23
paar. 23
ff 23
kruip@@ 23
ador@@ 23
bijdraagt 23
Best 23
ater@@ 23
18e 23
mariene 23
geschat 23
temperaturen 23
verleiding 23
teweeg@@ 23
overweg@@ 23
genoc@@ 23
Mandel@@ 23
nauwe 23
invas@@ 23
accepteren. 23
ënhalf 23
wez@@ 23
ongebruikelijk 23
gere 23
c-@@ 23
medewerker 23
ontving 23
ontslagen 23
ing" 23
grapje. 23
logist@@ 23
vertraging 23
record 23
slid 23
Antarc@@ 23
Scot@@ 23
00@@ 23
meng@@ 23
lichting 23
crit@@ 23
scherp@@ 23
up-@@ 23
drijf 23
winkelcentrum 23
rangsch@@ 23
kristallen 23
hoorn@@ 23
schatten. 23
verber@@ 23
gel, 23
Medical 23
schokken 23
zers. 23
verschenen 23
4% 23
Dr@@ 23
gelooft, 23
potten 23
schelen 23
antwoorden, 23
Egyptenaren 23
Zee 23
wende 23
kringen 23
gezag 23
beroepen 23
minderheid 23
Nie@@ 23
aanzienlijke 23
Gisteren 23
spun@@ 23
k' 23
bijzonders 23
bits 23
dracht 23
Gran@@ 23
scul@@ 23
boei@@ 23
zijkant 23
Hand@@ 23
besteedden 23
gebleven 23
prooi 23
go. 23
blauw, 23
sus 23
30-@@ 23
ratio 23
all 23
ddhistische 23
paradox 23
realistische 23
web, 23
verdient. 23
tuig. 23
DE@@ 23
male 23
dubbelzinn@@ 23
gepension@@ 23
Barack 23
det@@ 23
aanraken. 23
ongema@@ 23
conser@@ 23
begon@@ 23
leed. 23
is?" 23
overgrote 23
spuit 23
werk? 23
iers, 23
Dick@@ 23
Lim@@ 23
collega's. 23
Samuel 23
schuld@@ 23
woordenboeken 23
oordelen 23
ft? 23
misdaad@@ 23
donoren 23
baars 23
cle@@ 23
cognit@@ 23
orische 23
steekpenn@@ 23
foss@@ 23
Ergens 23
merende 23
perio@@ 23
voet, 23
verticaal 23
alfabet@@ 23
Vrede 23
ol 23
veteranen 23
poort 23
apparaat, 23
wijken, 23
brow@@ 23
sprak. 23
geschilderd 23
Ty@@ 23
Ur@@ 23
K, 23
barrière 23
tsen, 23
regio, 23
combineert 23
vuile 23
springen, 23
vastgesteld 23
gestoord 23
organen. 23
zenuw 23
Dere@@ 23
eenvoudige, 23
ey. 23
vreug@@ 23
synap@@ 23
vriendelijkheid 23
mmen. 23
asc@@ 23
toppen 23
architectuur@@ 23
bewegingen. 23
ër 23
jezelf, 23
intieme 23
slaagt 23
roofdieren 23
baby's. 23
burgerlijke 23
Rab@@ 23
seren. 23
Spaanse 23
bleef. 23
iconische 23
elite 23
optimale 23
NGO's 23
bevrie@@ 23
beschermt 23
gon@@ 23
gast 23
schip. 23
kilo@@ 23
emp@@ 23
Zien 23
bloeding 23
parallelle 23
hoorn 23
hersenactiviteit 23
sover@@ 23
proje@@ 23
bogen 23
vervelende 23
alcohol 23
hartaanval 23
kubieke 23
selec@@ 23
vegetar@@ 23
gezeten. 23
waterstofsulfide 23
Achter@@ 23
tet@@ 23
Wij, 23
acteurs 23
Neanderthal@@ 23
cher@@ 23
opgelo@@ 23
pakt, 23
brief@@ 23
vullen, 23
Verhalen 23
harten 23
reservaat 23
Oosten 23
frau@@ 23
dief@@ 23
Oklahoma 23
filantropie 23
uitschakel@@ 23
ader 23
lekken 23
slim, 23
gevoeligheid 23
splij@@ 23
Indiërs 23
vertelt, 23
igran@@ 23
presidents@@ 23
ruimen 23
machtigste 23
glamour 23
patiënt, 23
keuken. 23
Phoenix 23
P: 23
regelmatige 23
gedurfde 23
afbeelding. 23
30. 23
ecosysteem. 23
L-@@ 23
Twitter. 23
seizoen. 23
snor 23
TEDTalks 23
stoornissen. 23
geleid. 23
time-lap@@ 23
Zweden. 23
gletsjer 23
re: 23
Qaeda 23
gewapende 23
valuta 23
vee@@ 23
Lego 23
ftal@@ 23
Giussani: 23
toeleverings@@ 23
Cyrus 23
RL: 23
verlieten 22
felicit@@ 22
Cel@@ 22
winst. 22
positief. 22
vermoedelijk 22
management 22
emiss@@ 22
grenzen, 22
reductie 22
ti. 22
bos, 22
traag. 22
stron@@ 22
ene@@ 22
debat. 22
tiran@@ 22
nie 22
zogezegd 22
belangrijkste, 22
stappen, 22
liefdadig@@ 22
verkeer. 22
Vietnam 22
transport@@ 22
atiesyste@@ 22
handel, 22
Apollo 22
zelf: 22
Michelangelo 22
concept@@ 22
waarheid, 22
pupp@@ 22
W. 22
komst, 22
wachtten 22
gebleven. 22
ingesteld 22
ruwweg 22
opgeblazen 22
processen, 22
1999 22
vak. 22
toets 22
lijdt 22
toegevoegd 22
blikken 22
knoppen 22
mini-@@ 22
Apple@@ 22
glor@@ 22
telt. 22
keus 22
opzicht 22
code@@ 22
aat? 22
gek, 22
Cu@@ 22
jullie: 22
verkiezings@@ 22
McDonald's 22
strijden 22
ooh, 22
werkwijze 22
ontbossing 22
gevangenschap 22
44 22
wereld." 22
ruggenmerg 22
verhinder@@ 22
bombar@@ 22
denken? 22
fysiologie 22
angiogenese 22
genereert 22
ry. 22
wonderbaarlijk 22
Santa 22
Hall 22
Meneer 22
zangers 22
Echte 22
achtergelaten 22
dichten 22
oestro@@ 22
plegen 22
ing; 22
Zodoende 22
ingebed 22
graven. 22
hen: 22
krist@@ 22
zonnecel 22
AS@@ 22
weerkaat@@ 22
filters 22
periodiek 22
bezittingen 22
tool@@ 22
Kun@@ 22
tijd? 22
organismen, 22
algen 22
schimm@@ 22
digheid, 22
strak 22
middeleeuwse 22
krijgen." 22
worm 22
Rag@@ 22
genoo@@ 22
Chicago, 22
melk. 22
duurder 22
Italië. 22
dachten, 22
laatste, 22
grap. 22
met: 22
magazin@@ 22
Cuba 22
100, 22
precies. 22
ap, 22
angen 22
uitgever 22
teurs 22
baar? 22
kikker 22
bekendste 22
waarneem@@ 22
spelen? 22
lastig. 22
gevangenissen 22
utie 22
verschuiven 22
linkerkant. 22
exempl@@ 22
student, 22
stijl, 22
installe@@ 22
aanbieden. 22
Alle@@ 22
strekt 22
Wellicht 22
grove 22
vreemde, 22
matig. 22
Im@@ 22
kwalific@@ 22
overbo@@ 22
mem@@ 22
schoen 22
atom@@ 22
vloer. 22
zoiets, 22
herhaling 22
winkel, 22
Coke 22
Copern@@ 22
iemand, 22
keken, 22
Fre@@ 22
Americ@@ 22
ana. 22
epidemie. 22
400.000 22
gekre@@ 22
nemer 22
gemakkelijke 22
fabrikanten 22
scoor@@ 22
verkoop@@ 22
claim@@ 22
hetzelfde, 22
Angeles, 22
stadje 22
Oce@@ 22
landschap, 22
benut@@ 22
geologische 22
interie@@ 22
stie@@ 22
conciër@@ 22
hokje 22
schepping 22
gen; 22
wn@@ 22
wolken. 22
eeuwenoude 22
evolueerde 22
onderwerpen. 22
en", 22
verdwijnt. 22
protest 22
Himala@@ 22
overspo@@ 22
geïntervie@@ 22
interviewde 22
normaliter 22
Boeddha 22
invasie 22
46 22
Amazone 22
stam. 22
ages. 22
bergen, 22
Pakistan, 22
elijke, 22
gegr@@ 22
mits 22
held. 22
nagedacht. 22
ana, 22
vouwen. 22
hield, 22
hebben?" 22
modell@@ 22
want, 22
paten@@ 22
winsten 22
aanleg 22
bloeiende 22
gels, 22
gaande. 22
installeren 22
complic@@ 22
di, 22
beheren. 22
Duit@@ 22
kenmerken. 22
vanda@@ 22
alsje@@ 22
opmerken 22
"Wacht 22
-achtige 22
efficiënt. 22
ieken, 22
sneller, 22
kwantific@@ 22
diagnostische 22
time. 22
overkomt 22
Lang 22
7,5 22
membraan 22
gewen@@ 22
rent 22
spook@@ 22
omgekeerd. 22
alfabet 22
metaforen 22
fabrikant 22
Green 22
kernen 22
sterrenstelsels, 22
risch 22
broei@@ 22
Bio@@ 22
informati@@ 22
dreven 22
kooldioxide 22
individu, 22
Britten 22
59 22
gewel@@ 22
denken@@ 22
Laatste 22
olle@@ 22
relevant. 22
Jennifer 22
Schu@@ 22
melodie 22
geheel, 22
kaarten, 22
alfabe@@ 22
bevat. 22
fysica, 22
criteri@@ 22
a' 22
boze 22
ads 22
bereikten 22
aangen@@ 22
staal, 22
plex 22
binnenlandse 22
Brazil@@ 22
helpt. 22
voegen, 22
zus. 22
expan@@ 22
regelgeving 22
levenskwaliteit 22
tijdperk, 22
gevestigd 22
Columbia 22
initiatieven 22
kerende 22
woonde, 22
georiën@@ 22
ontwerper. 22
zeilen. 22
uitvinders 22
slim. 22
stelt, 22
wezenlijk 22
getransformeerd 22
beschul@@ 22
ontnuchter@@ 22
zijn... 22
openbaring 22
1,2 22
zalen 22
vil@@ 22
Volks@@ 22
tempo. 22
bezocht. 22
tei@@ 22
dool@@ 22
eiland. 22
show. 22
ya. 22
hulpeloos 22
unda@@ 22
getekend 22
epidemi@@ 22
gemakkelijk@@ 22
Ron 22
graph@@ 22
uitbraak 22
tijdschriften 22
begroting 22
apothe@@ 22
betwij@@ 22
ramp. 22
schok@@ 22
Midden 22
flat@@ 22
igs 22
achteraf 22
BN@@ 22
uitrust@@ 22
collabor@@ 22
gestructu@@ 22
innemen. 22
computerspellen 22
spellen. 22
alleenstaande 22
isch-@@ 22
le-@@ 22
ei, 22
begrepen, 22
klikken. 22
ker: 22
ondermijn@@ 22
speelde. 22
Ter@@ 22
Ep@@ 22
Web@@ 22
klus 22
sceptisch 22
afhangt 22
zijds 22
overkomen 22
geplan@@ 22
waardeer 22
Persoon@@ 22
salaris 22
draagt, 22
belev@@ 22
slang 22
identiteit, 22
omslag 22
R. 22
storm@@ 22
merken, 22
gedul@@ 22
vertra@@ 22
kali@@ 22
reda@@ 22
bloeien 22
verwezen@@ 22
niemand. 22
gesofistic@@ 22
beleg@@ 22
matrix 22
air, 22
inen 22
digheid. 22
gewicht. 22
opslaan 22
bladen 22
Nigeria, 22
kilometer, 22
Noorse 22
matische 22
kijken? 22
poll@@ 22
gebro@@ 22
plattelands@@ 22
gehaald, 22
afwezigheid 22
antro@@ 22
criteria 22
profe@@ 22
aret 22
handeling 22
back@@ 22
) 22
graven, 22
11, 22
klommen 22
ps, 22
moeders. 22
krediet 22
OESO@@ 22
apar@@ 22
ul. 22
berekend 22
Zel@@ 22
aspe@@ 22
feit@@ 22
bespreekt 22
coach 22
manag@@ 22
kel. 22
verkie@@ 22
IQ-@@ 22
Hal@@ 22
fysici 22
frequenties 22
kt! 22
details. 22
gesne@@ 22
iets? 22
expliciet 22
plankton 22
FDA 22
gegarandeerd 22
veerkracht 22
"Alle 22
ex 22
Wow. 22
ari, 22
heilig 22
glas. 22
literat@@ 22
homoseksu@@ 22
draagt. 22
terend 22
schrik 22
virale 22
Zit@@ 22
bin 22
Spanje 22
zoekresult@@ 22
Zwarte 22
kommer@@ 22
0-@@ 22
activeert 22
bov@@ 22
gericht@@ 22
personeel@@ 22
object, 22
jobs 22
neurowetenschap 22
leid 22
nog: 22
Enkel 22
verfijnde 22
anticiperen 22
baai 22
joodse 22
pikken 22
opereren 22
verduist@@ 22
gemengd 22
vermij@@ 22
geleerde 22
gaat? 22
verzeker 22
draaiende 22
muur@@ 22
autonoom 22
aero@@ 22
Parkin@@ 22
heup 22
orgaan@@ 22
symp@@ 22
zonnige 22
boerderij. 22
werksters 22
combinaties 22
Draa@@ 22
meis@@ 22
Democratische 22
naar, 22
iesysteem 22
gestudeerd 22
staa@@ 22
dachten. 22
jongeman 22
campus 22
voorbij, 22
selecteren 22
hulpel@@ 22
atori@@ 22
woord: 22
daarnet 22
sen: 22
gestandaardis@@ 22
mondi@@ 22
Jason 22
naaste 22
koken, 22
Micha@@ 22
detecteren. 22
merkt. 22
Hum@@ 22
schut@@ 22
Cape 22
afgevraagd 22
verstopte 22
groen, 22
mode 22
stijl@@ 22
vestig@@ 22
Mit@@ 22
snell@@ 22
crick@@ 22
hab@@ 22
humor. 22
bindt 22
intact 22
oods 22
boeren. 22
iten 22
ieven. 22
menta@@ 22
ach. 22
reactie, 22
compassie, 22
experimenten, 22
cirkel. 22
lijm 22
vir@@ 22
cijferig 22
beschouwt 22
una 22
aanne@@ 22
mar 22
einz@@ 22
jongeren, 22
huwelijk. 22
hh@@ 22
autorit@@ 22
istisch. 22
Oekra@@ 22
etjes 22
seffe@@ 22
unie@@ 22
belicht 22
vervoerd 22
drinkwater 22
Sovjet-Unie 22
vertegenwoordig@@ 22
dirig@@ 22
Fire@@ 22
overgenomen 22
server 22
beslissende 22
omschrij@@ 22
deta@@ 22
LHC 22
oester@@ 22
kweek@@ 22
bedden 22
bs 22
beleving 22
uniek. 22
tastbare 22
plan, 22
eco-@@ 22
verwaarloo@@ 22
dinosaurussen. 22
schip, 22
manoeu@@ 22
lieve 22
vernedering 22
adopt@@ 22
weigerde 22
special@@ 22
Davi@@ 22
Israël. 22
wekken 22
verkrijg@@ 22
sedi@@ 22
comput@@ 22
AL@@ 22
langste 22
uitdijing 22
voren, 22
overweldigd 22
BL: 22
aanvallen, 22
L.A. 22
itisch 22
icaanse 22
verdedigen 22
formatie 22
Fiel@@ 22
diend 22
gist 22
ruw@@ 22
cilinder 22
le: 22
turbin@@ 22
diplomatie 22
filter@@ 22
sab@@ 22
Groot-Brittannië. 22
penicill@@ 22
compassie@@ 22
lik@@ 22
Norden-bommen@@ 22
priemgetal 22
A-ritm-etiek. 22
G-@@ 21
Jay 21
frie@@ 21
klimaats@@ 21
ide, 21
suggesties 21
techniek, 21
Leer 21
hakken 21
Vre@@ 21
hetzelf@@ 21
dorpel@@ 21
Berkeley 21
gmen@@ 21
veronderstellingen 21
missen, 21
universiteiten, 21
conomie 21
doctoraat 21
benaderingen 21
risico's. 21
gebroken. 21
innovatie@@ 21
cycli 21
ation. 21
aangekon@@ 21
ation, 21
vlak. 21
gepland 21
ielen 21
verleng@@ 21
ontdekking, 21
4.@@ 21
vrouwelijk 21
nauw@@ 21
xen 21
specific@@ 21
Las 21
ook: 21
mentor 21
duren, 21
alles@@ 21
moeite. 21
genoom@@ 21
filteren 21
code. 21
fy@@ 21
uiteinden 21
opnemen. 21
verwante 21
Sovjet-@@ 21
hiertoe 21
geregeld 21
studies. 21
studie, 21
mand 21
betaald. 21
verslaaf@@ 21
begrijpel@@ 21
4000 21
bewerkte 21
geopen@@ 21
face, 21
software-@@ 21
90, 21
den'. 21
Son@@ 21
raak@@ 21
omkeer@@ 21
or-@@ 21
orang-oet@@ 21
gereedschap. 21
doelen. 21
spiegels 21
binn@@ 21
boodschap. 21
allereerst 21
pakt. 21
temin 21
Mahatma 21
Dre@@ 21
hierheen 21
bevond 21
ral@@ 21
D, 21
kijkers 21
Mull@@ 21
Kr@@ 21
Ky@@ 21
prachtig, 21
Cla@@ 21
ipt 21
toegevoegde 21
thee@@ 21
diner 21
verlief@@ 21
leidende 21
fen, 21
forens@@ 21
journalist@@ 21
seks, 21
symmetrische 21
samenlevingen, 21
dopam@@ 21
recepten 21
eil 21
.com, 21
sil@@ 21
berekeningen. 21
tegenovergestel@@ 21
verhit@@ 21
dingen@@ 21
keram@@ 21
temperatuur. 21
achtig. 21
reinig@@ 21
lot@@ 21
blad. 21
Wetensch@@ 21
toond, 21
schimmels 21
abil@@ 21
voeg@@ 21
varianten 21
toevoegen, 21
Hallo, 21
rand@@ 21
wich@@ 21
aden@@ 21
kunstwerk 21
Mel@@ 21
Sing@@ 21
gedachten@@ 21
profess@@ 21
aangepaste 21
imperi@@ 21
'50 21
gebeurt? 21
illeg@@ 21
docu@@ 21
zwij@@ 21
letten, 21
oe, 21
Hall@@ 21
cliënt 21
achtergron@@ 21
daags 21
magne@@ 21
Time 21
stoelen. 21
erotische 21
so 21
bamboe@@ 21
veroorzaken, 21
promoo@@ 21
promoten 21
fensie 21
administr@@ 21
overtuigen. 21
ookt 21
schieten, 21
dele@@ 21
ongelijke 21
bevin@@ 21
aangeeft 21
ontsnappen. 21
doodstraf 21
territ@@ 21
ontbreken 21
doodde 21
sprook@@ 21
zevent@@ 21
verplaatsen, 21
goedkeuring 21
vermelden 21
hippoc@@ 21
basketbal@@ 21
room@@ 21
dwong 21
gelde 21
aankl@@ 21
Port@@ 21
Jackson 21
kijker 21
ello@@ 21
gerei@@ 21
aangekomen 21
schoenen, 21
beluist@@ 21
nab@@ 21
cover@@ 21
waarbinnen 21
Geographic 21
niet; 21
proteïnen 21
literatuur. 21
bang, 21
das 21
OK? 21
sloppenwijk 21
beklimm@@ 21
contrast 21
afval, 21
zeilen 21
beton 21
terrein. 21
bandbreedte 21
vergeleek 21
obje@@ 21
politieke, 21
Angel@@ 21
besluitvorm@@ 21
absur@@ 21
vision@@ 21
centrales 21
draadloos 21
sceptic@@ 21
mobieltjes 21
grip 21
atica 21
20. 21
stimuleert 21
toegestaan 21
argu@@ 21
nelheid 21
bereiken? 21
bezig, 21
verwaar@@ 21
doorgegeven 21
achteruit. 21
nieuws: 21
ontstonden 21
Kik@@ 21
Water@@ 21
regenwouden 21
zoog@@ 21
zoogdier 21
Groenland 21
smelten. 21
omhul@@ 21
beginselen 21
geslacht, 21
erom@@ 21
sterrenstelsels. 21
bevre@@ 21
catastro@@ 21
trau@@ 21
ongeziene 21
ongebruikelijke 21
ond@@ 21
marge 21
broek@@ 21
ham, 21
TE@@ 21
instrument. 21
vanzelf. 21
oftewel 21
zwaarte@@ 21
consumeren. 21
Kong 21
schot 21
gefotografeerd 21
mic@@ 21
investeren. 21
vervoeren. 21
1% 21
klasse, 21
inkomens 21
civiele 21
vernieuwing 21
Helaas, 21
elektriciteit@@ 21
hospit@@ 21
installaties 21
indien 21
zame, 21
scham@@ 21
gezegend 21
daal@@ 21
puin 21
Proje@@ 21
wereldwijd, 21
getuigen 21
ijzeren 21
aanwezige 21
landbou@@ 21
verbrand 21
tuin, 21
verlopen 21
kregen, 21
dorpen. 21
tegenkomen 21
NS@@ 21
O. 21
rapporten 21
Graham 21
palm 21
ijkheid 21
gebal@@ 21
buitenspor@@ 21
oven. 21
Cas@@ 21
choler@@ 21
comedy 21
diep. 21
oopt 21
Klimaat@@ 21
waardig. 21
ontstaat. 21
plezier, 21
redacteur 21
kantoren 21
lust 21
waardigheid, 21
erv@@ 21
glob@@ 21
boer@@ 21
wijden 21
bord, 21
entre@@ 21
canva@@ 21
gevraagd. 21
lerares 21
drama 21
maat, 21
Klop@@ 21
Oper@@ 21
Royal 21
Buiten 21
Jonas 21
uze 21
intro@@ 21
gezond, 21
accur@@ 21
niet-nul-som@@ 21
tegen, 21
ack 21
ing?" 21
moedigen 21
lozen 21
rijkdom, 21
bent? 21
surro@@ 21
agra@@ 21
eerder, 21
Italië, 21
rustige 21
politie, 21
ins@@ 21
Congo. 21
gên@@ 21
aardig. 21
schijn. 21
produceert. 21
hoge-@@ 21
bekend, 21
Saoedi-Arabi@@ 21
burger. 21
vroeg. 21
mieren. 21
symbio@@ 21
vernietigen, 21
dinosauriërs 21
wend 21
Tien@@ 21
ish@@ 21
verward 21
ane 21
hiervan, 21
leefden. 21
fen. 21
wederzijds 21
roepen, 21
krantenkoppen 21
corrupt@@ 21
bezoeken, 21
oppen. 21
van-@@ 21
mij? 21
ten?" 21
gekwet@@ 21
Everest 21
aangevallen 21
helikopter 21
filmden 21
laarzen 21
vlak, 21
Nov@@ 21
meme 21
nissen 21
dde. 21
bachelor@@ 21
scoren 21
Sri 21
4: 21
verdeelde 21
beest 21
eien. 21
ting, 21
gemen@@ 21
momenten. 21
Pakist@@ 21
vooroordeel 21
glimlachen 21
waarderen, 21
camera's. 21
eraar 21
stikstof@@ 21
atomen. 21
moleculen, 21
filosoo@@ 21
slaat. 21
demo 21
deugd 21
coher@@ 21
1984 21
schat, 21
voeden, 21
effecten, 21
gehalte 21
rus 21
l-@@ 21
mi 21
schop 21
hem? 21
vastleggen 21
sprobleem 21
repor@@ 21
held, 21
klassie@@ 21
tweet@@ 21
culturen. 21
Iemand? 21
schattig 21
publiceren. 21
I.@@ 21
rampzalige 21
rel 21
Millenn@@ 21
muzikaal 21
ur-@@ 21
put. 21
robotica 21
been. 21
oppervlakte. 21
geerd 21
temperatuur, 21
zwom 21
daglicht 21
tech-@@ 21
verloo@@ 21
ondraa@@ 21
percept@@ 21
aks 21
vloeiend 21
knooppunten 21
2007. 21
bossen. 21
apit@@ 21
Jupiter 21
ondergronds 21
go 21
ruimte-@@ 21
ement 21
keuzes. 21
dolfijn 21
afhangen 21
nap@@ 21
ieën@@ 21
verzorgen 21
vermoord@@ 21
Elekt@@ 21
achtergrond@@ 21
verschrikkelijk. 21
Sun@@ 21
code, 21
geleef@@ 21
poeder 21
uitdagende 21
interventie 21
Murray 21
rijdende 21
levense@@ 21
gehu@@ 21
bezor@@ 21
onbewust 21
reuze 21
mutatie 21
bewegingen, 21
intrinsieke 21
Melk@@ 21
favoriet 21
Kenn@@ 21
tanden. 21
sde 21
MM: 21
Iraakse 21
solda@@ 21
zakenwereld 21
Andy 21
doken 21
scentrum 21
Will@@ 21
Houd 21
andersom. 21
zijde, 21
opwar@@ 21
Genoeg 21
deskun@@ 21
ao 21
kopje 21
helden@@ 21
tje@@ 21
gedoe@@ 21
zelfassem@@ 21
klanken 21
passende 21
reguleren 21
Coca-Cola 21
zweven 21
teerz@@ 21
methode. 21
pirami@@ 21
suggest@@ 21
verlaa@@ 21
velden. 21
symmetrie. 21
Stuur 21
octopus 21
ue 21
yer 21
Nan@@ 21
ceremon@@ 21
meetkunde 21
magi@@ 21
Zorg 21
izz@@ 21
daagse 21
linguï@@ 21
Haal 21
lettertype 21
meubilair 21
visualiseren 21
ambass@@ 21
pionier 21
bloemen. 21
Hor@@ 21
huur 21
vergat 21
tendens 21
ch-@@ 21
marker@@ 21
ka, 21
explos@@ 21
aten? 21
Spo@@ 21
grappig, 21
zoomen 21
SJ: 21
verbluffend. 21
Compassie 21
Griekenland 21
wenkbrau@@ 21
hersengebieden 21
compromis 21
LED@@ 21
sey 21
zieken@@ 21
gedistribu@@ 21
P-@@ 21
eerlijk. 21
fictieve 21
appels 21
postze@@ 21
helium 21
automaat 21
oce@@ 21
stenen. 21
verbruik. 21
eland, 21
verspreid. 21
Clay 21
60% 21
%@@ 21
stemd. 21
olle 21
Isaac 21
strook 21
at-@@ 21
lichten, 21
kwade 21
race@@ 21
verteller 21
Ron@@ 21
speelgoed@@ 21
stimuleren. 21
circuit@@ 21
grootou@@ 21
rum, 21
baas@@ 21
probleem? 21
buis@@ 21
nis, 21
hormon@@ 21
verleidelijk 21
bioluminesc@@ 21
dement@@ 21
boet@@ 21
spontane 21
kleer@@ 21
Mass@@ 21
TB@@ 21
verwondering 21
associëren 21
idealen 21
kraan 21
prostaat@@ 21
atie: 21
misschien. 21
IM: 21
uim@@ 21
schilderij. 21
knoopp@@ 21
Noord-Amerika. 21
vrezen 21
pollen 21
-F@@ 21
wro@@ 21
torna@@ 21
beschermende 21
houder 21
detect@@ 21
retro@@ 21
mug 21
gelen, 21
koor 21
aj@@ 21
onderdru@@ 21
begreep. 21
zette, 21
Shir@@ 21
Israëli@@ 21
blokkeren 21
crowdsourc@@ 21
verzwa@@ 21
Veiligheids@@ 21
ley: 21
melkwegstelsel@@ 21
IJsland 21
merg 21
Facebook-@@ 21
protocel 21
libellen 21
reservaten 21
borstkanker@@ 21
duif 21
VS-@@ 21
broodroo@@ 21
Marco 21
multiversum 21
doedelen 21
tch@@ 21
onzelfzu@@ 21
&amp;#x27;@@ 21
NSA 21
guerrillero@@ 21
conferentie, 20
frisse 20
Len@@ 20
energiebronnen 20
toepassen, 20
duurzaam. 20
rede 20
allerhande 20
molen 20
aankoop 20
minut@@ 20
vinding@@ 20
Techn@@ 20
1.500 20
mmen, 20
financiën 20
lukken 20
land? 20
gage@@ 20
ance 20
igens, 20
hoge@@ 20
sorry, 20
elo@@ 20
'60 20
echter, 20
designer 20
manifest@@ 20
beoefen@@ 20
iaans 20
selb@@ 20
BM@@ 20
stress. 20
woordenschat 20
gebla@@ 20
hecht 20
patho@@ 20
fotore@@ 20
bewijzen, 20
injec@@ 20
ont 20
oek 20
prettig 20
Time@@ 20
Mensen, 20
kwaliteits@@ 20
...en 20
?". 20
mpje 20
horizont@@ 20
verstand. 20
'Als 20
geboekt 20
PE@@ 20
volwassenen, 20
korter 20
exploit@@ 20
gebogen 20
wetenschapp@@ 20
gebaren 20
schouder@@ 20
humor, 20
verdr@@ 20
hoopvol 20
koolstofdioxide 20
moed, 20
regimes 20
fiel@@ 20
i? 20
ongecontro@@ 20
lagen, 20
beroep. 20
okto@@ 20
rijkere 20
ampus. 20
verton@@ 20
verwerken, 20
blijkt, 20
ochtend. 20
langzaam. 20
voorwaarts 20
patronen, 20
voor-@@ 20
stabiel@@ 20
plaatsvindt 20
vermoorden. 20
verhoo@@ 20
beïnvloedt. 20
knoop 20
lagen. 20
Water 20
Juist. 20
hoede 20
haalt, 20
representatieve 20
evolutie@@ 20
specialis@@ 20
aanzet 20
voorouder 20
logisch. 20
geper@@ 20
grijs 20
peren 20
destij@@ 20
jaren@@ 20
krachtig@@ 20
omarmen. 20
koffie. 20
Mov@@ 20
ieken. 20
bloggers 20
kon, 20
gepleeg@@ 20
west 20
zaamaan 20
interesseren 20
Dus: 20
Em@@ 20
dacht. 20
nep@@ 20
Overigens 20
zondag 20
grepen 20
sloegen 20
iel, 20
corru@@ 20
source, 20
date 20
uitkomt. 20
ampag@@ 20
over: 20
ondersteunen, 20
wettelijke 20
scontro@@ 20
keizer@@ 20
elu@@ 20
ic, 20
structuren, 20
dansen, 20
belicht@@ 20
ges. 20
Klinkt 20
diff@@ 20
massam@@ 20
doosje 20
Het@@ 20
indruk. 20
gooiden 20
opmerkelijk. 20
bureau, 20
georganis@@ 20
trieste 20
weer: 20
wir@@ 20
Buff@@ 20
pikt 20
eindresult@@ 20
Kopenhagen 20
iseert 20
huiz@@ 20
dringen. 20
bewoon@@ 20
onderzocht. 20
wet, 20
1970 20
tekst. 20
aans. 20
wolk. 20
periodes 20
Val@@ 20
ïteit 20
trage@@ 20
plak@@ 20
radio, 20
enorm, 20
gedoo@@ 20
ons: 20
Pakistan. 20
klim 20
Laden 20
Alas@@ 20
geïndustrialiseerde 20
recen@@ 20
schaduw. 20
Jerry 20
amo@@ 20
autistisch 20
verstedelijk@@ 20
hoog, 20
burge@@ 20
betrekken, 20
beheerd 20
doelstelling 20
bemann@@ 20
incident 20
regelen 20
hechte 20
Google-@@ 20
llen 20
Harvard. 20
opgevallen 20
daarvoor. 20
staven 20
vooraanstaande 20
[...]
