die
und
der
in
zu
das
ist
wir
ich
es
Sie
sie
von
ein
dass
eine
Und
den
nicht
mit
auf
wie
Ich
sich
für
man
als
Das
um
Es
sind
diese
was
im
so
an
dem
Wir
einen
wenn
haben
er
war
uns
des
oder
über
einer
aber
einem
Die
Aber
auch
aus
nur
--
ist,
–
sehr
dann
mich
hier
hat
also
noch
Menschen
werden
dieser
können
gibt
nach
kann
"@@
etwas
Wenn
wird
bei
mehr
alle
mir
habe
zum
-
weil
Ihnen
durch
wirklich
vor
Welt
immer
Er
unsere
am
ist.
dieses
ihre
meine
keine
viel
diesem
Was
diesen
viele
eines
-@@
In
sehen
♫
wurde
da
Also
an@@
zur
zwei
Der
andere
sein
Leute
Leben
ihr
te
er@@
haben,
wo
einfach
bis
jetzt
anderen
Wie
en,
Zeit
ten
bin
Art
müssen
,
t,
Jahren
damit
t.
du
hatte
sind,
dies
.
Jahre
mein
Man
alles
ein@@
denn
waren
ver@@
Dinge
haben.
en.
auf@@
sind.
un@@
ab@@
vielleicht
selbst
t
schon
:
all
ganz
ob
wieder
war,
ihnen
machen
aus@@
einige
muss
können.
Diese
werden.
Hier
"
geht
sehen,
seine
?
ung
meiner
nicht,
heute
paar
TED
be@@
ihn
sondern
unserer
drei
möchte
Als
tun
können,
Ein
würde
s
e
vom
tatsächlich
genau
neue
wissen
dort
e,
gut
and
Kinder
denen
Geschichte
s,
werde
nun
s.
Jahr
sein.
te,
er,
kein
zwischen
davon
sogar
Ver@@
sein,
Dies
ohne
Teil
werden,
."
ten,
ihren
Talk
unser
über@@
Nun,
Subtitles
Transcript:
gerade
unter
Eine
hat,
an,
kann.
gab
vor@@
Ihre
zu@@
Sie,
ersten
während
darüber
es,
ge@@
en@@
einmal
So
ich,
letzten
nie
jeder
sagen,
Millionen
ung,
mal
nicht.
etwa
wird.
erste
ihrer
ung.
ten.
warum
hat.
meisten
meinem
ganze
dazu
hatten
große
könnte
ent@@
machen.
gehen
Beispiel
te.
An@@
an.
sch@@
ziemlich
Tag
meinen
sagte
nichts
sagte:
wurden
Frauen
Problem
wissen,
sieht
war.
iert
kommt
Prozent
Arbeit
ieren
kann,
t@@
e.
unseren
wäre
er.
wird,
ischen
Im
s@@
kleinen
sagen
weniger
ungen
kommen
welche
macht
um@@
ins
ter
doch
Vor@@
Menschen,
ging
das,
Dann
dabei
dafür
Ende
Ihr
großen
S@@
10
ganzen
en
ieren.
eigentlich
gegen
kleine
Frage
Land
en?
A@@
weiter
Denn
natürlich
keinen
K@@
besser
Be@@
machen,
vier
ihm
tun,
indem
kam
Menge
aus.
Mal
Bild
beim
!
jeden
Weg
wollen
Daten
seiner
ungs@@
seit
würden
jemand
igen
Ein@@
denke,
Ab@@
eigenen
vielen
Vielen
will
Geld
Sch@@
zurück
sollten
k@@
darauf
fast
Da
daran
jedes
Idee
Gehirn
P@@
weiß
konnte
ern
ieren,
gute
",
neuen
tun.
gemacht
sehen.
20
Dollar
wollte
allen
glaube,
Wasser
pro
Aus@@
st@@
a
geben
Dank.
b@@
wenig
?"
Jetzt
unserem
ige
nehmen
Er@@
sollte
"Ich
Mit
„@@
Zukunft
...
Technologie
gibt,
denken
f@@
Warum
E@@
seinen
T@@
Seite
durch@@
ische
Also,
jede
fünf
nächsten
oft
wahrscheinlich
ende
wir,
;
sagte,
lange
d@@
etwas,
sten
o
g@@
iert.
brauchen
könnten
st
ungefähr
ierte
vor,
ihrem
unter@@
".
in@@
finden
lassen
denke
seinem
m@@
bisschen
wurde,
stellen
Weise
z@@
a@@
Raum
ungen,
B@@
Dinge,
Un@@
Für
zeigt
Meine
Person
iert,
wurde.
h@@
leben
später
Probleme
enden
zurück@@
Dieses
en:
hatte,
passiert
♪
weit
Nun
wer
de
Du
Milliarden
zusammen@@
aus,
R@@
erst
n,
zeigen,
schnell
Kind
Frau
liche
zusammen
namens
New
W@@
G@@
ierten
denken,
verschiedene
i
glaube
weiß,
Mann
habe,
hin@@
gar
n.
es.
bevor
Erde
Ge@@
ch@@
Auf
ation
je
uns,
Re@@
hätte
auf,
o@@
sah
n@@
Doch
bereits
Sache
wichtig
Stadt
Wissen
Informationen
gen
O@@
Körper
30
bekommen
ja
Fall
Grund
Welt,
sagt
Moment
lang
m
Mutter
Mein
besonders
H@@
überall
arbeiten
mir,
L@@
euch
e@@
y
d,
einigen
ischer
jedem
Welt.
D@@
F@@
Ort
dachte
System
ste
50
lichen
al@@
n
menschlichen
Vielleicht
begann
Weil
verschiedenen
mit@@
genug
verstehen,
Arten
'@@
N@@
gerne
gesehen
M@@
Auf@@
100
Danke.
USA
Um
i@@
Bei
Schule
Antwort
hatte.
wollen,
so,
geben,
chen
dich
Ideen
Oder
beiden
ja,
en."
d.
Vor
re@@
r@@
manchmal
mich,
her@@
sie,
Gruppe
finden,
ungen.
anderes
gehen,
l@@
Planeten
Computer
Leute,
auf.
Leuten
anders
wegen
innerhalb
heraus,
zeigen
Energie
ier@@
Fragen
besten
bringen
Dieser
liegt
lich
richtig
Natur
Zeit,
aller
Form
geben.
Geschichten
gleich
eher
sagen:
se
heißt
Über@@
C@@
st,
anzu@@
Bilder
ar@@
hin
ck@@
gleichen
irgendwie
einzige
möglich
y@@
gen,
ern,
%
Buch
Minuten
end
at@@
Licht
stellt
auszu@@
musste
ter@@
Männer
sei
t?
deren
sechs
stehen
waren,
gibt.
Unternehmen
sen
gehen.
sprechen
menschliche
Projekt
würde,
de@@
hier,
bedeutet,
würde.
it@@
isch
d
versuchen
meines
[@@
den,
habe.
t:
Punkt
Internet
Wissenschaft
Familie
bedeutet
nämlich
oben
nächste
p@@
glauben,
Stellen
15
konnten
Stunden
kommen.
überhaupt
Gesellschaft
u@@
ge,
Afrika
weitere
isches
Lassen
al
da@@
or@@
nach@@
halten
verstehen
ss@@
zwar
Macht
tes
kommen,
eigene
wohl
de,
Mädchen
Augen
ger@@
also,
sicher
Regierung
In@@
ur@@
machte
ung@@
a,
St@@
em
Zum
sich,
den@@
gen@@
Sprache
Wasser@@
letzte
ein,
bringen.
steht
obwohl
lernen
ien
lich.
ange@@
Grunde
Hand
dir
völlig
hinter
bringen,
ä@@
Patienten
gen.
gesagt,
braucht
Le@@
gleiche
Unter@@
Musik
Vater
Kopf
geht,
Stück
el@@
sprechen,
ie
Viele
Vortrag
funktioniert
direkt
solche
le@@
heraus@@
Indien
ik@@
Haupt@@
ein.
h
fand
Kindern
Auto
aufzu@@
jedoch
Ist
ben
Design
lassen.
z
ig.
Ja,
meine,
Hause
Ihren
niemand
schauen
gel@@
se@@
unseres
Unsere
größte
ro@@
ch
Eltern
China
waren.
Entwicklung
daran,
allem
Schul@@
iger
Lebens
weiter@@
gemacht.
ern.
Wort
ge.
alen
m,
Gefühl
Hilfe
müssen,
Universum
nutzen
40
De@@
Lebens@@
ge
en-@@
Nicht
Zeit@@
sprechen.
Jahren,
lich,
is@@
müssen.
nahm
welches
gut.
Denken
Heute
hatten,
Lage
unglaublich
bar
Angst
ig@@
den.
entwickelt
Film
Haus
Länder
damals
neu
Gebäude
hätten
gehört
ter,
genauso
größten
zweite
darin
Nach
st.
weiter.
finden.
2
ik
kurz
Sehen
on@@
Reihe
Zu@@
et
hoch@@
Z@@
wäre,
schwer
kamen
zer@@
wollen.
alten
Anfang
sehr,
Al@@
te@@
Am
et@@
wurden.
geht.
hören
der@@
ts
ten@@
sen@@
kennen
darüber,
men
alt
ie,
I@@
Tiere
jemals
Sachen
dachte,
sagt,
weg@@
nimmt
geb@@
spielen
gern
sie.
ber@@
me
anderer
versuchen,
Einige
Jeder
hatten.
Monate
Tage
Möglichkeit
rei@@
Nach@@
einzu@@
chen,
ab.
Kunst
glauben
dessen
Anzahl
Thema
recht
J@@
Roboter
versch@@
ig
Ihrem
los
ist:
Wochen
w@@
bauen
licher
gt
Natürlich
Ihrer
nennen
ausge@@
führt
alles,
ei@@
möchte,
kleines
Spiel@@
Namen
York
guten
Verhalten
au@@
Woche
di@@
CA:
darum,
Tatsächlich
Art,
is
Sp@@
ken
Grund@@
Deshalb
könnte.
ens
fragen
sage
Tages
helfen
auch,
Um@@
hier.
bringt
"Das
falls
Menschen.
ist@@
a.
führen
Verbindung
mussten
sieben
unten
davon,
hoch
nachdem
sp@@
Glück
lei@@
getan
passiert,
wer@@
g,
Alle
ie@@
schließlich
Wer
stellte
deshalb
wollten
halten.
Unterschied
zuvor
bei@@
fanden
3
Krebs
soziale
c@@
leben.
Während
z.
das?
arbeiten,
s-@@
genommen
dem,
Spiel
Freunde
Ziel
dass,
abzu@@
zen
zehn
Erfahrung
Von
"Was
niemals
zeigen.
Autos
arbeiten.
dazu,
5
Wirtschaft
Vereinigten
liebe
gesagt
leben,
der,
reden
nehmen,
die,
wa@@
lassen,
Mar@@
m.
miteinander
neues
ing
ha@@
Welt@@
sagt:
Jahren.
Ar@@
Gedanken
Lehrer
Gott
groß
beste
1
000
voller
mag
Kultur
das.
]
Ma@@
lässt
soll
Schauen
darum
Schritt
kt
schaffen
weg
Video
plötzlich
ö@@
Lösung
dafür,
stand
Hälfte
findet
Technologien
fragte
chen.
ter.
beide
will,
be
bekommen,
ben@@
komplett
benutzen
daraus
ra@@
Rest
teil@@
absolut
draußen
kommt,
Nur
besteht
herum
zeigt,
gesamte
ig,
eren
einfache
Team
Studenten
ie.
-S@@
V@@
ab,
Se@@
sozialen
hen
bekommen.
anstatt
gesch@@
passiert.
Wahrheit
acht
ziehen
wichtige
Sinn
Arbeits@@
ale
Liebe
Bewegung
setzen
Bau@@
liches
stark
ationen
Qu@@
ssen
Essen
könnte,
man,
nen
eins
gegenüber
Pro@@
Zahl
k
kleiner
Computer@@
am@@
aufge@@
Krieg
nutzen,
Größe
verstehen.
junge
wurden,
macht,
Teile
il@@
lernen,
Ent@@
wichtig,
Staaten
schaffen,
Platz
ck
Auch
sonst
Ländern
funktioniert.
Dingen
Zellen
U@@
Modell
iere
g.
konnte.
möglichen
Idee,
ster
bestimmten
cken
wei@@
ti@@
l
ierung
fen
war@@
Studie
g
erkennen,
gingen
zurück.
3@@
ihres
de.
Prozess
ene
t."
sicher,
All
schen
Meinung
ir@@
.“
tet
Wissenschaftler
Mit@@
weltweit
macht.
all@@
einander
Richtung
dann,
fahren
Leben.
Alles
erzählen,
bare
bitte
ag@@
ü@@
än@@
bessere
großer
gut,
to@@
ke
Luft
richtigen
Gesundheit
klar,
ben,
scheint
Boden
25
le,
Kom@@
Möglichkeiten
elle
he@@
Gen@@
in,
ma@@
ger
cht@@
sehe
ab
wieder@@
kl@@
Energie@@
et.
worden
wären
leicht
einge@@
danach
Geschichte.
igkeit
helfen,
Nacht
zeige
erhalten
Grund,
Zeit.
Gemeinschaft
Jahrhundert
al,
u
Veränderung
Entscheidungen
pf@@
Reise
Technik
ul@@
zwei@@
richtige
länger
enen
zuerst
Kon@@
gleichzeitig
ser@@
Foto
alte
ß@@
fest@@
se.
men.
bist
falsch
versucht
daher
Eines
einzelne
An
Beziehung
200
verändert
Muster
la@@
sofort
allein
Städte
ster@@
erzählt
's
Bedeutung
'
beginnen
i,
globalen
Meter
Kraft
ens@@
Freund
ich.
b
hast
heißt,
Publikum
voll
Mitte
schrieb
bauen.
mache
Können
stellen.
teilen
Nein,
Situation
ellen
verändern
men,
jemanden
ss
bewegen
Sicherheit
kt@@
äu@@
verändern.
Blick
as
.@@
Vorstellung
gemacht,
entwickeln
Okay,
ständig
großes
Mensch
Oberfläche
Rück@@
Ihnen,
Wo
so.
wusste
Rolle
al.
4
60
tern
!"
schaffen.
Aufgabe
bauen,
ation,
Selbst
Wert
gesamten
fa@@
Gegen@@
herum@@
Beispiel,
Gewalt
ru@@
hei@@
deine
verwenden
bet@@
12
brachte
stellen,
Forschung
Frage,
lich@@
Umgebung
schlecht
Zugang
beginnt
Selbst@@
sa@@
Bu@@
muss,
ändern
ere
Zu
vor.
»@@
ben.
Karte
Stimme
erzählen
sagten
konnte,
Sache,
Kinder@@
Daher
sollte.
Labor
außer
Hand@@
Bildung
80
ko@@
bereit
sowohl
hervor@@
Generation
bald
würden,
et,
gesehen,
z,
tut
um,
Bereich
op@@
wir@@
mehr.
so@@
y,
könnten,
Markt
Neu@@
erkennen
größer
ern@@
Bo@@
manche
Straße
bin,
vorstellen,
bekam
schneller
um.
Man@@
ik,
könnten.
be,
"Wir
bau@@
aufgrund
Alter
sin@@
da,
schreiben
Amerika
bestimmte
fühlen
igen,
ers
großartige
oder?
erreichen
ation.
Zahlen
ur
sagen.
treffen
gleich@@
ien,
glücklich
Problem.
Ro@@
zumindest
heit
fahr@@
zu.
irgendwo
Tat
halten,
erzählen.
herauszufinden,
Kontrolle
bar.
or
Sonne
fragen,
öffentlichen
Tod
nahmen
ne@@
jungen
Firma
solchen
würden.
Ha@@
einzelnen
qu@@
Fa@@
gemeinsam
Fähigkeiten
kaum
sodass
machten
spricht
ste,
vorher
end.
hal@@
kon@@
Groß@@
En@@
Ergebnis
spielen.
neben
lichkeit
us
men@@
e-@@
Chris
tun?
er:
Kinder,
nur,
amerikanischen
Demokratie
na@@
Herausforderung
Geschichte,
se,
Tier@@
of
6
Leben,
und,
lesen
darauf,
ch,
fing
Kosten
2@@
on
Realität
zu,
Gesicht
ot@@
är@@
Preis
Mal,
Einfluss
gt.
en;
heit,
davon.
ne
bar@@
bewusst
Gehirn@@
sagten:
Wirklichkeit
bekommt
klar
heutzutage
ender
her
Fähigkeit
Struktur
Mann,
lo@@
Erfolg
muss.
uns.
riesige
ell@@
Dinge.
Schulen
er-@@
Krankheit
voll@@
Revolution
wichtiger
gewesen
Google
Problem,
Damit
e:
ze
Grenzen
schön
Regeln
"Die
Frauen,
Maschine
Europa
suchen
Seiten
Da@@
4@@
La@@
gebaut
spiel@@
außerhalb
ert
che
führen.
bt
denken.
om@@
ts@@
isch.
t-@@
Bücher
sk@@
statt
a-@@
kte
selben
wollte,
ca.
Danke
Gruppen
sollten.
zweiten
tat
immer,
lösen
wann
trotzdem
Kunst@@
ft
wachsen
desto
Medien
Tatsache,
welcher
lernen.
eln
bekannt
tragen
zusammen.
ations@@
ans
zeit
normalerweise
18
begannen
führte
el
ant@@
sich.
verbunden
kam,
ber
Theorie
konnten.
Unser
su@@
extrem
isch,
Ergebnisse
baren
sten,
Bevölkerung
ut@@
Au@@
gelernt
in.
David
Rei@@
Ort,
versucht,
dar@@
Fehler
eh@@
dung
Universität
mögen
Monaten
Krankheiten
"Wie
Sicht
innen
helfen.
Haben
Daten@@
Mitgefühl
en?"
damit,
interessante
nun,
einfach.
gutes
Körper@@
ähnlich
sieht,
Genau
besch@@
ch.
teten
Do@@
ill@@
entweder
eigen@@
mehrere
Evolution
tete
nennt
Auswirkungen
best@@
heutigen
kommt.
y.
bleiben
sollen
guter
Fotos
we@@
Tagen
wichtig.
rund
Bezug
hoffe,
Menschheit
führen,
bestimmt
enz@@
Mikro@@
sen,
frei@@
gebracht
wür@@
Super@@
sitzen
heit.
Stelle
gefunden
Einer
Information
selbst.
ho@@
eben
Mon@@
te:
ar
sagten,
Manchmal
zurück,
darin,
sahen
at
einzigen
gef@@
So@@
passieren
os
ach@@
ak@@
hundert
ich@@
wider@@
el,
cke
kannst
“
gezeigt
Amerikaner
Nummer
einfachen
Schüler
ste@@
endes
Ding
Mo@@
seines
dern
Gebiet
bo@@
arbeitete
dein
ion@@
dritte
Orten
fliegen
schwierig
sche
Eis@@
ist?
Orte
Su@@
erreichen.
kt.
lan@@
Produkt
sse
Armut
Bewusstsein
tra@@
ing@@
oren
dadurch
reden,
Her@@
egal
end,
Licht@@
unterschiedliche
me,
ation@@
Vergangenheit
Beginn
schlechte
Politik
Wei@@
laufen
näher
us@@
Material
ebenso
sprach
globale
kennen,
Million
Weg,
Umwelt
Regierungen
sterben
erreicht
nennen.
Jedes
ken,
offensichtlich
wenige
funktionieren
ik.
Ru@@
unglaubliche
geh@@
wert
nehmen.
Experiment
DNA
ri@@
Ebene
8
le.
Beispiele
Uhr
zusammen,
genannt
dig@@
Sohn
ehr@@
entfernt
fest,
Bühne
br@@
stehen.
Co@@
Verständnis
US-@@
finde
Tag,
mer@@
ell
Po@@
gestellt
einfach,
Manche
Ta@@
lie@@
verwendet
stehen,
fangen
gew@@
langsam
en"
selbst@@
verloren
sobald
sollte,
Konzept
frei
Suche
Aufmerksamkeit
Nachricht
früher
f
bleibt
stelle
ändern.
es@@
sen.
ze,
abge@@
Künstler
ten:
500
echte
Haus@@
Nachrichten
end@@
gen?
wirklich,
Wachstum
geschrieben
Linie
größere
los.
fe@@
neun
tem
Hoffnung
"-@@
Personen
bel@@
Technologie,
Prinzip
interessant
vorstellen
ds
gt,
frühen
ebenfalls
Programm
hören,
chen@@
größeren
seh@@
ier
möchten
John
entwickeln,
det.
testen
j@@
Job
erinnere
ssen,
teilen.
eigenes
Zwei
alle,
Noch
Monat
Luft@@
mal,
wusste,
iz@@
Hände
ken.
as@@
tig
Möglichkeit,
300
Weise,
Frau,
Ho@@
Spezies
Ne@@
Nehmen
benutzt
Studien
Kollegen
bil@@
Liste
keiner
legen
z.B.
h,
s:
For@@
is,
gegeben
on,
ionen
kt,
Öl@@
Formen
politischen
verändert.
versuche
Herz@@
Name
Beziehungen
iges
kaufen
liegen
Mittel@@
Morgen
Y@@
Menschen@@
le
Land,
essen
rau@@
v@@
fällt
hab
Öl
gesehen.
nein,
ziehen.
jetzt,
Kampf
stimmt
fen.
Lehr@@
Firmen
ums
will.
Herz
Sonnen@@
TED-@@
schrei@@
Systeme
im@@
Wer@@
natürlich,
Land@@
Worte
bisher
A
danke
traf
Familien
i.
sollten,
Himmel
We@@
übrigens
man@@
B.
erzählte
Lösungen
Jahre,
te?
ck,
d-@@
Gesundheits@@
Artikel
hörte
ich:
Aus
19@@
Or@@
links
Atom@@
politische
90
Di@@
x@@
interessiert
art@@
erklären,
Medizin
Erfahrungen
dr@@
"H@@
cken.
ges
Mathematik
Tier
Sache.
arbeitet
Interesse
fen,
Bakterien
handelt
läuft
tr@@
Dort
fer@@
ät@@
To@@
Wahl
Ko@@
Geschäfts@@
det,
ckt
re,
Lern@@
zei@@
echt
k,
Finanz@@
wichtigsten
Innovation
Dr.
versuchte
Typ
ta@@
mel@@
At@@
Bi@@
wi@@
bin.
o,
stre@@
Frei@@
bewegen.
leben@@
sinn@@
Veränderungen
sowie
mach@@
ion
geboren
amerikanische
entwickelt,
Ban@@
mehr,
mich.
mir.
Par@@
Nahrung
ad@@
Auge
rie@@
Durch@@
Okay.
mat@@
1@@
nach,
lieben
Software
fühlte
Ja.
Jede
Person,
Wal@@
me@@
Sekunden
nehme
langen
endlich
Bar@@
ur,
tief
Ozean
5@@
her,
"S@@
hinaus
Hoch@@
"Es
Arm
Version
riesigen
f,
ganzes
Lei@@
kom@@
zurückzu@@
zi@@
Dorf
Eis
ziehen,
del@@
ft.
weise
Durch
ment@@
Teilen
der.
Kar@@
klein
Auto@@
Bis
dasselbe
bilden
nachdenken,
sel@@
lau@@
Fähigkeit,
—
brauchen,
wissenschaftliche
k.
si@@
Musik@@
erfolgreich
Fisch@@
ff@@
mal@@
Gel@@
da.
Arbeit,
du@@
Punkte
Leben@@
letztes
Spitze
schön.
Ärzte
modernen
Ressourcen
Zeitpunkt
Design@@
vier@@
Pflanzen
konnten,
hier@@
Gra@@
aten
erinnern
reichen
Umwelt@@
rechten
tliche
gebe
jemandem
tausende
sein?
gehört,
gekommen
erinnern,
f.
isten
ären
zen,
sie@@
Ka@@
spielt
ol@@
y-@@
ste.
hinter@@
sau@@
san@@
Farbe
bewegt
reden.
it
möglich,
cht
ken@@
gende
i-@@
mü@@
heraus
komme
ft@@
hört
erreichen,
Nähe
jene
Papier
weiterhin
Leuten,
wahr?
dabei,
Zentrum
gab,
Oh,
mir:
Meer
Gene
auss@@
7
Kl@@
20.
benutzen,
mo@@
Wohn@@
rechts
zeigte
Spaß
her.
e?
zen@@
ander@@
reg@@
gab.
Gesetz
Jungen
per
Dank
Straßen
drei@@
Sinne
kar@@
fe
get@@
isch@@
je@@
18@@
Behandlung
age
alt@@
ging,
fallen
Keine
spielen,
Schönheit
stellten
wollte.
Dat@@
Stunde
gehe
fertig
ur.
mer
ensch@@
Natur@@
70
online
Wörter
,@@
verwenden,
wohin
Blut@@
frage
nicht@@
steh@@
sicher@@
Zwei@@
14
hält
Ber@@
Einzel@@
system
öffentliche
betrachten,
später,
weiteres
geschieht
8@@
el.
treffen.
Werte
tolle
natürliche
Produkte
gaben
lösen.
Netz
ine
trotz
schen,
Netzwerk
Mir
Organisation
nicht?
Über
nahe
iker
kan@@
schau@@
Jahr.
wissen.
Na@@
ierte,
gearbeitet
schauen,
Mittel
Männern
hätte,
unterschiedlichen
Wege
Medikamente
o-@@
arbeite
auch.
Vergleich
Grad
selbst,
km
geworden
ssen.
Designer
setzen.
sten.
aussehen
gang
neuer
Kur@@
Wasser,
Moment,
Internet@@
nutzen.
lose
Kamera
Win@@
tlich
Geist
dan@@
pro@@
Verfügung
che,
wussten
ing,
ze@@
stell@@
volle
ex@@
gehört.
gesprochen
Hin@@
San
-F@@
bin@@
mm@@
hl@@
cht.
o.
ihnen,
Niemand
sah,
Warum?
vermutlich
"Warum
Zustand
kur@@
Gerät
flü@@
me.
verb@@
Lernen
Unterschiede
weisen
ließen
hohen
Entscheidung
Projekte
"Wenn
s?
Chance
Sex
Kern@@
Wahl@@
erhalten.
Kilometer
aler
Landes
erlaubt
do@@
Ste@@
hielt
det
cken,
ktion
anfangen,
fühlen,
sor@@
wunder@@
tz@@
Den
leider
Markt@@
20@@
schon,
dieselbe
folgen
Kan@@
schöne
daß
nenne
herunter@@
geschehen
Ch@@
Sozial@@
6@@
Ziele
ales
Dollar.
gel
Wirtschafts@@
16
haben?
mindestens
wiederum
weiter,
7@@
eller
Fach@@
schaft
anfangen
ten?
Antworten
alität
Falls
Bäume
Verantwortung
Recht
eu@@
verändern,
falsche
Wand
weiteren
gegangen
Prozent.
unbedingt
erin
Freunden
brauchen.
Mensch@@
Strom
is.
weder
mar@@
wichtigste
ien.
möglicherweise
setzt
fühle
mut@@
Krankenhaus
wissenschaftlichen
fühlt
Me@@
ismus
Tatsache
Massen@@
pp@@
Regel
Zusammen@@
Sind
hohe
Konferenz
Tro@@
Verbindungen
fr@@
kor@@
Kat@@
ung?
Nein.
Jahr,
Großteil
ion,
Raum@@
taten
af@@
täglich
Frage:
Reaktion
aus?
eil@@
Bet@@
nach.
ierter
lernte
igkeit,
Zuerst
Sie.
Sehr
Seine
ft,
führ@@
erklärt
hinein@@
buchstäblich
gra@@
Gefühle
Leidenschaft
fort@@
"A@@
Gefühl,
lief
hand@@
entwickeln.
passierte
Sie@@
Objekt
tet,
wunderbare
sh@@
Drittel
Gleich@@
gener@@
Bild@@
Ku@@
sicherlich
Maschinen
Wesen
Methode
kenne
Kinder.
HIV
Vielfalt
ieren?
außerdem
selber
erschaffen
He@@
tausend
Opfer
genden
hin,
heraus.
e"
tet.
wichtigen
genutzt
Druck
Gesch@@
erstes
em@@
Region
miss@@
Herzen
begann,
tung
Westen
vollkommen
gilt
besseren
Zusammenhang
bereit@@
hn@@
ck.
ion.
ehrlich
Eigenschaften
Ex@@
h.
Schlaf@@
Hirn@@
Per@@
zeit@@
Zelle
Glauben
ze.
ließ
bedeut@@
cher@@
neu@@
kennen.
hilft
tlichen
verlassen
gestellt.
kosten
Biologie
Ra@@
Bio@@
Ur@@
les
Englisch
gewisse
form@@
Gehirns
Wieder@@
lag
offen
Rau@@
dachten
10@@
Milliarde
schreiben.
Dabei
ierende
Abend
ms
Laufe
Freude
zog
Gesellschaften
Frage.
seien
Rede
Flugzeug
ons
Nutz@@
400
istischen
hart
hab@@
Tag.
Farben
ansehen,
welchen
Ansatz
Arbeit.
Met@@
deinen
Position
ah@@
Religion
zahl@@
Mor@@
alt.
Arzt
viel@@
ne.
enz
Fernseh@@
letztendlich
entwickelten
Bild,
gest@@
Ihnen.
24
enten
arbei@@
ic@@
chte,
denkt
den?
teilen,
inter@@
fehl@@
Min@@
wert@@
Mil@@
fragten
Bürger
Bienen
Tür
uren
treten
ret@@
che.
Tisch
chte
hängt
hunderte
irgendwann
dreht
erung
Gu@@
tu@@
Forscher
entlang
hauptsächlich
schreiben,
setzen,
Freiheit
suchen,
will@@
veränder@@
wahre
mitten
kurze
fall
dachten,
tern.
Zeug
befinden
Ihres
lesen.
entschied
Ide@@
erhalten,
kop@@
pl@@
erster
Architektur
starke
dies@@
Buch@@
hören.
All@@
anderen.
Lieblings@@
gu@@
cht,
ster,
ing.
Wasser.
Daten,
kostet
wenigen
x
ler
Außerdem
Kor@@
Raum,
Zeiten
Jahr@@
Du@@
11
und@@
wahr
herausfinden,
tief@@
9@@
Materialien
bl@@
treffen,
fahren,
Online-@@
kurzen
pass@@
stellung
Städten
andere,
Br@@
nutz@@
eure
ran@@
bloß
los@@
aktiv
alter
tere
dort,
schaut
hr@@
Seite,
echten
be.
Ju@@
cher
sich@@
normalen
Te@@
schönen
he
persönlichen
sein@@
Sommer
chten,
einiger
betrachten
berei@@
ß
Jahre.
dagegen
wahr@@
for@@
Je
usw.
ative
Tre@@
linken
Fällen
brauchte
Babys
funktioniert,
ions@@
machen?
s"
are
Unterstützung
Junge
Flug@@
Richard
bi@@
anderem
lebt
Botschaft
noch,
gemein@@
tragen.
Fluss
on.
klingt
Hei@@
mp@@
Modelle
losen
Obwohl
"Du
Gott,
tel@@
erkennen.
,"
London
beginnen,
Fest@@
Wandel
heiten
holen
hätten,
Tausende
Lin@@
Museum
Jahres
War@@
Tieren
dorthin
per@@
werde,
reich@@
somit
Beim
sie:
Karriere
ändern,
Pu@@
Nichts
ähnliche
Haut
wuchs
dritten
schafft
kten
fähig
El@@
21.
Gegensatz
lö@@
Stadt@@
"Oh,
nichts.
zufällig
So,
entdeckt
ung:
legen.
ßen
saß
Kreativität
alleine
gesagt:
Jahrhunderts
ationen.
nächstes
stan@@
roten
weg.
zug
Fenster
kraft
Welche
Nutzen
wäre.
he,
sta@@
Geschäft
Sprach@@
Lu@@
Los
älter
Krebs@@
lieber
hol@@
mein@@
tragen,
raus@@
fahren.
Dingen,
vollständig
schie@@
tern,
Risiko
Gesetze
Hinter@@
Spielen
Präsident
ap@@
Fortschritt
Paul
Kontakt
fol@@
nachzudenken,
Nachdem
Ton@@
meistens
ür@@
gelernt,
System,
ka@@
hoffe
bleiben.
zit@@
benutzen.
ner@@
fuhr
trifft
ermöglicht
recht@@
kre@@
flo@@
Atmosphäre
geschichte
nicht-@@
ent
-B@@
ing-@@
Fuß
"N@@
ierenden
Seit
vergessen
chten
Land.
ör@@
führt.
po@@
kaufen,
Klein@@
kraft@@
äm@@
geworden.
fl@@
Und,
gs
Car@@
Dass
Fahr@@
iertes
entschieden
fin@@
Virus
medizinische
Objekte
Neuronen
"Sie
Sterne
ser
Eigentlich
laut
Komplexität
ku@@
Polizei
land
Klasse
sammeln
Masse
Zusammenarbeit
Basis
irgend@@
Bedingungen
äre
Mars
entwickelt.
fest
gl@@
Projekt,
ität
zahlen
ün@@
Wo@@
Tra@@
beobachten
möchte.
mus@@
wirst
9
wir.
dete
Im@@
bewusst,
Videos
Traum
normale
irgendetwas
wen@@
soll.
Kann
erg@@
anschauen,
teilt
Kü@@
fer
Ganz
sicht@@
Werkzeuge
Infrastruktur
sage,
Geschwindigkeit
Einsatz
lösen,
13
erstaunliche
zusammenzu@@
ob@@
Sein
Publikum:
Frieden
leisten
solch
anders.
rot@@
ert.
Tochter
gebracht.
verstanden
pa@@
Soldaten
Loch
erzeugt
Mess@@
zt
sam@@
diejenigen,
einfacher
wirtschaftlichen
ges@@
ss.
zen.
Gewicht
gefunden.
entscheiden,
Jobs
häufig
unmöglich
Forsch@@
wobei
10.000
befindet
ker
verhalten
ger,
The@@
Geld,
allerdings
bild
"Nein,
Folge
praktisch
Andere
uren,
soll@@
"W@@
Vertrauen
Insekten
Har@@
Geh@@
ess@@
persönliche
elles
ner
alles.
Versuch
igkeit.
Beispiel.
deut@@
Test
aussieht.
Bill
betrachten.
Film@@
kaufen.
einmal,
ce
Vision
bu@@
legen,
ip@@
verl@@
Qualität
Waffen
sozusagen
sollen.
ren
star@@
lang.
hen,
ähn@@
Erde.
Universums
Osten
James
Augen@@
Nor@@
net
ionen,
bar,
sit@@
Haufen
Entwicklungs@@
/@@
bares
Plan@@
arten
morgen
leg@@
w
Höhe
bewegen,
Kind,
ma
schaute
schwer,
17
he.
t;
Büro
stra@@
prä@@
Gefängnis
bel
ber,
Gelegenheit
halbe
lin@@
hin.
Sa@@
natürlichen
musst
relativ
wieso
kle@@
verlieren
Fol@@
produzieren
tre@@
wohn@@
ierten,
hoffentlich
kü@@
"Der
schw@@
Mehr
Tr@@
Typen
geschah
ment
Tab@@
lichsten
traditionellen
früh
Ba@@
grundlegende
messen
gte
mittel
form
Wir@@
ihr,
Plan
Baby
Bildern
ischem
ang@@
2000
anischen
isten,
fragen:
westlichen
des,
Ger@@
no@@
ke,
Ausbildung
gen:
"Ja,
funktion@@
dessen,
Problemen
hätte.
heute,
sucht
dennoch
sei,
Sie?
habt
tsch@@
setzte
35
suchen.
halt@@
ften
iv@@
scheinen
teste
ys
wo@@
wieder.
gten
sto@@
– @@
Klima@@
Teil@@
Bürger@@
üb@@
tischen
herum.
Che@@
geführt
äl@@
komplexe
genug,
Stadt,
Flu@@
Gehirn.
Kal@@
Materie
vert@@
Karten
Wind
Institutionen
gestern
Familien@@
hän@@
Wald
armen
fühlen.
geschaffen
was,
genauer
Ganze
hen.
Neuro@@
gefähr@@
Moleküle
du,
hel@@
Feuer
wieder,
lässt.
Spiele
Begriff
kungen
Solar@@
Geld@@
erschaffen,
lagen
"The
Partner
mögliche
ann@@
digen
Bei@@
existiert
re.
steht,
Not@@
acht@@
zunächst
Wor@@
ßen,
nete
ber.
wollten,
National
Ordnung
Am@@
hö@@
Ober@@
behandelt
Wunsch
Sekunde
Klimawandel
Lo@@
r
halte
chten.
wohl@@
enorme
rief
meiste
fen@@
sterben.
Kopf@@
steigen
angefangen
menschlicher
jemand,
TED@@
wirtschaftliche
Herausforderungen
mor@@
schlechten
anz@@
Wohl@@
total
freien
braucht,
Afghanistan
welchem
kurzem
wor@@
tes,
Straßen@@
Zeichen
tut,
meist
Blut
Stimmen
cks
reich
beinahe
ies@@
dahin
nennen,
tau@@
stattdessen
Ausdruck
Idee.
ac@@
igt
Ameisen
Meilen
anderen,
150
gebaut.
Privat@@
höher
Zell@@
Kunden
mu@@
Geräte
worüber
rechte
met@@
aller@@
or,
erklären
I
Schei@@
interessant,
par@@
li@@
Charles
spreche
Gang
fel@@
Bitte
Ja@@
Physik
ändert
Probleme,
flu@@
zeu@@
Gefahr
bit@@
Ideen,
erleben
Gemeinde
Aufgaben
gung
verletz@@
legt
ton
Geburt
teile
ete,
oo@@
mess@@
Seite.
C
Sam@@
Filme
gr@@
Mu@@
tig@@
Krie@@
kürzlich
Gründe
rein
fiel
gut@@
grün@@
deutlich
vollen
Einkommen
lebens@@
gene
Pre@@
ellen,
vorzu@@
ige,
gegen@@
des.
aber,
strei@@
lä@@
San@@
hinzu@@
Ziel@@
dunkle
digitalen
herr@@
gezeigt,
steht.
Aktivität
Beine
laufen.
eine,
schen.
Mach@@
werk@@
Plastik@@
Kein
Mc@@
la
str@@
Papier@@
fängt
Leistung
gewissen
Produktion
Sogar
Rahmen
weg,
alle.
verbessern.
Kr@@
brachten
George
mehr@@
Rat@@
zeichn@@
wär@@
hinein
werden?
Titel
schn@@
kam.
raus
Perspektive
Terror@@
Schlüssel
stern
ßt
stecken
Telefon@@
Experimente
verkauft
ate
ück@@
Punkt,
davor
zieht
Gehirne
Fernsehen
Mädchen,
CO2
ersch@@
tion
schei@@
ef@@
inform@@
ven
Erd@@
besondere
diejenigen
Experten
Fisch
ben?
formen
schwarze
zwei,
Ecke
hör@@
ke@@
las
id@@
Michael
nachzu@@
fte
ks
Ok,
lokalen
quasi
genommen.
getroffen
schwer@@
äch@@
unbe@@
enz,
at,
Politiker
Themen
Drogen@@
dauert
Handy
1.
einf@@
des@@
blick@@
realen
rück@@
nen,
erfunden
fragt
krit@@
schön@@
and@@
Schu@@
interessant.
blauen
ss,
Stufe
Wahrscheinlichkeit
Wel@@
erzähle
besser.
brauche
tiges
Staat
Organisationen
Geheim@@
funktionieren.
kämpf@@
besser,
Männer,
arbeit
son
Kriegs@@
halb@@
Krise
Häuser
moderne
beeinflusst
vorher@@
test
Fra@@
stand.
ies
wechsel@@
hinweg
essen.
laden
win@@
soll,
unabhängig
raum
Stattdessen
teil
entstehen
kal@@
durchschnittliche
S
Werkzeug
schul@@
eres
Folgen
äußerst
deswegen
är
lässt,
los,
rechn@@
Mag@@
Kn@@
Intelligenz
rate
kämpfen
verwenden.
Mutter,
sch,
erwarten
verein@@
ure
falsch.
liche,
verbrachte
gs@@
seitdem
Erde,
Hel@@
erhält
stolz
solcher
Sorgen
bleiben,
produziert
sol@@
National@@
Video@@
bekamen
aufgenommen
Schw@@
Nieder@@
wesentlich
gemeinsame
ativen
was?
Stra@@
Vier@@
trag@@
"K@@
No@@
sch.
trä@@
mon@@
Tal@@
werfen
klar@@
Verhältnis
Öffentlichkeit
Bel@@
Ä@@
positive
dank
sst
Großbritannien
egal,
as,
kr@@
Hü@@
dung.
Energie,
na
Quelle
Sicherheits@@
Gar@@
mal.
0@@
Zukunft.
lesen,
Fil@@
län@@
hat@@
Satz
elt
Bildschirm
fre@@
Arbeiten
Affen
the
Kontext
stärker
ität,
menschliches
th@@
stand,
soviel
erinnert
entwickelte
Grenze
aten,
sä@@
sind?
internationalen
Bewegungen
afrikanischen
Möglichkeiten,
warten
Geld.
Sobald
verursacht
Lage,
bringt.
langer
11.
September
denkt,
betrachtet
junger
sl@@
45
ert,
haft
Lö@@
nah@@
Forschungs@@
Kommunikation
hy@@
liegt.
Zeitalter
Wa@@
Süd@@
Hu@@
hinaus@@
etz@@
Kern
nah
gewinnen
bekannten
basiert
Brot
Weile
om
könnt
setz@@
USA,
Sachen,
arbeiteten
vielleicht,
schlagen
woll@@
benötigt
Dis@@
Bur@@
Industrie
OK,
Entdeckung
lediglich
begonnen
Sen@@
iss@@
Strom@@
Netz@@
Worten
lichem
erzeugen
Regen@@
Verstand
sprachen
Strukturen
machte,
keit.
vorbei@@
getötet
fern@@
hren
satz
Robert
19.
Kindheit
abhängig
Hintergrund
enden,
unglaublichen
nichts,
Test@@
richtig?
klein@@
wählen
Müll@@
ja.
Verhaltens@@
wirkliche
verbessern
überzeugt,
Effekt
Damals
äh@@
entdecken
schlechter
falschen
Professor
Elektro@@
Tests
Identität
han@@
Schutz
Leider
retten.
USA.
Landwirtschaft
finde,
Planeten,
umzu@@
aufs
steckt
ckt.
to
alle@@
Gibt
Schimpansen
herauszu@@
essen,
versuchte,
ging.
schien
schließen
ähnlichen
schu@@
ger.
fertig@@
manchen
B
gehör@@
schicken
Planeten.
mei@@
Lied
ban@@
ologie
genau,
Arbeit@@
arme
bilden.
verantwortlich
werk
schwierig,
bringt,
deten
aren
bezüglich
morgens
Jemand
brechen
Gleiche
Wunder@@
Schwester
Organ@@
Wieso
-,
Berg@@
Fü@@
Individuen
schl@@
Lachen
Fal@@
Stress
so:
verwendet,
internationale
fe,
Mond
Star@@
rein@@
Norden
City
Beispiel:
lebte
Sprachen
liegt,
Einen
sag@@
Lebens.
vorstellen.
groß@@
trägt
Meeres@@
Heil@@
lu@@
Daten.
n?
Sand@@
runter
pr@@
Außen@@
bauten
Bruder
kun@@
Ball@@
TEDx@@
zogen
Informations@@
persönlich
wächst
Aspekt
Generationen
igen.
großartigen
rote
Dollar,
immer.
Händen
Ansicht
jährigen
ator
Wesentlichen
Unternehmen,
getan.
sehr.
Angst,
heben
fand,
führten
Herr
laufen,
600
ie-@@
Pa@@
fan@@
Irak
reicht
möchten,
zü@@
Mutter@@
re
net@@
herstellen
Kombination
Kräfte
mö@@
Pil@@
möglich.
erschaffen.
"Nun,
dung,
Japan
schlag
ationen,
Hund
kel@@
scheinbar
hoch.
onen
kamen,
ße
fra@@
heit@@
ma,
unglaublich.
Dar@@
Schutz@@
Teilchen
Anteil
besseres
Gemeinden
gebracht,
organis@@
worden.
ve
sitzt
zellen
bestehen
Ker@@
anhand
konstru@@
Schlüssel@@
ent,
Hinsicht
Fall,
?“
dort.
bat
tut.
halt
fach@@
Geschichten,
Hö@@
heiten,
sehe,
isiert
eng@@
Pat@@
drehen
vorbei
fingen
d:
feu@@
ster.
Mütter
dafür.
gegeben.
Drei
Grundlage
schock@@
geln
Baum
sprech@@
197@@
Ob
Gemein@@
brauch@@
Fragen,
lokale
Schiff@@
medizinischen
ihnen.
Dra@@
Seh@@
Leute.
dungs@@
uner@@
Nationen
gesund
Dazu
druck@@
moralische
sei.
öffnen
Bon@@
Web
hafte
könn@@
Konflikt
Hy@@
führt,
Indien,
zerstör@@
ive
Al
Afrika,
darüber.
gehalten
dieselben
bietet
Danach
gemeinsamen
den:
Stre@@
äuß@@
beginnen.
entscheiden
entsteht
etwas.
Gol@@
Gedicht
hoch,
t"
genannt.
lag@@
Gespräch
weiterer
Phänomen
Weise.
Wür@@
Laden
Kam@@
Deswegen
Glück,
haften
üt@@
außen
einfach@@
Gesundheit@@
hätten.
ens.
schon.
A-@@
lang,
holen.
ent.
letz@@
erkenn@@
ungs-@@
weltweiten
Sal@@
gegenseitig
Sauerstoff
Gutes
ast@@
ht,
spiel
wenden
Elemente
Linien
Darum
woher
Mann:
ßen.
Wahrnehmung
pt@@
al-@@
beobachten,
verbinden
derzeit
ed@@
Schmerz
schlag@@
Armen
ia
barer
zuzu@@
erlaubt,
grundsätzlich
brauchten
herum,
halb
viel,
ktion.
anschau@@
jener
arbeitet,
folgende
nutzt
"E@@
Beste
verbringen
höre
barkeit
nde
Gewebe
Mal@@
gefragt,
dungen
tes.
Etwas
krei@@
Website
Träume
Kin@@
bele@@
handeln
Details
Brücke
wein@@
lauf@@
Bevor
Anderson:
Erst
ant
veröffentlicht
Landschaft
Staaten,
erlauben
viele,
benutz@@
us,
passt
groß.
OK.
schwarzen
School
Fische
werde.
Li@@
ierte.
as.
Psych@@
stu@@
Eindruck
Sü@@
2.
nen.
Knochen
vorne
oben.
Gut,
ba@@
tel
schätzen
speziellen
issen
kti@@
Abschluss
Facebook
wofür
dürfen
ell,
offenen
schnell.
bedeutet.
senden
blaue
Existenz
Blu@@
scher
inn@@
kin@@
Anstatt
durch.
brei@@
rä@@
verkaufen
druck
gefunden,
Lebewesen
50@@
rede
Gehen
unteren
Versuch,
greifen
wussten,
neh@@
Jahrzehnten
sterben,
sches
Lan@@
wä@@
2008
Maßstab
Tri@@
Gei@@
Freunde,
.«
setzten
Zunächst
Produ@@
inge
Pf@@
Länder,
gestorben
Jungs
verloren.
y:
sieht.
Viren
steigt
Gute
verbreitet
gruppe
ön@@
buch
Mat@@
Bal@@
Regel@@
mögen,
wichtig@@
igkeiten
fal@@
Telefon
Tu@@
enz.
Feld
digitale
fun@@
chte.
icht@@
Fakten
gen."
Damen
sogenannte
weißen
drän@@
schwe@@
beschäftigt
ve@@
Ausmaß
wären,
Thomas
cker
erzeugen.
tausenden
es?
betrachtet,
len
gend
Gr@@
mittels
Danke,
Schluss
ven@@
nahmen,
Körpers
lichen,
glaubt,
ker@@
statt@@
Gehirn,
schen@@
Gegenteil
Inter@@
gän@@
Funktion
immer@@
Innen@@
ernst
Medikament
"]
stür@@
Augenblick
Wirkung
überzeugen,
199@@
Schule,
kommen@@
Mengen
fall@@
wahr.
hil@@
Ohne
fürs
bieten
Zitat
verrückt
drei,
Lauf@@
Pan@@
Organismen
il
dliche
rit@@
war:
Pap@@
Fleisch
Den@@
solange
Jo@@
schüt@@
ren@@
Hunderte
krank
gebaut,
weiße
daten
Zuhause
bie@@
brau@@
Gan@@
isierung
ide@@
gegeben,
reagieren
schützen.
folgenden
Spieler
Bauern
kann@@
freund@@
Gründe,
Mehrheit
Recht@@
Verbreitung
wie@@
Risiken
änder@@
andere.
wan@@
spar@@
biologische
ort
fläche
Sport@@
Druck@@
wollten.
198@@
standen
nannte
komplexen
Verlust
lage
Bau
ler,
Kamer@@
nis@@
Rätsel
mt
entstanden
perfekte
gro@@
Fel@@
Spe@@
vorstell@@
Wit@@
Sat@@
nötig
art
verändert,
Medien@@
Beweise
pre@@
blieb
Mau@@
grünen
klin@@
stimm@@
Umfeld
gewinnen.
neten
aussehen.
stär@@
spiele
Lasst
Miss@@
Freundin
Volk
Vorfahren
derselben
heb@@
einiges
Mitarbeiter
Nation
produ@@
Kap@@
Militär@@
design@@
spr@@
gedacht,
plat@@
noch.
kreativen
Bett
lieb@@
tat,
Mill@@
Sinn,
Genom
hergestellt
ologen
Na
haf@@
DNA-@@
sten@@
Bild.
ergibt
für@@
ters
mann
Ben@@
genetische
baut
tä@@
Dafür
fu@@
ens,
Tief@@
Statistiken
Park
ges.
gel.
tanz@@
ismus,
dige
Technologie.
perfekt
Tru@@
Iran
Berg
eln,
Baby@@
Ozeane
Führungs@@
Entwicklungsländern
Anwendung
Vorteil
Gesellschaft,
sollen,
benötigen
insbesondere
igung
ick@@
nochmal
inspiriert
A,
entdecken,
erzählt,
Buchstaben
freie
Potential
id
möglich@@
lautet:
Lebensmittel@@
High
wur@@
geboren.
flie@@
grüne
tische
Architekten
Mund
Emotionen
Je@@
Pla@@
t?"
Musik,
Erklärung
Tonnen
kte.
Grün@@
gewesen.
genügend
Schule.
warten,
zentr@@
behandeln
leb@@
lös@@
Mass@@
Nord@@
Krei@@
en".
feld
ort@@
fälle
gelöst
folgt
Diskussion
krie@@
liegen.
Code
Mikroben
chemische
Times
Finger
Machen
Hör@@
forsch@@
kriegen
selten
respekt@@
starken
lernt
Bil@@
Far@@
gelassen
“@@
Stu@@
Pe@@
keit,
besie@@
Afrika.
wen
benutzt,
sei@@
spielte
Dan
On@@
Rechte
ette
stes
verfügbar
Drei@@
Temperatur
Netzwerke
Küste
alis@@
ungsp@@
herausgefunden,
untersuchen
Korruption
dauerte
Macht@@
Nutzung
kün@@
Minuten,
darunter
dies,
son@@
Nachbarn
dachte:
lebenden
chs
Tiere,
brechen.
speziell
Bla@@
enn@@
Part@@
schließen,
c
Por@@
igten
min@@
woran
jährige
Gesamt@@
dra@@
weshalb
ati@@
Ahnung,
Ander@@
Augen.
Gründen
Maß@@
Pfund
Billionen
wirklich.
heits@@
Frauen@@
tro@@
Operation
Erfindung
Aben@@
Kurs
Wohlstand
herzustellen.
industrie
gefangen
ja@@
gehören
schlagen.
darf
Zimmer
uss@@
Untersuchung
Ton
scht
or.
wunderbaren
richt@@
iten
Zweck
Definition
hilft,
viel.
anten
ron@@
ih@@
gezogen
Insel
ktion,
Würde
flüss@@
Erkenntnis
Pal@@
Bereiche
ver
Elektrizität
krat@@
Auss@@
glücklich@@
auseinander@@
HIV-@@
musste.
3D-@@
Zahn@@
musste,
Washington
benen
ll@@
Todes@@
zusammenge@@
stoff
gäbe
ische,
späten
Schn@@
mehreren
grosse
basierend
weise.
automatisch
Nahrungs@@
zugänglich
Fälle
alt,
scheint,
Wil@@
sel
bern
Augen,
Schwer@@
untersuchen,
Wissenschaft,
Werbung
kra@@
Boot
one
Anti@@
verlie@@
beschloss
Frauen.
rat@@
erte
irgendeine
at.
Vari@@
weiss
0ern
75
ende,
deiner
Familie,
ppe
genug.
heran@@
olog@@
Reg@@
Kapit@@
grundlegenden
schwierige
Mission
stimmen
Beweis
Ozean@@
Galaxien
bahn@@
mes
beweg@@
fü@@
atoren
gel,
hielten
gan@@
herzustellen,
Fortschritte
lichkeit.
punkt
Aber,
Drogen
istische
gewisser
Maus
cken@@
einfaches
Steve
Oh
stieg
geworden,
100.000
kul@@
See
Ess@@
mil@@
kung
hat?
wenigstens
Wind@@
ingen
kulturelle
treten,
Regierungs@@
entspricht
nieder@@
Bereichen
igt,
"O@@
maß@@
Golf
erklär@@
hierher
bahn
Stärke
bekann@@
durchgeführt
ischen,
Problem@@
Denk@@
Ländern,
Computer.
entschieden,
Kra@@
unterschiedlich
teren
nein.
toll
Ga@@
schle@@
auftau@@
vergangenen
vers@@
Kulturen
Vögel
mitzu@@
baute
erle@@
Ant@@
ität.
nachts
hält,
ktion@@
regul@@
stoff@@
großartig.
Bedürfnisse
nachdenken
tatsächlich,
ov@@
nachzudenken.
ings
Fehl@@
Planet
kn@@
gn@@
Lü@@
Hand.
Freund@@
bereit,
Kindern,
Kraft@@
England
ale,
ds@@
artigen
Radi@@
Mehr@@
unternehmen
Momente
Kampagne
Hat
gedacht
tern@@
stör@@
Adam
strö@@
begeistert
erfahren
Holz@@
Voll@@
finanz@@
Doktor@@
fallen.
Jahrzehnt
Flü@@
Angst.
Prozess@@
sogenannten
Mut@@
os@@
bilden,
nie@@
retten
schaften
Resultat
wachsen.
Immer
China,
Sc@@
Alles,
ssen@@
igsten
gewinn@@
lebende
Große
worauf
iker,
genau@@
ub@@
zig
richten
Kultur,
er?
Ort.
glich@@
anschauen
Epidemie
band
Wirtschaft@@
eindeutig
stehe
Tor@@
wovon
gi@@
behalten
untersucht
Rot@@
Aktivitäten
Indem
bewe@@
kontrollieren
West@@
ktionen
klar.
2007
dazu@@
eben@@
öff@@
iel@@
196@@
leistungs@@
Computer,
kreative
genen
erwartet
lebten
eigentliche
Klang
letzter
Sagen
fisch@@
sie?
lichste
können?
erfahren,
produz@@
sc@@
glichen
12@@
blei@@
Men@@
Fast
lasst
mit,
realis@@
Schreib@@
ß,
Einstein
Schwierigkeiten
nisse
Geheimnis
lü@@
Innerhalb
stück
let@@
1.000
Erinnern
Inhalt
Bilder,
Minute
Weg.
anische
Charakter
Schließlich
höhere
Einstellung
Kontin@@
hinten
Tur@@
hu@@
entgegen@@
ten."
Was,
Wann
dlich
hlen
Prim@@
lichkeit,
zweimal
teilweise
Durchschnitt
allem,
genommen,
schnell,
AIDS
engag@@
geschieht,
1000
ien@@
land@@
Flie@@
Diagramm
fäh@@
Jahrzehnte
männ@@
fantastische
Sol@@
iere,
weise,
gestellt,
findet,
bekomme
beeinflussen
lichkeiten
gelesen
passen
Rücken
zunehmend
voneinander
Einheit
ik-@@
mer,
ht
komm@@
les@@
b.
dokument@@
Familie.
Weg@@
„Ich
Gesichter
Lie@@
ktiv@@
Methoden
lehr@@
eingesch@@
Bildungs@@
bekannte
Ehe@@
hängen
mensch@@
Heutzutage
beispielsweise
dro@@
s."
ic
Kab@@
Com@@
Park@@
Interaktion
Verstehen
Twitter
fliegen.
eln.
brenn@@
Indien.
super@@
ssystem
Deutschland
brü@@
größ@@
Naja,
Neues
hau@@
vieles
genetischen
oberen
Darstellung
gewinnen,
te."
Rand
gelegt
zes
ktoren
Uns
University
Schwar@@
College
ce@@
verbunden.
ker,
wasser
besteht,
doppelt
Jun@@
ier,
che@@
repräsent@@
Mensch,
gek@@
log@@
Löcher
Zuschauer
eri@@
Unter
Gemeinschaften
Vorstellungen
aufgebaut
y"
Raum.
dische
Phase
elektrische
fliegen,
chinesische
nden
Erinnerung
Männchen
stammt
spann@@
Kohlenstoff@@
Bin@@
Unternehmer
Sh@@
Con@@
anstelle
durch,
wasser@@
tö@@
eingesetzt
gesunden
fühl@@
sü@@
Lau@@
denselben
gesetzt
Großmutter
starb
versu@@
deinem
spezielle
interessanten
bestand
Roh@@
welt@@
schlug
Oper@@
Verlauf
aussieht,
spricht,
Sk@@
Mot@@
bewer@@
Überleben
schaft,
drücken
sich:
land.
heißen
entfernt,
ländlichen
Fe@@
igste
rufen
nachdenken.
stie@@
empf@@
Han@@
Gold@@
erkannte
schön,
ist."
indischen
Blau@@
wachsen,
Handel
Vorteile
erlebt
bezahlt
Respekt
geschickt
passiert?
sowas
halten@@
Großen
rum@@
Ahnung
momentan
strahl@@
verschiedener
biologischen
zieh@@
jemanden,
Gespräch@@
glich
World
Männ@@
schaft.
antwor@@
ot
müsste
sicher.
ihn,
bla@@
schützen
worum
gespielt
Spiel.
erkennt
dens
Vater,
normal
lass@@
X@@
Aspekte
Eltern,
Wahrscheinlich
setzt.
stück@@
Aufnahmen
trau@@
Anders
Zer@@
frü@@
visuelle
wel@@
erlauben,
real@@
eten,
Achse
sexuelle
tan@@
Trau@@
effektiv
aktiv@@
ga@@
arbeitet.
Indi@@
zehn@@
ursprünglich
Techn@@
fünf@@
versuchten
fil@@
dien@@
1.@@
verglichen
17@@
grossen
befinden.
technischen
leichter
b,
ionen.
Trotzdem
Erstens,
erhielt
zeichnen
Vorstellung,
wem
sammeln,
höchsten
Gener@@
oll@@
bau
treten.
gesetzt.
bewegt,
maschine
schlu@@
Methode,
Licht,
Aufnahme
verschwen@@
Ster@@
amp@@
wieviel
an:
14@@
Wettbewerb
Fall.
erklären.
Zit@@
Nan@@
Viertel
2010
Zur
passieren.
besonderen
Patient
ches
nis,
lern@@
moralischen
Raub@@
Lektion
tin
Innovationen
ne,
ppen
Verwendung
schauten
kungen,
drück@@
Son@@
bt.
NASA
Handys
vieler
sein."
Gla@@
fähigkeit
verk@@
emp@@
Sprache,
Buch,
vertraut
konzentrieren
Wur@@
spät
e."
in-@@
est@@
Folie
kauf@@
riesiges
geschafft
digung
cker@@
Rad@@
kat@@
Erfahrung,
teuer
offen@@
Mexiko
ernst@@
unterstützen.
pu@@
Sei@@
real
bezahl@@
beschreibt
brach
endet
versuche,
daran.
Gegenwart
nicht."
yp@@
müssten
land,
Dam@@
Wach@@
ick
Plötzlich
Erinnerungen
BG:
CO2-@@
entfernt.
schü@@
wären.
systeme
Debatte
wiss@@
tritt
Nase
heute.
investieren
Bra@@
harte
Kunst,
Hinblick
hoffen,
Bru@@
Zeitraum
Fer@@
Design-@@
15@@
Malaria
Train@@
schä@@
suchte
erstaunlich
pflanzen
dar.
schein@@
wach@@
Kerl
Quadrat@@
herausfinden
Autor
"B@@
Harvard
ckt,
Zeitung
kel,
tue
behaupten,
umgehen
irgendjemand
Fotograf@@
ero@@
Schatten
ep@@
sprach,
erreicht.
Informationen,
ang
gewonnen
Schlag@@
vielmehr
entstand
verteil@@
Klassenzimmer
Mio.
app@@
oper@@
leist@@
öhn@@
an?
wu@@
etzen
Büro@@
fragte:
Dinosaurier
mark@@
bung
Chinesen
gesprochen.
dene
Kalifornien
mache,
erwarten,
Mangel
schaff@@
überrascht
Anführer
Steuer@@
Mus@@
läuf@@
interessiert,
bekommt,
entdeckte
auff@@
drin
stän@@
schwere
Stücke
oben,
zähl@@
a"
schließen.
höheren
zun@@
oren,
v
Normalerweise
en!
erstaun@@
welt
einst
lieben,
mittleren
struktur@@
system,
treff@@
See@@
veränderte
Worten,
p
bewegung
Ke@@
verblüff@@
emotionale
Antwort.
kennt
Design,
Blatt
uren.
Strategie
Cra@@
Bevölkerungs@@
Gegend
tenden
Arm@@
Vogel@@
gehabt
Molekül
3.
Orte,
polit@@
Regionen
Eigen@@
verständ@@
überzeu@@
Lebens,
Kranken@@
Situationen
dig
Konflik@@
isol@@
cm
Sur@@
Kontroll@@
erfüll@@
ete.
ian@@
Wegen
dy@@
DH:
Kurz
saßen
Glück@@
ierung,
System.
mag,
dor@@
ass@@
Erstens
erklärt,
Erfin@@
ermöglichen,
Fo@@
lebt,
dahinter
ät
rieben,
Sonnenlicht
Tran@@
seltsame
machte.
besagt,
-A@@
feststellen,
schlimmer
Afrikas
tru@@
Chemikalien
Spr@@
Bro@@
Medizin@@
Stammzellen
iven
beginnt,
kannte
Stadt.
ermöglicht,
verstanden,
umso
jetzt.
Prot@@
zt,
Webseite
vi@@
ansehen
og@@
es:
Prozent,
Sau@@
Blog@@
2005
aden
ungss@@
kommunizieren
physische
deck@@
Art.
allen,
ris@@
hoher
ologe
haus
Süden
hoff@@
Wissenschaftler,
bereich
wirken
Pol@@
winzigen
Fliegen
Ost@@
ierung.
gesp@@
Impf@@
100@@
Wagen
altes
kulturellen
verbessert
vierte
traditionelle
verdienen
Bas@@
Israel
enorm
Strei@@
selbstverständlich
arabischen
din@@
dis@@
Metapher
Lebensmittel
sch
glauben.
Darüber
Eins
Chance,
Level
Radio@@
mass@@
interessanter
"Hey,
Wider@@
ph@@
Präsentation
spür@@
Ideen.
mittlerweile
arm
fährt
eit
Zivilisation
defin@@
braucht.
au
runter@@
“.
Körper,
schlägt
Faktor
trag
stab@@
Sil@@
Farb@@
Chemie
Sozi@@
mis@@
jenem
freu@@
Süß@@
dischen
Kaffee
zentrale
Kameras
Got@@
Kreis
Aut@@
"F@@
verdien@@
irgendeinem
schalten
beinhaltet
Fuß@@
erweise
verlieren,
existieren
Brasilien
ismus.
zin@@
Web@@
keln
Information@@
Signale
vorhanden
Zentral@@
far@@
bitten,
E
Sand
begannen,
führung
ausgesetzt
mi@@
Essen,
fei@@
zeigt.
aten.
Wunder
wal@@
MIT
sse,
etc.
Ereignisse
Rechts@@
Op@@
eten.
worden,
"T@@
Liebe,
Entdeckungen
Mitglieder
konzentr@@
überleben
schaft@@
steck@@
möchten.
samen
Glas
körper@@
Natur,
verlassen,
leucht@@
Probleme.
Status
Wüste
Ära
Geräusche
dat@@
Arme
tiefer
har@@
wundervolle
Lauf
ier.
untersuchen.
«@@
integr@@
sech@@
ar,
schwan@@
aussehen,
Gi@@
wirklichen
Gebiete
befindet.
unterstützen
Tradition
Physiker
fäll@@
modell
ente
Teilnehmer
ell.
produzieren.
Galaxie
gerät
nahme
kostenlos
Gesetz@@
kung.
Gerechtigkeit
besitzen
zeit,
drehte
kühl@@
21
weltweite
frag@@
einander.
Dreh@@
Fl@@
Weihnachts@@
Tau@@
verschie@@
ler@@
gearbeitet,
Staat@@
kte,
Wirtschaft,
Statist@@
gelebt
gebraucht
Dutzend
versuchen.
toll,
ziel@@
Okay?
anderes.
zimmer
digt
nütz@@
Fokus
Schritte
Bedrohung
Gewinn@@
99
funktionier@@
zer
hü@@
Kommen
27
Dre@@
Kreb@@
My@@
D
ktor@@
Stand
Gro@@
Erfahrung.
eng
Richtige
raten
geschieht.
mittel@@
innere
alisierung
König
folgen.
Möglichkeiten.
co@@
Helden
steigen.
Grafik
öffentlich
womit
Pass@@
offene
verbinden.
kontroll@@
Stuhl
gefährlich
den."
Sach@@
Patienten,
Pen@@
Größ@@
igte
Log@@
verstehe
:@@
erneut
Lebenserwartung
ansieht,
Kapitel
ut
enthält
a:
echtes
chinesischen
Märkte
Ernähr@@
vergessen,
Regierung,
muster
Schuhe
End@@
Werden
ellen.
iche
Wäre
Handel@@
Zweitens
Aufbau
Inspiration
gekommen.
Bank
doch,
Analyse
Stat@@
wähl@@
techn@@
umgeben
zeichen
drüben
legten
US@@
gesunde
förder@@
Sachen.
d?
sammeln.
Prozess,
beobachtet
Ham@@
ß.
nei@@
5.
popul@@
een
Schauspiel@@
Stimm@@
hnen
motiv@@
liefer@@
Arbeiter
Interess@@
Klima
iken
Viel@@
Dan@@
T
denken:
un
Entwickl@@
Prinzipien
$@@
Konsequenzen
Entfernung
sche,
same
verstand
nennt.
sehen?
nationale
Leu@@
dem@@
elektrischen
positiven
Euch
fordert
nor@@
Gesundheitswesen
Folgendes
Plastik
Privatsphäre
Bienen@@
2009
konzentrieren,
getan,
stoffe
nimmt,
Kontinent
Staats@@
richtig.
Terrorismus
hilfe
wirft
naja,
privaten
il.
Seele
trafen
"Okay,
produzieren,
zählen
Vertrau@@
Proben
insgesamt
gruppen
5.000
Zellen,
explo@@
Schlei@@
m-@@
erscheint
denn,
werfen,
verlieren.
Hören
passier@@
Sinn.
schaue
also:
präsent@@
Zukunft,
Körper.
%.
zent@@
diger
geber
mögen.
Räume
Berge
selbe
näher@@
Ursprung
glaubt
ont@@
vorhin
hast,
Interessen
vertrau@@
ppen@@
wie:
on-@@
erwar@@
unge@@
Ausstellung
nis
za@@
beg@@
Trans@@
reale
exist@@
inen
markt
dunklen
Instrument
früheren
ade
Beru@@
benutzt.
diert
heim@@
nahmen.
Schrift@@
Hunger
ffen,
inzwischen
erzeu@@
wird?
wunderschöne
2,@@
Werk
Signal
ah
Pinguine
Polizei@@
Lang@@
Technologien,
Riesen@@
endste
Bran@@
ses
Absicht
Fun@@
wie,
Schl@@
Teams
mussten,
isten.
erten
Rock@@
chemischen
k-@@
schlimmsten
Eing@@
Programme
Laptop
scher@@
Stein@@
entwickel@@
wiederhol@@
plan@@
ktor
Anstieg
weiß@@
teln
tion@@
messen.
jeweils
"Oh
eren,
Martin
ihm,
Christ@@
pe
Internet.
Industrie@@
betra@@
bestät@@
Spiegel@@
gebie@@
Realität.
visuellen
Nachbar@@
Islam
Kir@@
Kirche
Änderungen
gefragt
Jahrzehn@@
diges
Bl@@
erzähl@@
Wol@@
bedroh@@
Außer@@
beru@@
sum@@
Rea@@
schicken.
zel@@
gross@@
Bein
ley
Verwand@@
programm@@
afrikanische
«
ket@@
krise
aktu@@
Invest@@
betre@@
ile
Kohle@@
äuf@@
seid
lieben.
notwendig
bas@@
groß,
zeichnet
oh,
Tanz@@
Gedanke
infiz@@
Ir@@
Gesellschaft.
Schne@@
ernsthaft
Bewegung.
4.
Macht,
Weiter@@
pen
interessieren
Lager
anscheinend
“,
Potenzial
warum.
folgen,
Tom
enten,
?",
len@@
Aufstieg
deln
hält.
den-@@
beschrieben
igt.
go@@
mag@@
wü@@
sal@@
Gemälde
Führ@@
stets
Peter
tert
Frau:
dern.
8.
Minuten.
zeigten
unten.
schließ@@
Quellen
bü@@
losigkeit
Proteine
gru@@
passieren,
Willen
oren.
sign@@
ina
Antibiotika
Australien
gabe
pol@@
landen
präsentiert
Würden
Reaktionen
hor@@
Kopf.
Schau@@
Lach@@
Geschäfte
Verbrechen
st."
kooper@@
Hunde
Wellen
getroffen,
sorgen,
Allgemein@@
bewohn@@
formen.
Dollar-@@
enormen
Ziel,
Mü@@
ktor,
hinsichtlich
soweit
Bericht
gearbeitet.
Sinn@@
entdecken.
gegenüber@@
lang@@
hier?
bra@@
Mann@@
Meer@@
Dach
Auswahl
Wort@@
entworfen
Ad@@
kam@@
oft,
Baum@@
Teil,
Garten
machen."
Schaden
kaufte
iv
16@@
lustig
fach
aktuellen
Hilfs@@
gewesen,
Stand@@
stand@@
sahen,
treiben
stop@@
betrifft
bewegt.
Eltern@@
Sech@@
punkte
gefragt:
Ökonomen
interess@@
verfolgen
krank@@
enzen
verbinden,
tauchen
seite
stein@@
Internet,
Symbol
Fre@@
öfter
trat
verteilt
Gleichgewicht
lung
Del@@
Ser@@
Kenia
ks@@
haltung
Stein
weist
langsamer
vertei@@
wählen,
Ereignis
anti@@
bezahlen
Tiefe
Hand,
Moment.
Führer
stat@@
Brü@@
sozialer
überrasch@@
ologie,
gefühl@@
Wörter@@
Roboter@@
Brust@@
Wild@@
BF:
nis.
Heimat@@
fle@@
ener
technische
gebiet
wirtschaft
weite
kümmern
Armee
fragen.
jähr@@
beeindruck@@
War
Prei@@
Modell@@
fassen
weibliche
Treffen
Modell,
Ökosystem
messen,
fügen
beweisen,
behandel@@
Kla@@
ci@@
dig.
Ernährung
kolle@@
unterstütz@@
überall.
kennen@@
Nerven@@
Fragen.
Schnell@@
prim@@
beschlossen,
heu@@
posit@@
blin@@
Rom@@
exakt
dern,
übertragen
Plat@@
fasst
wahren
ou@@
Aktiv@@
auslö@@
ipp@@
regelmäßig
P
Mö@@
Tele@@
platz@@
ath@@
nahezu
Zauber@@
sichtbar
Könnte
west@@
erstellt
spielt.
irgendwelche
unterscheiden
Besonder@@
Dimensionen
greif@@
Liefer@@
Zerstörung
Gespräche
Dadurch
test@@
schöpf@@
Sar@@
Militär
bekannt,
forschung
fasziniert
achten
Ursache
Organe
Nachrichten@@
effizi@@
schwer.
...@@
ktionen,
Cor@@
geschrieben.
800
nützlich
schwierig.
struktur
Designs
Gruppe,
Vorstellungskraft
Vol@@
gewöhnliche
glaub@@
überleben.
höchste
Air@@
liegen,
Inneren
Regen
töten
eins,
mente
entdeckt,
fragt,
mich:
Punkt.
Erwachsenen
Gest@@
zerstört
cke,
Teenager
Gewinn
fest.
noch@@
Denkweise
Spektrum
Hause.
Student
bten
us.
einen,
Marke
ansehen.
weiß.
jenen
froh,
em,
Volks@@
überraschend
Ende.
terin
Mi@@
verrückte
Übersetz@@
lasse
ium
zeigte,
Werbe@@
passierte,
Gut.
tun@@
keinem
inneren
nimmt.
Francisco
Sha@@
Echtzeit
rö@@
übrig
Weisheit
Bill@@
heutige
inner@@
250
Fertig@@
nationalen
fache
lok@@
Führung
gehend
Krieges
Konflikte
Sprache.
Sichtweise
zukünftigen
1,@@
Mei@@
PM:
Geräusch
Psychologie
Energie.
Brief
invest@@
herstellen.
iger,
Durchschnitts@@
Näch@@
gele@@
Wege,
Wird
Wissen,
Heim@@
res
Laufen
diskut@@
großartig
ierungs@@
x,
Inseln
Einfach@@
zukünftige
kten,
Darauf
intelligente
App@@
iff@@
lass
grundlegend
Tumor
wunderbar
fließ@@
trock@@
Hoffnung,
19
Zug
Bor@@
Rö@@
Kli@@
erstellen,
einziges
Flugzeu@@
nen@@
arti@@
Herausforderung,
legte
mung
Computern
menge
monat@@
Boden@@
kraft,
rü@@
zig@@
Restaurant
erkannte,
Fein@@
bein@@
leiden
Kop@@
Gemeinschaft,
ffen
Wort,
reiche
schlecht.
ohn@@
komplizierte
zahl
kleinere
Fläche
station
Pakistan
artige
isch-@@
Darwin
glücklich.
Male
Roboter,
Erwartungen
Dunkelheit
Schicht
Wissenschaftlern
Yorker
Pet@@
Schicksal
Kultur@@
wisst
König@@
täglichen
optim@@
hät@@
demonstr@@
Obama
Hum@@
Gor@@
schöner
bill@@
aktuelle
Versuchen
w,
icken
Atem@@
Insel@@
Char@@
näch@@
gestalten
schauen.
inklusive
fern
23
Fortschrit@@
Mut
Autos,
imm@@
öpf@@
handel@@
dich@@
Gedanken,
Einblick
revolution@@
verbracht
ter-@@
außergewöhnliche
ausschließlich
bevorzu@@
Blumen
einschließlich
vertre@@
haben."
gar@@
ine@@
heil@@
?@@
Strand
erzeugen,
springen
ermöglichen
bende
Frau.
Studen@@
imit@@
Kreuz@@
Beruf
bis@@
dün@@
sozi@@
Instrumente
Ran@@
Öko@@
alismus
gestalten.
beizu@@
tot
Vorgang
vorzustellen,
Erfolgs@@
zo@@
Standard@@
ori@@
gerei@@
Unfall
älteren
Erwachsene
Satelliten
vo@@
Betrachten
Zähne
Serie
Col@@
ckte
ha
Wikipedia
Magnet@@
kungen.
schätzen,
letztlich
sage:
Wieder
physischen
A.
Schon
Gut
blind
Herren,
Entstehung
wandel@@
ele@@
Algorithmen
Versuche
Wahr@@
Unterhaltung
gesetz@@
mit.
glücklich,
zie@@
unterhalb
bricht
ari@@
schnitt
behör@@
Ordnung.
orient@@
Folgendes:
Neben@@
50.000
Organis@@
Chancen
Text@@
klick@@
Kabel
karte
schnelle
Wälder
beobachten.
anfing,
dende
akzept@@
verschwinden
trinken
tiefe
erscheinen
Natur.
bte
ktes
bemerkt,
frem@@
erstaunlichen
Span@@
häuf@@
spezi@@
Person@@
Sex@@
Schrit@@
Technolog@@
material
Firma,
nisse.
konserv@@
heisst
Gemü@@
Foto@@
Umgang
lich:
ppen,
verkehr@@
passierte.
erz@@
zt.
bekannt.
enti@@
verbindet
blo@@
Zun@@
yl@@
sonder@@
bei,
verkaufen.
Zei@@
Letztes
bemerkenswerte
Berei@@
Theater
genannt,
Anfang.
Leh@@
Tür@@
volles
abgesch@@
licherweise
Haus.
Autor@@
do
Samen
SMS
Symptome
Boston
Jeden
Eu@@
nissen
seit@@
niedr@@
Ohren
linke
Paar
sparen
investieren,
ierend
Projekten
funktionieren,
Nicht@@
handeln.
Funktion@@
Human@@
zeug
grei@@
vier,
Ganzen
heiten.
Band
Gen
Kre@@
Genom@@
quelle
räum@@
erheb@@
spe@@
Arten,
Funktionen
statt.
sche.
lautet
Tages@@
vorsichtig
Überall
macht@@
läuft.
passen.
Ele@@
gefahren
Rat
erforscht
Universitäten
Spiegel
hoffnungs@@
Schiff
erforder@@
stoffen
berühm@@
gegangen.
zufrieden
Leiter
Arbei@@
versteckt
keiten
Kraft,
Sicht@@
Versch@@
veran@@
hörten
leisten.
-P@@
sern
entwickl@@
Pun@@
beschleun@@
hl,
besessen
Labor@@
berg
teu@@
ton@@
oh
Gän@@
ech@@
Mitglied
Tour@@
Mittleren
verbreiten
grü@@
22
setzt,
grund@@
liefern
gebrau@@
Chicago
Staaten.
aus:
"Aber
werte
Etwa
ha,
verwandeln
öl@@
steigen,
Schaf@@
Kompon@@
rop@@
schreckliche
schaften,
beschrän@@
werfen.
lebe
voll.
okay,
toll.
4,
ärmsten
gehen?
Wahlen
Tö@@
Terroristen
malen
Flagge
17.
wäl@@
Decke
also.
Such@@
Nar@@
Füße
"L@@
Gedichte
ull@@
schwierigen
é@@
kenn@@
Wan@@
dlichen
Haiti
Zucker@@
Institut
ett
Holz
unterstützen,
entscheidende
Gedanken@@
beseit@@
Sti@@
sorgen
195@@
steckt.
Team@@
Nam@@
leeren
kamen.
Diesen
Licht.
enten.
ignor@@
Herstellung
spro@@
versteht
geschrieben,
Problems
fragte,
Schuld
Gottes
Prof@@
2,
bild@@
Ter@@
kreb@@
begonnen,
erforschen
Anti-@@
Gebäude,
ungssystem
32
Person.
tier@@
allgemeine
Stephen
proje@@
allzu
Statt
Geburts@@
Musiker
Schmerzen
Video,
jeder,
Lehrer,
tü@@
block@@
Detail
Show
stellt,
ball@@
Erfolg.
hn
gewalt@@
annehmen,
licht
fall.
dungen,
Wissens@@
altet
Mann.
besuchen
Geb@@
install@@
verwal@@
Multi@@
basierte
Fall@@
mäß@@
beschreiben,
positiv
nachhaltige
Golf@@
erkran@@
Afrikaner
auseinander
retten,
religiösen
Frie@@
schickte
lit@@
behinder@@
lach@@
Roll@@
Januar
politisch
gefällt
stün@@
verwendet.
hle
zeit.
Verbesserung
R
kreativ
194@@
st?
Sub@@
beunruhig@@
Reisen
Budget
ilen
anschaut,
Richtig?
getrennt
del
rot
nannten
Kohlenstoff
künstliche
Leit@@
pt
700
Anruf
darauf.
tung,
glei@@
brechen,
klop@@
Müll
Wurzeln
chter
änderte
z-@@
wirkt
gefallen
aufgewachsen
Hotel
ingen.
haben:
Wander@@
Fünf
stoßen
misch@@
mer.
allgemeinen
bestimmen,
läuft,
träum@@
verbessern,
Studium
abgesehen
stimul@@
schrieben
öffnet
Theorien
Ca@@
Leiden
gebor@@
schick@@
Sitz@@
Prototypen
stellung,
Aufmerksamkeit.
verwandelt
ble
starben
furcht@@
schneiden
Geburtstag
Pl@@
Projekt.
Wolken
ht.
Haut@@
General
lernte,
Tag@@
Herr@@
E-Mail
C,
Eric
Street
Fin@@
nämlich,
Schulen,
jenseits
ta
tet@@
Diagno@@
bene
Hun@@
errei@@
Tat@@
Video:
richtung
beu@@
ven.
bedeuten
pe@@
Ansichten
Ep@@
Analy@@
half
gaben,
bewunder@@
Ball
Aufgabe,
on:
kg
wissenschaften
ings@@
nä@@
ältere
Gras
›@@
Schlaf
gewöhn@@
Nigeria
gesprochen,
Woher
Ingenieur@@
gelt
herstellen,
cool
7.
Studi@@
ser,
griffen
fügt
weiterzu@@
zeuge
was.
New@@
alen,
erst,
Post@@
Umständen
stau@@
Cro@@
Schlu@@
lebt.
bücher
erreicht,
stücke
verlassen.
schreibt
Programm@@
Änderung
Jung@@
winzige
studieren
durchs
meinen,
Literatur
Stamm@@
mern
sogar,
bildung
vergröß@@
Glücklicherweise
schließt
sicht
nahm,
maschin@@
Wissenschafts@@
Plattform
alität,
ikan@@
Acht@@
übernehmen
gründete
Systems
Schrei@@
alter@@
kleinen,
schule
Cha@@
Zwischen@@
Open
weh@@
graben
Flasche
Verfahren
spreche,
Gam@@
Aussage
sprach@@
hielt,
fe.
denen,
OK?
gend@@
kte@@
exponenti@@
günst@@
Blick@@
istin
herein@@
Et@@
Schwarze
Wasch@@
sur@@
Bus
drehen.
wör@@
domin@@
kran@@
icht,
Hir@@
westliche
inmitten
wander@@
Wetter@@
Tan@@
Batterie
Unterricht
zeichnet.
Pin@@
Vogel
gebiete
Pflanze
gleich.
Kongress
Pollen
App
fahrt
Investitionen
Transport@@
eil
ungeheuer
Ingenieure
schluss
Pra@@
private
Doppel@@
okay.
verbess@@
en",
erst@@
bitten
kommenden
Polio
dur@@
liefert
Technik,
ten-@@
Dru@@
erklärte
rat
Versorgung
Weibchen
zunehmen,
reise
Rob@@
versuchten,
verh@@
Muskel@@
steu@@
Proje@@
Gebäuden
ek@@
"M@@
kten.
ung"
Valley
Sit@@
interessiert.
vollstän@@
lungen
greifen,
stens
Geschenk
dig,
Kö@@
Musik.
Arch@@
sitzen,
Verteilung
en.“
schwieriger
dazu.
bestra@@
interagieren
digen,
Kindes
benutze
anders,
zweites
haus@@
ker.
vergleichen
ra
unten,
niemanden
verwirr@@
Top@@
menten
Maß
ämpf@@
Richtungen
ble@@
Lat@@
zeichnete
reduzieren
spielt,
Pflanzen@@
Könnten
proble@@
glücklicher
Fabrik
Beide
schwäch@@
beschlossen
erwe@@
denk@@
zusätzliche
Krankheit.
sat@@
!@@
Jetzt,
Verkehr
zeiten
Trick@@
vor:
einzigartige
Mark
icht.
Haie
Geschichtenerzähl@@
Sin@@
Brust
Sauerstoff@@
Gericht
Bre@@
Niveau
endsten
ierungen
Lösung.
Welten
Zweitens,
Kredit@@
eg@@
wand@@
theit
produktion
Mer@@
ge:
Kind.
Russland
stoff,
mach
neigen
York,
DNS
Säuget@@
120
stamm@@
lange,
don@@
verst@@
ard
angesehen
Bot@@
stein
angefangen,
Glei@@
erste,
mäßig
schafft,
Bedeut@@
fahrer
Abhängigkeit
Vereinten
all,
bei.
Spinn@@
industrielle
herausgefunden
weiten
Kurve
…
ei
englischen
zuvor.
graus@@
Instru@@
klei@@
brachte.
gend,
Hol@@
mussten.
Glück.
Gegenden
recht.
schrift
genaue
schütz@@
Material,
besuchte
aner
op
stimmt.
starten
jung
Präsidenten
besor@@
simul@@
Weltkrieg
klassische
C.
schmerz@@
fass@@
Hal@@
staatlichen
zusätzlich
2006
anders@@
Ehe
ad
drücken,
ierten.
ins@@
"G@@
Mathematiker
Sie:
testen,
schwerer
Bibel
Saal
verfolgen.
Nahen
Start@@
Hack@@
00@@
lebendig
hne
begrenz@@
schnell@@
Sammlung
Geräusch@@
Humor
flog
gemacht@@
Beitrag
Rechn@@
Kohle
Lit@@
untersu@@
verbringen,
kontro@@
regel@@
ator@@
Weltbevölkerung
griff@@
hm@@
Eigenschaft
Erforschung
elt.
ogen
2003
machst
Juni
ration@@
sprü@@
Angriff
ruh@@
if@@
sequenz@@
Sor@@
gesammelt
Komponenten
Betrieb@@
ck-@@
belast@@
halben
Poly@@
Zucker
S.
ar.
].
klapp@@
Prä@@
igkeits@@
arbeiter
dü@@
..."
möglichkeiten
töten.
versorgung
einsetzen
por@@
passt.
iens
sagen?
befrei@@
dest
holen,
Renn@@
erneu@@
Form.
Lot@@
kontrollieren.
gewähr@@
Kun@@
wünsch@@
blö@@
außer@@
derer
ingen,
individuellen
20.000
Studien@@
Studio
"Ge@@
stei@@
Spezial@@
teure
samkeit
städtischen
tete,
werden."
anschauen.
Geschäft@@
werke
gier@@
Mode@@
Erzähl@@
einen.
Feind
beding@@
kletter@@
gesagt.
stimmt,
Berechnungen
steuern.
200@@
Atem
wir?
verfolgt
Bildung,
große,
fort.
vierten
Wände
n:
transform@@
gekommen,
gebrochen
itz@@
blut@@
garant@@
erweise,
werdet
Techniken
allen.
tag@@
eig@@
drü@@
wählen.
Winter
Milliar@@
Weltkrie@@
erfunden.
Effizienz
circa
hr
aufbauen
itäts@@
kümmer@@
schaffte
Cent
aufzubauen,
cool.
Dienst
1,5
entdeck@@
geschaffen,
weis@@
Tem@@
dran
zerstören
mus,
schrecklich
Gebrauch
anderes,
hieß
95
t!
vielerlei
einig@@
wissenschaft@@
berührt
Kommunikations@@
Gefängnis@@
führte,
fördern.
allgemein
Typ@@
icht
reisen
Liebes@@
brachte,
Verlangen
scht.
agen,
erfol@@
dun@@
Bö@@
här@@
zwe@@
behandeln,
ativer
Irgend@@
Menschlichkeit
Ruf
berühmten
0er
achten,
Ärz@@
Bedarf
verwen@@
tolles
Klassen@@
geworfen
trug
britischen
Jugend@@
kultur
kompliziert
mächtige
65
Höhepunkt
Anwendungen
h-@@
Maschine,
füll@@
Frem@@
wunderschönen
Kopf,
],
Teufel
Mas@@
Hom@@
städ@@
Konzer@@
argument@@
tran@@
Waffe
agen.
Islam@@
Röntgen@@
Gerü@@
lernten
überraschende
Autismus
europäischen
beeinflussen.
Pharma@@
tungs@@
Schat@@
Malari@@
-jährige
Innovation,
Schwan@@
bro@@
Akt
Dennoch
Will@@
Kommun@@
geteilt
überwältig@@
Vorträge
rich@@
Gesundheit,
impf@@
Aktion
Hinweise
konzentrieren.
Frieden@@
reicher
mpf@@
skal@@
Schreiben
Unterschied.
nett
unterwegs
verliert
BIP
Dienstleistungen
experiment@@
Handlungen
Einrichtungen
stag
verabschie@@
frustr@@
Pr@@
Mik@@
nie.
Erlebnis
Population
Wand@@
schicken,
Bibliothe@@
Dank,
Freund,
Logik
wert.
Ghana
Brau@@
gebe@@
Diskuss@@
erleben.
schönes
erforschen.
Flug
Kunst.
bitte,
Quanten@@
Pop@@
betrifft,
bildet
karten
gebeten,
Spaß.
einziger
Lesen
Knie
vereinfach@@
Knopf
leid,
nisse,
diesmal
sn@@
Kanada
dieren
zellen,
gesetzt,
glaubte
kräfte
tollen
Kluft
sozial
gleich,
weisen.
etabl@@
Somit
wirken.
inspir@@
vorbei.
Unterhalt@@
Protein
gelangen,
kung,
wachsende
Szene
belieb@@
erziel@@
Gemüse
Boden,
ma.
gewählt
Operationen
großartig,
schaut,
auf:
Uganda
Bewohner
Inhalte
ursprünglichen
durchzu@@
gang.
Südafrika
stellte,
betrieben
finanziellen
irgendeiner
befür@@
Erstaun@@
ätzen
Form@@
Angeles
Film,
sele@@
hi@@
ungen@@
aufen.
Spiel,
genetisch
Nachbarschaft
ges,
2.000
Summe
soziales
religiöse
Text
Homo
dar,
Rechen@@
Strategien
Standpunkt
willst
satz@@
gesellschaftlichen
klasse
Sektor
gesell@@
Krimin@@
ore
Ländern.
zentrum
medizin@@
Alters@@
Chaos
Dreie@@
Gipfel
193@@
verkün@@
Studenten,
Prop@@
Währ@@
Tanz
/
liebte
pfen
jahr@@
übertragen.
singen
Sens@@
Lösung,
YouTube
AB:
KB:
Korallen
plus
isieren
ausprob@@
Situation,
leu@@
gender
Ern@@
passen,
staat@@
Globalisierung
bru@@
einander,
flug@@
Erfinder
gebildet
ativ
Einmal
echter
Resultate
Gelegenheit,
X
Motor@@
Vielzahl
besitzt
ktions@@
Gerade
Scho@@
de-@@
Microsoft
winzig
überschrei@@
iert?
gelangen.
Beh@@
"Wissen
wechseln
Fern@@
Blätter
Kultur.
mende
system.
Muskeln
weiger@@
bestimmen
mir@@
handeln,
manipul@@
Frank
verrückt.
fantastisch.
zugleich
18.
Prozesse
Bess@@
il,
wundervollen
jährlich
aufbau@@
Viel
Trick
Produkt@@
verhindern.
perfekten
gewonnen.
wahrschein@@
Bewegung,
kultur@@
verhindern,
umgehen.
ktive
aussieht
spä@@
pan@@
enden.
änder
D-@@
bemerkt
Stan@@
bemerkte
ie?
Jim
artig
aufhören,
virtuellen
wand
beantworten.
ursprüngliche
Dun@@
$
Tit@@
Titel@@
Gew@@
überzeugt
verschieden
Schwei@@
int@@
Klin@@
mann@@
st-@@
ssp@@
anfangen.
gewöhnlich
fehlt
greifen.
Py@@
testen.
Verhalten,
Ägypten
Frankreich
Journal@@
danach,
sche@@
ben."
vis@@
Weltraum
ktiv
Hyper@@
Schweden
Gal@@
verbunden,
iPhone
8,
suchten
ment.
bewusst.
arbeitete,
Nähr@@
Konzepte
Systemen
erstellen
Informationen.
reiste
globaler
funktionierte
sicheren
plan
Verkehrs@@
Bob
profit@@
rieb
geändert
spüren
gewissermaßen
ieb@@
schickten
gesto@@
Haus,
Monate,
Stiftung
line@@
mus
Stück@@
Bedenken
unterscheiden.
kurzer
begrün@@
Trotz
Tja,
Links
er."
it,
Mac@@
leicht,
schätz@@
sprache
hörte,
Erkrankungen
5,
Biologen
Ebenen
der:
Big
herauszufinden
dire@@
grenz@@
verletzt
D.
neuesten
berühmte
genie@@
nt
taten,
aufhören
Motor
sse@@
industriellen
Allerdings
Zwill@@
treibt
Magie
wissenschaftlich
Fahrer
gewaltige
enthalten
verfol@@
Chem@@
regener@@
kap@@
ia@@
sammelt
Zeug,
schon@@
Element
ka
Geschichten.
irgendein
Mutter.
fotograf@@
sicht.
wich@@
Lag@@
yn@@
vertrauen
licht@@
Jahrhundert,
Individu@@
Wachstums@@
ke.
unmöglich.
klat@@
gefährliche
beträgt
sicherer
sechs@@
ya
still
eingeführt
traf,
33
prü@@
Lebensqualität
live
Partei
Ben
bedarf
beides
unmöglich,
Regi@@
verbreitete
kei@@
zeichnen.
delt
izi@@
früh@@
digen.
sende
Universum,
zur@@
ag
Ment@@
Metern
Fähigkeiten,
geno@@
Stern
knapp
ulen
verdienen.
Ungleichheit
ätze,
Lass
faszinierende
Auswirkung
6.
1,
gelernt.
w-@@
iesen.
frau@@
einmal.
sätze
schnei@@
g-@@
iv.
behandeln.
Moral
Mur@@
Offen@@
mithilfe
misst
matik
Falle
platz
Zufriedenheit
dich,
Videospiele
Gold
vergessen.
Geheimnisse
verbracht,
Unternehmer@@
Erdbeben
Erkenntnisse
Chip
?«
hon@@
Ausgaben
führenden
folgen@@
politik
verwandeln.
stabilis@@
diese,
Kapitalismus
entscheidend
Köpfen
Paris
Flugzeuge
raus,
über,
inspirieren
Pri@@
stände
Auto,
Form,
Worte,
Luft.
zeichnen,
ograph@@
überqu@@
fanden,
Apple
Medi@@
elegan@@
Asien
Guten
verschmutz@@
train@@
tende
Bundes@@
ern?
Therapie
ry
bleibt.
Bibliothek
Dinger
darstellt.
gebeten
13@@
Bildung.
Geistes@@
schlafen
verknüpf@@
ihn.
fangen.
geschafft,
Mont@@
erfinden
Schü@@
Bedürfnis
Itali@@
komplette
vorbereitet
Großvater
folg@@
beängstig@@
chter@@
gescho@@
gens
Elefanten
Solche
Toten
Straf@@
betroffen
erweiter@@
individuelle
rufen,
erhöht
damit.
Mischung
organ@@
Unglaub@@
sse.
Cit@@
dien
kämpfen.
entwerfen,
kosten@@
Rich@@
Katastrophe
verbin@@
machten,
Stahl@@
effizient
utz@@
Meister@@
ativ@@
Rass@@
ichen
phys@@
verkauf@@
unver@@
Stift
dicht
gebung
schweren
Drit@@
Exper@@
Erdbe@@
gehei@@
Flo@@
infiziert
Konsu@@
innen,
ch?
Beruf@@
de:
Dor@@
einfach:
imp@@
Alternative
angesichts
prei@@
gestalten,
kräf@@
Feuer@@
Box
drehen,
Anzeichen
Studie,
Gedächtnis
Tauch@@
Elekt@@
korre@@
John@@
Grippe
Erkennt@@
aufen
Kapital
halten?
fällen
Wahl.
Gerät,
genau.
Ze@@
beschäftigen,
Gewalt,
Hoffnung.
atives
Mob@@
zwar,
lauf
Gedanke,
fassen,
stü@@
erei
interessantes
Wollen
te-@@
Yo@@
Pazif@@
Konstru@@
kombin@@
besorgt
Bit@@
Software,
Hor@@
schreibe
T-@@
neulich
Generation,
Bewegungs@@
bewahr@@
prob@@
Lungen@@
gewe@@
erforschen,
beginne
m?
Überraschung
konzentriert
wegzu@@
bt,
Depression
iken,
verstanden.
wichtiger,
ies,
Net@@
cke.
Nicht-@@
geboren,
erer
gegründet
still@@
Personen,
wünschte,
wahrscheinlich,
Unternehmen.
Schülern
kognitive
such@@
Glas@@
einzig
Büchern
erstellen.
Anwen@@
interpret@@
Ausrüstung
arm@@
ausseh@@
zweieinhalb
Kleidung
Wohlbefinden
fand.
isierte
holte
verab@@
Boden.
ativ.
Anim@@
ed
Kurzem
läch@@
Woche,
die@@
"Wer
schafts@@
kommunizieren.
gern,
Journalisten
Prozent@@
Vorhersagen
teilung
gewann
Brüder
Einheiten
sind:
Teleskop
Blase
Oft
suche
ers,
oder,
lehnen
Universum.
Null
Früh@@
zufäll@@
kontrolliert
Unterneh@@
gelöst.
China.
halte,
züge
Ner@@
Höhle
eit@@
trägt.
"Ist
ren,
einsetzen,
fällt,
bew@@
indische
euer
lernt,
Später
wodurch
schützen,
nam@@
Kongo
Küche
ihr@@
bot
heiße
schwimmen
Zweifel
dabei.
Fliege
Genauso
gei@@
"Und
Mam@@
bal@@
Eier
automat@@
Nachfrage
been@@
Hühn@@
seht
Lebensraum
schrieb:
wesen
verbrenn@@
Brenn@@
Uni
formen,
Begriff@@
Dann,
erwähn@@
mobil@@
ruft
Dien@@
kein@@
ung."
dann?
geändert.
hinein,
Spann@@
Vis@@
erre@@
Tränen
S,
wahr,
fasst,
for
Weltall
Untersuchungen
schlechtes
Bildschir@@
Klu@@
Presse
kab@@
Amerika,
fördern
drücken.
studiert
Persön@@
abhän@@
Scham
"Sch@@
to,
Knochen@@
rea@@
beschä@@
Krankheiten,
em.
besucht
Auft@@
'.
Trends
rum.
schlä@@
Kurz@@
reinig@@
merken,
verkauft.
Sing@@
mag.
tige
leid.
unterstützt
..
Erstens:
erw@@
ckten
reib@@
ries@@
Kit@@
Firmen,
E-@@
später.
Obje@@
Jahrhundert.
Ries@@
eien
gerettet
gefun@@
Früher
wissenschaftler
Erwachsen@@
Th@@
ologischen
Gestaltung
nenne.
3.000
erkannt,
Lächeln
ge-@@
ling
schlussendlich
normal@@
Faktoren
Ri@@
Werkzeuge,
Vers@@
arch@@
Erfol@@
Flüss@@
stam@@
maßen
Gas
kürz@@
robu@@
punkt.
Wale
gab@@
Angebot
Programmier@@
tun."
großem
Preise
Stil
geschehen.
ungewöhn@@
abhäng@@
Chinas
fallen,
x.
Training
aktive
Klinik
Andrew
Städte,
stecken.
währ@@
seltsam@@
tät@@
Statistik
Europa,
scheu@@
netz@@
Grenz@@
schlau@@
fän@@
beruf@@
weniger.
dient
ruhig
boden
ähnlich.
Ungefähr
übereinstimm@@
Schrift
Umstände
Einkommens@@
test,
Center
Diagnose
wellen
Fort@@
Göt@@
Zweiten
drücke
leiten
sucht,
unterschied@@
Kindern.
men?
Werke
Gat@@
häufiger
Depressionen
Hacker
weisen,
Bord
betr@@
Emissionen
vielmals.
glau@@
Saf@@
kol@@
freue
Sinne,
hoffen
Annahme
dauer@@
2001
globales
gewöhnlichen
Bus@@
wozu
Sicherheit@@
besser@@
erfolgreiche
investiert
hingegen
Bedeutung.
loszu@@
häu@@
billiger
Mün@@
weiss,
ds,
minim@@
definieren
Fantasie
Präsiden@@
beschwer@@
jedoch,
entfernten
dete,
Ken@@
Revolution,
bes
weißt
außergewöhnlichen
Bürgermeister
Gott.
hebt
Bandbreite
Mannes
Einfach
aufrecht
unendlich
holt
Dün@@
sters
gegangen,
O
Reich
dre@@
loses
gewaltigen
berühmt
überlegen,
tat.
erstre@@
spezifischen
ich?
Gesicht@@
zeige,
ms.
glückliche
verlang@@
schafften
jene,
Jedenfalls
L
mathematische
Erste
artiges
ack
hre,
keinerlei
Steven
Schle@@
erwähnt
Mär@@
fliegt
durchschnittlich
geschafft.
meinte
dreimal
Bereich,
Cal@@
Einführung
grundle@@
grün
Pfer@@
blu@@
Februar
hen@@
leisten,
zurecht@@
Schön@@
kümmert
Königin
Projekt@@
zentralen
technologische
Nervenzellen
Ret@@
dere
kel.
Pferd
langsam@@
Dich@@
verfolgen,
Theorie,
fein@@
Verrück@@
blü@@
aut@@
abstra@@
ordn@@
klu@@
Island
hof
wechseln.
Hem@@
eigentlichen
wehr@@
Spur
lachen
schufen
sicherstellen,
ater
so?
ausser@@
Welle
wirklich@@
Fig@@
pas@@
Merk@@
erforsch@@
erwi@@
alisiert
loser
schlei@@
Gebiet,
gewohn@@
ökonomischen
schwim@@
effektiv@@
Mechanismus
iden
RB:
Tee
GPS-@@
Oxytocin
Verkehr@@
dankbar
aktiven
vermitteln,
entwicklung
dort@@
begrenzt
pra@@
gere@@
i:
konkurr@@
gekauft
erleben,
effizienter
sex@@
Figur
s",
schlau
Go@@
Hölle
Organismus
bedingungen
erhielten
erweitern
aufnehmen
Gas@@
natürlicher
ersetzen
Yor@@
erfahr@@
ischerweise
fort
ments
Kul@@
wachsen@@
Wein
Bis@@
spra@@
tiefen
Heimat
Projekte,
Mittel,
zwei.
mochte
verlor
Angriff@@
Institute
kraft.
benutzten
besit@@
klinische
',
männliche
85
Kolle@@
lehren
aufmerksam
wachsenden
entdeckt.
Flüssigkeit
lich?
Kevin
Sä@@
Howard
witz@@
Tom@@
kurz@@
blau@@
Kaffe@@
stur@@
Magazin
Haar@@
beeinflusst.
Wissenschaft.
aufnahme
pen@@
Dame
existiert.
scho@@
warf
Moral@@
Lehrern
mischen
Simul@@
Haare
an."
sitzen.
gelben
Schach@@
krimin@@
William
Kle@@
ichten
Stun@@
fall,
Blickwinkel
kleine,
Umgebung,
Lam@@
Sport
landete
Bir@@
umher@@
Off@@
Film.
mächtig
n."
2011
interagieren.
ermöglichen.
betro@@
beschreiben.
formul@@
vergleich@@
verursacht.
beantworten
Meere
d"
öffnen,
Partner@@
Länder.
regelmäß@@
Anerkennung
britische
Überrasch@@
Lichter
Bewei@@
"Ver@@
Austausch
Flächen
moralisch
bestimmt,
uit@@
graph@@
vermittel@@
massive
Dichte
Computer-@@
schrecklichen
neu.
Tasche
berühr@@
discher
seltsam
Interview
Vergnügen
Stunden,
Ach@@
Flügel
Vir@@
beglei@@
het@@
verrückten
Maschine.
Macht.
Spekt@@
sicherzustellen,
Rab@@
Bü@@
Sommer@@
Studien,
Glaube
Maschin@@
besteht.
stelle,
Comic@@
reagiert
Erinner@@
wertvoll
spieler
Jur@@
Jon@@
dy
Muster,
erschreck@@
Studierenden
&lt;br&gt;@@
fuhren
hinaus,
Koch@@
steuern
sichere
sorgfältig
Thema,
fantastischen
Tausenden
Regier@@
extra@@
Tode
ökonom@@
Risik@@
hoben
elt,
Forschung,
fiz@@
Wettbewer@@
großartiges
Chef
erinnerte
Luft,
stel
Pho@@
Gre@@
mitteln
Tempo
irgendwas
leer@@
herunter
flei@@
glaubten,
irgend
zelle
reagieren,
improvis@@
gemeinsam@@
Gehirns.
enheit
Paar@@
Unterschie@@
Japan@@
ober@@
keits@@
Abfall
ts,
benden
Feedback
Bedürf@@
Offensichtlich
zugeben,
Tage,
schrieb,
ag,
sah.
Zeitungen
pun@@
ausgesch@@
Gleichung
igem
Cyber@@
stadt
entfernen
beln
kern
spezifische
definiert
einzige,
schutz@@
finanzielle
glamourö@@
überrascht,
ahn@@
angenommen
befest@@
om,
Straße,
ppe,
Leid
Muslime
ierendes
Störungen
ia,
raus.
ren.
Offenheit
bemü@@
ven,
Radio
Argument
Hirn
falsch,
Häl@@
alem
Schwe@@
ah,
großart@@
ler.
äss@@
merken
ele
befinden,
Maßnahmen
neugierig
Poster
fuer
dynam@@
schnit@@
Fahrzeu@@
gesun@@
Waffen@@
Demo@@
Nachhaltigkeit
ir
reagieren.
haar@@
blicken
spen@@
hingehen
Kön@@
erinnern.
Zusammen
un.
ps
cher,
waff@@
Hans
außergewöhnlich
nebenbei
kurs
Posit@@
verur@@
geleitet
zell@@
über.
Führung@@
geräte
hinunter
Freu@@
Telef@@
arten,
ives
ifiz@@
Zivil@@
geholfen
bungen
Mikroskop
Gegenstände
Halb@@
berücksicht@@
Unterwasser@@
Persönlichkeit
Freunde.
Eisen@@
Verhalten.
Energieverbrauch
Lücke
ältesten
Chirurg
transport@@
Kampf@@
Algorithmus
["@@
sensi@@
Elektron@@
Abendessen
gedruck@@
geschrie@@
0,@@
beteiligt
Entschei@@
gewan@@
stellen?
ett@@
Konsumenten
Dialog
vorwärts
schlimmste
darf,
verd@@
besserer
Sprung
bor@@
coole
technisch
ließ@@
emotionalen
Moor@@
keit
ron
trenn@@
ten;
Satelliten@@
Extre@@
wichtiges
ase
komplexer
Relig@@
Witz
ale.
schalten.
Entwurf
Lös@@
erstaunlich,
begrü@@
beschreiben
virtuelle
Entwicklungsländer
wütend
Bio-@@
sy@@
Schre@@
trage
Brustkrebs
Architekt
bist,
Abstand
Typ,
betrü@@
voran@@
großartiger
scht,
Dingen.
mus.
Amazon@@
MR@@
uns:
Nachhaltig@@
Feld@@
Stär@@
fossilen
angetrieben
Brian
rel@@
ologische
Übergang
solches
befrie@@
haft,
rik@@
gül@@
äufe
vermeiden.
erin,
hat:
Spuren
Ehemann
reduziert
gez@@
medi@@
Molekü@@
Ob@@
angen
all.
tel,
Nu@@
not@@
Fangen
schuf
mittel.
Verletz@@
fort,
definitiv
sucht.
Transparenz
2-@@
ane
ome
20-@@
verstär@@
Armut,
liches.
bert
Richtung.
os,
Optimismus
Jedoch
komplex@@
Lehre
Herausforderung.
Gast@@
Klavier
modell@@
iver
Schnitt
M
gemäß
bezieh@@
Reden
innov@@
organisationen
links,
Hindernisse
mals
Brie@@
Ac@@
typischen
"?
äche
muslimischen
wohlhab@@
gib@@
Klass@@
großen,
Schwein@@
swer@@
verließ
ingt
jegliche
Strö@@
beantwor@@
demokratische
film@@
E:
Essen.
pflanz@@
fluss
.,
fisch
Liber@@
Grupp@@
Chirurgen
Cur@@
quellen
elle,
Künstler@@
Unternehmens@@
Marken@@
Thema.
atmen
tung.
verbreit@@
Risiko@@
Einfachheit
kritische
buch@@
euren
ihr.
-jährigen
ökonomische
Jugend
son,
Beispiel@@
kann?
akzeptieren
Ordnung,
entwerfen.
Mittelpunkt
bekam,
Party
schlagen,
Pause
Probe
kalt
Meiner
isieren,
ansteck@@
ungsprozess
raffin@@
ständen
erstmals
den?"
klass@@
Altern@@
angesch@@
Design.
traurig
sagt.
spor@@
können:
Rande
Labor,
Science
E-Mails
appen
Amp@@
bedeckt
man:
Umstän@@
dargestellt
identifiz@@
z:
ts.
rollen
"Ja@@
Proze@@
rieb@@
einfluss@@
erhöhen
biologisch
nachhaltig
erungen
lese
beschäftigt,
Dem
systems
benötigen,
10,
Hut
tatsächliche
gend.
kla@@
leiten.
9,
verr@@
Konzentr@@
Säu@@
Kä@@
Rezept
findet.
Bäumen
Autoren
Bücher,
Maße
Hot@@
organisiert
hl.
von@@
intelligenten
Muster.
obje@@
Gü@@
Mart@@
erische
komme,
Ram@@
gehalten.
Mich
Länge
ey
person@@
fäl@@
Anrei@@
beobacht@@
iesen
ogra@@
G
Felsen
er"
sper@@
legt,
gelassen.
Spezies,
program@@
Ratten
Produktions@@
chs@@
schwei@@
Üb@@
neue,
Schöpf@@
Tun@@
bedeck@@
Gefahren
unabhängige
starr@@
beruh@@
trägt,
Kolonie
hinder@@
iv,
unglaub@@
ult@@
verloren,
1-@@
ungsan@@
gelangen
schwarzes
entwerfen
Fußball@@
aufzubauen.
stel@@
man.
Handeln
Investition
Taten
verursach@@
isieren.
wesentlichen
Out@@
eile
Sonne,
geschaffen.
schlü@@
tit@@
neugier@@
els
gezwungen
ball
ähr@@
Symbole
"P@@
Nachricht@@
anim@@
Zeh@@
Gran@@
Sonne.
bemerken
höchst
Hause,
Fels@@
geschütz@@
Roman
Spar@@
problem
mikro@@
offenbar
Strahlung
"Wo
Beweg@@
Nacht,
wun@@
entsetz@@
durchaus
heißt.
verkaufen,
demokratischen
Fahrrad
Dezember
bezahlen,
Wirtschaft.
Besonders
übrigens,
2004
geschä@@
mittel,
Laut
hinaus.
dran@@
herumzu@@
gehe,
Schnee
wagen
Vorschlag
hunder@@
stern.
kleineren
aufregende
künstlichen
Auffassung
Ausnahme
das?"
Experi@@
sach@@
Liebl@@
Doku@@
stoß@@
Wetter
Standar@@
hinunter@@
männlichen
Futter
Blät@@
herstell@@
aufregend
Waren
versor@@
Politik@@
Strahl@@
hinein.
tatsächlichen
kontrollieren,
Krankheit,
Künstler,
Wein@@
Dichter
istisch
schlaf@@
Trend
m:
rang@@
Buch.
Abl@@
Immun@@
kreiert
pte
10-@@
offensichtlich,
Bohr@@
verantwor@@
stischen
gelangt
baten
20,
f-@@
drit@@
gefallen.
Politik,
bezeichnen
interessieren,
zwanzig
Vortrags
Balance
schwar@@
tauschen
Organisationen,
ule
verschieden@@
sinn
Gesundheit.
Häuser@@
Kapital@@
erkannt
kau@@
kleinsten
Gehirns,
darstellen.
hren.
Landes.
eer@@
Kommunikation@@
bilder
bestehen.
zogen,
Toilet@@
korrig@@
fasst.
haftes
Ray
trifft,
Atome
gemessen
nennt,
ieren@@
geben?
Hitze
Media
Onkel
bel.
Katze
Medizin.
Gegenstand
falten
Herstell@@
Exist@@
Sonder@@
ständige
26
Stoff
Gebieten
Experiment@@
hinzu.
bewegte
brech@@
Arz@@
Belohnung
fasste
Mensch.
bö@@
gemacht?
post@@
trü@@
Besten
Neuigkeiten
Rollen
herausforder@@
Zahl@@
lichkei@@
gerichtet
Seiden@@
Streben
Materi@@
schließlich,
zweifel@@
Noten
Gram@@
eilen
Angesicht
Bahn@@
Schlagzeilen
riesiger
samm@@
Geiste@@
Psychologen
sammelten
Blei@@
Kooperation
Beschreibung
Sel@@
füt@@
normales
erstaunlich.
Veränderung.
Kilo
Texas
festzu@@
wuch@@
benutzte
Richter
lat@@
teil.
ermöglich@@
multi@@
&lt;br/&gt;@@
Tipp@@
antwortete:
historische
reduzieren.
Up@@
28
arr@@
ffen.
Freiwill@@
verhindern
ritt
Syste@@
aufnahmen
gendes
zutiefst
Berat@@
Gru@@
Mond@@
genießen
verkehr
Oberflächen
Unterschied,
Liebe.
aufbauen,
halbes
davor,
richtig,
Interpretation
bedeutend
Pflanzen,
unsichtbar
blau
kel
Religionen
schriften
erei@@
probieren
berichtet
besitzen.
Assist@@
schwarz
deprim@@
tödliche
Diabetes
Tum@@
kämpfen,
ist;
dringen
mä@@
psychische
Enkel@@
decken
läu@@
Alzheimer
ungsl@@
gewebe
festgestellt,
Explosion
historischen
bezeichnet
gezeigt.
in:
betracht@@
d."
Ruhe
sparen.
weiblichen
Frau@@
Stoff@@
verrückt,
ausreichend
tägliche
umzugehen.
ition
kungs@@
üblichen
Freiheit,
Medium
firma
erschaff@@
konsum@@
Wirbel@@
verdient
draußen,
klein,
regen@@
dn@@
risk@@
aufgenommen.
Mauer
erem
kosten.
drinnen
verschick@@
80@@
Wohnung
machten.
erwartet,
fro@@
"Mein
Appar@@
Metho@@
Papier,
di
anen
chem@@
Kopie
Don@@
Buchstab@@
Toilette
Hil@@
Hügel
schaften.
Grund.
typische
Heu@@
orden@@
radikal
wartet
mpfen
etes
kümmern.
elektronische
dauern
Zellen.
Gewe@@
frucht@@
gering@@
err@@
recyc@@
drückt
wenigsten
Asteroiden
eingeladen
cht?
Null@@
Zufall
hie@@
van@@
geld
Inst@@
steiger@@
sieben@@
Keiner
nenne,
Vo@@
restlichen
spei@@
rufen.
Rettung
statt,
Engagement
rech@@
Abenteuer
Geruch
anc@@
vergan@@
größtenteils
enor@@
Praxis
sprach.
öffentlicher
Stör@@
Ungleich@@
Kollegen,
diese.
Wahrscheinlichkeit,
überall,
bzw.
sam
Wichtigste
repräsentiert
Fernseher
erfahren.
euch,
anre@@
Felder
denden
Aufgabe.
marsch@@
Familien,
Gesundheitssystem
my@@
zustand
Wahn@@
Welches
Ameise
probleme
nenn@@
Tei@@
quer
Vi@@
hlt
öffnen.
klinischen
natürlich.
te"
Robo@@
Maschinen@@
bislang
zieht,
roll@@
nachdenkt,
But@@
Gefä@@
vermeiden
Parti@@
Erfindungen
wohl,
Dorf@@
voraus@@
ätze.
fördern,
programm
ix@@
Vier
Interessante
erie
Fro@@
bizar@@
egal.
Endes
Finden
Irgendwie
ehrlich,
verdammt
berichten,
om.
e".
nutzten
heiß@@
Haust@@
dimension@@
geschei@@
tert,
Vermögen
Motivation
praktiz@@
F
Übung
Bevölkerung,
geführt,
jag@@
Entwicklung.
Wut
ade@@
Gruppen,
Nelson
verg@@
erin.
The
Profess@@
Verletzungen
Fran@@
Hast
zogen.
u,
Köpfe
Ara@@
satz,
os.
Silicon
entstehen.
Hä@@
lossen
nachzudenken
Tat,
Entdec@@
Tages,
ch-@@
teil,
serv@@
verbreitet.
Ziel.
Bier
dazwischen
West
bestimmtes
mmer@@
geschah,
anz
kamer@@
Bürgerkrie@@
Ende,
halt,
Punkten
einzig@@
gefühl
Chin@@
gelang
Neue
Kris@@
Krankenhaus@@
Modell.
einzigartigen
Pul@@
beschloss,
negativen
Reichtum
erzählte,
frühe
begeg@@
teilt.
massiven
danken
Sir
Vat@@
ppen.
Joe
eine.
bös@@
Besitzer
Gemeinschaft.
bel,
größeres
Verl@@
art,
alisieren
ide
bot@@
Verhält@@
greift
hierfür
tier
Schwestern
Gründer
spektakul@@
dichte
Taschen@@
rieben
beobachtet,
mel
glaubte,
Oel
Gall@@
konfrontiert
persön@@
bezo@@
UN-@@
chan@@
chtige
hört,
an-@@
illen
recherch@@
anwenden
Lieder
3-@@
spaz@@
Tagen,
BI@@
Amerikas
Reise,
Taliban
mmel@@
Zie@@
Tropfen
slo@@
Doktor
angenommen,
verkaufte
Ei@@
Tim
tige,
schla@@
Arthur
sil@@
kette
vorauss@@
Nahr@@
Phil@@
Kuchen
hinauf
komplex
iden@@
bring@@
Sta@@
Frü@@
Zimmer@@
Bewer@@
ter:
richten,
Pä@@
eurer
stap@@
interag@@
Wirtschaftswachstum
Mike
Zentimeter
&amp;
detaill@@
Rätsel@@
Famil@@
Nerven
Großeltern
Pingu@@
0-@@
geschützt
Israel@@
SW:
Gore
Kell@@
w.
punkt,
Energien
anwen@@
denkt.
Manager
Frühling
eins.
Solarenergie
langsam.
bleibt,
Wurzel@@
io@@
zte
Angestell@@
zerbrech@@
stellt.
demokrat@@
Beispiele.
dienst
dit@@
US
Rak@@
zwölf
Wochen@@
interessan@@
staatliche
Brennstoff@@
aufre@@
Regeln,
Abweich@@
Job,
Amerika.
rie
Prie@@
Sequenz
tausend@@
ali@@
besitzen,
betrachtet.
Wellen@@
kompon@@
menten,
Syn@@
Stille
Hilfe.
Dollar@@
net,
ak
jahrelang
Hass@@
Erkran@@
heilen
Regenwald
bringe
Leistungen
ieren."
Afrik@@
vielfäl@@
Hän@@
verzweifelt
Programm,
Rolle.
York.
Belast@@
Organ
Brustkreb@@
persönlicher
Mr.
Bedauern
Stämme
folgendes:
Schichten
Impfstoff
Fahrzeuge
technik
iker.
grad
toten
Kno@@
erfand
Annahme,
Blogs
vernetz@@
graf@@
Erschein@@
Saturn
bekam.
flächen
streben
drängt
lossen,
Einzelnen
Steine
Besit@@
ve.
Konsum
fließt
der-@@
Milch
Verkauf
amerikan@@
Fu@@
Struktur,
bekommt.
Dynamik
fachen
Gebäu@@
raum,
räume
Alkohol@@
,000
wiederzu@@
Krieg.
Sätze
ben:
Za@@
Mark@@
englische
S-@@
iste
faszinier@@
Prozess.
hassen
Graf@@
Griff
behalten,
blieben
Revolution.
Erfahr@@
bre@@
issen,
sser
Jahrhunder@@
Handl@@
dauern@@
gestartet
9.
Interessanterweise
Patient@@
üben
skop@@
sagen@@
dunkel
Aber@@
Sekunden,
Auto.
Fahrrad@@
verlag@@
3,
erschüt@@
Zü@@
Umfrage
menden
"D@@
ehr
2,5
teuer.
stellen:
bedroht
eten
schlie@@
gin@@
inger
Gewinner
wiederholt
ße,
verhalten,
klär@@
and,
Lab@@
politischer
bedeutende
Besuch
heben,
Faszin@@
Bakterien,
kollektiven
Stimme,
lern
islamischen
linge
Sum@@
Mama
Stimme:
gerade@@
Anreize
Hochschul@@
Kindersterblichkeit
gestre@@
Muster@@
est
Indiens
ct@@
funktion
Lärm
Winter@@
Babies
Boo@@
Institution
organisation
Wichtigkeit
ereien
Zahlen,
Emp@@
Long
se:
Femin@@
anz.
tot.
Elektroden
Refle@@
Higgs-@@
Eins,
Gletscher
ktiven
cool@@
neg@@
möglichst
Berechnung
del.
Lehren
arbeite,
av@@
fertig.
dete.
klare
fortschrit@@
drin@@
gangen
hmen
ite@@
weit@@
absolute
Mal.
vention@@
She@@
Jeff
gründen
amerikanischer
dienen
Market@@
weib@@
Zeiten.
Zeichn@@
Mittagessen
29
toler@@
Wasserstoff
deckt
Kohlendioxid
Enzy@@
Untersuch@@
Kontak@@
langsam,
kehr@@
geseh@@
6,
kognitiven
löst
Beobacht@@
fer,
schießen
chern
können."
Philosophie
Bom@@
Dank!
Krebs,
Hypothe@@
bemerkte,
Zurück
fange
High@@
drüber
starkes
ktor.
komplizier@@
va@@
bestehen,
spiegel@@
Information,
Hit@@
ämmer@@
schal@@
Metall@@
Anpass@@
tigem
Spezi@@
starb.
s".
Urkn@@
Wirklich
ließ.
gelegen@@
Taus@@
by
Jahre@@
C-@@
runter.
verständlich
human@@
effektiver
laden,
Dist@@
Kurse
illeg@@
ment,
darf.
Vortrag.
bohr@@
Mem@@
Kill@@
entr@@
ere,
natur@@
Gur@@
Gut@@
beleu@@
val@@
pul@@
schlecht,
Är@@
fälle,
Versicher@@
Manhattan
Entfern@@
beteil@@
Werten
verschwunden.
Jahrhunderts,
Bilder.
Dür@@
ärz@@
Mädchen.
Strecke
Stamm
Kämpf@@
Mitarbei@@
klug
ue
Hypothese
ws
Deutsch@@
Nutzer
boo@@
2012
Realit@@
klaren
ison
Maschinen,
merk@@
Sign@@
Zeitpunkt,
Ebenso
Reichweite
Besch@@
Hersteller
breiten
arer
schwachen
Million@@
Teenag@@
hindurch
tot@@
result@@
Streit
Neg@@
ing:
frei,
Pha@@
Wert@@
Anführ@@
Plätze
radikale
ausgewähl@@
Nation@@
raum.
formt
Religion,
kreieren,
untere
kro@@
ief@@
o:
Wissenschaf@@
größer.
ernähr@@
Top-@@
Live-@@
erscheinen,
Fehler.
Methoden,
"Er
Zahl,
durchschnittlichen
Herkunft
ände
se-@@
Denn,
absol@@
gesün@@
brem@@
5-@@
Hob@@
Direktor
druck.
kompet@@
Wohl
Täusch@@
aufeinander
Bakter@@
Dienstleist@@
Verlu@@
bedeutete,
Perfe@@
Tony
forscher
beibringen,
forder@@
Tour
mente.
sendet
Vom
42
reflekt@@
Netzwerk@@
fundamentale
ala@@
iar@@
Großbritannien,
ity
Friedens@@
belohn@@
up@@
geführt.
verbraucht
Gesichts@@
Lad@@
Allgemeinen
á@@
Koran
Passwörter
sowieso
genet@@
Verhalten@@
Pflege@@
dürfen.
Weißen
liches,
Phan@@
wachte
Len@@
langen,
Wahl,
Davon
beginnt.
stro@@
fiel@@
Debat@@
kümmern,
global
erreich@@
Oxford
tätig
Schnitt@@
Dynam@@
Pläne
dungen.
Meinung,
Besitz
knüpf@@
ät,
Erwart@@
Altern
projekt
Gebäudes
Kreise
schnitte
paar@@
Rad
schte
"Ihr
lauter
gerä@@
darin.
Gates
Jane
glie@@
uten
bestimmen.
liebt
Beu@@
Orten,
kinder@@
Lehrer.
Verzweiflung
gelang@@
Namen,
stete
nahm.
merkwür@@
jetzt?
ieren:
Publikum,
Fläch@@
tex@@
r.
iger.
alisierten
Zeu@@
Schmer@@
fokuss@@
dlicher
Ira@@
hob
pt.
entsteht.
Knoten
bon@@
Produktivität
Letz@@
ille
last@@
zählen.
Mäus@@
Wald@@
igkei@@
Monaten,
Clu@@
vat@@
beschäftigen
Teleskop@@
Bä@@
ge?
6.000
Astron@@
ras@@
materi@@
Software@@
Cre@@
drauf
Lov@@
stark,
Zugriff
Brit@@
Ges@@
Zeug.
Türen
Inspir@@
Sondern
Diam@@
Tragö@@
nicht:
Interessan@@
Ähn@@
besa@@
Grun@@
Sitz
hierbei
gelö@@
Ausmaß@@
Hektar
Hau@@
Schwarz@@
lehn@@
tur@@
Schwellen@@
besu@@
Salz@@
spielten
Sohn,
ers.
Sei
mechan@@
Sto@@
ige.
Organisation,
niemandem
flexi@@
Ding,
CD@@
mathematischen
Umwelt,
eventuell
einhalb
Hinweis
überzeugen
begann.
Nächstes
Laptops
genannten
Effe@@
physikalischen
Oder,
prakti@@
langes
Dimens@@
draußen.
überleben,
gelegt,
ju@@
fang
Liter
Trag@@
1998
Wärme
zurückkehr@@
wünsche
verlei@@
Erkenntnis,
weitaus
Diskussionen
dran.
rum,
Nie@@
extreme
Regierung.
Asi@@
Euro
Erwärmung
warten.
niedrigen
Regierungen,
Schulter
Kau@@
sha@@
geni@@
male
Lehrerin
ließen,
Empf@@
Intuition
benötigen.
Verbün@@
Stufen
Fremden
entes
Normal@@
Nordamerik@@
Systeme,
ärm@@
Videospiel@@
Cli@@
dir@@
erfreu@@
vern@@
es."
Finger@@
Washington,
womöglich
Versagen
Bein@@
Ruanda
hundert@@
"Wa@@
gst
ppe.
Autorität
mals,
Entscheidung,
Rot
Kenn@@
film
Gl@@
Chirur@@
Töne
plätze
definieren.
Medikam@@
eineinhalb
Slums
Informat@@
ologie.
täglich@@
Mitgefühl,
Stich@@
Ägyp@@
Wat@@
Sternen@@
übers
Fahrt
zusammens@@
Fünf@@
eröffnet
niedrig
Bedeutung,
Daumen
Dorf,
tert.
verwandeln,
Auswir@@
stellte.
vorn
Designer,
beton@@
nahme,
Aspe@@
gelte
erinnert,
schluss@@
Jahrhunderts.
minister
12.
30.000
Flugzeug@@
Rennen
wonach
Erweiterung
Selbst,
beschreib@@
Team,
faszinierend.
Genome
entdeckten
Infra@@
verbo@@
Warte@@
heim
Kil@@
Ordn@@
sorgen.
höch@@
kür@@
Chines@@
tue,
Betreu@@
mpft
Mitgefühl.
Gebur@@
digt,
schuss
fähig,
getestet
fragt:
dir,
würdest
toller
bio@@
kurzes
fix@@
Freude,
Fakt
rieb,
rutsch@@
Gemäl@@
festen
wort
sexuellen
nun@@
schneller,
Buches
ordnung
temperatur
allgemein@@
histor@@
auswei@@
beziehen
lig@@
Rand@@
Geschmack
ühr@@
Fehler,
Experte
ph
Intellig@@
Rin@@
K
wit@@
Vert@@
Sag@@
ungewöhnliche
bewaff@@
Pot@@
TED.
Schil@@
drei.
einander@@
jederzeit
irgendeinen
haft.
kaputt
Restaurants
jemandem,
keines
örtlichen
Therap@@
gelbe
geblieben
asien
kräft@@
verrück@@
erfinden,
king
ansonsten
Wolke
weil,
az@@
Jahrhunderte
tigen
langweil@@
förmige
ausgebildet
Quant@@
Schizophrenie
2050
Junge,
ay@@
Strän@@
vielen,
tel.
halt.
schrift@@
erneuerbare
licher,
motor@@
Mobiltelef@@
überwinden,
sub@@
Auflösung
Umgebung.
geht's
t".
Ok.
zeigten,
einzigartig
warum?
umkrei@@
Sternen
alität.
ergän@@
Start
bahnen
vernachläss@@
Erlaubnis
Fluss@@
chen?
Proto@@
Fau@@
Result@@
angeht,
kompliziert.
ender@@
reduz@@
Stelle,
oftmals
unser@@
ökologischen
Install@@
Behörden
S:
lebte,
Stau@@
dreh@@
Fabriken
gedacht.
Krankheits@@
AIDS-@@
Ohr
Richt@@
lokal
Letztendlich
fassen.
stütz@@
verheer@@
ähnliches
16.
körperliche
plötz@@
Business
gebra@@
negative
Termin@@
ärger@@
H
ff
größe
Täuschung
umm@@
jetz@@
ktionen.
erzählten
Schlacht
Roten
Pflege
Initiative
ungser@@
böse
überwinden
Mein@@
natürliches
Höhlen
Stimul@@
wir:
ausgewählt
besteh@@
Schwerkraft
robo@@
Orche@@
sitzt,
Mechan@@
gedul@@
unterricht
sle@@
Q@@
illa
rekonstru@@
frie@@
Veränderung,
Laser@@
Durchmesser
Klimawandels
Karte.
durchgeführt,
Krieg,
sperr@@
Wörterbuch
Löwen
mysteriö@@
anget@@
hä@@
vermitteln.
kommunizieren,
Familienmitglie@@
bereiten
Käfer
Drohnen
Fellow
TK:
geflo@@
öffnete
bast@@
klicken
zenden
Allein
Eng@@
voranzu@@
Meinungen
tischer
qualifiz@@
Zweitens:
eurem
Arbeitsplätze
Investit@@
lichere
überlebt
Konkurr@@
stärksten
Fähigkeiten.
Hey,
Entdeck@@
verliebt
vergleichen.
weit,
Prin@@
Genen
unternehmen,
kno@@
Wasserstoff@@
darstellen,
iegel@@
intellig@@
drucken
Wohin
geht's.
veröffentlichten
stammen
investieren.
stimme
Belohn@@
studieren.
verschwinden.
Wüsten@@
ft?
angepasst
prozess
n?"
Misser@@
Dau@@
Egal,
st:
de?
Tätigkeit
steigt.
Gesicht,
quet@@
ie:
mangel@@
ließen.
betrifft.
wissenschaft
harten
Kühl@@
bestimmt.
gänge
mmer
schlage
gefüllt
Haar
Vit@@
ergeben
lagen.
Typen,
Medien,
Woche.
wiegt
Anten@@
steckt,
rechts@@
King
getrieben
en...
Welt?
näh@@
digitalis@@
lern,
gemeinschaf@@
fs@@
Differ@@
zusammenhän@@
Bestimm@@
Arbeitsplatz
opti@@
Prototyp@@
sprit@@
dies.
billig
verdienen,
U
beliebigen
Konsum@@
samer
Auff@@
veröffentlichen
normaler
Analogie
Literat@@
mitt@@
schnellen
Sonn@@
widerspiegel@@
Rein@@
Baseball@@
Süd-@@
Skulpturen
Staub
Illusion
zahlen.
projiz@@
Koordin@@
aufgenommen,
Nat@@
ine.
Patent@@
ismus@@
Rio
Journalist
Schlam@@
freiwill@@
existiert,
nie,
Andererseits
Wechsel@@
Chips
30@@
markt@@
ücken
scheint.
sprechen@@
Schä@@
Bestandteil
Stro@@
verschwunden
ewig
Interaktionen
taus@@
symbol@@
Ameisen@@
kritischen
Intera@@
ße.
s?"
dring@@
Widerspruch
bedeutete
redet
aber@@
ach
gingen.
2.@@
Treibstoff
Stahl
50.
Ab
rieben.
wertvolle
bewirken
startete
Reser@@
Zut@@
Nordamerika
übersetzt
unglaubliches
heiraten
Schöne
Überwach@@
Wochen,
Alexander
Namen.
Amerikaner,
dramatisch
ckl@@
48
Internets
Option
Winkel
dest@@
zoom@@
Füßen
gewa@@
vermittelt
wet@@
haber
besonders,
Port@@
Mega@@
Demokratie,
Einrichtung
q@@
55
Wär@@
Beinen
anbie@@
produziert,
Haltung
dringend
kts
begeistert,
ierer
bedeutungs@@
ständig.
glän@@
Merkmale
genommen@@
North
Schall@@
Klang@@
Datenbank
Rou@@
Ö@@
koordin@@
gang@@
Rolle,
Plan,
Woll@@
"I@@
Erziehung
probe
anspruchs@@
Anhänger
transplant@@
ändert,
meln
Wet@@
verbr@@
fün@@
hren,
30-@@
scann@@
Grün
son:
bezahlen.
Dy@@
erfinden.
ser.
Geht
extra
mikroskop@@
Brief@@
psychischen
Küsten@@
demselben
Kommentare
schmer@@
Ganz@@
Rechner
Mai
leistung
top@@
maxim@@
hier:
Smith
liebsten
gewor@@
Eben@@
entscheidenden
Glo@@
Annahmen
mächtig@@
igere
modelle
ersetzt
Sprit@@
veranst@@
zuhause
Entwicklung,
lage,
anischer
Zwischen
wunderbar.
Wahrheit,
tendieren
ors
Zeichnungen
ine,
Kleine
draussen
5000
dier@@
Zusätzlich
theoret@@
10.
fehler@@
mt.
Auftrag
Websei@@
p.
kä@@
behalten.
Chr@@
mächtigen
ht@@
töten,
Ratte
fröh@@
blicken,
Ehre
Kana@@
inder@@
stieß
bruch
Lunge
entfern@@
repar@@
kasten
ica
stammt.
sorge
gebäu@@
wollen?
Anthrop@@
gerufen
Beginnen
sterben@@
zieht.
0,
lud
schaf@@
zuru@@
Geben
ähnlicher
finden?
Elektronen
Blat@@
handelt.
Tendenz
kart@@
ungsweise
stirbt
annehmen
Blog
well@@
Tim@@
Hallo,
hafter
Ausgabe
wärts.
Song
Menschenrechte
begegnen
Erzählung
terte
Bücher@@
Tex@@
El
Materialien,
Harry
könne
wild
gie@@
äd@@
berührt,
sst,
begreifen,
io
verfü@@
leich@@
veröffentlicht.
auß@@
Marketing
vergleichen,
gezogen,
vermute,
sitz
leute
meister@@
Ah,
Richtung,
Fotografie
abgel@@
Fotograf
eingesetzt.
moder@@
Tier,
u.
staaten
Stunden.
hilfreich
schwache
Demonstration
alber@@
bericht@@
richtungen
Arti@@
läss@@
Betra@@
Paradig@@
eter
Zykl@@
Dienste
hört.
Simulation
Spaß,
Stoffwechsel@@
Vorstellungs@@
Vortrag,
gründen.
übliche
Antwort,
entscheiden@@
Sprech@@
Fettleibigkeit
dum@@
dimensionalen
beschei@@
Ü@@
Treppe
pum@@
daher,
Alle@@
versteh@@
Ressourcen,
zugrunde
Gesetzen
Leer@@
kleinste
ministerium
Glob@@
Daraus
UN
60@@
sammel@@
beobach@@
verlangsam@@
stoppen
liest
klassischen
Google,
barkeit,
up
ungsn@@
obere
geschlossen
Medikamenten
gep@@
Sicherheit,
Wortes
Hung@@
grä@@
iti@@
dem.
interagieren,
Maus@@
Earth
außergewöhn@@
IS@@
Recht.
Entweder
enttäusch@@
T.
lichen.
Kind@@
wis@@
erkennt,
„Das
Intervie@@
psychologische
behauptet,
N
Dunkel@@
spontan
erfassen
legen@@
Schädel
Will
rennen
ktivität
ums.
enthüll@@
Palästin@@
90@@
zens@@
hervor,
Erschaffung
gaben.
durfte
Geschlecht
bösen
ausdrücken
neben@@
niedrig@@
Gefühl@@
Bauch
beeinflussen,
leiten,
Gewiss@@
studierte
onen,
tum
charakter@@
achten.
3D
leuchten
Gehir@@
Sensoren
Fischerei@@
Eier@@
werk,
Fett
überraschenden
Ly@@
"Weißt
woanders
Fen@@
tote
and.
abe
Robotern
Ethik
Alternativen
Daniel
Sho@@
Vergangenheit,
LG:
Küchen@@
identifizieren
Entropie
Pfle@@
EM:
Stran@@
Flut
stands@@
Meinungs@@
Kochen
sparen,
Mikro-@@
Bauern@@
mug@@
Wissens
muss@@
handel
funktionierte.
Kolon@@
anfän@@
Versu@@
Wett@@
gelan@@
konn@@
cor@@
weltweit.
"die
Automobil@@
ei,
zusammenarbeiten
Hoffentlich
bess@@
isst
durchgeführt.
hlen@@
außerorden@@
the@@
Überlebens@@
Energ@@
engl@@
net.
zählt
lege
iere.
Schub@@
"In
kunft
tiere
gewöhnt
stern,
lehrt
am,
Wort.
dumm
laden.
Enkel
Alter@@
Waf@@
wid@@
aktiver
Stanford
Leber@@
stehenden
keln,
auffäll@@
komplexes
Oktober
vorgestellt
interview@@
gelaufen
Standards
visualis@@
richtet
Samm@@
handelt,
Schriftsteller
altung
beginn@@
kehren
37
kreieren
Abschnitt
Liebling@@
danken,
ungspro@@
ersetzen.
ruf
Gegenteil.
Gleichzeitig
Cambridge
Technik.
Rü@@
well
Bauch@@
analys@@
Supermarkt
wuß@@
erwähnt,
rup@@
direkte
beeinflusst,
Diagram@@
zende
hielt.
hinterlassen
.com
schar@@
syste@@
zes.
Flüchtlinge
iken.
produkte
Sekunden.
Misch@@
äf@@
Komment@@
fla@@
unsichtbaren
zeitgenöss@@
atom@@
ehl@@
natür@@
taten.
recht,
bemerkenswert
ignorieren
–,
Stad@@
Künst@@
Gang@@
Innovation.
griff
wächst.
25@@
schlimm
wirtschaftlich
perfekt.
Unfälle
tödlichen
Betracht
relevant
Punkt@@
Satellit@@
iver@@
ichten,
Band@@
Reise@@
darstellt,
Schauspieler
lag.
36
Gewalt@@
dienst@@
entdeckte,
liefen
yer
Aff@@
viertel
bedeuten,
beliebt
enge
gsten
bitte.
Angel@@
endete
verbindet.
beendet
Projekts
Sinne@@
sion
Ap@@
entsprechend
Ereign@@
typisch
ersten,
Stur@@
Fle@@
Brück@@
Kreislauf
Schlange
Größenordnung
Bescheid
absichtlich
Sonnensystem
hervorra@@
bemer@@
Popul@@
binden.
taucht
lustig.
folgendes
Grafik@@
Letzten
gefolgt
preis
untersucht,
leiden.
zerstört.
antrei@@
rechts,
gleichen.
Kriege
Prozentsatz
Ebene,
zweiter
Männer.
ian
Interviews
ätz@@
spricht.
V-@@
veröffentlicht,
ausrei@@
ats@@
Kollege
fünf,
Alltag
Empathie
existieren.
Jesus
gehören,
Hon@@
dies:
ausbreit@@
Platz.
Feu@@
wandern
Kro@@
organisierten
Ärzten
Osten,
Treibhausgase
bereit.
Comedy
glücklicherweise
gefährlich.
Skal@@
stin@@
nette
Komman@@
mathemat@@
Quadrat
da?
qualität
Gross@@
Opf@@
Landes,
Sendung
Gig@@
Animation
le:
umwandel@@
Poesie
Sprechen
Batter@@
Formul@@
Phantom-@@
Rückmel@@
Gleichungen
sammelte
Männer@@
Korallen@@
Landwir@@
Coll@@
schlägen
üben.
tür@@
Delfine
zahlen,
systematisch
harm@@
Führungskräfte
Glamour
synchron@@
Bären
Meile
RM:
Restauran@@
rieb.
ös@@
Larry
Amy
U.S.
Abfall@@
beibringen
Situationen,
ausgegeben
verbringen.
Vermut@@
erlebt.
Gesich@@
Übertragung
ia.
Entwicklungen
liefern.
Widerstand
gäbe,
herbei@@
us-@@
Spielzeug
200.000
betrei@@
Spannung
Hier@@
Skulptur
Dimension
dge@@
Grand
Uhr@@
Konzept,
Tisch@@
element@@
etten
synthet@@
strahlung
durchge@@
zwischen@@
Arzt,
origin@@
Entwur@@
Reihenfolge
kauft
lassen?
age@@
kamera
Karten@@
frei.
Län@@
weitgehend
Lebensstil
jedenfalls
damals,
Verhaltensweisen
schär@@
räumen
sinn.
Sorge
de."
beenden.
teilten
Krebs.
gehenden
krebs
verwandel@@
Ikon@@
trifft.
planen
beschäftigen.
Seitdem
übt
ologin
sexuell
Lieb@@
spüren,
werden:
welt.
völl@@
sind;
aufregend.
gestalt@@
öt@@
berg@@
zerstören,
Kollis@@
geheime
Sollte
nehmen?
veröffentlich@@
einzelnes
Sechs
berühren
England,
Tricks
gerne,
Geträn@@
ve,
Schätzung
nochmals
80ern
ner,
füllen
hing
Genet@@
pla@@
starteten
Foto,
behandelt.
rechnen
leicht.
hl
xi@@
Repräsent@@
geist@@
gerecht
göt@@
Rückseite
Ja
mache.
Ed@@
schau
langweilig
"Be@@
reich.
Dro@@
1990
-Jähr@@
generell
unangeneh@@
Nas@@
Autoun@@
Heilung
kostenlose
ika
stöß@@
schneiden.
abend
fühlte,
Figuren
Betrachtung
büro@@
Himmel@@
Gelände
geschlagen
St.
Ebene.
glo@@
gingen,
enes
Angestellten
Parteien
Kannst
maßnahmen
ärer
Kosm@@
fährt,
Immunsystem
win
hell@@
Metaphern
l.
nieman@@
Astronomen
Bausteine
physikalische
starb,
unmittelbar
Kart@@
spun@@
Straß@@
gehende
gebo@@
verbrauch
Zahl.
spart
Kosten.
Ersatz@@
Hund,
erd@@
Berufs@@
Tax@@
Wunsch,
–@@
Bab@@
Meistens
gefährlichen
Moment@@
drin.
beacht@@
Theat@@
Afrikan@@
Recht,
anpassen
unterricht@@
Englisch@@
Wechsel
ierender
pliz@@
schätzen.
Krit@@
Entscheidungen,
set@@
Benjamin
Herausforderungen,
Cap@@
Kognit@@
g:
geln,
körperlichen
istischer
v.
Ergebnis@@
antwortete
Irgendwann
Güter
Demokratie.
Charakter@@
Experiment,
Fiktion
Quantenmechanik
Rollstuhl
Dr@@
2:
Polizisten
tiefgrün@@
wirkt.
geborenen
put@@
springen.
Korallenriffe
Reformen
Regul@@
gesünder
Erkrankung
lerin
chtigen
Äuß@@
Zuschau@@
50-@@
gesellschaftliche
Ja?
Str@@
dunkler
Psychiat@@
reich,
zusätzlichen
Orchester
Nachrichten,
Symphon@@
Substanz
veröffentlichte
Ye@@
Toiletten
Drohne
Gripp@@
β@@
Probanden
's,
hinzu,
Isol@@
umweltfreund@@
Produkten
Manage@@
pon@@
liegenden
Werkzeug,
alternative
Prozesses
trag,
Produkte,
h:
betreiben
barkeit.
treiben.
Notwendigkeit
angeblich
ol
rasch
'000
ausgebil@@
pri@@
erzeugt.
bestimm@@
allererst
Selektion
dünne
agen
kennt.
dadurch,
Kolonien
ets
designer
Autos.
"Naja,
Henry
Ingenie@@
ei.
Phänom@@
namen
tanzen
Beglei@@
bur@@
intensiv
eren.
lösung
größer,
X-@@
Moder@@
ür
starten,
4.000
it.
"Ein
preis@@
DP:
tiv@@
7,
Kategorie
form.
Tieren,
"Na
lage.
müsst
ziel
spit@@
deines
hast.
Fehler@@
kt?
Jaz@@
getroffen.
klingen
Motiv@@
onen.
Agrar@@
unwahrschein@@
Amerik@@
zunehmen.
nachah@@
her?
stung
Dasselbe
gelangt,
vollständige
Evolution@@
lands
van
heisst,
geln.
brüche
gegessen
ollen
seltsamen
has@@
eröff@@
Bank@@
geschickt,
Aufruf
rechts.
Gou@@
Kalifornien,
Anwäl@@
gemeinnützige
anz,
versteckten
musikalische
le?
technologie
teilt,
geringen
maschinen
zes,
Mathe@@
Liz@@
werken
draht@@
elen
A:
Neugier@@
Büro.
zung
werk.
kast@@
Vergessen
gestütz@@
geschnit@@
ungsin@@
Tragödie
talent@@
gegeb@@
trugen
stem
ds.
behörde
Schaut
=
passt,
May@@
organisieren.
umfassen@@
nutzt,
Transpar@@
erfordert
Innere
entschied,
mitteln,
Bergen
zwan@@
allein.
August
weniger,
han,
angefertig@@
Klassenz@@
ographie
beantworten,
haufen
Straße.
Türkei
Frucht@@
Firmen@@
methoden
Weltbank
befindet,
Thermo@@
fas@@
lächer@@
Hausaufgaben
une
Klavier@@
anschließend
konstan@@
Dörfer
Handy@@
schalt@@
Kosten@@
herrscht
Warn@@
Geschwindig@@
Biosphäre
Kran@@
unterrichten,
gelegt.
schlicht
Materie,
Physik,
anwenden,
vermeiden,
ente,
teile,
glaubten
nähr@@
absorb@@
Einwohner
Aktivisten
Veränder@@
kommun@@
verantwortungs@@
Tsunami
sagte.
kontakt@@
fähigen
fotografiert
arbeiteten,
fangen,
Alter,
verlangt
gere
kreis
Stig@@
irr@@
übertrag@@
kreativer
hohem
korrekt
welt,
Bildungssystem
Wert,
Job.
Zahlen.
habt,
Gleichheit
vorsicht@@
Glauben,
bewusst@@
drauf@@
wachen
ausmacht.
netz
bank
Individuum
Symbol@@
weißt,
Ausland
Nachmittag
♫@@
reiß@@
gehalten,
det@@
Wirk@@
kinder
Block
älteste
verstor@@
Versuch@@
niedrige
Quer@@
lief,
erleb@@
tion.
Bestandteile
entlich
stheorie
Vaters
jeden,
erisch
heit?
plötzlich,
ende@@
Amerikan@@
geläh@@
künst@@
Pflan@@
Gehör@@
Anweis@@
Bür@@
nete,
davon@@
liebe,
aal
Wähl@@
itäten
Australien,
aktiviert
start@@
Eigenschaften,
Sympt@@
Apf@@
Speicher
personalis@@
stoßen.
lichkeits@@
Enthüll@@
Kandidaten
Entscheidungs@@
kont@@
Schwi@@
Effekte
licht.
eth@@
Märkten
Inse@@
ografie
findung
Sturm
klein.
Bombe
virtu@@
Kartoff@@
worin
Einwohn@@
Lehrer@@
bat@@
bir@@
gehabt.
binden
Stü@@
langfristige
Blö@@
Mathematik@@
ihm.
Fla@@
wand.
Prakti@@
Jungen,
Nachrichten.
Komm
La
State
omet@@
li
Gesichtsaus@@
Baumkron@@
attra@@
Foie
Green@@
Verletzlichkeit
Ford
's.
deten,
Technologie@@
lohn@@
unterhalt@@
bran@@
Rauch
füllt
schneller.
endem
Planung
beobachtete
Juli
Erbe
saubere
angewendet
verwandelt.
Zug@@
Mögliche
altern@@
tliches
länder
alien
ssystem@@
sitze
Weltraum@@
festzustellen,
hey,
Dü@@
Geschwindigkeit,
schnellsten
nack@@
gestorben.
gewinnt
voraus,
design
austau@@
physisch
Wohnungen
intensi@@
Bade@@
Pion@@
Ozeans
130
gesammel@@
Hat@@
injiz@@
steuern,
ehemalige
fs
arzt
stellung.
Komplex@@
keiten,
Herbst
le-@@
verwendeten
tiefsten
Väter
linie
wege
kluge
Einzige,
verbreiten.
wirk@@
Hunde@@
bekämpfen,
Substan@@
holz
test.
erzählt.
gänzlich
fanden.
gelegentlich
schwa@@
stru@@
Talente
einer,
spiel.
Hier,
stoff.
Pfa@@
Gebäude.
Käf@@
moderner
tionen
Etwas,
Ven@@
breite
intuit@@
Dauer
schlag,
brillan@@
erober@@
Antwor@@
ite
Zeichnung
heiß
schwier@@
Aufzeichnungen
zurückgehen
stisch
gerin
Hotel@@
Läch@@
Beer@@
Sher@@
Hell@@
Kandi@@
geschah.
heiligen
ness
Widerstands@@
vergewaltigt
schüchter@@
Flughafen
schuldigen
bieten,
Gehör
eigener
finanziert
k:
alltäglichen
Schwanz
unterrich@@
alitäts@@
Internet-@@
oberfläch@@
Leonardo
Italien
umge@@
Fet@@
effiziente
Hill@@
ca
ministeri@@
Kuh
dustrie
Verkaufs@@
Krankenhäuser
Farbe,
äter
kannten
Stock
gehabt,
landes@@
Gewebe@@
ermöglicht.
Vent@@
Bauen
Phänomen,
wol@@
ms,
rischen
litten
we
Glauben@@
Anweisungen
zeh@@
Pau@@
Büch@@
rüber
sofort,
gründeten
ermut@@
verhandel@@
richten.
zufällige
freier
Millionen.
niedriger
senden,
Graph@@
Transist@@
hunderten
ra,
dür@@
ns
Verbesserungen
se?
bevölker@@
unvermeid@@
age.
Objekten
bär@@
geschwindigkeit
reparieren
Anreiz
gefei@@
dichten
November
schläge
Größe.
stoppen.
Medikamente,
Wesen,
meint
dürfen,
toll@@
füllen,
nirgendwo
hung
schwierigsten
vorhan@@
Einschränkungen
involv@@
glücklichen
gewicht
brin@@
eite
Parks
Zerstör@@
Ahnung.
Nah@@
bewegungen
stehende
benötigte
Kliniken
prozess@@
Häusern
Westen,
Profit
Dank@@
wahrhaftig
Gerüst
einsetzen.
Beschäft@@
geschehen,
Dör@@
träumen
erfolgreichen
Äthiopien
Europa.
Stabilität
aa@@
chtet
losig@@
Anwesenheit
Trennung
verheiratet
unterrichtet
wahrnehmen
Schweigen
wunderbares
gelten
das:
veranschau@@
Medizin,
getragen
jenes
vor?
verhalten.
inie
sorgt
Syndro@@
knapp@@
europäische
Briefe
schot@@
Rhythmus
stands
enter
bedro@@
Ozean.
sich?
Spra@@
erschafft
wirtschaftlicher
ität@@
gesellschaft
oli@@
erfasst
Hilfsmittel
licht,
war?
Grü@@
Sierra
Kalorien
Pack@@
sprang
anwenden.
Mis@@
Unsicht@@
Treib@@
leiden@@
Brown
Patienten.
del,
Roboter.
fik@@
Staub@@
gela@@
ump@@
gebil@@
legung
Völker
zeichnet,
Der@@
Katzen
Nigeri@@
Öl,
verring@@
ct
1950
staat
mutig
Kugel
Bol@@
präzise
Black@@
Betrü@@
Vater.
Netzwerken
Nä@@
Wörter,
Wörtern
Einstellungen
Versprechen
untereinander
organisierte
CA@@
ütze
waffen
350
kost@@
Ballon
Lügen
Rituale
Symmetrie
Symmet@@
Flag@@
wöch@@
Spielzeu@@
beeindruckende
beher@@
litt
City.
komplizierten
Fleisch@@
Em@@
Hätte
Ignoranz
servat@@
Al-@@
Schad@@
Facebook-@@
"Eine
Geschich@@
Temperatur@@
geheimnis@@
98
sso@@
Erzählen
involviert
Ökonom@@
Afghanistan,
Infrastruktur,
geschie@@
sender
UN@@
feind@@
Art@@
Orbit
reine
r,
herzlichen
zug,
okay?
Inn@@
Wahrheit.
flogen
Übrigens
Betracht@@
essenti@@
Hardware
way
komment@@
iron@@
Mel@@
Versionen
zahlt
runter,
Zähl@@
Mach
lade
nur:
analysieren
rann@@
Nest
definieren,
Säugetiere
gig
liebe@@
Wildnis
beigebracht
Asth@@
Industri@@
entschei@@
stet
Mandela
Apart@@
befand
handelte
verlust
zeichnung
strom
dä@@
ses.
intelligent
eindring@@
initi@@
pein@@
tun?"
Ell@@
kaliforn@@
Camp@@
Städ@@
Schreibtisch
starten.
bekommen@@
ney
Mary
Stimmung
Nacht.
Lieder@@
Traditionen
alismus.
yn
enzen,
häl@@
geschätz@@
40@@
Gift@@
3,@@
hang
risik@@
unterbrochen
Kapazität
versorgen.
zuletzt
japanischen
hergestellt.
unendliche
Branche
Zehn
erkläre
wichtig?
kör@@
nar@@
schme@@
tt
Mathematik,
Schri@@
South
Tät@@
ffer
elektronischen
bes@@
elte
schlimm@@
stecken,
genutzt,
praktische
gerissen
Pir@@
com@@
Nachricht,
Neugier
press@@
tigkeit
brand@@
spru@@
transpar@@
Blasen
gehören.
geschnitten
konzentrierte
Verteidigungs@@
verbreiten,
Wies@@
Akadem@@
geschichte.
zone
Initi@@
schwach
belei@@
gur@@
bewirken.
anzusehen,
verhält
Leistungs@@
stattfindet.
gezwungen,
übertragen,
Bilder@@
Pfei@@
Äl@@
genutz@@
Chan@@
Stir@@
erlebte
Bett@@
sthe@@
Stam@@
könnte?
Basis@@
wat@@
Bli@@
molekularen
fair
2030
cin@@
Hinder@@
ok@@
ham@@
Favor@@
speichern
rufe
strit@@
40.000
dauern,
Nano@@
Beispielen
Rate
verklein@@
druck,
Schwimm@@
behaupt@@
ziehe
Therapien
Ursachen
Ansatz,
uns?
gelesen,
Seel@@
anderthalb
fair@@
verschwindet
Back@@
Konserv@@
Oberfläche.
implant@@
ello@@
Vulkan@@
Nadel
etz
G-@@
innen.
position
vermut@@
sen:
schalten,
unterschiedlicher
zunehmen@@
leer
Mühe
Heimatstadt
Gesicht.
leere
komisch
gebauten
zurzeit
Motoren
energie
Front
Kauf@@
Konflikten
Ents@@
geschäft
Lektionen
nation@@
ssysteme
ützen
tete.
häuser
Sekunde.
repliz@@
unheim@@
Fußab@@
Fabrik@@
aufbauen.
Vorher@@
Kampag@@
Stimme.
dri@@
Klimawandel.
ausgeben,
erwähnen,
Vagin@@
jüngeren
Amerikanischen
nder
72
Wunder,
persönliches
kommen?
akadem@@
also?
wieviele
versteht,
entgegen
Übrigens,
fällt.
ernst.
au,
notwendigen
öpfe
Seil
dicht@@
schneiden,
geringer
Spitzen@@
Material@@
erfüllt
Scott
veränderten
ständigen
biologie
Ero@@
iet@@
lag,
vernicht@@
privat@@
Ärzte,
Bürgern
warst
März
Verantwor@@
Fundament
Arten.
Feuerwehr@@
Haa@@
wahrnehmen.
empfinden
hilfrei@@
Ausschnitt
Lee
wörtlich
Klänge
Schlä@@
stä@@
gewachsen
Stapel
warm
gebäude
Quar@@
unterrichten
Tar@@
freiwillig
Rekor@@
kostet.
Sy@@
Sich@@
fantastisches
Behandlungs@@
Jonathan
gebrochen.
kult@@
Republik
Eth@@
als,
entzün@@
chtern
ücke
amen
geh
fus@@
Werk@@
indi@@
Ak@@
ehrgei@@
trans@@
legt.
konfl@@
Geck@@
Halt@@
versicher@@
Aristoteles
vermisch@@
Therapeu@@
Dete@@
Speich@@
Adop@@
pflanzen,
bestän@@
Menschen?
mente,
FBI
Derek
LT:
katastrop@@
wärm@@
kolon@@
 @@
gem
Programmierer
ute
Freiwilligen
passte
Kass@@
100-@@
satz.
Umwelt.
hlen,
Kör@@
Wiederaufbau
gestell@@
fehlen
wächst,
ereig@@
leben?
AG:
3000
Passag@@
gestör@@
Kommunikation,
Ärger
süchtig
ersetzen,
Ve@@
ehe@@
tum@@
Agen@@
Urlaub
vertrauen,
ly@@
Pocken
unglaublich,
Grundlagen
Methan
Foundation
Kol@@
Software-@@
meine.
Ironie
Privi@@
nachvoll@@
hinzufügen.
tik@@
"St@@
Drucker
berechtig@@
leiden,
günstig
Gewinne
Französ@@
intellektuelle
Liebe@@
zog,
Grau@@
menschlich
faszinierenden
verzweifel@@
Tiere.
Florida
mitnehmen
Blü@@
durchführen
abgestimm@@
Sollten
entsteht,
ktoren,
komm
rum
verwer@@
Mode
Ingenieur
Minute.
traumat@@
Schokolade
Myth@@
Menschheit.
Kompet@@
Sexu@@
starker
p,
Dutzende
Schnit@@
Labor.
verzerr@@
verteilt.
Teil.
trennen
reag@@
ses,
acken
Mäuse
praktischen
iell
Definit@@
herz@@
authenti@@
hand
able
alisierte
alten,
elf
Berührung
entspricht.
Raumes
präzis@@
auf?
Glä@@
ise
gründen,
Jugendlichen
einbe@@
Texte
Eigent@@
gliche
pin@@
Tage.
Rap@@
komische
stätte
unde
stun@@
militärische
packen
Botschaft,
e",
run@@
Markt.
aussu@@
einzel@@
unterstützt.
spekul@@
lers
hir@@
frage,
spunkt
Job@@
gol@@
interessanterweise
erschien
verärger@@
50,
Dumm@@
geeignet
sind."
ßt,
Forschern
zusammenarbeiten,
ord@@
ade.
Absol@@
organisieren
gegenwärtigen
vorzustellen.
berührt.
zueinander
dreidimensionalen
Akti@@
bedeuten.
Leucht@@
am.
bekämpfen.
opf@@
Erstes
Block@@
müs@@
vergleichbar
Bri@@
bewohner
Freiheit.
Orten.
erstaunt
erfüllen
E-Mail@@
Rückgang
faktoren
begeister@@
Zehn@@
31
hunderttausende
fortzu@@
breit
2002
Rob
Tieren.
verschmel@@
schrit@@
Behandlungen
Katastrophen
hinzuge@@
woraus
Leidenschaft.
Vergangenheit.
Grenzen.
Chil@@
dreieinhalb
regeln
Wochen.
Wirklich@@
brauchte,
schicht
üblicherweise
Fahrra@@
bemerken,
Frequenz
klang
gens.
Stück,
mann,
eigentlich,
34
igte,
Jack
Universums,
angebo@@
alisten
Detroit
tat@@
Tinten@@
zerstören.
Skla@@
nachhaltigen
unterneh@@
ple@@
fte,
afrika
[
Landschaften
Preis@@
nd
"Wow,
Vergnü@@
Schild
kriegen.
eins:
kk@@
Überwachung
rückwärts
Virus,
normal.
Klimawandel,
offensichtliche
beachten
g?
mont@@
Beginn@@
wette,
Privileg
fährt.
Ag@@
Fantas@@
Zuhör@@
erwartet.
fen?
15.
Schicks@@
spre@@
Schüler,
dumme
Gebo@@
Des@@
versteckte
endlich,
wo,
Fit@@
Rhyth@@
spannen
stellten,
aku@@
x-@@
kollab@@
Gab@@
Nahrung,
Experiment.
Fische,
genom@@
verw@@
kampf@@
Hero@@
geholfen,
Königreich
beliebige
begonnen.
Vorbild
Sün@@
Jul@@
"Ja."
schre@@
Trocken@@
Distanz
hüb@@
Müttern
Wall
Erzieh@@
Passwör@@
seins
ultimative
Atlantik
Ren@@
Behinderungen
Goldene
wärmer
ks,
wenden,
Verbindungen,
Darwin@@
Ada@@
oti@@
Lob@@
el-@@
gröss@@
Beachten
fris@@
kaput@@
führende
"Wo@@
algorit@@
Aufgrund
gestiegen
Tod.
isierten
kalten
Fahrzeug
Sterbe@@
einfachste
Poli@@
nervös
att@@
lossen.
schrecklich.
allein@@
Watt
Bomben
Cam@@
fo@@
zul@@
Empfänger
bewahren
abstrakte
Diplom@@
Rit@@
Szenario
müh@@
Caf@@
ative,
riebenen
Papier.
Schriftstell@@
Integr@@
Anliegen
Sender
Scheibe
verlor@@
Rettungs@@
Sky@@
anfan@@
Sowjetunion
Schwimmen
Zurück@@
dal@@
Gelen@@
Luther
Comics
Gewohn@@
Bruno
Mul@@
Rover
Seide
nahen
erwarten.
Seife
Dschihad
Tasman@@
MT:
JF:
Einzelne
schief
gien,
neutr@@
zieren
erwer@@
chter,
eingeschrän@@
Prüf@@
Republikaner
Räumen
ahnen
herausstellt,
kochen
erhit@@
beschäftigt.
Kommentar
stät@@
setzen?
gelehrt
zehntausende
gewand@@
nördlichen
entworfen,
Na,
Publikum.
60ern
stände,
gemeinsames
mentale
Reise.
Chris,
folge
ganzer
entschlüssel@@
vorhersagen
s'
T-Shir@@
Bakterium
gnis
zahlreiche
lock@@
Träumen
Wunden
Bedien@@
geschichten
leitungen
Rückkehr
Standard
fir@@
deuten
les,
leise
Genau.
ändert.
Regenwal@@
Gehirnen
studieren,
Konzentration
Schimpan@@
emotional
twe@@
anderswo
schlimmer,
Beton
Proble@@
kind
kreu@@
phänomen@@
gern.
beenden
TED,
kauften
nachgedacht,
teres
Unru@@
wand,
du?
Mist@@
AR@@
anzusehen.
Ted
Lager@@
Mathematik.
sein;
Anpassung
Ansammlung
sprin@@
Photo@@
Interessantes
Verzerr@@
ur-@@
sern,
Idee:
Fass@@
Dur@@
ib@@
gesteu@@
Ökosysteme
magische
Jan@@
Forschungen
ät.
steigen@@
umgeb@@
ok,
produziert.
Seien
Gründen.
beschleunigt
Glücklich@@
gibt's
überlegen
Milch@@
Stor@@
falsch@@
Angebo@@
Schritt,
Publik@@
zurückkehren
Gescheh@@
ver,
ders
Plast@@
lust@@
irdische
Cartoons
Wahrnehm@@
O-@@
Ausrüst@@
Ergebnis,
Darin
verge@@
vergewaltig@@
ame
etzen.
alisieren.
Traum,
genutzt.
außerordentlich
parti@@
bevor@@
Wissen.
Anlage
Strukturen,
Brut@@
Formel
Jam@@
ganz@@
Prostitu@@
ckung
Kühe
Mythos
Endeffekt
Anfan@@
aufnehmen.
verurteilt
Antworten.
fehlenden
jüngsten
Tolle
digten
Glau@@
Balken
bezieht
Vorder@@
Sieht
bewir@@
Herangehensweise
fühle,
Realität,
aul@@
ichten.
Kilometern
Verhandlungen
70ern
Weiß
annte
Beleuchtung
überwinden.
Eindruck,
Gebir@@
Mön@@
Zel@@
Filme,
Geographic
unglücklich@@
quäl@@
kosten,
Zentren
teilte
Down@@
umfassende
Redakte@@
Engl@@
Ergebnis.
Kanal
gewissem
Square
sinnvoll
anden,
mlich
Glied@@
vorherseh@@
verarbeiten
ster-@@
warum,
betreiben,
Prioritäten
umgekehrt.
„Was
gegründet.
Leist@@
Jungs,
Universums.
Gravit@@
versp@@
Horizont
sicht,
Objekte,
Botschaften
Nachts
Kiste
Melo@@
Virtu@@
Deine
droh@@
U-Bahn
daraus.
französische
heißt:
M:
Tot@@
scha@@
Alt@@
vergess@@
Banken
küste
Fälle,
90er
Straßen,
gangs@@
Pandem@@
selb@@
Klasse,
Sied@@
ry,
Öl.
Fab@@
boar@@
Infe@@
reichen,
nehmen@@
dreht.
Tut
eindeut@@
wissenschaftlicher
hängen.
Minist@@
dert
gener
Euro@@
anzugehen.
itä@@
Dankeschön.
Dick@@
zweier
gelen@@
Hauses
verstand,
Rente
erwachsene
Funktionsweise
Zuhörer
Unabhäng@@
ehmen
betonen,
mten
Athei@@
Gib
et-@@
Zukunfts@@
Profil
umgehen,
igkeit@@
reduzieren,
geistigen
Open-Source-@@
Kontrolle.
studien
Sekunde,
men."
einzur@@
Wand,
Schluss,
Fischer
Ritu@@
Truppen
Höhlen@@
Völkermord
Danke@@
geteil@@
Erst@@
Ah@@
Umgebungen
die:
Entwicklungshilfe
Institution@@
erledigt
verständnis
schätze
spiritu@@
erreichen?
Sicherheit.
allen@@
Absichten
Philosop@@
teile.
andauern@@
spüren.
Ausbreitung
beeinflu@@
Nährstoffe
Asp@@
mals.
meister
singen,
Juden
pati@@
fühlt.
tenen
städte
Lich@@
Töchter
Muslim@@
Parlament
Reform@@
blät@@
globalis@@
mens@@
diagnostiz@@
Region,
fet@@
erzieh@@
beam@@
Schweine
Elektronik
Galaxien,
son.
Stäm@@
Problem:
nebeneinander
70@@
Krankenhäusern
viele.
kontrolliert.
stellungen
"J@@
studier@@
gebieten
Premierminister
Stress@@
Böse
Shir@@
tepp@@
Programmieren
dunkel@@
jüngere
Origami
Hai
Diät
Cloud
eingesetzt,
Hormon@@
Inder
Studierende
Facebook,
störungen
gehört?
tag
verbrau@@
derzeitigen
langfristig
haft@@
Lap@@
erstmal
gien
durchführen,
verursachen
lle,
ellem
ego@@
Aufmerksamkeit,
lassen@@
getrenn@@
Afghanistan.
Vietnam@@
Alan
digt.
un,
nochmal,
Geschäft.
Worüber
geraten
Bildhau@@
anfing
rang
erlaub@@
stress@@
äll@@
gelassen,
Worten:
herausra@@
"Hier
Haut,
Wahrschein@@
omen
ore@@
bekannter
Gene,
künstlich
Zelle,
darzustellen.
dauernd
überflüss@@
Matri@@
s!
47
Haw@@
geladen
gerät.
heilen.
Eltern.
schlimmer.
unterscheidet
bun@@
Gemeinde,
gespr@@
Gefangen@@
Zeichen@@
rem
Kontex@@
Gründen,
nachhaltig@@
arm,
säu@@
Redner
schwitz@@
entfernen,
Berichte
jeman@@
mas
würde@@
Unsicherheit
Ph@@
Anfang,
Charlie
Mä@@
rechtzeitig
kannst,
Simon
Augenblick,
hungrig
angesehen.
strukturen
gers
ahr@@
Veröffentlichung
Schale
Selb@@
chn@@
gefertig@@
kreieren.
Bruce
Herausforder@@
arbeitete.
froh
grau@@
%,
Amerikaner.
Gruppen@@
Etiket@@
Aussehen
nein@@
Skala
decken.
sand@@
flach@@
Umfang
Neun@@
zählen,
Wissenschaft@@
Nachdenken
trotz@@
Handlung
angeschaut
Source
ice
halte.
gestal@@
erläu@@
Weisen
vermitteln
beitragen
ive@@
Repor@@
zu-@@
mmt
digte
relevan@@
mens
haut
Brot@@
effe@@
Ecken
bekommen?
berichten
angewandt
ück
dir.
Antwort:
mmen
Kräf@@
Strate@@
Din@@
erwachsen
kommuniz@@
sh
ms@@
Ken
setzung
geschlagen,
Stammes@@
Watson
pha@@
Anwälte
angesehen,
zier@@
ro
nit@@
Die@@
Gesetze,
verfahren
gewohnt
Bereit@@
verse
riefen
umstrit@@
Bush
Kooper@@
unterhalten
IP@@
bere@@
evolution@@
stufe
Explos@@
Beob@@
flach
dasselbe.
wirtschaft@@
tast@@
Fasern
jünger
verursachen.
Schwelle
aussehen?
erhöhen.
herab@@
Atmosphäre.
Flam@@
abends
fel.
Situation.
Sieben
zufolge
entscheiden.
Finanzierung
hervor.
Phys@@
akzeptieren,
Joseph
Viertel@@
ater@@
dargestellt.
pfel
zugs@@
zige
beauftra@@
Ehr@@
Raumschiff@@
absoluten
gewon@@
Quadratmeter
gehen."
Zivilis@@
beizubringen,
keit@@
Visualisierung
riebene
Vertrag
zwingen
oe@@
Spazier@@
Arbeiter@@
linien
ical
fehlt,
wesentliche
Spenden
ums,
minder@@
Handels@@
Zul@@
kennt@@
Edward
sehen:
kollektive
erlaubte
llen
Plan.
dau@@
Blumen@@
fab@@
Autom@@
pft
solle
va
Ergebnisse.
unbekannten
erfuhr
Äthiop@@
Hollywood
Kongress@@
Lar@@
hielten,
London,
schrecklich@@
hre.
Charaktere
Bemühungen
verheirat@@
wartete
Talent
aufgeregt
anfäll@@
Störung
angeht.
ding@@
wahres
führte.
B,
geistige
ce,
Anru@@
Darm@@
ags
zunehmen
fau@@
verbrauchen
indire@@
schel@@
Qua@@
Platz,
Bald
lied
ernste
spitzen
täusch@@
Erfahrungen,
Gerät.
General@@
nachgedacht
Hoffnungen
teten,
Erb@@
erreichte
Hals
invas@@
nötigen
identifizieren,
began@@
begab@@
Baby,
verläss@@
zern
Gefühl.
Matt
Mount
zufrie@@
univers@@
weiser
unsichtbare
Trin@@
seht,
ssystem,
schten
stolper@@
gelähmt
üft@@
Fledermäuse
höhe
Milliarden.
tion,
akademischen
Bestand@@
Neur@@
Experimente,
basieren
kehrte
Campus
Hong
Kreisl@@
nu@@
setze
drückt,
bieten.
hre
rational
ungewöhnlich
gestaltet
schönsten
begriff@@
batter@@
Stewart
getro@@
gerü@@
fressen
kt:
Vorstell@@
Lese@@
analy@@
delt.
homo@@
teuer,
Risiko,
arten.
Gruppe.
andererseits
atur
Eli@@
Engel@@
geschicht@@
springt
Gitar@@
bo
mungen
Raketen@@
gewalttät@@
Nacht@@
erlangen
Nordo@@
Mädch@@
feiern
Beobachtungen
70er
Pyramide
ers@@
Sicherlich
stern@@
Jet@@
Messer
liegende
ro-@@
Spiels
Wi@@
trainieren
Mitgefühl@@
Verein@@
Haf@@
ma-@@
aten@@
Geschma@@
Akte@@
Brei@@
Alkohol
Egal
Kind:
MA@@
Sklaverei
Hang
Krähen
wachst@@
ls
Intensiv@@
Anony@@
Filmemacher
jah@@
wirksam
annähernd
Shar@@
County
Twitter-@@
Affe
Gehirna@@
que@@
ey@@
müt@@
Brennstoffe
Hilfe,
berechnen
Demokr@@
Flüsse
Biom@@
Mais@@
Extra@@
Schaffung
Aufklär@@
diskutieren,
kapit@@
unternehmer@@
befreien.
Ang@@
internation@@
afghan@@
legend@@
begei@@
Zeitspanne
Wü@@
zykl@@
jap@@
klam@@
dahinter@@
wacht
Zeiten,
krank.
Jeman@@
mie@@
ern:
é
rad
Expedition
Meere@@
Artenvielfalt
herzustellen
engen
hom@@
Umwel@@
Stil@@
willkommen
landen.
gezogen.
verwende
antworten
"Le@@
ernähren
gen;
Laptop@@
1960
stol@@
Gefühle,
sch-@@
Wussten
läh@@
unterschei@@
vergift@@
machen?"
gewal@@
Nervensystem
faszin@@
differenz@@
Weiß@@
bombar@@
stum@@
gucken
räge
treib@@
cha@@
fru@@
Sim@@
romantische
roman@@
Geschlechter@@
mann.
Verhandl@@
vermehr@@
tötet
tin,
vorbei,
alter.
bewusste
Geni@@
wesent@@
ium@@
Puzz@@
gendste
aden@@
Gewäss@@
kühlt
Schaltkrei@@
berichten.
loss@@
Tafel
ies.
Star
Dampf@@
erweitern.
Gelegenheiten
hys@@
Cola
Mitte.
Teller
verkauften
Stock@@
versteck@@
lle.
bist.
träge
Taschen
Schwier@@
Fahrrä@@
dorthin,
klettern
verstecken
Chile
tes@@
sätz@@
Soldaten,
forts@@
Geschen@@
Verbin@@
Eigentum
rechtliche
Gott@@
organische
ana
Wow.
Ding.
Verb@@
Einfluss@@
Zeitschrift
mat
Innenstadt
gefährlich,
zeig@@
ähnlich,
teuren
zeichen,
begrenzten
schneidet
unsicht@@
mes,
Prototyp
ca@@
ktischen
stadt,
de"
nutze
Schokol@@
Verteil@@
wunderbar,
meinte,
Dalai
Gefängnis.
rannte
lebten.
Sche@@
Pazifik
kan
DNA,
herauszufinden.
Alex
reisen,
Feynman
intelligenter
straße
glob@@
Website,
Letzte
faszinierend
gas@@
verdeut@@
50er
glat@@
all-@@
Älterwerden
stoffe,
iert:
zon@@
Reich@@
Förderung
aggress@@
ire
fremden
Membr@@
Blume
Lab
Ergebnissen
riebs@@
hung@@
Meeting
verteilen
Ökosyste@@
fürcht@@
Erste,
Sich
Herrn
willst,
manchmal,
gehän@@
bezeichnet.
berechn@@
Korea
Shanghai
leichte
ehren
Benzin@@
East
zuverläss@@
Notfall@@
Colle@@
Anspruch
umwelt@@
geschah@@
Angelegenheiten
Verantwortung,
wählten
Verbindung,
TEDGlobal
Wunsch@@
disch
Manag@@
Fotos,
jahr
sekun@@
Fremde
appen,
red@@
Bell
artig.
Ozean,
intellektu@@
Mrd.
umzugehen,
ten?"
Amat@@
Zutaten
Erfolge
erinn@@
artig,
Susan
umgewandelt
Klei@@
Interface
merkt
urc@@
fördert
Themen,
unterrichten.
Kommt
Sarah
erfassen.
danke.
Obdach@@
Gelegen@@
südlich
anfängt,
mär@@
Sex.
wort@@
industri@@
trin@@
Argumente
interessierte
ümm@@
Institutionen,
ausmacht,
Ameisen,
Bevölkerung.
Fischen
Schein@@
halfen
Ferne
Kreu@@
--,
las@@
graben,
beruhig@@
vertrauen.
akt
y."
Foot@@
länger@@
verteilung
OE@@
Jün@@
Stimmt's?
herausfand,
stische
ließ,
einem,
ausdehn@@
ebene
personen
Kalifornien.
Durchbruch
Mütter,
wilde
Begeisterung
Tun
Meme
Möbel@@
Astero@@
anda
Geschle@@
fische
hilft.
gehörigen
Panik
Benzin
Körpern
30,
wirken,
artiger
Fett@@
bezogen
erscheinen.
Zwan@@
Grösse
Selt@@
Experimenten
blick
Origam@@
Garten@@
under@@
WK:
Social
Stell@@
bekämpf@@
fried@@
Metap@@
bringen?
anfangs
Jobs,
B:
entfernen.
verpa@@
äume.
Schulab@@
erkannten
Solarzellen
tiger
pen,
neur@@
Geräte,
Disziplin
Alice
Schwarzen
Sucht
äter,
Barr@@
Angst@@
LHC
Joshua
einzelner
endet.
Bruchteil
wiederholen
Stärken
Streifen
JH:
Fün@@
vielversprech@@
überaus
Künste
Genes@@
Smartphon@@
Mammo@@
Phosphor@@
Abed
Hinter
Ausschau
ativ,
Teilnahme
Jahres@@
bezahlt.
Zusammenhan@@
Demokraten
spot@@
Dorf.
verarbei@@
Verwen@@
verfügbaren
verbessert.
hr,
bereiten,
traur@@
Ash@@
fragten,
ausführen
institution@@
systemen
Fur@@
Amerikanern
firmen
Textil@@
Partnerschaft
Nicht,
190@@
geflogen
geprägt
2020
Industrie,
erfunden,
age,
50ern
betrieben.
Origin@@
Skulpt@@
Meister
Künstlern
Dialog@@
zwi@@
Wichtiges
nötige
Carl
Craig
durchführen.
bedenken
ama
1,3
atmen,
Temperaturen
proben
Region.
famil@@
Viru@@
programme
empfin@@
Kolum@@
Willkommen
sort@@
gesehen?
lagen,
Intuit@@
unterstützt,
magnet@@
Acht
brillian@@
fehlende
Pum@@
GPS
leiter
bittet
Ut@@
Gras@@
Berühr@@
Gefühlen
Beschei@@
Mauern
antwortet@@
ungsproje@@
verfolg@@
chteten
las,
Nadel@@
spitze
reaktion
treu
führe
var@@
burg
Archite@@
Demokratien
"Ma@@
folgte
Vorführ@@
jüngste
Last@@
sexueller
Japan,
schreib@@
illustr@@
---
lachten
Beispiele,
Bow@@
weit.
amü@@
ungen?
evolutionären
geformt
trei@@
technolog@@
Bär@@
Cockta@@
alisierung,
Klische@@
bezeichn@@
Pian@@
Psychop@@
erlangen.
streu@@
ergeben.
intellektuellen
Nahrungsmittel@@
bell@@
vermögen
hielten.
steten
sprachen,
ologen,
voll,
christ@@
immern
interessieren.
aufwuchs,
peri@@
klü@@
Leser
Stelle.
Abteilung
sig@@
denkl@@
stechn@@
innovative
übersetzen
lehre
verbindet,
Up
43
meist@@
Dein
verblüffende
weis
Konsequenz
tue.
I.
erfolgreicher
Erfolg,
Essenz
frisch
teurer
Sicher@@
80er
geniale
pfen.
Herz,
bedenken,
erfolgreich.
krieg
Übersetzung
markt,
00-@@
Sechs@@
stig@@
handels@@
ganz,
itäten,
direkten
gestaltung
terung
erscheint,
maschine.
Flor@@
Museu@@
Joe@@
Zehen
jähriger
Amazonas
Pfeil@@
stoß
Francis
e;
patent@@
ausmachen.
wickel@@
Community
ete
stim@@
erseits,
Potenzi@@
Molekular@@
gefr@@
Geräten
verlänger@@
verhindert
mittler@@
vernünft@@
Sterben
geschwindig@@
len,
basiert,
beabsicht@@
Embry@@
fär@@
ast
verm@@
Leder@@
ene@@
Spitz@@
Bonob@@
farb@@
Post
99@@
Urknall
isiert.
dener
Intelligenz,
Desa@@
Katastrop@@
solche,
Albert
etzen,
universelle
eck@@
die.
H:
Sterne,
Gestalt
Genauigkeit
Fus@@
Zivilisationen
These
Richtlinien
Antrieb
Minder@@
ierbar
warn@@
verhaf@@
Millionen,
körperlich
Demonstr@@
sproje@@
greifenden
Naturschutz@@
existierenden
Monat.
Mandel@@
basierten
Ursprün@@
fantastisch
ungsprogramm
Vertreter
Rezession
ric@@
Kamera,
Polit@@
Theorie.
extremen
Müt@@
Bühnen@@
deten.
gemeinschaft
bewältig@@
tisch.
tos
Positionen
ologe,
orien.
schein
Tastatur
ke:
Denkt
CO@@
geht@@
Tradit@@
Lebensunterhalt
optimistisch
Schwing@@
Gehalt
Stift@@
Schafe
Bin
Paare
Lücken
verfein@@
dynamische
schaftlicher
schmerzhaft
lädt
Haushalts@@
Kategorien
Schlag
mt,
Gebie@@
dreht,
ja?
bekämpfen
p-@@
aufhör@@
pil@@
reichsten
Bakterien@@
gesucht
Steinen
Somali@@
Indonesien
con@@
längere
Veranstalt@@
zeitig
freizu@@
besorgt,
Wissenschaftler@@
müssten,
Netze
fahrts@@
O,
Osteu@@
dom@@
schlag.
fundament@@
í@@
Überzeugungen
Überzeug@@
dich.
architektonische
wüssten,
bedeutenden
bom@@
pel@@
Bat@@
Geldge@@
übernehmen.
Bogen
Phosphor
Verschmutzung
stoffe.
wagen,
Angriffe
fordern.
Last
neun@@
Physik@@
provo@@
ausgehen,
Ziemlich
Blau
garantiert
älterer
Station
ight
Förder@@
Theor@@
assozi@@
Sonnensch@@
geöffnet
Katastrophen@@
s;
wiederholen.
Auton@@
ate,
enthalten.
fress@@
verändern?
visuell
Schönheit,
gehan@@
besuchen,
Filmen
äub@@
konfront@@
sigkeit
fleisch
3.@@
bogen
Keller
Schwest@@
Palä@@
kannte,
hit@@
Verbrauch
iss
Dörfern
gang,
störung
beige@@
gestoßen
Führungspersön@@
geha@@
Mitte,
häufigsten
ign@@
ium,
Anwal@@
Patienten@@
widersprüch@@
kombiniert
Steuer
Newton
Zufäll@@
stolz,
zwangsläufig
Seri@@
Übungen
Tiefse@@
Besucher
aufen,
gehir@@
Laut@@
Rakete
Blutgefä@@
allmählich
Stolz
TV
Freunden,
Stellt
Jahrhunderten
Penn@@
freiheit
ahl
Schnurrbar@@
Propag@@
Cyberkrimin@@
Tausend
netten
tom@@
gem@@
überprü@@
ton,
minus
lenken
einfacher,
Sequ@@
Problemen,
bereiten.
MIT,
riebe
nahme.
lichten
Verantwort@@
benötigt,
teils
befassen.
Städten,
Jeder,
unbekannte
null
vater
aufhören.
hs
entstehen,
Luftfahr@@
gegründet,
geschäft@@
schmei@@
Vorauss@@
deshalb,
Betriebs@@
fließen
iff
konze@@
stitu@@
zuständig
Ingenieuren
Kreativität,
Ti@@
methode
fühlten
Kreativität.
Meer,
Häuf@@
überrascht.
vari@@
derer,
biologischer
wortwörtlich
schlüss@@
molekulare
Intelligenz.
90ern
vit@@
Garage
mich@@
ziges
Dean
Pandemie
medizin
Zwe@@
Jäger
mau@@
Schlacht@@
studium
Ausbruch
begeistert.
Verletzung
gress@@
bekä@@
Krebszellen
gedreht
den;
wartet,
Beton@@
Neues.
Unsicher@@
genheit
ix
Lein@@
DE@@
geschickt.
W:
Performan@@
dauern.
Whit@@
kenden
behaupte
steigt,
fühlt,
Dom@@
Musch@@
miteinander.
evolutionäre
Universität,
Kunststoff
sein:
Reze@@
Menschheit,
Danny
ktiv.
spunkte
gert
erweitert
link@@
Klar@@
analysiert
bemerk@@
nachdem,
Sorte
gibt?
ij@@
yc@@
italien@@
war's.
lachen,
Preis.
eben.
habe:
gegenseit@@
Vorsit@@
Heraus@@
Magazin@@
erschein@@
steht:
planet@@
zweitens
.500
erscho@@
Jagd
platten
ennen
Mod@@
möglich?
Rechnung
ziell
Fremd@@
Oran@@
interessiere
besonderes
atmen.
lächerlich
gesteuert
stunden
tene
breit@@
DV@@
enger
kennt,
Behälter
produkt
dose
menschen
Anlagen
schwimmen.
Zumindest
Notiz@@
brett
dank@@
situ@@
führten,
theorie
einzusetzen,
Les@@
Fahren
Front@@
würde?
"Meine
leichten
begriff
Olympischen
Kleidung,
städtische
alit@@
antreiben
Öster@@
sm@@
Linie,
Ankunft
Getrei@@
protest@@
Feinde
Held
Abkürz@@
spir@@
Stränge
pflanzen.
voraus
Schatten@@
‘
angekommen
mäßige
Pfad
plikationen
Steuern
bürger@@
unt@@
gemisch@@
erledigen
Peer-@@
Line@@
multipliz@@
technologischen
mechanische
Wachstums
Grunde,
zerne
lebten,
stunde
Revolution@@
Sieg
ungs
verdrän@@
Akk@@
Prinzip@@
Neuronen,
derselbe
wuchsen
Pilze
ents
Antarktis
reiben
hell
Kosten,
maschine,
Geschlecht@@
künstlerische
rand
Gravitation
gegenwärtige
vermuten,
Kreaturen
geschichte,
Pip@@
verschlu@@
Anfän@@
band.
Benutzer
Veranstaltung
E.
gendsten
Würfel
Maßstä@@
Wiss@@
to-@@
ograf@@
Abstra@@
Mitt@@
transparent
ehe
offensicht@@
schafft.
massen
zeugen
Strasse
weich@@
City,
60.000
Durchschnit@@
60er
dienen.
demonstriert
schlech@@
bewältigen
Meet@@
wilden
Ganzes
Uni@@
Leuten.
richtiger
debat@@
halte@@
Gemeinschaft@@
schlimme
dierte
staa@@
100%
heimlich
Extrem@@
Gewalt.
sehe.
Johnson
Karte,
Best@@
ausgeben
erheblich
Natürlich,
aß
Kontext,
olo@@
empfind@@
”
ko
Künstler.
Ökologie
Gä@@
sechs,
ruppe
statist@@
hinweg.
Hass
Flugzeug,
Ja!
wil@@
Bekann@@
Einkommen,
programmiert
senden.
Zeile
zweitens,
spirituellen
Handy,
Weniger
anpassen.
besuchen.
verlangen
angemessen
Russ@@
leihen
Kreat@@
SS:
erkunden
mutter
lustig,
äußeren
Farben,
Verfügung.
heben.
Ignor@@
Urspr@@
ing"
Getreide
üben,
gelass@@
Mahlzeiten
märkte
versorgen
.000.
Tod,
energie@@
Wisst
geehr@@
Helikop@@
geradezu
Eis.
Zigaret@@
Hindernis
Argu@@
sahen.
Werte,
schlauer
rin@@
do,
clever@@
+
Weißt
etwa@@
Beat@@
Teilneh@@
übert@@
"das
Hätten
Lichts
Has@@
Flederm@@
zip@@
Fris@@
stor@@
Can@@
grauen
schö@@
Ök@@
Margaret
Brun@@
Git@@
untersuchten
Get@@
Sprecher:
utzen
Zeremon@@
dran,
ummer@@
existieren,
bewus@@
Patri@@
Feedba@@
Sus@@
tei@@
chines@@
Behinder@@
Personal
Bay
programmieren
ut.
Selbstmor@@
unglaublicher
Finan@@
stabil
Demokrat@@
Vie@@
Einnahmen
Rund@@
darstellen
fessel@@
-jähriger
Verbrenn@@
Emily
Kondome
skrankheiten
Standort
Irr@@
rosa
strahl
Krankenhäuser@@
herein
Generation.
ätze
dex
Geist,
Nov@@
orientierten
sozial@@
lied,
uten,
Wör@@
":
gebro@@
erweitern,
Zusammenspiel
dreidimensionale
Politik.
Selbstmordattent@@
Fried@@
ile@@
Vielfalt,
abgelegenen
holten
masse
iertem
verstän@@
geborene
Nic@@
Spen@@
entschlossen,
car@@
Papa
medit@@
steckte
äume,
stellige
brauchten,
ok.
Bühne,
24@@
Medien.
wird."
Bien@@
irration@@
quis@@
hasse
heft@@
Mädchen:
betreu@@
großzüg@@
System@@
Größe,
Kulturen,
gezü@@
subje@@
Gletscher@@
dienste
leidenschaftlich
Rollstu@@
gehst
Zylinder
Trop@@
Sper@@
Bedrohungen
fettleib@@
Ölkatastrop@@
gie
Sylvia
Iran@@
Smartphone
schutz
trieb
ville
billige
how
version
Emiss@@
spannende
sauber
einfallen
Abschluss@@
Biomasse
ckel@@
bemerkenswert.
reichen.
bemerkenswer@@
seltenen
Armuts@@
bereitet
Verwal@@
seltene
notwendig,
leid
titel
stark.
Europä@@
würdig
okay
Gleich
"Komm
jähriges
würden?
Zehntel
raum@@
Blue
Hierarchie
emotion@@
Analog@@
wegs
Beziehungen.
Baby.
um-@@
branche
Cat@@
pten
Cou@@
Motorra@@
te;
mikrobi@@
Rezept@@
Überblick
synthetische
wenig,
benötigt.
samt
typ@@
längst
Klar,
öß@@
ings,
Öff@@
forschen
iPod
Speicher@@
Kamera.
vermeid@@
stil@@
Batterien
geograph@@
Versuchs@@
erfuhr,
Imit@@
seel@@
beweisen
Traur@@
Hunger@@
liebe.
begleitet
siehe
entschlossen
44
Pur@@
mmt.
reisen.
Wesent@@
fähige
derart
Besprech@@
Unterstütz@@
Ol@@
profitieren
Hafen
stoßen,
l,
Visu@@
gen-@@
Missbrauch
Parkplatz
unterschie@@
sehen."
ausgehen
denkst
hinterlassen.
symmetr@@
gebildet,
plik@@
geschlaf@@
nannte.
aufgeregt,
dahin,
leit@@
Algorith@@
lernen?
Struktur.
Information.
tauchen,
zess,
ungsmittel
Organismen,
Mikroben,
Grüne
Unterbrech@@
gilt,
gent@@
alog@@
Haushalt
Ein-@@
Schalt@@
Gewehr@@
Todesfälle
redete
äres
sichtbaren
verläuft
erstellt,
verkl@@
hinzufügen,
kenne,
Argentin@@
deutet
Dies@@
Punkte,
wärts@@
Top
Schätz@@
Ungerechtigkeit
Bäume,
gefol@@
inger@@
besitzt,
dung@@
Zustand,
französischen
Penis
’@@
tlicher
ausgestat@@
olit@@
rein,
barem
einfachsten
geprä@@
Schmerz@@
ffer@@
Produkt,
ap
unglei@@
Verluste
kriege
hohes
Stunde,
Schmu@@
männer
eingehen
stirbt,
fälle.
Nein@@
alitäten
schnellste
Gericht@@
sho@@
Huhn
geschossen
wahrgenommen
Bleist@@
hineinzu@@
ra.
faszinierend,
Tenn@@
onnen
aro@@
Jag@@
behandelt,
tags@@
Refer@@
ose
Mitglie@@
4-@@
gefährdet
treiben,
rechnen,
ay
Dienst@@
minist@@
Rick
Dikt@@
geplant
fundamentalen
Produktiv@@
Phänomen.
fähiger
umfasst
gesamtes
ahn
behaupte,
altet.
Lebewesen,
fremde
änen
le"
stetig
ichte
geringe
Kosmos
Universen
n-@@
Treibhaus@@
Herrschaft
irdischen
liche.
Variationen
tipp@@
transportieren
verstärkt
bauer
willkür@@
Note
men:
sproble@@
geschla@@
scheitern
Gefähr@@
Anstreng@@
beigebracht,
energ@@
angefangen.
ehn@@
ueber
koenn@@
Karo@@
erschwing@@
Haushalte
grosser
Nahrungsmittel
part@@
gesundheits@@
ken?
ökologische
igkeiten,
Innovation@@
Behör@@
Cour@@
ernsthafte
alleine.
erzeugt,
laufenden
Schuh@@
älen
halts@@
Denkens
Umweltschutz@@
Anzug
lern.
ima
beleg@@
Illus@@
Blind@@
stes,
Domin@@
Waisen@@
Irland
Action@@
Tote
Politiker,
ther@@
Verteidigung
Universitäts@@
pper@@
entschloss
hiermit
angehen
drüben,
organisieren,
Vagina
Flaschen
Marsh@@
winden
ator,
getau@@
board
zoomen
spiel,
Hab@@
fung
Spru@@
wählt
vorge@@
zurecht
Verarbeitung
Zusammenbruch
äne
verknüpft
wahrscheinlicher
"Er@@
Wichtig
ischste
Geschäftsführer
dramat@@
erschre@@
zettel
nein
zentren
Motto
zuvor,
gefil@@
zeichneten
ropa
Zent@@
Investoren
Rum@@
Nimm
versetzt
abl@@
dynamisch
neuro@@
phan@@
müss@@
Überleben@@
Fing@@
Pfun@@
Anhän@@
magischen
änderung
bewahren.
alismus,
Bürgerkrieg
Rach@@
Strafe
Rehabilit@@
drastisch
Tür.
Geschlechts@@
vertrauenswür@@
kann:
siehst
Gewässer
Meter.
Ed
kore@@
Fünftel
Webseiten
Unbe@@
Auß@@
Regeln.
Leben?
mancher
ogen,
Transformation
bereu@@
tig,
Soll
Ängste
Stickstoff@@
Maßstab@@
enseite
selbstverständ@@
Vorgänge
Inten@@
digkeit
üttel@@
Schweizer
Vibr@@
nimm
Frühl@@
Effek@@
Grä@@
luden
As@@
Benutz@@
Helden@@
Befehl@@
Poe@@
hat."
eines,
bestrei@@
grusel@@
negativ
Porno@@
begegnen,
jedermann
konzip@@
sitzt.
verwurzel@@
Schnei@@
Fut@@
schlüsse
Einricht@@
seltsam.
gemäß@@
moment@@
schlafen.
Unmögliche
Nuklear@@
Transport
Hüfte
gegenüber.
Ultrasch@@
nom@@
Frequ@@
unt
Blo@@
Global
einmal:
verbracht.
Soziale
um?
gen?"
Daraufhin
dauerhaft
malen.
Teile.
"Diese
beur@@
komplet@@
angezogen
Rose
Selbst-@@
mill@@
Mais
ausgestor@@
Pier@@
Wom@@
igung,
Kommunikation.
untersuchte
Titan
Horizon@@
eindrucks@@
pflan@@
landwirtschaftlichen
unheimlich
weltweit,
Progno@@
dal
Stei@@
mathematisch
ante
Krab@@
cre@@
gesen@@
Applaus
schwanger
Cy@@
welle
Trainings@@
Elternteil
trainiert
fordern
Dokumente
hang@@
Alli@@
Wohnzimmer
demo@@
Bezir@@
Gegner
Behinderung
stelle.
Brille
zwingen,
lachen.
cu@@
Alpha
Echt@@
Ruhe@@
Spektro@@
Tänzer
Patente
Bast@@
Bestäu@@
Erfassung
tun:
Still@@
Karikatur@@
‹
Geräusch,
JA:
O.@@
Delfin@@
Atomenergie
Air
Farm
stieg,
Atlan@@
zeige.
4,@@
Strom.
geschlossenen
benenn@@
MI@@
komprim@@
Gerä@@
herausfanden,
gerade,
Yu@@
brennen
wüsste
Anderson
Verwaltungs@@
fern.
schaffen?
konventionelle
ausgedehn@@
ierend.
Seiten.
Provin@@
ks.
wurde?
müsste.
verspür@@
entstanden.
russischen
Anbie@@
Beteil@@
Betrag
lange.
befassen
ure.
schuldig
grenzen
Bele@@
Steck@@
unabhängigen
eingeschlossen
aut
seither
schliesslich
schichten
vio@@
Sequenzen
1995
jeweiligen
hi
baut,
Anstrengungen
Ris@@
zerle@@
Hydro@@
Cell@@
Laborator@@
ethischen
1999
führer
Hallo
Computers
Logo
gekauft.
hin?
Schnittstelle
Micro@@
PC
Seiten,
Programme,
Uhr,
merkwürdig
Treff@@
Herzen.
Epidem@@
heimischen
Trenn@@
Einklang
Videos,
dreck@@
sam,
Neurowissenschaft
Genetik
50%
Muskel
geholt
könnten?
gelieb@@
psychologischen
gewiesen
Bindung
entwickelte,
geschlecht@@
Langzeit@@
raten.
Trend@@
kern@@
empfehl@@
Gründe.
Ausgangs@@
Material.
gebunden
Effizi@@
mengen
Verpac@@
Sekun@@
wunderschön
ert@@
vorherigen
Amei@@
Jamie
en-
nirgend@@
Taf@@
vent@@
komplizierter
kurz,
verzö@@
ik:
prüfen
schloss
Zunge
teur@@
isiert,
isse
streben,
öffentliches
April
spreche.
Unternehmens
angegriffen
do-@@
zufälligen
Erklärungen
Datens@@
atie
schlepp@@
nachher
Internationale
»
daten,
Stö@@
Polar@@
einzusetzen.
Vide@@
hochzu@@
wünschte
Dir
Dog@@
geht?
Philosoph@@
möchte@@
organischen
biolog@@
Time
Beobachtung
komme.
gefüll@@
Suppe
Bambus
Schwach@@
are@@
Dire@@
Richtig.
rick@@
Verbraucher
Nr.
Freund.
aks
unzählige
knall@@
Rauchen
effizien@@
aussah@@
mitglie@@
ßt.
stiegen
vier.
ange
dann:
deutlich,
Firma.
wert,
vorm
bewertet
Güte,
statistisch
effektive
Sehn@@
ordnen.
Produktion@@
identifiziert
fig@@
Mechanismen
Besu@@
pti@@
Hütte
erstellt.
Verfassung
häss@@
den"
Kleider@@
Toleranz
Mitgefühls
wo.
müde
indig@@
pal@@
kathol@@
Zoo@@
ana,
ehemaligen
Monat,
enschaf@@
anfällig
verfüg@@
hüt@@
‘@@
nahr@@
Konversation
fläch@@
acheln
Schultern
Schulden
Hunderten
prin@@
landet
Programmen
verbundenen
professionelle
Tank@@
region
Werkzeugen
verdoppelt
anzunehmen,
verdoppel@@
deutschen
Begrenz@@
zy@@
Olymp@@
merkte,
kennung
Rout@@
vernünftige
Nebenwirkungen
entsprechende
Abfolge
flug
dieren.
Kategor@@
fte.
Algen
Skelett
ähl@@
Vögeln
gegenseitige
opp@@
offensichtlich.
Staates
band@@
verga@@
hlen.
Folien
Cent@@
verringern.
block
Krankenhaus.
Hard@@
Momenten
Komponente
nachgedacht.
bänder
Sir@@
höl@@
ihm:
strom@@
Tinte
radikal@@
schieben
koennen
Leicht@@
herausgestellt,
sprechend
bezahlt,
philosoph@@
Kohlen@@
Raten
Ufer
illegale
kipp@@
utz
arbeits@@
schluss,
finanziell
verbun@@
durchzuführen.
Sprung@@
Aufru@@
Schulen.
Flüchtlingslag@@
blit@@
Pubertät
London.
Steigerung
Unend@@
Himmel,
Schlimmste
afrikan@@
nerv@@
rede,
junges
Mission@@
Korruption,
logisch
kanal
wissenschaften,
Horror@@
fluss@@
skrank@@
erstaunliches
Erzählungen
Fingern
Köpf@@
Strat@@
individu@@
Tän@@
Royal
Rachel
sieben,
feiern.
dar
bleib@@
DNS-@@
wisst,
Sorge,
weh
Beziehungen,
Mut,
Tal
digitales
angef@@
kampf
over
Ablen@@
Gemeinde@@
verfügbar.
verstre@@
syn@@
Plän@@
unterschätz@@
gerechnet
gh@@
verhalten@@
Ny@@
geziel@@
identisch
ha.
Schmetter@@
iel
ierend,
Research
optische
Delphin@@
reduziert.
Nationen,
Belastung
code
Vö@@
Dokumentar@@
vollem
aktivität
versorgt
Vorbereitung
Inhalts@@
diagnostiziert
südlichen
Okto@@
Platten
scher,
Schan@@
Einladung
Anekdo@@
beschrieb
ss-@@
leug@@
lief@@
lung.
Sym@@
Welchen
wäch@@
traurige
ham
lohnt
Reu@@
beschränkt
Vul@@
hinauf@@
Philosophen
rie,
ologie@@
körper
büchern
ursach@@
ge"
²
arischen
Biologie.
heißen,
verarbeitet
Feucht@@
sprich@@
Solda@@
benannt
1:
Schlimm@@
Johnny
L-@@
Sag
singen.
Stri@@
kehren,
ordentlich
lette
Sab@@
Singapur
ire@@
bloße
Weiße
zurückkehren.
verringern
hh@@
spielte.
Umsetzung
Redwoo@@
ernähren.
Aqu@@
aufnehmen,
steil@@
shi@@
umfangrei@@
Markt,
leuchten.
führen?
Tochter,
Ding@@
sinkt
Signat@@
besuchten
zten
erhöht.
Kamel
riecht
stand:
cht."
Das,
det?
Unabhängigkeit
fung@@
telt
Gri@@
Management
Dosis
erischen
Normen
Gewal@@
ften.
Neurowissenschaft@@
spu@@
füllen.
verbie@@
omm@@
Erdgas
Meeresspiegel
Kennedy
Delhi
et?
Zir@@
militär@@
molekul@@
Messungen
eis@@
Fallschir@@
Crick@@
Kortex
anfingen,
anstren@@
begegnen.
lernten,
daraus,
Geometrie
gegan@@
bens
Objekt,
Außensei@@
Phoenix@@
Riff@@
gungen
Veter@@
tempor@@
kompletten
Künstlerin
gewoll@@
Trinkwasser
Oben
Stop@@
waschen
Klassen
Neben
beschäft@@
rän@@
zerr@@
Nathan
Dinosaurier@@
olen
Möchten
Julian
Schwierigkeiten.
enschutz@@
veränderte.
kontrollierte
computer@@
Frühstück@@
liefern,
verringert
schwieriger,
schil@@
bedingte
Flaggen
ungsa@@
Essens@@
Tumore
Dirig@@
Tatt@@
Arzneimittel@@
Passwort
YR:
wendung
spiegel
te!
Rede,
Clin@@
LKW
ünst@@
alisieren,
Solange
Helfen
wäre@@
Herde
Verfügung,
Ingenieurs@@
asse
Vergleich@@
finde.
Voraussetzungen
Abkommen
sieh@@
tal@@
ägyp@@
unternehmen.
gleichermaßen
Entwickler
kommerzielle
spa@@
'9@@
allerersten
betreiben.
Tick@@
pt,
beschreibt,
Schwär@@
künstler@@
bs
Anstelle
Projektes
aussah.
Stich
enthält.
oze@@
wasser,
Ecke.
definiert,
erweiterte
teten.
einz@@
Frag@@
gewählt,
Mac
Hilfe@@
ssystem.
Idi@@
begrenzte
Werkzeug@@
übrig.
alog
Sty@@
Dokument
Aufgaben@@
basiert.
brauch
Cen@@
drahtlose
losle@@
arbeitet@@
entwer@@
geredet
tatsäch@@
Linie.
Mitleid
dabei@@
becken
kultureller
a?
Gestern
ermutigt
reist
Händen.
genauen
Leidenschaft,
spezif@@
International
trinken,
reparieren.
Gift
seien.
D.@@
%@@
Netzwerk.
wandert
ator.
Cla@@
Brasilien,
verfügen
Leinwand
beschrei@@
char@@
Gesellschaften,
depress@@
Y
Spir@@
Krist@@
gelingt
haupt
Miner@@
Pflanzen.
Einspar@@
strahlen
schicht@@
kugel
selbst-@@
Filter
terweise
Tätigkeiten
blä@@
zigern
süß
Blit@@
Forschung.
Weiter
Varianten
ce.
beliebtesten
Tatsachen
Oder?
Wünsche
genannte
ssen?
swert
geöffnet.
gerufen.
erkannten,
gelesen.
könntest
gesundes
stundenlang
Service
Schließ@@
genehm@@
arbeite.
appe
gefäl@@
rund@@
MS:
verglei@@
cy
real.
belä@@
schmel@@
Van
itter@@
iel,
Mobiltelefone
kostet,
Wieviele
hüll@@
Kerl,
Amts@@
grade
disziplin@@
DN@@
hartnäck@@
fliegt.
Beding@@
ellen@@
eingeschränkt
strukt@@
bauen?
Höhen@@
änder.
Wen
entscheidet,
brot
Strategie,
zz@@
AC@@
stige
uten.
darstell@@
Af@@
angeseh@@
durften
örtliche
ffekt
versus
Freun@@
Säugl@@
beeindruckend.
geben."
d?"
Test.
Dinge:
tungen
regierung
angeb@@
dekor@@
gien.
Poin@@
gebraucht,
Gestalt@@
ade,
Keith
beitragen.
verbrachten
Beschäftigung
sehr@@
benötig@@
Hauptstadt
verboten
einstellen
14.
siedel@@
Scham@@
wach
bildern
ript
ianische
som@@
Heim
illegalen
platz,
verbrennen
gig@@
Armut.
Sprachen.
ver.
Kino
deutsche
Experten,
gon@@
Google-@@
IM@@
verwir@@
Stipendi@@
Begrün@@
Fernsehen,
dreidimension@@
erhöhen,
aßen
Diabe@@
Bevölker@@
regen
umul@@
Vortrag@@
Menge,
poet@@
atemberauben@@
eigen
Philip
bildeten
Primaten
senken
Green
Glühbirne
Laser
sondern,
bereit?
Deutschland,
.]
Bauer
sky
Merkmal
kostengünst@@
Epo@@
Apfel
ie"
umzusetzen.
Steu@@
Wu@@
Brasil@@
Bronx
Diesel@@
leidet
Männern,
to.
ungeachtet
erleichter@@
Autobahn
xen
erwor@@
gese@@
bildung.
planen.
heiß.
stürzen
Zwischenzeit
1,2
seite.
Energies@@
übernommen
fürchter@@
Ausrottung
Reaktion.
1980
grösste
Nation,
terten
ieber
ausgelöst
Grippe@@
Gummi@@
Vögel,
psycholog@@
AT@@
Zeitalter,
dd@@
Infrastruktur.
starben.
Überzeugung
Szen@@
itär@@
ankommt,
nahe@@
ischsten
Mitteln
bezeichnen.
gen"
bret@@
Büros
Impuls
tig.
Ressource
geheimen
Bewusstseins
vollste
registr@@
verwirrt
form,
Ei
hervor
Herzerkran@@
ordnet
Brücken
palästinens@@
Jä@@
Ston@@
Vorurteile
"Nun
Schüler@@
betrachte
uns@@
bloß@@
Prüfung
mte
Clinton
Red@@
wahnsinnig
Send@@
auswendig
entspann@@
Momente,
Dänemar@@
Schildkrö@@
gs,
z.@@
unvorstell@@
Tageslicht
fernen
Kredit
seriö@@
aben
Rech@@
dringt
sagst
ähe
Systeme.
ws,
Kontra@@
zudem
feste
unerwartete
Geschwister
Telekommunik@@
lingen
Kalten
ethnischen
entlassen
Skelet@@
Spreng@@
akzeptieren.
normal,
Bürger,
ativen,
errichten,
dramatische
erwartete
Volkes
lichkeit@@
sst.
Meer.
Stief@@
stechnologie
Nobelpreis
Vorgehensweise
bereich,
Philosoph
sah@@
komplex,
Christen
gehor@@
Weihnachten
euch.
res@@
Evolutions@@
feh@@
nung
äuren
Daumen@@
benötigten
pazif@@
verändernde
Nik@@
pfei@@
160
zurückkommen.
gelei@@
ssel
Abends
lieben@@
Trän@@
Stim@@
aly@@
stik@@
sla@@
Leber
bare@@
ausgesprochen
Zuflu@@
Kei@@
Hemisphäre
Spanien
Handvoll
grösser
ig?
Ware
Neurowissenschaftler
tlich,
Anatomie
Robotik
mol@@
sent@@
gre@@
ethnische
schuldig@@
Bildern,
Tunnel
Nachricht.
visueller
Operation@@
da?"
Union
Rechenschaft
gleicht
elk@@
Mid@@
Kunde
denkt:
Großbritannien.
Unterscheidung
mechanischen
spürt
Harmonie
Kriminalität
wahl
Verb
schwin@@
Polizist
Imm@@
Kanada,
mächtiger
park
Antworten,
fel
spielen?
Kult@@
Mobilität
zuminde@@
allgegenwär@@
Bach
Program@@
T,
Rohstoffe
Route
Tin@@
schluss.
Transform@@
darunter@@
ewi@@
gerade.
Empath@@
Erdn@@
Patientin
mar
Carnegie
gemerkt,
wahnsinn@@
Lim@@
rolle
Tempel
Lincoln
mut
aufbewahr@@
anhalten
Eg@@
Verbrech@@
C:
teilnehmen
verkörper@@
Beam@@
Wesen.
internationaler
seltener
Feh@@
ungsprogram@@
Straft@@
Versuche,
gewöhnt,
Englisch,
Kore@@
Qaida
sport@@
Testoster@@
blinde
Psycho@@
agra@@
zahl.
kö@@
gs.
Geschäftswelt
Tunn@@
äußere
östlichen
Cartoon@@
SETI
getötet.
JC:
schwamm
Kunstwerk
Cricket
Sebastian
Macher
Connectome
Apps
heit"
Hybr@@
Ehre,
Ex-@@
Flughaf@@
freuen
zurückkommen
Ener@@
W.
packen.
Beteiligung
politisches
Todesursach@@
Hait@@
überraschend,
Freiwillige
hle,
verkür@@
Wright
künfte
verdient.
rauszu@@
Zeitra@@
baus
Landkarte
Wirtschaf@@
vereinig@@
kapital
ums@@
Umfel@@
Himmel.
durchschnit@@
Wohltätigkeits@@
Verlag@@
kaputt.
Raumfahr@@
aufgehört
Raumschiff
höherer
Kritiker
Spielen.
kommerziellen
Apollo
bedeutet:
bewegenden
ike
iert@@
IBM
Bewertung
Fäden
dürf@@
Gordon
Expedit@@
Ostküste
Gene.
Evolution.
fügen.
erstellten
radio@@
ans,
nützliche
Kombin@@
Chemiker
que
bewerten
veröffentlichen.
fordert,
Anrufe
aufgezeichnet
noch?
offen.
Charakterist@@
Pilot
gefiel
zeich@@
Willst
Sicher
sichts@@
bruch,
schlafen,
verschwinden,
bildung,
unausweich@@
ineinander
Kalk@@
ermutigen,
erwähnte
Tode@@
arische
Professoren
Fair@@
gegen.
spannt
versorgen,
ral
geschenkt
hineinge@@
Linken
angewiesen
ankam,
zer,
ansah,
Ähnlichkeit
Clip
erhöhten
schub@@
Dem@@
Wicht@@
ungsfäh@@
Mustern
heutzuta@@
Empfin@@
vel@@
ätsel@@
Rasse
Partner,
anzuwenden.
git@@
Wichtige
Bereich.
Wissenschaftler.
Universität.
Linsen
AS@@
gels
farbe
Nachkommen
ung".
Nervenzelle
Landwirtschaft.
Vieh@@
Tenden@@
gangs
Innern
angehen.
wiederbele@@
Beschleun@@
Temperat@@
felder
beantwortet
oben@@
Hall@@
ash@@
verwendete
beschäftigte
jo@@
Schluss@@
Lungenentzün@@
Mittlerweile
verschwand
wurf
bar?
Farmer
grob
Non@@
heilige
machen:
Jones
sonn@@
ruppen
Soldat
SIe
befreien
Traum.
interaktive
kultiv@@
Hintergrund,
GP@@
navig@@
alls
digital
Massen
Hände.
Verbindung.
Iron@@
folg
Frö@@
Detail@@
zuhören,
Schachtel
meter
180
bemerken.
dend
zweit@@
ing?
Großmut@@
o?
einfall@@
überzeugen.
beinhaltet,
Kokain
Aufzeichn@@
regionale
Zufall.
Betrieb
befanden
Aktien@@
Park,
fiel.
ist?"
Buff@@
Beweise,
Pille
Konzep@@
entwir@@
Grundstück@@
horizont@@
gewonnen,
Arbeitsplat@@
Konstruktion
wän@@
Tisch.
wolle@@
Strich@@
Lux@@
sebene
Gy@@
riechen
lustigen
Molekülen
achter
modell,
beherr@@
auti@@
wunderbarer
erzähle,
prüf@@
gal@@
Mons@@
Kenia,
Instan@@
Angestellte
Änder@@
überwa@@
profession@@
gemeint
Link
akzeptiert
vorhersag@@
ares
Gesetz,
werten
Lebenszeit
iro@@
exponentiell
issen.
rische
Scheitern
jüng@@
Vorhersage
Hygi@@
jugend@@
psych@@
beginnend
"Lasst
diskutiert
haben;
Meeren
verwund@@
Räu@@
Beine.
80%
Herren
Anzeige
kosmischen
Supernova@@
Andro@@
jahren
Hundert@@
baren,
Power@@
fuhr,
fühlen?
Bedürfnissen
verstecken.
B-@@
Lied,
irgendwie,
Wahrheiten
lenken,
gutem
isten@@
Austral@@
13.
Hintergrund@@
140
glichkeit
Gewich@@
bereitete
edi@@
Kunden,
gekr@@
Entscheidung@@
Bundesstaat
Gründung
reifen
Überfluss
Büro,
schuss@@
stationen
veranstal@@
Fülle
Gemeinschafts@@
ba
Monaten.
Slu@@
gespeicher@@
Recyc@@
beeinflus@@
richtet.
Acker@@
Runde
Gemeinden,
stren@@
Diplomat
Rah@@
tötete
gezeichnet
Babys,
Alb@@
Nenn@@
hop@@
brauchte.
Herzen,
Hungersno@@
Individuen,
zustimmen,
Ric@@
ekel@@
Infektionen
einschrän@@
Vitamin
Behandlung,
wenig.
helfen?
besten,
Himmels
Buddh@@
trafen,
gefär@@
Neigung
wesen@@
cker.
Kopf-Zahl-@@
Project
ingt.
baut.
Politikern
nahe,
Gesellschafts@@
ch:
Wohlergehen
Wochenende
forderte
offenbar@@
glaubt.
Selbstwert@@
Identität,
ED@@
extre@@
Ressourc@@
Hex@@
Teile,
ausgel@@
Mathe
regionen
leuchtet
Archiv
Schau
leitet
tet:
ummer
vorkommt.
kehren.
Wä@@
professionellen
verwunder@@
Saat@@
unterschiede
Telefone
Funk@@
schlossen
Stoffe
jenigen
bür@@
Amt
ausländische
Behandlung.
auszur@@
reser@@
Swa@@
Wiederhol@@
stif@@
Anderen
lustige
pet@@
Everest
Zelt
British
Norwegen
Antarkt@@
sammlung
Geschäftsmodell
Wänden
betrachteten
Bruttoinlandsprodu@@
zet@@
Aussage,
sag
Bündel
Lun@@
Ohr@@
Mosle@@
anten@@
los?
Gefahr.
nützlich,
flöß@@
stattgefunden
fliegenden
Erwärm@@
Bewusstsein,
Freundes
verz@@
gründlich
hin-
losla@@
beanspru@@
stal@@
endgül@@
Ther@@
AL@@
äumen,
38
chtete
Klebe@@
Hur@@
stock
Einsamkeit
stattfinden
ding
fess@@
terie
Ungleichgewicht
freun@@
anti-@@
Ideologie
vielleicht:
kut@@
stöck@@
lehrer
Depress@@
lebendige
Taucher
Graff@@
American
rik
sensor@@
ungs-
heran.
Oberfläche,
Momentan
D.C.
bestehenden
nationaler
Kette
Götter
Rett@@
proportional
Höhen
gewaltig
Sedi@@
isoliert
"Können
Freunden.
Nest@@
Futter@@
Hühnchen
sonst@@
span@@
Kas@@
Lokal@@
zählt.
zug.
Aller@@
Landes@@
Halluzin@@
ogen.
Archä@@
beinhal@@
Andre@@
Kakerla@@
Geor@@
Flö@@
Zwecke
konzentriert.
Klimawandel@@
Filmemach@@
ziff@@
Wich@@
trinken.
Rechts
gekommen@@
stier@@
Ressourcen.
Oma
Rätsel.
schilder@@
Strang
programmieren,
Sehvermögen
g."
illegal
zw@@
hun@@
gewohnheiten
Augenblick@@
berechnen.
Wag@@
energie.
15,
Symmetrien
"Re@@
Frakt@@
gelern@@
Chaos.
unken
aktivieren
Schwa@@
balanc@@
Gerecht@@
gerichtet.
lehnte
Reaktion,
Fahrten
überwachen
nachmitt@@
geteilt.
Poll@@
Biene
Thin@@
Flücht@@
lam@@
U-Boot
Dave
it-@@
ida@@
stammt,
Oper
Bühne.
reißen
Fließ@@
Riff
ias
positiver
misst,
tions@@
hirn@@
käf@@
Wolfram
Friede
stö@@
Oklahoma
Wäl@@
frequenz
Falt@@
Außer
wohl.
gesteuerte
Währung
anpass@@
Gedächt@@
AM:
Spielzeug@@
Tasse
»Ich
flag@@
Moskitos
Spender@@
kognit@@
Impul@@
TEDTalks
sexper@@
Cyber-@@
Syrien
Seni@@
Lego
Verschlüssel@@
Saur@@
Snowden
Chris.
Story
Janu@@
gerufen,
Klim@@
erzielen.
führten.
zün@@
umgesetzt
analyse
Gebiete,
grenze
ungssyste@@
Afghanist@@
Justiz@@
Unterstützung.
Entwicklungsländern.
arbeitenden
Index
arbeit.
bedeutsam
Vision,
aufrechter@@
Plä@@
auch@@
Konkurrenz
elo@@
steine
erfolgrei@@
buch,
geform@@
0
vollkommen@@
UV-@@
stri@@
Bad
Kram
wahrer
Meerwasser
Segel@@
ville,
atische
fürchten
teilungen
eingestellt
abhängig,
kombinieren
singt
RO@@
Kunden@@
Nutzern
Techniker
allererste
Hoffn@@
Cu@@
Denken.
Digital@@
rein.
schreibt,
rest@@
ernähren,
Arter@@
quem
fantastisch,
isches,
Zudem
beten
giftigen
Wald,
ronen
scheinen.
üre
Israel,
verspro@@
furchtbaren
verwü@@
erschienen
herrschaft
fuhren,
Chemik@@
Nancy
ils
Professor,
barsten
bemerkenswerten
beenden,
verschlechter@@
FG:
zeln
Dilem@@
getr@@
otischen
Mir@@
Darf
neusten
genü@@
begehr@@
Kraft.
sleben
mittlere
kreislauf
erforscht.
haben?"
spazieren
graben.
begriffen,
Solarzelle
Silik@@
mm,
kante
Nebel
wasser.
Erfüllung
verhäl@@
Fundament@@
Neig@@
langfristigen
langfrist@@
alisierung.
Wiederauf@@
grenzen@@
kurve
blieb.
bruch.
gelegte
Variante
Club
neu,
Mund@@
geschaut
veröffentlichen,
oft.
lager
bett
Witz.
schlo@@
din
Mädchen@@
malen,
geprü@@
offiziell
Erklär@@
Platz@@
Schiffe
schaut.
holt.
seite,
verstan@@
Organisation.
tags
weitermachen
tri@@
dige,
beständig
Sprachen,
Materialien.
links.
Wide
Klasse.
beschul@@
liz@@
cks,
web@@
Monster
ok?
Server
Teufel@@
wenn,
grauen@@
Instin@@
Formen,
tut@@
Kunstwerke
Möbel
kostete
facht
chent@@
langweilig.
kriegt
Juwel@@
verlangen,
stadt.
Süda@@
Umfragen
schießen.
sein?"
kung@@
getäusch@@
erho@@
versagen
Beweis@@
umher
klappt
Lange
Beweis,
Pati@@
Vermitt@@
materielle
Wachstum@@
beruht
"So
aus."
Reflex@@
Bildes
dynamischen
dringen.
Atmo@@
Berlin
parallel
bezahlte
Fund@@
Galerie
Unglücklicherweise
Para@@
Jackson
nutzte
wählte
gefährdete
Grab
Tam@@
id,
Kennt@@
kunde
Physik.
vorkommen.
untersuch@@
urbane
gereist
Expansion
nissen.
stehlen
igung.
zwin@@
zukommen
Personal@@
vermu@@
zusam@@
sprüche
traf.
hab's
uralten
wenden.
för@@
Rechenleistung
Paradigma
reis
krise,
or-@@
20%
länger,
technologie,
Technologien.
anfängt
nö@@
Nebenwir@@
leblo@@
schrittweise
ene,
verblei@@
nützlich.
Mutationen
90%
unsterb@@
stehe,
gedei@@
entfal@@
iefer@@
fliegende
Insekten,
äng@@
schmil@@
aufstehen
fünfte
Pilot@@
zimmer.
regier@@
kulturell
ungefähr@@
humanitäre
Phasen
Synthese
Millimeter
beispi@@
Daran
Jahres.
Ozeanen
fläche,
digkeit,
wechseln,
wies@@
immer:
TE@@
Beispielsweise
me-@@
Werde
Reihen@@
dieren,
daneben
Yves
Jazz
habe@@
anlagen
nat@@
ads
hle@@
import@@
derung
Reifen
Krat@@
schmutz@@
kredit@@
gesellschaften
milit@@
Indikat@@
gemeinsam.
gebrann@@
Zuhause,
Stadi@@
wohnen
Gerechtigkeit.
umsonst
Mäch@@
enthüllt
zent
lung,
Prax@@
tisches
modern@@
eisen
Portrait
angebracht
umsetzen
Iran,
hilflos
bildet.
ala
150.000
Ron
haftigkeit
unabhäng@@
versichern,
zuhören.
val
Londoner
Lewis
bruch@@
Vermächtnis
Zin@@
telefon@@
Freizeit
ole
bedienen
Schwester,
ginge
verstehe,
Eis,
Vergewaltig@@
ai
Du,
seid,
Bälle
Applik@@
Plu@@
Morgen.
Zweite
malte
fasziniert,
OK
Meetings
Kennen
daran@@
Raums
länger.
aufgeregt.
auftauchen.
ausgeklü@@
weitreich@@
ärzte
Westen.
wurzel@@
danke,
angeneh@@
heirat@@
treffe
lege,
nötig,
e!
ktur
Hausauf@@
reicht,
Spit@@
Minut@@
Press@@
genießen,
zerstört,
Banker
quote
ment-@@
Verge@@
ütz@@
ika,
pass
kontra@@
Histor@@
quer@@
endung
sieren
Glücks
meint,
bewirkt
Halten
notwendig.
verbindungen
drehten
yo@@
Arten@@
voran
Fotografen
Bewusstsein@@
Verantwortung.
rebell@@
Befreiung
wirkungs@@
gestiegen.
dus
Spenden@@
Anstrengung
übernehmen,
behand@@
Beste@@
Julia
Stern@@
skop
Jerusalem
Zeilen
Nordpol
bären
enz-@@
Bruder,
Bergsteiger
ga
krabbel@@
Navig@@
als@@
Physi@@
Scot@@
fordere
Wandel,
Weil,
Phänomene
artigkeit
gefre@@
arabische
werf@@
wäre?
Zwie@@
Ahn@@
ere@@
mam@@
begreifen.
unbesch@@
Farbe.
stattung
Hormone
Z
Kleider
Zuhören
ablehn@@
Kontrolle,
ethische
Kriterien
Jefferson
Vorgehens@@
52
Geschichte:
Akteure
Tiefen
Medit@@
besonder@@
jüdischen
Parasit@@
passieren?
immerhin
richtig@@
spannend
farben@@
Luxus
berau@@
8.000
Läden
Schlü@@
re-@@
langem
betät@@
einheit
Full@@
P.
wirklich?
Ansätze
gespielt.
veranker@@
ola
offener
Landwirtschaft,
erhöhte
profitieren.
Reduktion
Vergleichen
renn@@
befäh@@
Perspektiven
Einblicke
diplomat@@
bahnbrechende
Parkin@@
chtes
Rent@@
Behandl@@
volu@@
ücken,
Umar@@
Nachthimmel
Barack
ag.
elle.
ation"
kod@@
externe
überschrit@@
Zet@@
Börse
ischer,
Grundschule
Hoffnungs@@
Kilogramm
Indianer
berücksichtigt
dutzende
verschlei@@
yp
Transa@@
phen
Schäd@@
Aktion@@
Osten.
gegebenen
wie.
unterschied
schwach@@
Moleküle,
stet@@
Meeresspiegel@@
steigenden
è@@
Lungen
Einsichten
Psychologe
spha@@
kit@@
Vene@@
"Haben
Derek,
informiert
abziel@@
Chinesisch
Ausge@@
1900
Angelegen@@
kriegen,
saf@@
bestär@@
trug.
Diss@@
Pilz
Wert.
baue
fertigen
Gary
Galerien
Garten.
Joel
Mammut@@
hetero@@
überqueren
Meil@@
ziele
Weltmeister@@
Raketen
.:
Mathemat@@
Sam
Söhne
ister
Einschränkung
erneuerbaren
Än@@
Zielen
chinesisches
Deta@@
Körpers.
Neuseel@@
Veget@@
ook
Celsius
Schwefelwasserstoff
Anästhe@@
Sauerstoff.
sab@@
Bösen
"Nicht
reagiert.
Lust
Kreatur
bestimmter
Verfass@@
wale
Jor@@
Science-F@@
Verwandten
historisch
Korrekt@@
Großbritann@@
Elefan@@
geliebten
Darm
Pie@@
Atmen
schuhe
Koralle
L:
hatte:
quantit@@
sicheres
Einerseits
Bürokr@@
sauber@@
Abraham
Pizza
übersehen
zahlreichen
Knor@@
Fischerei
TED-Vortrag
Marken
Leg@@
Rauschen
Nadeln
Kreditkar@@
künft@@
Spinnen
Abholzung
Riesenha@@
"Gay
Wandertau@@
Higgs-Bo@@
neuen,
fossile
Slo@@
kurzfrist@@
Entscheidungen.
aktuell
ktu@@
verantwortlich.
allerlei
lokaler
erinner@@
Wurzel
eingenommen
Lösungen,
Regulierung
materiellen
überdenken.
angesprochen
Teils
blüh@@
innovativen
hilfe@@
ilis@@
dringen,
auszuprobieren.
ek
sperson@@
zyklus
abel
derzeitige
hergestellt,
Marketing@@
Hing@@
sorient@@
jemandes
Glaubens@@
Mitgliedern
redeten
Elizabeth
Sorgen,
verlass@@
gute,
Hochzeit
Codes
Monate.
gelder
II
dete@@
Tiefsee
Gesamtheit
Parasiten
künstliches
abgeschlossen
Warnung
ückt
Broad@@
doppel@@
packt
erzielen
damit?
Schie@@
einfachen,
tippen
werden@@
1997
Pix@@
bringen@@
Ech@@
Wand.
Fan@@
hinzufügen
Fettleib@@
asiatischen
Goo@@
Wäldern
h!
illa@@
Zweig
flexibel
Hunder@@
frühere
wüten@@
Jugendliche
wachstum
Gedächtnis@@
Reparatur@@
zess@@
elimin@@
Chemotherapie
Hypothesen
angen@@
Angiogenese
Artikel,
berichtete
Streich@@
Wirklich?
Servic@@
bewusster
Hall
wunderschön@@
antreibt.
ierst
L.A.
Ausdruck@@
angeboten
vin
ellose
verarbeiten,
greifend
!",
Salz
regi@@
Bege@@
igkeiten.
ordnen
empfinden,
Dopamin
drückt.
aufweisen.
Schaltkreise
cher.
Protein@@
geeig@@
Keram@@
starren
blen
bräu@@
blat@@
Spinne
gift@@
Fahrzeug@@
Trick,
hörten,
spezifisch
effekt
wände
springen,
Konferenzen
ssel@@
zö@@
dünn
anbieten
lasen
atsch
kenne.
reichte
Ihnen:
!“
durfte.
Jungfrau@@
bild.
geladen.
ness@@
Lektion,
begangen
Septem@@
mutigen
musikalischen
alien,
ool@@
studi@@
individuell
hyper@@
alien.
är.
zesse
Dich
kannst.
flasche
Formen.
instin@@
Denken,
befreit
sage.
tanzen.
fließen.
laufe
Animationen
Biop@@
zeigte.
Rä@@
köpf@@
Model
Freude.
Patent
luft@@
ila
.000-@@
offizielle
blasen
ste:
zwei:
Album
Bemerkenswer@@
Ökonomie
Chicag@@
lebte.
Akademiker
müsste,
betrug
Schieß@@
Todesstrafe
ritu@@
Anwalt
schrän@@
Ökonom
unglücklich
Schätzungen
unmöglich@@
lautet,
450
furchtbar
Pferde@@
erwähnen
Außenwelt
vin@@
Städte.
kontinuier@@
Kopenhagen
Beziehung,
River
Fehlen
verwandelte
fläche.
bricht,
begrei@@
feststellen
Brasilien.
tte
töd@@
Ansatz.
ari
Play@@
1994
einer.
höf@@
beeindruckt
fünften
Studie.
folge,
vorhanden.
ermittel@@
Fakten.
"Nein"
etwa,
überlassen
erb@@
Gandhi
Limon@@
tender
Seiten@@
ausführ@@
Commun@@
Spektrums
Rechten
IR@@
stimmen.
gewählt.
Verschwör@@
abschließ@@
erledigen.
sonderlich
theoretisch
erfolgreich,
ellosen
Modellen
Gesetz.
Kollaps
geme@@
verstehen?
zivilis@@
Krankheiten.
Alters
jün@@
Nennen
vorherzu@@
Main@@
stream
weitergegeben
Hallo.
typischerweise
üpp@@
Strom,
Diszipl@@
bitten.
Größenordn@@
ständig,
manu@@
elektron@@
gestohlen
Null.
Kritik
iga@@
Partikel
Veränderungen,
kommende
vernetzten
Einst@@
ungewöhnlichen
sprozess
Erlebnis.
giganti@@
here
tive
schieben.
Viol@@
brill@@
vibr@@
box
wunderschön.
dankbar,
kennenzu@@
hochauf@@
stock@@
Zunahme
gesetze
reichlich
weist.
beinhalten
gam@@
unab@@
meldet
7.@@
Verschwendung
pers@@
Saudi
sträger
betreffen
chester
dafür?
Berufe
Dächer
standen,
Netzwerk,
Architektur@@
mobilen
beteiligen
bün@@
dehn@@
prozentige
iga
ungsproble@@
Umgeb@@
fabrik
knü@@
mal:
Indian@@
Rock
Tür,
blinden
star
Dollars
Öffent@@
erkannt.
bare,
steuer@@
Map@@
finden:
grund
unbeabsicht@@
vir@@
sauberes
Bitte,
Nobelprei@@
chmal,
uren@@
Brad
Genie
isses
gesetzte
wird:
Plattformen
Spiele@@
Great
gla@@
alitä@@
geschlagen.
Nom@@
aden,
Ritual
eröffnen
interaktiven
Geläch@@
rr@@
finden."
Kün@@
wärts
Gegend,
mochten
visu@@
erfolgreichsten
Prinzipien,
Stol@@
ge."
Münze
auseinander.
Angenommen,
Kürzlich
Relation
Korrel@@
Spiele,
spiele,
Religion.
es"
geheim@@
mische
erfolgreich@@
Einla@@
Geschäf@@
und.
mächtigste
verbringe
ulich
zuzuhören.
Zeitungs@@
artikel
Minu@@
ächtigen
erneuer@@
Zusammenarbeit,
Erzähler:
brillante
sonnen@@
drittes
vorbereitet.
DI@@
Beste,
einerseits
kandi@@
reform@@
Matrix
hinteren
unerwar@@
Zwei-@@
benann@@
wandern.
maßen,
speich@@
steigende
Spitzen
schrau@@
gespeichert
kunst@@
modifiz@@
ter"
säch@@
gü@@
wirtschaftliches
Vernetzung
Econom@@
saß,
lehrte
Wind,
Pac@@
geworfen.
zenden@@
militärischen
gewer@@
verbrann@@
Som@@
Nachbar
aufer@@
glich.
ungleich@@
Täter
Seu@@
Angesichts
Russland,
wertige
Erleichter@@
aufgewachsen,
wundervoll
stimmte
Fund
getötet,
kes
kommst
Bret@@
te?"
SM@@
Landung
Südpol
Ernte
Länder@@
„Wie
fordern,
klugen
Lebenser@@
nutzen?
Schran@@
verlä@@
ten"
anhalten@@
ausger@@
Stämmen
R.
Schlau@@
Nick
Roger
berechnet
Original@@
annt
Ate@@
unend@@
ston
klim@@
bindung
3:
Tü@@
phil@@
Jahres,
mitfühl@@
religiös
deu@@
Ähnlich
süß@@
alist
anthrop@@
zufrieden@@
gekenn@@
viet@@
ausserhalb
markieren
Urban@@
Woo@@
Installation
elle@@
Fällen,
stab
repräsentieren
Satell@@
Fisch,
Diktat@@
sektor
gewünsch@@
Heiz@@
Berkeley
züchten
brechen@@
menschlichem
Stap@@
Anwendungs@@
erstaunlicher
Ur-@@
Krankenhaus,
chts@@
betreten
Sonde
selbständig
.000@@
verspreche
Stadium
Reaktor
Europäische
kann."
häufigste
rekrut@@
medizinischer
Größen@@
unterschiedlich.
eingeladen,
Kämpfe
bau,
mitteilen,
schmerzen
vertraut.
Glühbirnen
is-@@
Holocau@@
Brett
kritisch
Priorität
Gipf@@
wagen.
Bar
manö@@
klingt,
Versuchung
chene
gram@@
Bezieh@@
asche
Bestechung
ypen
Bedroh@@
stift@@
T-S@@
Fei@@
irak@@
unden
‟
teilhaben
einher@@
achtet
schnitten
Jungen.
Standard-@@
Gruppen.
jagt
Flügel@@
konsumieren
onale
Neuigkeiten.
E,
reicht.
lügen
Zau@@
passende
Ziff@@
glüh@@
beschützen
digitaler
Kopien
Platte
aal.
Hosent@@
art.
ändern?
Erwachsenen@@
amil@@
rie.
Gemeinsamkeiten
möglichkeiten.
Okt@@
nannte,
forschung,
Verbesser@@
jun@@
blog@@
Ras@@
Beute
Hef@@
simple
adopt@@
zern@@
lev@@
Blut,
Mig@@
Stadtplan@@
Panzer
zeiten.
förmigen
tab@@
Entschuldigung.
Team.
Barrieren
Brooklyn
but
hag@@
achtung
Griechenland
Christopher
rumpf@@
Mikrofon
berechnen,
Unterdrückung
dat
sugger@@
chron@@
Helium
Myzel
zucht
Obst
Problem?
wn
Säulen
Automat@@
ikat@@
Selbst.
Mysterium
süd@@
herausfinden.
ausschlaggeb@@
landen,
Clou@@
Y-@@
Sahara
sphär@@
schnapp@@
Abgeord@@
go,
chtung
kus@@
Alex@@
Leder
Diagramme
wissenschaftliches
Fi@@
Erleb@@
Medikament,
Mexiko,
Interviewer:
minister,
Reichen
stärke
Philanthropie
Chor
Müll.
rüst@@
Streit@@
eim@@
Oxyto@@
pigment@@
Zähn@@
Durchfall
Beijing
Halluzinationen
Baseball
Health
Schifffahrt
Mammographie
AO:
Phtal@@
HG:
agent@@
nachrichten
ausmachen,
Diejenigen
ankommt.
CO2-Emissionen
lim@@
präsentieren
Empfehl@@
Republikan@@
Brand@@
Umweltsch@@
anzuschauen.
studenten
Studenten.
Tap@@
gesundhei@@
betroffen.
ungeheure
materialien
pä@@
leidenschaftlichen
Arbeitspl@@
hilfe.
Baumwolle
Behauptung
hab'
zwöl@@
versucht.
Innovations@@
Entschuldigung,
Wachstum.
Aussicht
Liste.
Aussterben
kommer@@
line
Lampe
hinweg@@
vielfältigen
sexy
wettbewer@@
Ernst@@
und-@@
Canyon
überwältigt
len.
Derzeit
Aminos@@
ll
einsetz@@
zielles
Chromosom@@
Institu@@
Herzlichen
Montag
einsam
Times,
zu?
CD
technischer
Vas@@
Wahlmöglichkeiten
Knop@@
Uhr.
Telefon,
idealen
fügte
stieg.
riss
Louis
gebr@@
diskutieren
jagen
traurig,
Waffen,
sterin@@
winz@@
passiv
Ergeb@@
zellen.
Ausgangspunkt
schienen
Meta@@
ausbrei@@
tödlich
war's
spezialisiert
Tumor@@
außerdem,
strecken
funktions@@
gehol@@
scheinen,
vorüber@@
schwarz@@
Si@@
Däch@@
Stuhl@@
beauf@@
Teppich
geschle@@
Warten
Möglich@@
erwider@@
Aufmerksam@@
sexu@@
Zustände
förderung
Partnern
fahre
Östro@@
Denker
fokussieren
isch?
Ehen
schreckliches
ausgelö@@
gestellten
bewegten
op-@@
fertig,
Schalter
Gluko@@
zelle,
olla@@
stechnolog@@
Francisco.
Sumpf@@
Kelly
Technik@@
geleitet.
Kek@@
Morgen,
Evolution,
auto
Neu-@@
Unterschiede.
Gleiche.
Beschaff@@
Rag@@
gefäll@@
meinte:
Jack@@
Breite
sank
anbieten,
Kaffee,
Englisch.
96
Maria
Käse@@
Skepti@@
Behauptungen
überlassen.
900
fäch@@
ma:
jedem,
ungsver@@
.org
technologischer
V
Online
kopieren
as-@@
d.h.
Verschiebung
Amazon
bloßen
beitragen,
kontrolle
zip
Hör
ieten
Fire@@
Engineering
schru@@
steuert
Fortschritt.
entle@@
dru@@
lamp@@
ics
tag.
Medikamente.
Zeitschriften
übrigen
strategie
ne-@@
Diejenigen,
tauchte
sien
stadt@@
interne
Bezahlung
streb@@
aufwuch@@
logische
Zwangs@@
erhöh@@
nicht?"
Heilmittel
möglichkeit
e?"
eingebaut
Einheit,
Einschrän@@
konfrontiert.
Architektur,
Zusammenhänge
zeug@@
Kräften
Falten
Klarheit
Hülle
Skiz@@
zer.
Naz@@
Intensität
bus@@
gabe.
Aufwand
uralte
ief
Betrachter
überprüfen
46
Affen@@
Gebiet.
Seattle
Lawrence
giges
Höchst@@
wohingegen
geschehen?
zurückgehen.
schließe
Billion
Unterstützung,
mäßigen
Kontrast
Vordergrund
händ@@
verkab@@
Eigenschaften.
Jar@@
rückgängig
Bereiche,
stimmen,
langleb@@
getaucht
geantwor@@
lenken.
fortgeschrit@@
Wachstum,
Aktu@@
Feuer,
Vaku@@
Vakuum
chaoti@@
unvorherseh@@
Verbraucher@@
molekü@@
psycho@@
übersetzen.
eingebettet
Schrau@@
Bereichen,
"Warum@@
verda@@
Lebenserwart@@
logisch,
habe?
digungen
Sele@@
Grundsätzlich
Asien,
Lernens
latein@@
Displa@@
funktionierende
Perspektive.
wissenschaf@@
Typen.
Atomen
schild
Unten
Ungl@@
allge@@
Karikatur
alisiert.
entfernte
Notwen@@
Briten
59
Einfluss.
Eingriff@@
Eingriff
U-Bahn@@
verschiedensten
beispiel@@
denken@@
ger-@@
ungssystem,
Mitarbeiter,
Griff@@
Einzig@@
Jennifer
Natür@@
Wow,
blauer
lösen@@
ktische
ations-@@
ströme
Teilchen@@
Nämlich
erkann@@
Glücks@@
unwahrscheinlich
schrieb.
Sowohl
zunehmende
kels
export@@
moe@@
Bun@@
Programm.
internen
Brem@@
km/h
Windenergie
weswegen
gesetzten
sorg@@
Gelän@@
jeglicher
Chance.
errichten
verwandt
Montana
vate
Für@@
mobile
Ernährungs@@
aufzubauen
Gesundheitspfle@@
h"
übernimmt
entworfen.
sprung
World@@
mitteilen
urt
das@@
gefall@@
15.000
rik,
Reihen
Gärten
erlebt,
widmen.
Pass
Arzt.
1970
Fuss@@
Depression,
wa
verste@@
Barmherzigkeit
nervös.
Überzeugung,
enttäuscht
höre,
Schritt.
Choler@@
Mörder
griffe
Verwirr@@
Rom
auffor@@
strä@@
angehen,
iens.
hör
gebaute
tradition@@
Ansicht,
bereich@@
bedien@@
Vagina-@@
"Man
College-@@
Geschlecht,
erinnen
gewöhnliches
käme
nes,
ya,
bedient
.”
mend
Unmengen
Mahlzeit
stört
million@@
bester
acht,
Well@@
unschuldig
½
Faktoren,
Ideal@@
glich,
Griechen
super
Biotechnologie
Rückkoppl@@
öhnen
heit:
Identität.
Bewertungen
Wendepunkt
sick@@
indu@@
gestartet.
anst@@
verlorene
Industriel@@
innovativ
fabel@@
Mix@@
kunden
leitete
schuldige
Wichtigste,
Fakultät
dick
pie@@
blase
wahrhaft
verdrah@@
äusch@@
Heben
gemal@@
verhältnis
bien
Mikroskop@@
erforscht,
ope
Repar@@
Lateinamer@@
Zeuge
port@@
ümmer@@
ber-@@
Mala@@
perfektion@@
ermöglichte
Konto
Bist
Browser
Toiletten@@
Vermö@@
studiert.
buchstab@@
elten
anzug
Tagebu@@
gering
Nullen
Grenzen,
arktischen
Herangehens@@
Ski@@
versorgung,
Einsatz@@
Bananen
Familien.
wendet
Krieg@@
Weltbevölker@@
Arabischen
bank.
Staat,
du.
rennt
Moti@@
hart,
nötig.
seg@@
Teilnehmern
signifikan@@
chtet,
Besonderes
Insekt
ndes
Geru@@
begegn@@
standes
omie
physi@@
Subje@@
Central
Sun@@
kalt.
aufgebaut,
.'
Musikstück
interpretieren
Ty@@
verschieden.
zuhören
verwor@@
schlechtesten
Demut
zonen
ausch
.com,
verstop@@
Satz,
Seifen@@
schütteln
weis,
aufzur@@
lief.
Akteur
Inner@@
ssenheit
vertreten
überhaupt,
pflanzt
Fluss,
SB:
Verbindungen.
"Sind
M.
teilnehmen.
orientiert
zuge@@
besuchte,
"Kann
ausgestattet
verlock@@
Millenn@@
Fernbedien@@
ien-@@
Berechn@@
Stachel@@
stadium
schickt
fassten
dauert,
Gewohnheiten
Grönland
Kohlenstoff-@@
eingesperrt
Korri@@
Controll@@
187@@
Nachbarn,
erzäh@@
Entfernungen
Vertrauen,
mutige
empfindlich
anzuschauen,
Erwachsener
weichen
Morgen@@
Reis
konstruiert
Tut@@
abhängt,
Hochschule
inspirierte
E.@@
ichts@@
half,
runden
gil@@
Spannungen
110
Parlaments@@
separ@@
P-@@
Höhe@@
wahrnehmen,
reflektiert
schläge,
ankommen,
gelt.
resist@@
Fossil@@
winziger
iesen,
aufregend,
Mohammed
me:
sprogram@@
Skan@@
Mitternacht
MM:
Sport.
ton.
stag@@
7.000
Gerät@@
modi@@
Drohn@@
fliegt,
Ausbildung.
Weltraumteles@@
Menschheits@@
Auge,
Kapitän
extrahier@@
motiviert
ktiv,
Lord
erfüllen.
universel@@
gross
Altru@@
rechnung
Myster@@
servier@@
Relativität@@
annehmen.
Recherche
vr@@
RI@@
Cho@@
iger@@
ermunter@@
Kühlschran@@
änn@@
oder@@
weißer
Koch
Replik@@
Szenen
geschul@@
Ration@@
Fan
McC@@
wechsel
jedesmal
assoziiert
rig
Absolventen
Direktor@@
Taxi@@
Ima@@
Schall
bus
daten@@
Parkinson
trennen.
Stringtheorie
Begegnung
Übereinstimmung
kleiner,
ernten
vö@@
Lebensräume
platzieren
Meeresboden
zweifellos
zertifiz@@
konvention@@
Blin@@
geheirat@@
split@@
Zone
trank
imet@@
Kühlschrank
tagen
Mythen
erheben
watt
Algorithmen,
Meeresschutz@@
Detektor
tifik@@
melden
st?"
nähern
Unterrichts@@
ahme
autor@@
islam@@
gespräch
Premier@@
text
Blutzu@@
aufgeben
Rollen@@
vorbereit@@
G:
mexikan@@
schule.
Hefe
lande
Skate@@
Tesla@@
studie
besitzer
Diplomatie
Knochenmar@@
Ivan
autorit@@
Schlangen
Fernsehsen@@
ffizi@@
tap@@
Ross@@
Wh@@
verschlüssel@@
en.«
Schleim
Norden-Bombenziel@@
RL:
Goliath
‒
NSA
Kauf
ohnehin
Muschel@@
klagen
gegenwär@@
äden
Bemüh@@
Bag@@
versie@@
region@@
verwand@@
stabil@@
gefällt.
fällen.
Bauern,
kapital@@
Zehntausende
imstande
Zivilgesellschaft
einig
ielles
Rote
ktisch
86
engagieren
dit
entspricht,
Gelder
kreativ@@
Netz.
flüge
stes?
Milliard@@
Sputnik
höheres
auszudrücken,
Handwerk@@
kunst
Ton,
Wille
cool,
klar?
Zentrum,
kenntnis
wow,
team
Las
Nachforschungen
Dame,
richtete
"Mach
halter
Mist
still.
hübsche
Konze@@
Zusammenfass@@
füg@@
Spezies.
bild,
längen
ungemein
grünes
Ultra@@
erkunden.
baum
billig.
wahl@@
passiert:
planen,
Geset@@
hofft
mm.
gefällt,
jährliche
Listen
2000.
Adresse
nebenbei,
deuten,
Makro@@
Bedingungen,
dafür@@
Achten
Lebensweise
Häupt@@
Tansania
schirm
Orang-@@
merkte
1991
zusehen,
Regime
slag@@
Australien.
Boy@@
verminder@@
resistent
schäd@@
lungs@@
Ketten@@
wüsste,
gewisses
Zero
y?
September,
studen@@
zusammenarbeiten.
Mittag
anden.
England.
beiseite
neuron@@
reiz@@
n;
sspezif@@
Idio@@
fähig.
Ehrlich
Seroton@@
Shakespeare
Nachah@@
wirbel@@
alisier@@
Corn@@
ologisch
pur@@
zelle.
Wal
Erheb@@
trinkt
Monterey
Perioden@@
Impfstoffe
elang
steigern.
ik?
Van@@
Redn@@
Honig
Sexual@@
solar@@
allgegenwärtig
Globus
Diver@@
Materie.
sität
Komplexität.
auto@@
Einkaufs@@
aufgeben.
günstiger
erei.
Spaghetti-Sau@@
Worauf
se."
scharf
öl
Genau@@
Werbung,
passend
abilität
bewerten,
125
Grafiken
kna@@
Oreg@@
Sammeln
Kuba
erwähnten
seu@@
IQ
durchqu@@
Begriffe
Datensatz
Astronauten
rinde
Effekt.
„Wir
Aktivist
privileg@@
urn@@
Jenn@@
Abu
Digit@@
Imperi@@
schulen
Projekten,
Kasten
einladen,
Kreuzung
fel,
anstellen.
lob@@
ish
meren
Wirklichkeit,
instinktiv
Max@@
Oberflächen@@
Zucker,
"Auf
irdi@@
Mittage@@
Elefant@@
langwei@@
schaltet
notwendigerweise
Apothe@@
Ich,
unsichtbar.
anisches
zehnmal
gefallen,
gefahren,
genossen
Haut.
haus,
"Hey
stahl
analysieren,
igram@@
Sterblichkeit
Mör@@
änderten
habe."
Konzept.
Millionen-@@
gesteckt
Hebel
abstrakten
olle
erkun@@
Bestät@@
dt
Darbie@@
Elemente,
standen.
systems,
einhei@@
offenes
unterbro@@
Unterschieden
ckel
Draht
herzu@@
folgten
geraden
schoss
wn@@
stick@@
Perspektive,
gefangen.
arbeitung
Val@@
hinterlassen,
Original
gleicher
geben:
gespro@@
Himala@@
Geduld
verhaftet
Integration
verursachte
klässler
unerwarteten
DNA.
deter
ure@@
amo@@
gesetz
unvoll@@
herkömmlichen
th
Mumbai
Elektrizität,
Situ@@
‚@@
igeren
begrenzt.
chtig@@
primit@@
pumpen
aktiv.
fertige
radikalen
Wik@@
gemeinnützigen
Beziehung.
Kontro@@
Mail@@
löschen
jüdische
stimmung
zeitliche
Wechselwir@@
iens,
hervorzu@@
Schaltkreis
prognostiz@@
Volumen
Insulin
Roboter-@@
Szenari@@
ffenen
rap@@
gemein
pro-@@
Stoffwechsel
Todes
Prote@@
Unsterb@@
foto@@
äumen.
Hawaii
Regenwäl@@
laufende
Tierwelt
oll
vorder@@
echt.
Darwins
nukleare
Fleck
vereint
erwähnt.
erhäl@@
versetzen,
inspiriert,
Erscheinung
spuren
Kontinente
erschien@@
Hen@@
Regal
Setzen
iten@@
Nein
Unterhaltung,
ftiges
dramatischen
quelle,
kosm@@
schätzung
Synchron@@
fügt.
Won@@
herunterzu@@
Oel@@
ueber@@
etik@@
billigen
etzung
Mobil@@
rotten
orten
Insgesamt
Arabien
urbanen
größerer
Vietnam
Bezirk
händler
errichtet
finanzieren,
Internets,
haus.
Wärme@@
verhältnisse
Bewusstseins@@
entrum
Südafrika,
arbeit,
Augu@@
Shan@@
Wolkenkrat@@
Krise.
biegen
spü@@
wahrsten
Bangladesch
Hintergrund.
Mittag@@
verweiger@@
herstellt,
einfacher.
Schiffen
Bewegungen,
out@@
Zweifel,
unfass@@
David,
wurde:
ror@@
O.
Nationen.
danken.
Produzenten
Live
Bart@@
Wohltätigkeit
Geschichts@@
Disziplinen
Auswahlmöglichkeiten
Traum@@
vorauszu@@
geschmol@@
überlegt,
packte
Bewusstsein.
erschwinglich
Rosl@@
ford
tens
"C@@
Reicht@@
trennen,
Laboren
überwiegend
unwahrscheinlich,
tauchten
Profil@@
Nullsummen@@
durchlaufen
nehme,
ander
Prinzip,
Terroran@@
Eure
Morgens
Wozu
Micha@@
Ruhm
en?“
Bildschirm.
Erachtens
mehrmals
Willens@@
Botschaf@@
Nei@@
Brig@@
NI@@
potenti@@
künstlerischen
etc.,
Ass@@
rechtfertig@@
dargestellt,
Vereinbarung
mechanismus
Gelb
Annäher@@
brun@@
verbreitet,
of@@
Kälte
Lä@@
angel@@
Gramm
beziehen,
archie
bevölkerung
Kampf,
Vieh
Hunderttausende
Völkermor@@
stuhl
Ethn@@
hart@@
bedürf@@
esischen
sprä@@
richtiges
1993
Schwanger@@
"Also,
nur?
Nordpol@@
Rekord
Steuerung
trocken@@
Frankrei@@
warfen
wirtschaft,
wirtschaf@@
Mittelschicht
zor@@
Aur@@
Kindersterb@@
absoluter
Tier.
Wut,
besonderer
Ek@@
metaphor@@
Gegenteil,
cks@@
Intelle@@
fühle.
fähr@@
alles?
wechsl@@
sam.
Flei@@
ende.
entführt
Gil@@
Vorfahren,
Cortex
dels
Zukunft@@
Ausnahmen
Vorlesungen
.",
Erhö@@
Geistes
Wissenschaften
ungslos
blau,
Sinnes@@
auszudrücken.
Beschränkungen
Schmerz,
onen@@
Flecken
person
Medical
Neuron
Stick@@
emotionales
Weltfrie@@
dle
Gemeinsam
sen?
Konzept@@
seitige
Fort
Auftrit@@
ner.
Chi@@
gewidmet
Abschied
Ägypter
Feind@@
Assozi@@
geheim
Früchte
aufgefallen,
Infektion
transportiert
Vorteil.
ond
Fußgänger
ats
gestaltet,
Monit@@
Kabel@@
luft
Intel
verliebte
menten.
extrem@@
netter
Thunfisch@@
schwär@@
inseln
manifest@@
Immobilien@@
zählt,
Fid@@
urr@@
zeichen.
entnehmen
Präzision
erreichten
CD-@@
Eingang
filmen
LA@@
osphäre
Furcht
Körpersprache
akten
übermittel@@
bildungen
soeben
beschleunigen
Expor@@
sinken
jährlichen
Wüste.
Schäden
Nahrungss@@
unterscheiden,
Berater
Med@@
64
Magie.
Freitag
Boots@@
angeschlossen
akte
Journal
O'@@
gänger
Selbstvertrauen
es-@@
gelehrt,
ungsein@@
Hilf@@
Schin@@
köst@@
Bücher.
hellen
Höhe,
Neuronen.
konferenz
Loch.
schwieriger.
orium
"Weil
Minister
museum
verbringt
bat,
detailliert
Sommer,
Weis@@
Space
Fic@@
ummel@@
wissen?
Älteren
entdeckten,
Erwer@@
Video.
pf
Vorur@@
1980ern
größter
Schlussendlich
möch@@
gerne.
Boote
zeit-@@
ckchen
ktiver
Gyrus
Tiger
du?"
Synästhe@@
Abwesenheit
ao
einnehmen
längste
Dou@@
verfügbare
Chirurgie
zurückkehren,
neter
Dosen
Jog@@
rechnen.
aufgestellt
Teilchen,
Zivilisation,
Linien,
Ring
mathematisches
Bam@@
off@@
kende
Venus
Schock
Entdeckung,
dant
orientierte
Trium@@
kollektives
Zentr@@
Arznei@@
nuklearen
SJ:
unterwegs.
Rückenmar@@
oren@@
Gesichtern
its
Davi@@
inst@@
meter.
Auslöser
willkürlich
bemerkt.
kapaz@@
beschrieben.
Provinz
Leistung.
kräften
bedenkt,
Verhaltens
gler
U-Boo@@
gebe,
Apparat
Parallel@@
eintausend
jur@@
Drittens,
lan
Bomben@@
ernsten
Leopar@@
Seele@@
Buckel@@
gestür@@
untersucht.
zöger@@
Lernen.
BL:
brach.
vorhersagen,
gelehr@@
itis
Glet@@
Hitze@@
Anforderungen
systemat@@
Urlaub@@
Seil@@
bemerkten
standardis@@
Contain@@
Paradies
nen?
ium-@@
attraktiv
Blüten@@
ungsvermögen
meer
twit@@
Comedi@@
Sklaven
Quad@@
Aufklärung
frage.
Weltwirtschaft
Mücken
Laden@@
israel@@
suspend@@
Kiribati
"Jeopardy@@
I-@@
Vize@@
frische
mit:
Jay
Restaurant,
Kritik@@
Aussagen
Suchen
massen@@
unvermei@@
tatsächlich.
Partei@@
sprobleme
Brennstoff
verfüt@@
sts
landwirtschaftliche
perfektes
Nicht-Nullsummen@@
selten,
Tyran@@
Konsens
industrie.
rechte,
ungssysteme
Ernst,
worfen
Russen
Chancen,
behaupten
sorgte
erstens,
Zoll@@
Rut@@
Inzwischen
ausprobiert
gebildet.
seln
ausreich@@
Spaß@@
Rel@@
sti@@
gesellschaft,
BM@@
Super-@@
eilchen
Handgelenk
nummer@@
Ingenieure,
mentalen
innerlich
Frustration
Soweit
Optim@@
ausgehend
Waa@@
reisten
einhundert
ordnen,
Basen@@
bewerten.
zerbro@@
Erdöl
Abbau
Biologie,
Ethanol
beteiligt.
Time@@
angerufen
äus@@
winzig@@
bekl@@
klappen
heran
auswählen,
Japan.
tin@@
geglaubt,
eil,
Details,
gewicht@@
Herzkrankheiten
aufhalten
anbieten.
könig@@
kämpft
Auslands@@
uh,
Geschwi@@
ergab
Kindergarten
anhören
drittens,
Geist.
Island,
Großvat@@
Zon@@
Fruchtfliegen
Rückenmark
nahel@@
potentielle
entsprechenden
korrel@@
Resist@@
Chemie@@
Becher
Santa
Eisen
abteilung
acht.
ves
gestanden
jam@@
könne.
fokussiert
intensive
Gedich@@
entstand,
doppelte
Tochter.
Optionen
kehr
Zugehörigkeit
I,
Selbstmord
unbewusst
gelag@@
gehoben
weiter?
Welt:
Ernst
besitzt.
ketten
stoffen,
herstellt.
Hart@@
Ach,
kilometer
koll@@
decken,
hus@@
Besessenheit
Spiritu@@
plan,
Ursprünge
Überraschung,
nett,
bler
messer
Mozart
dicke
mittelalter@@
witz
Stückchen
Chicago,
öst@@
isst,
streben.
onische
boden.
serkran@@
nervös,
Banjo
"Nein."
liest,
dor
abwei@@
würde:
solltest
kaus@@
Illusionen
keln.
wechselt
ada@@
Stockwerke
darüber@@
änger@@
Lichtjahre
verraten
Referenz@@
begraben
Nord-@@
mental
Resonanz
gelebt.
deckt.
beibringen.
Irak,
buch.
geometrische
potenzi@@
Folgen@@
Anleitung
verlin@@
.com.
cr@@
spirituelle
ausgeh@@
mität
hindurch.
chens
integriert.
vorstellen?
Moderne
Umsatz
Rede@@
Spa@@
ignoriert
Panz@@
Lautsprecher
tisch,
See.
Drogen,
bekamen.
chen:
Folglich
ehrliche
modell.
"Vielleicht
Gärt@@
grat@@
überprüfen,
stärken
Argument@@
kompliziert,
verun@@
umzusetzen,
Place@@
werden;
Prozesse,
gedan@@
organisiert.
Zufall,
zweitgrößte
ema
Angeles,
Francisco,
Vergröß@@
Sinne.
Kilomet@@
Mary@@
einzuneh@@
Gebil@@
iers
architekton@@
Gemeinde.
anten.
Verk@@
schat@@
iste.
Letztlich
sons
Kleinen
Klo@@
sollst
fotografieren.
Invasion
verklei@@
Fußball
soviele
übrig,
ling.
Ach
ängen
Manusk@@
kopiert
Seg@@
gegen,
geschick@@
flor@@
Juli@@
Zelle.
Händler
Versicherung
itäten.
streifen
Kollabor@@
ideale
Druckerpresse
Vorfall
berichtet,
verbundene
tet?
Stiftung,
Entscheid@@
Mission,
Vision@@
potentiell
Hipp@@
Genoms
iert."
Auffass@@
Strecken
ßig
Miniatur@@
antre@@
erfassen,
voran.
dezentr@@
irgendwer
Schlechtes
meisten,
Illustr@@
freundlich
abhängt.
Mars.
er;
boten
hinterließ
verflo@@
übernom@@
einig,
verbindung
durchzuführen,
führung.
Sterne.
hou@@
zusammensch@@
dazwischen.
Konsequenzen.
Einstein,
viereinhalb
Bakterien.
Abgesehen
"Hall@@
Erfahrungen.
ena
zend
Konzert
Charak@@
fühlst
Melodie
Galaxie.
Kolla@@
ps@@
fielen
weitermachen.
ättig@@
folgt,
überwältigende
konkrete
gericht@@
macher
erlich
Innovationen,
vere
mitnehmen.
ral@@
ue@@
basis
keiten.
deln,
beschleunigen.
unmittel@@
gereist,
Dach@@
n"
stätten
Arm,
nachhaltiger
Wende@@
beschäftig@@
Funken
Trainer
Wäsche
unberühr@@
Anzieh@@
Feuer.
mm
äle
ause
Shangha@@
Foto.
Busse
Kommiss@@
Ursach@@
Epidemi@@
Mensch-@@
äume
sess@@
Aufbau@@
Urheber@@
schlimmen
letzen
Tsunam@@
Auslö@@
che?
Enttäusch@@
Defiz@@
wärts,
leitung
Cholera
K.
gestor@@
giftige
Snow@@
genießen.
Prior@@
Gesundheitsversorgung
seltsam,
w"
geren
Quell@@
Kameras,
Schienen
riesig
Streitgespr@@
Verleger
Infektion@@
äfte
bestätigt
Coca-Cola
einführen.
Benutzerober@@
nutzung
sames
eingeladen.
vergeu@@
Universität@@
gigantische
ADH@@
Clar@@
Mord
Gefangenen
Englischen
argumentieren,
eigent@@
Anwesen@@
Verteidig@@
beste@@
hart.
Weltanschau@@
sied@@
doch@@
irre@@
Gegen
Schöpfung
Straßen.
qualität.
rennen,
Yog@@
ärt@@
ökolog@@
erstklass@@
bringen."
tiefer@@
Mitarbeitern
verbann@@
Erhol@@
stest
CH@@
....
UNO
kategor@@
breitet
geleitet,
strategische
goo@@
97
Gattung
zäh@@
traten
harmon@@
äum@@
Feder
expand@@
videos
angenehme
Erlebnisse
Armut@@
Dünger
Verpflicht@@
reger@@
Fast@@
bereits,
Arzneimittel
verwirklichen.
rücken
mitnehmen,
feld.
intensiver
Verschmutz@@
Großzüg@@
vorhandenen
Pro-Kopf-Einkommen
bildet,
systematische
infra@@
hro@@
befin@@
go
"Ach,
"Un@@
Chr.
Gebär@@
"Bitte
Oh.
nackt
"Z@@
st"
Cents
-jähriges
Ski
gefilmt
Sibir@@
Wass@@
berechnet,
beobachtete,
Errungenschaften
assung
verlässt
Familienplan@@
Südamerik@@
zunimm@@
Zustimmung
Magen
Christent@@
gebau@@
Völker@@
problemat@@
aufschluss@@
rig@@
belohnt
Sprecher
Pist@@
verhung@@
schuldig,
Vorles@@
dacht
entz@@
Jill
Key@@
denken?
kuss@@
schwarzer
Hür@@
Stück.
Architekt@@
decke
1984
Zur@@
Umweltschütz@@
Lexik@@
ften,
15-@@
kopf
Meditation
Beine,
gesinn@@
berichte
lett
mächtiges
Konvers@@
tem@@
mächtig.
Minderheit
Träger
]@@
keineswegs
tox@@
Master
vernetzt
Karriere,
jemand?
kter
depressiv
bedauer@@
geistig
objektive
Manifest@@
durchläss@@
probiert
Aufgaben,
schir@@
ient@@
rhyth@@
hierarch@@
Cr@@
Züge
umar@@
ausbreiten
ye
Karriere@@
Erinnerung,
forschung.
Geister
schwimmt
armer
wiegen
zwang@@
LED-@@
einfache,
spartner
einspar@@
komisch,
gebnis
Menge.
verdau@@
ermutigen
cul@@
aufstre@@
bewiesen,
gründe
Lichtgeschwindigkeit
Sensoren,
Umkehr@@
5%
bekämpfung
unsicher
fühlten,
Fingerab@@
erkundet
Meter,
erwachsenen
beschädigt
mans
Ladung
berühren.
Interessant
8-@@
absur@@
produktiv
steckten
Geschehen
fähigkeit,
Gesundheitswesen,
Zuhause.
Flaschen@@
bespro@@
korb
Beamten
Integrität
anzugehen,
"R@@
Unternehmer,
Mama,
Instrument,
Zuletzt
Meg@@
by@@
Neuer@@
Genozi@@
Irak.
gefördert
Web,
folgendermaßen
Fenster,
Freundschaft
Budgets
Depression.
Neil
auslösen
Gedanken.
alarm@@
Antibiotik@@
nukle@@
erwischt
Beschreib@@
präfrontalen
Anfangs
ehle
E-Mail,
Andy
überhaupt.
Agenda@@
to:
Orientierung
verborgene
Gesellschaf@@
prüfen,
verdun@@
winziges
überwach@@
schmelzen
Schwäch@@
posten
dens@@
international
Kondom@@
Image
von,
Text,
mail
Nervenz@@
inta@@
Lähmung
Papp@@
ston@@
Überlegen
bör@@
Eigentü@@
kündigte
rollt
effektiv.
Handta@@
Tatsächlich,
gestellte
räte
gewinnung
Kräfte,
stärkere
regelrecht
testeten
Klau@@
Kletter@@
Industr@@
AA@@
unn@@
quadr@@
arit@@
alltäglich@@
platz.
besitz
braun@@
austral@@
ce-@@
entwarfen
Museums
Geschenk,
Museen
Prinzess@@
eur@@
aufgabe
Netzwerke.
Zusammenarbeit.
keits-@@
Samen@@
Rasen
25.000
sätzen
P,
verpf@@
f:
entlang@@
meiß@@
Eig@@
lehren,
Schöpfer
überprüfen.
selten.
30.
funktionen
vermie@@
spont@@
Grundre@@
Schüler.
arbeiteten.
habt.
Westeu@@
polaris@@
Kilo@@
Kompromiss
Parameter
respon@@
Berichter@@
stammen.
geord@@
Elektron
Higgs-Feld
locken,
autom@@
üsse
ordnet,
Verdau@@
schwi@@
Öko-@@
untersten
tent@@
Schleu@@
Alaska
Cartoon
ernden
Pic@@
Überlebenden
gestie@@
Clay
Austau@@
Selbsthilfe@@
wissen:
son-@@
anzü@@
wütend.
Körpers,
Sohn.
ace
merkwürdige
geliefert
komplettes
Privatleben
Ersten
Auftreten
gebrochenen
Nahrungskette
dieser,
erschwer@@
Zeigen
Entschlo@@
tik.
Uran@@
öffentlich@@
Epidemien
Nin@@
Aufschw@@
Punkte@@
Alltag@@
präsen@@
herausstellte,
arbeiter,
höher.
professioneller
Libanon
analysieren.
kompliziertes
Netzwerke,
Säule
Bienenstö@@
Honigbienen
aussterben
Schlagzei@@
fressen.
Wirtschaftswachst@@
Samuel
can
Pens@@
Einfühl@@
Improvis@@
Berlin@@
Korallenriff@@
Spezialisten
alismus@@
Mobiltelefon
Hormon
revolution
Konfigur@@
Quanten-@@
spenden
Transplant@@
Verträge
Studier@@
ley:
Psychopath@@
Giussani:
Exoplan@@
Namibia
Marathon
überwacht
Lieben
Rup@@
99"
2013
biolumines@@
TEDTal@@
"He@@
Bertie
Knoten@@
Arbeitsgedächt@@
Jemen
Atrazin
Passwor@@
Neurogenese
Konfer@@
--@@
Rufen
tik,
nigerianischen
Lösungen.
Erderwärmung
unternommen
positiv.
Erneuer@@
erklärt.
ssig
geschlossen@@
kampag@@
lebensret@@
Ofen
daraufhin
Weizen@@
Reis@@
hle.
1945
Ablehn@@
hässlichen
dominiert
lem
Volk,
ium.
streng
gelandet
getan?
keine.
unterm
Hotels
ung;
ausgeben.
ästhet@@
Michelangelo
geändert,
Schönheit.
Jose@@
1996
cooler
Notizen
Nichts.
affen
sen."
erwarte
Karib@@
zept@@
öss@@
fügen,
lapp@@
zellul@@
mium
Möglicherweise
Norwegen,
feldern
Scre@@
jenigen,
abschließen.
Bewert@@
schnitt@@
-Adre@@
erstens
angenehm
Scherz@@
lustig@@
tlich.
verarbeitung
nick@@
heraus:
Grenze,
rollen,
Exemplar
liebend
kannte.
ender.
Vogelgrippe
Herz-Kreislauf@@
Herz-@@
beunruhigt
tropischen
Weltbank,
Stimmen,
"Jetzt
Systemen,
Kindheit,
nonverb@@
hiervon
zuzugeben,
denheit
enkel
dachten:
me?
Verständn@@
gib
verließ,
Metall
heiratete
Dschungel
Viellei@@
ächst,
dagegen,
Skelettmuskeln
Physiologie
intuitiv
D,
beziehen.
verdamm@@
Jedenfalls,
gelöst,
Hafen@@
künstler
Bambus@@
Leute:
regung
motion
demograph@@
Durchschnitt@@
Sex,
höchst@@
kosmische
Periode
Maschinen.
Mineralien
kristall@@
Kristall@@
PA
IT-@@
High-Tech-@@
esten
ertes
Frisch@@
d;
genauso.
Erden
Vorstellung.
speicher@@
biologisches
ausgelöscht
mehr."
muster.
quit@@
Auswa@@
schrecklich,
eröffnet.
Sieb@@
spart@@
Past@@
braune
Aro@@
Kür@@
meinten
Universal@@
abil@@
Aufnahme@@
Norman
verstör@@
Hinterkopf
Fantast@@
Emma
flüster@@
schlich@@
Virginia
Gesam@@
klüger
dimensionale
Fälsch@@
scharfen
tens:
eBay
igh@@
Ugan@@
bezeichnet,
Insbesondere
Nicholas
Agent@@
ängst@@
experimentieren
enzen.
Materials
Teu@@
klasse.
beschäftige
chen-@@
garten
philosophische
stens,
desig@@
izität
Strukturen.
ips
dieses,
offenbart
m."
au.
atemberaubende
Nord
Platten@@
drat@@
Satur@@
merkung
Drei-@@
bedienen.
finanzieren.
Besondere
berüchtig@@
häusern
brillanten
Katastrophe.
nachdachte,
Variablen
front@@
Vorbereit@@
stehen?
registriert
ne:
nisses
Dokumentation
Hudson
bezir@@
unterscheidet.
Zeichen,
Einstellung,
fuß
primitive
position@@
auton@@
Bank,
aussage@@
Not
Plakat@@
verleihen.
empfangen
te".
Joy@@
bestand,
zeichnungen
Fäkal@@
vorherrschende
darbei@@
Amateur@@
chenen
Lama
fotografierte
Mun@@
mes.
han
Flexibilität
vil@@
ktoren.
nicht;
Atheisten
wissenschaft.
terin,
entwarf
Industrie.
ance
urban@@
gelegenen
Kenia.
ary
enzi@@
Spei@@
gewähl@@
fürsor@@
Enzyklopädie
Unternehmern
perfekt,
a."
zustande
konkreten
halten."
Ausrichtung
Element.
anstellen
ücken.
Beschleunigung
Graphen
platziert
ender,
verdoppeln
Börsen@@
imul@@
Szenarien
erte,
neurolog@@
Vereinigung
Öffentlichkeit,
Ereignissen
Versorg@@
bewirkt,
Ersatz
Dia@@
Sauerstoff,
Kont@@
flachen
alen.
Abhäng@@
spiegelt
Dritte
Breit@@
stattfand.
gewid@@
Freien
vergrößert
vo
Fallschirm
zurückl@@
Univer@@
Wandels
gedanken@@
metall@@
gä@@
lich."
gekommen?
besonders.
gleichen,
klan@@
Noten@@
vermute
schüttel@@
JL:
hingehen.
Galax@@
gala@@
bildete
Wunder.
Universum@@
dienen,
Preis,
Konferenz@@
Mexikan@@
ierbare
gelangweil@@
MT@@
subt@@
motor
Lastwagen
etze
menge,
lagen@@
denes
dient.
af
verbrauchen,
dachte.
gte,
Problemen.
Erträge
aufstellen
Cameron
ir,
sehn@@
Behaus@@
eingehen.
heißer
ox@@
humanitären
Krisen
überlegte
Kupf@@
nachdenkl@@
ley,
spran@@
rik.
12.000
orte
geräum@@
Gespür
Speise@@
ausgerottet
iess
drau@@
Kleid
beschützt
Strassen
bestie@@
300.000
Impfung
gestoppt
tritt.
pack@@
glor@@
sofort.
Terror
grossartige
reagierte
Web-@@
Pizza@@
griffen.
bestätigen
Schirm
Geschäft,
Cas@@
Adre@@
beigetragen
186@@
sell@@
Trinkwass@@
lösen?
ts?
Nummer@@
Modelle,
Noch@@
faktor
ose,
empfinden.
produktiven
Welcher
Journalismus
ter?
Kreuz
verschwun@@
Agnes
gäbe.
vergrößern
hübsch
geholfen.
Darstellungen
Gebilde
punkten
gespannt
erstick@@
Forts@@
stich@@
trit@@
graphie
Chore@@
zelebr@@
Donn@@
Stellen@@
strik@@
Belege
bekanntes
Beachtung
griechischen
grundsätzliche
Terrorismus.
Magie,
Geldes
HIV/@@
Begab@@
Verkäufer
Law
näher.
potentiellen
vergi@@
langsamen
Haup@@
tschaft
Planet,
dichter
verschl@@
Pinguin
Life@@
)
83
swerte
itt@@
gesprochene
Siehst
schwieriges
Shr@@
hieren
sogar@@
einflu@@
Millise@@
Dilemma
klassisches
schnitt,
parks
Europäischen
hinger@@
gestär@@
Regierungen.
gemeinsam,
vertikalen
dauer
3,5
Run@@
Nie
Nächte
dler
Krankheitser@@
istisches
Kub@@
Gewissen
Intervention@@
Impulse
inti@@
gefangen@@
tauschen.
Ruanda,
Bosnien
verbrannt
töteten
legte,
mütter
Ketten
islamische
gänz@@
Sterblichkeitsrate
energie,
Noti@@
iten.
names
goldenen
Ehrlichkeit
optimale
Äquivalent
flat@@
Dir@@
viermal
Fotos.
scannen
Einsat@@
bewäss@@
modul@@
aris@@
rey
Fünf-@@
Sri
einkom@@
nüt@@
kreiert,
Bemer@@
mün@@
en!"
hervorragend
Noah
gelernt?
wertschätz@@
vollsten
Hawai@@
Trade
:"
könnt,
stattfinden.
strau@@
geringsten
lächeln
Entschuldig@@
„Warum
Kontakt@@
Bedingung
Ablauf
bener
Dicht@@
Vorlieben
met,
Immerhin
Mittel-@@
bewu@@
J.
ssinn
Lor@@
konsequ@@
"Keine
elektrisches
blatt
Zauberer
verblüffend
dom
bers
sang
dominierende
iler
Teppich@@
vertikale
Williams
einzuführen.
Nichts@@
aufwen@@
äuss@@
Glühbir@@
Käl@@
Dieb@@
mächtig,
Kali@@
Hindu@@
beträcht@@
hob@@
massiv
alltägliche
Ähnliches
geordnet
gebnisse
Kid@@
tisch
bäume
konsum
Bulgar@@
Kunden.
Karten,
Scanner
teilzunehmen.
aktiv,
Vor-@@
fundamental
Voraussagen
Visionen
rechner
fischen
Platt@@
gerichtet,
lieb
häus@@
vernünftig
fon@@
verfügen.
Amsterdam
enorm.
verpflichtet,
bestand@@
drei:
heilen,
schlägt,
buddh@@
eiser@@
überall@@
daten.
Philipp@@
kümmerte
diesem.
ht?
enthalten,
charmanten
erhält,
Tatsach@@
Abnahme
Grie@@
helden@@
Spermien
markiert
verinner@@
ef
Magazine
ruhig@@
af,
sonst.
sichtlich
fens@@
Ärztin
EU
versich@@
anen,
raff@@
schr@@
ethn@@
gerät,
Bisher
brachten,
ständiger
Cousin@@
Herren.
wesen,
büch@@
gängigen
ländern
Homosexu@@
zusammengefasst
Metapher.
streiten
intrins@@
Wissenschaftlern,
Sonnensystems
Milchstra@@
Zivilisation.
Fäll@@
Pestizi@@
Tabelle
gefühl,
vieles,
hofft,
Syri@@
Mom@@
Ana@@
station@@
Gesprächen
abwärts
Business@@
existierte
Stadtz@@
Städten.
warme
unmittelbare
jetzigen
Gegenden,
relative
Slum
Aufr@@
Zusammensetzung
absolutes
überqueren.
behindert
Bron@@
ignorieren,
frisch@@
aneinander
up-@@
amput@@
Mutation
regionalen
bender
ausgerichtet
ausgestellt
zugrundelie@@
genu@@
sanwal@@
Bewusst@@
quo@@
Voraussetzung
nann@@
sphäre,
Atmosphäre,
rettet
Statu@@
Kansas
Terrain
Junge:
empor@@
Albtrau@@
path@@
bauten,
papier
Brow@@
ül@@
Dating-@@
Grundsätze
ker-@@
Schoß
Herz.
universellen
etzt,
lebender
rühr@@
Veranstaltungen
Gefängnisse
Zuhören.
aufen@@
Gefängn@@
Zipcar
n".
Komplexität,
endgültige
Tierarten
pel
eien,
Flüchtl@@
trauen
Kürze
dicht,
abgeschlossen.
angen,
Einsicht
Schwerpunkt
Recher@@
Symbio@@
Gehirnaktivität
sowjet@@
Hay@@
schweigen
Arbeitneh@@
Teer@@
LED@@
aufmerksam@@
Krümm@@
Waldes
Elektronen@@
versen@@
einzigartig.
Tet@@
Wir,
Variation
informierte
Häft@@
steller
Regisse@@
nes@@
reagiert,
stattfindet,
Selbster@@
Freiheits@@
Isaac
Mädchens
blie@@
Wilder@@
zin,
gesendet
Stunt@@
Stunts
inwie@@
Reptil@@
verschlimmer@@
Fortschritt,
hälfte
vollständigen
2015
Kreis.
altet,
Project@@
üff@@
-Situ@@
erhält.
Kopfhör@@
korn
Zoo
Würmer
Langlebigkeit
Führungskraft
Hyp@@
Acco@@
Anhand
Gesellschaften.
auftauch@@
klares
ke-@@
Schweine@@
autos
P:
Galaxien.
Wolken@@
Chinesische
galt
format@@
verschlü@@
zenz
oos
Costa
Kaulqu@@
Six@@
Kunststoff@@
Wohnwagen
Jessica
Tox@@
Nordafrik@@
digkeit.
iranischen
Belohnungen
Reputation
überra@@
Lev@@
Ego@@
Ruder
Facebook.
diagnostiziert.
Gewichts@@
Johan@@
2010.
Jordan@@
Thunfisch
Mentor@@
Lakota
dood@@
Kyros
Kästchen
Dschi@@
Ekel
an!
Witze
Grad.
ganz.
frist@@
winnen
delt,
Vernun@@
vorgeschlagen
kris@@
sauberer
orö@@
Friedenstru@@
etts
verdreifach@@
klebr@@
Nick@@
erwähnte,
gemachte
Einfallsreicht@@
begründet
demokratischer
wesens
Rohstoff@@
Auswahl@@
gens,
ausführen.
verbreiteten
Entwür@@
Seht
kümmert,
beschaffen
Schlüssel,
Hemd
,5
überprüft
inspirieren,
Raumfahrt@@
Flugzeugen
39
funktionierenden
zurückgekehr@@
Wahnsinn@@
ziem@@
hunderttausend
Weder
reif
abel,
neigen,
stimmt's?
vielfach@@
Verpflichtung
gt?
gewiss
Präsent@@
mitglieder
IBM@@
zusammenkommen
Ni@@
gut."
schem
warteten
Vokabul@@
Bril@@
lanz
Patho@@
filtern
ein-
Zuschauer@@
sequ@@
blaues
Kombinationen
00,
aufregen@@
ernährt
auswählen
organismen
Schriften
Fragestell@@
ermutig@@
besessen.
Head@@
geöff@@
neigt
Heimatland
Schönes
leuchten,
stig
Kump@@
versteht.
coo@@
gekauft,
Schwierigkeit
AIDS,
Diabetes,
elektr@@
ling,
Partner.
konzentriert,
Schimpansen,
gereicht
Humor,
wachs
Bergbau@@
Fleisch,
Bevölkerungswachstum
schlaue
Shoo@@
wohnen.
Mahatma
Landmin@@
Highschool
Labors
verursacht,
passten
schien,
Leber,
leitet,
beseitigen
Erklärung,
selten@@
Blutgefäße
adet
herapie
RSW:
abend@@
gedau@@
fortgeschritten@@
Ky@@
gesagt?
Eimer
Ausdruck,
höflich
offiziellen
MRT
erlang@@
folgendermaß@@
greifen@@
schläft
gravier@@
kommen."
Vorstellungskraft.
Gleichberechtigung
gerung
58
Orgasmus
Dopamin@@
unterdrückt
Aaron
sterb@@
Kerle
ier-@@
Reinig@@
gestop@@
pt?
Boot.
widerstands@@
Dach,
aufzunehmen.
grüner
vermei@@
steigern
coolen
angewand@@
Raster
Planet.
interessantere
gene@@
Irrtum
hinzu
verstärken
nächster
ziger
ausgedrückt
100,
schwarz,
bese@@
fran@@
Gerichts@@
Großmutter,
Kugel@@
Hosen
dürft@@
fehlte
25.
Ehefrau
ignorieren.
mitgebracht.
eline
Marihuana
Behäl@@
wahrscheinlicher,
Kreation@@
Mars,
ähnelt
Aufregung
vermein@@
12,
denn?
Motivation,
journal@@
1985
Kampagnen
Text:
Folter
1986
korru@@
IT@@
erlaubt.
zugänglich@@
Cont@@
zugän@@
gebunden.
Feld,
Lego@@
Signal@@
Nap@@
Tausch@@
Linse
landschaft
beherrscht
verdi@@
Kehr@@
Kindheit@@
Gebe@@
Instinkt
existierende
lab@@
Qualifik@@
gewachsen.
Oberfläch@@
Sony
Yeah,
das."
250.000
komplex.
entschul@@
Architektur.
iegel
Café
zutrifft,
begünst@@
TV-@@
Anzeigen
Verbrauch@@
seitigen
saß.
Franzosen
Strategie.
Mindest@@
ul
rettete
Gefängnis,
welch
400.000
anzufangen.
anzufangen,
Betrug
verbrachte,
echt@@
ausdrück@@
hole
Kindersitze
kindern
untermau@@
vergleicht,
Schulter@@
usw.,
Unfall@@
anonym
Anblick
beit
Hippoc@@
speichert
gewaltiger
antreibt,
komplexere
Monat@@
buchstäb@@
Klimaanlage
oom
hebt,
markt.
stände.
Clo@@
Kaffee@@
zuviel
plant@@
drüben.
Zeichnen
Höhe.
verschmutzung
zusammenzubringen,
26@@
Helden.
Fach
gehörte
Bezug@@
RNA
Physiker,
Hundert
verletzen
Müllhal@@
stad@@
legit@@
finanzieren
Red
Aktionen
flache
Verwaltung
peinlich
wegen,
Interessens@@
scheitern,
plän@@
beschleunigte
tiefgreifende
einzeln
Grenze.
22.
bedingten
wertvollen
2000,
experimentellen
entwor@@
olymp@@
Turn@@
vermehrt
gut?
ökologisch
tagtäglich
förmig
verbesserte
Verfügbarkeit
"Ok,
mmen.
Sess@@
dra
Sound@@
Polen
Ihm
Lande@@
verließen
widmen,
pert
helle
strategischen
Auflös@@
Entwicklungsland
Alter.
Astronomie
Vortra@@
Sternen,
erhell@@
Erfüll@@
Psyche
neuartige
Ausstoß
verhinder@@
ein:
Decke,
Krankenschwestern
letten
Ausgang@@
scher.
bezeichnen,
Pfo@@
ham,
auftreten
Beein@@
ó@@
lichte
Lay@@
Theoret@@
geeign@@
stir@@
Ressourcen@@
gläub@@
Japaner
gerettet.
Wettbewerbs@@
Benutzung
Barrel
54
Richtlin@@
Widerspru@@
57
one.
Motoren,
bewahren,
beschaff@@
Prognosen
Aktivistin
farbigen
Lehrern,
bezahlten
generieren,
reichste
Columbia
angeklag@@
standards
Naturkatastrophen
nachhal@@
Kosovo
HIV/AIDS
Handy.
gewechsel@@
kunft,
Tagen.
eingeführt.
Pennsylvania
ernüchter@@
Kak@@
verleiht
km@@
riesig.
bewusstsein
Südamerika
Urein@@
fuhr.
Pakistan,
Schwierigkeiten,
cra@@
Flach@@
WHO
Blindheit
meinten,
Spanisch
Promin@@
Graham
stärker@@
schützen?
Fenster.
Här@@
geist
Ausbildung,
zukunfts@@
dän@@
prior@@
komplizierter.
eingehen,
plizit
izz@@
doppelten
bewirken,
Kaliforn@@
voraus.
angeh@@
aufzunehmen,
Staunen
offen,
geschlossen.
heißen.
model@@
frau
zweite,
angetan
sassen
TV@@
Tante
Allig@@
wandte
studiert,
Klick
NY@@
Malen
aktives
Gedan@@
Videospielen
Infl@@
Publikums
gefahr@@
Personen.
73
durcheinander
Test,
Erklärung.
Zeugs
beeindruckend
diesem,
gesam@@
Tech@@
chirurg@@
versichere
muslimische
eignen
hassen.
Is@@
Erfolg@@
Leid,
Warren
religiöser
Sport,
qualit@@
Medikamenten@@
verlauf
rot,
Digital
mächtigsten
äten
Weltweit
gebühren
Noten,
Universitä@@
schnelles
Geschichten@@
Koffer
Töpf@@
Minen
Fon@@
dauert.
Kredite
ünkt@@
Blinden
Konflikt@@
Kanten
jagen.
krebs,
spekt@@
Hochgeschwindig@@
flexible
aggressiv
betrachtete
optischen
Vorlesung
schweben
digit@@
Volk@@
norweg@@
Welt."
Kernsp@@
Tonne
frühesten
Gefahr,
ruin@@
Flusses
Tradition,
Protest
Konfront@@
ser-@@
Menschenleben
aufgegeben
hauptsäch@@
obdach@@
neueste
Kampfes
verbra@@
realistisch
lauten
verteilen,
Mediziner
gestimmt
entu@@
Beratung
.000,
wus@@
Heiligen
lächel@@
goldene
wohner
Nasen@@
Herzens
Dankbarkeit
chte@@
Bedingungen.
Herr,
Wiederherstellung
t's
kalte
gewander@@
Kru@@
geraten,
psychisch
gramm
R-@@
atell@@
seltsames
Brust,
Verbundenheit
geriet
konzentrierten
ware
Rosling
Südafrika.
gesundheit
fließt,
Afrikas.
schule,
Lehrplan
dos
liber@@
immernoch
hervorragende
Errungen@@
gestaltet.
Wertschätzung
Ausdrücke
Übertreib@@
bekommst
TR:
rüber@@
unendlichen
Katze,
Seele.
"Wann
sagte@@
Hamburger
bevorzugen
Biologe
Feyn@@
aufeinander@@
büro
Geruch@@
Teufelsk@@
einsame
ähne
es!
skeptisch
Carolina
Käse
ischere
Akust@@
ausmachen
ne?
"Gut,
gewesen@@
ewige
zeital@@
Kong
ons@@
Stickstoff
Fertigkeiten
"Woher
verwend@@
College,
fer.
post
hoben.
Super
gedreht.
installiert
Farben.
alter,
stabile
bern.
Thom@@
inen,
unbekannt
willig
lebendigen
Güte
angs@@
kreisen
kraftvolle
weitem
ces
Homo@@
Britischen
Ehrfurcht
Mater@@
beliebt.
Gering@@
herab
Umgebungen,
Schule@@
Brennstoffen
Objekt@@
derte
ausgestra@@
Trauer
ausbildung
grössten
offensichtlichen
konstant
Thunfische
gigantischen
Korruption.
Chanc@@
folge@@
investiert,
Obam@@
bezogene
langweilig,
kollid@@
Geomet@@
darzustellen,
fügt,
geringere
erscheint.
autonomen
Jupit@@
Abgrund
hinab
Schmel@@
versagen.
sofern
Wunde
By@@
kranke
zerrei@@
Methode.
japanische
externen
senken,
Neu
wackel@@
repräsentiert.
dahin@@
gemalt
Larven
ankommen
ausser
Quadrat,
Show.
zusammengestellt
anzen
iPhon@@
dauerhafte
linge.
Befehle
"Schau@@
wache
beteiligt,
wag@@
Ehren@@
Marsch
Ihr@@
stellten.
ado@@
großzügig
é,
Rind@@
Ministeri@@
wüssten
sem@@
SO@@
Stürme
Zeugen
Europas
Weib@@
Ellen@@
Jason
richtet,
genauso,
putz@@
vorschlagen,
Psychiater
Teleskope
ausprobieren
schief@@
ulen@@
heiß,
spannenden
Fossilien
chronischen
wartet.
Humor.
Festival
Films
hlt,
stoppen,
aufgewachsen.
Hof
wegen.
MoMA
Wän@@
verpassen
Skizzen
sprachen.
kollaborativen
rass@@
beizubringen.
Eingriffe
damaligen
tieren
sphäre.
nächsten.
liebenen
heim,
Titan@@
gespül@@
000.
Kindheit.
zuversicht@@
etwas?
schreien
witzig
Mahl@@
tot,
kleben
Cluster
tropfen
vorstellungen
Syndrom
autonome
jü@@
"Herr
bb@@
hren@@
Käufer
andauernd
herbeizu@@
Könnt
aufgezogen
Bahn
motivieren,
Lak@@
schmeckt
geredet.
Juan
Kohle,
Pestizide
verdoppelt,
Elementart@@
Wesentliche
Ladungen
lichung
danach.
be:
Insekten.
integriert
schreck@@
dummen
Schatten.
Kurven
"Wieso
pot@@
Wen@@
Emotion@@
Hirna@@
gedeihen
Werfen
Sprichwor@@
Sportler
Dolmet@@
themat@@
Herzschlag
Frankreich,
Anschluss
bürger
unmittelbaren
snetz@@
Stillstand
Bou@@
Hochzeits@@
komischen
spannend.
grundsätz@@
U-Bahn-@@
rone
Blüte
Anhalt@@
gewaltig@@
önt@@
malt
beweisen.
tagsüber
mitmachen
ehren@@
infolge
Ever@@
öse
Rabbi
Angelegenheit.
Rechnen
boom@@
video
SI@@
Präsidentschafts@@
CN@@
Helden,
sey
wiederherzustellen.
behandlung
Gesten
Partit@@
Manipulation
vorher,
Herzinfarkt
Objekt.
schleu@@
Mikroben@@
anpassungsfäh@@
Haken
Lobby@@
klau@@
Notaufnahme
Gumm@@
bewegliche
Konsequ@@
Was?
Lachen.
Sie?"
riskieren
Bös@@
bericht
erlangen,
hängen,
Meerjung@@
mmt,
Einflü@@
ill
ippen
Aufreg@@
..@@
Vergewaltigung
abläuft.
&amp;@@
Lebensjahr
Elefant
Neuseeland
ern."
Kolleg@@
Homin@@
Schädel@@
Worte.
beeindruckenden
Synapsen
Feuchtigkeit
Dichtkunst
Wirbel
Prothesen
opar@@
spersonen
Fortpflanzung
Baust@@
Mangro@@
pfeiler
verborgen
Landwirtschafts@@
erwä@@
anfühlt,
Athleten
feld@@
Beobachten
Ere@@
Prostat@@
Dinosaurier,
geschma@@
Fürsor@@
Kim
esse
beweist,
RG:
imagin@@
Busch
verletzungen
Zeitraff@@
brasilianischen
Diego
Teig
‹@@
Kohlendioxi@@
TEDMED
kade
benachteil@@
blätter
Finanzkrise
Hausmeisters
Ausbild@@
Meeresfrü@@
ücken@@
mechanisch
Tweets
gewählten
Fred
Monats@@
Erdöl@@
Antikörper
vertreter
Knie@@
ison@@
dget@@
berater
geschaf@@
Pakist@@
lebe.
el:
Protozelle
bra
wünschen
Papiere
Pfeifen
Astrolab@@
Libellen
Versorgungs@@
kartograf@@
Biomateri@@
Chemot@@
Stür@@
MO:
Talks
Prüfungen
verbergen
Zauber
Beschäm@@
Marco
Multiversu@@
SMS@@
Amanda
Spinnensei@@
CO:
Bitco@@
Rhyth-matik.
ernst,
östlich
strengen
präsident
appen.
füge
niedrigsten
ultimativen
Wirklich.
ora
demnächst
Tools
übergreifen@@
mitglied
Reduzierung
gelegten
erläutert
Potential,
Mangelernähr@@
feuern
sinfe@@
Holz,
ka,
Kuh@@
kostengünstige
Einkommen.
Ghan@@
ans.
drückte
Vermutung
profitiert
anten,
Leistungsfähigkeit
1500
wenn@@
Infrastrukt@@
wollt
istisch.
sofort@@
konkurrieren
27@@
drücklich
probieren,
getestet.
muster@@
Überschnei@@
gesucht,
Internationalen
Strich
Steuerzahl@@
wirtschaft.
Philosophie,
Deep
gesor@@
Zahnbür@@
Schaffen
mitten@@
darum.
schätze,
ernsthaften
gestres@@
konzeption@@
quantifiz@@
erkunden,
fügten
Sequenzierung
Chromosomen
fühlte.
Gesell@@
umzuwandeln.
Photosynthese
Leiden@@
Exempl@@
sist@@
mer-@@
konsist@@
Jeans
Geheimnis.
bekamen,
iant
'8@@
straßen
speichern.
beleuchtet
Videospiel
Touch@@
Nummern
gebrauchen
scharfe
ängstlich
stere
hoo@@
linge,
einheim@@
Fakten,
Zukun@@
beobachtet.
nissen,
ative.
vielleicht.
Schlechte
Tumoren
fasziniert.
kämen
manipulieren
Signale,
Sitzung
angekommen.
Disney
alisiert,
Musikern
Stammbaum
Bucht
Vorführung
Video-@@
Fis@@
Abschließend
Shakespe@@
Letzt
destot@@
Grasland
begeben
kollabor@@
falls.
Ausdrucks@@
Sammler
partner
Liste,
level
ale@@
boot
Abwasser@@
genei@@
Rohr@@
Öffnung
spül@@
zwingt
Protonen
Atlanta
Fels
betriebene
Nack@@
fisch,
Fung@@
Zufalls@@
änderungen
Individuen.
Baumwoll@@
White
experimentelle
Pick@@
Angeles.
Oliven@@
36@@
interessant@@
wünschen,
fünfzig
Hierarch@@
beginn
Univers@@
verläu@@
brä@@
winkel
Urgroß@@
Feri@@
Aufent@@
Bibel@@
Bankk@@
imm
bibl@@
zurückgehen,
zimmer,
harter
Jungfrau
tic@@
freundliche
Astro@@
Bob@@
hinten,
zt@@
di,
Kerz@@
audit@@
versteckt.
hören?
Tul@@
änger,
ständ@@
verprü@@
Baum.
Barriere
J
verbleibenden
riesen@@
ty
Ill@@
zungen
verwenden?
ungsprozess@@
Web.
beruflich
femin@@
Maga@@
erfüllt.
Genie@@
Kaiser@@
iser
bräuchte
geseg@@
fett@@
Cousins
Alltags@@
Werkzeuge.
versagt.
frakt@@
anschaue,
inspiriert.
Stere@@
kombinieren.
ce"
totale
Brot,
Komplex
Werbung.
day
Verkauf@@
französ@@
bemerkenswert,
sprodu@@
Scheiben
tor@@
gebunden,
gezielt
Straßene@@
städten
hig@@
Wilson
beherrsch@@
Verur@@
en,"
aussah,
furchtbare
1975
Nationalen
falls,
etzt.
bo-@@
deutet,
anrufen
träger
umfassenden
Dorfes
räumliche
Möglichkeit.
begriff,
Erdoberfläche
Ohren,
Gebäuden,
inten@@
Studenten@@
konstruieren
Welten,
bereits.
Grab@@
wiederholte
6,@@
Darstell@@
alistische
see
Flucht
Buddha
gestartet,
läufe
Caltech
versagt
Mathematiker,
Elends@@
„Die
ianischen
herunter,
kontrolliert,
Türkei@@
typischer
aufgebaut.
verhältnis@@
vorzustellen
bearbeiten
bißchen
Wiki@@
wahrlich
Reporter
zem,
Richtlinie
punkt@@
anonymen
Löwen@@
anonyme
überprüf@@
Bekämpf@@
20ern
umwandeln
ellos
entwickelten,
verbrei@@
Kapaz@@
dynamik
40%
besagt
Herzkrank@@
Baby-@@
klingt.
Doug
Segen
Elend
Sterberate
Positives
kontinuierlich
weite.
menschen@@
Lebensdauer
Geograph@@
ausgesehen
Drachen
ente.
Flammen
Fledermäus@@
heranzu@@
Blitz
esien
zuverlässig
benutzen?
Verzei@@
eben,
keit?
Anfänge
zicht@@
moralischer
Biologen,
Geste
Pfleger
archite@@
ain@@
Krankenschwester
miteinander,
wirkt,
Parall@@
Improvisation
H,
Einsicht,
Hawking
bisschen,
verkörpert
möglicher
Umwandlung
Lage.
perman@@
Massenvernichtungs@@
1970er
Halte@@
Sonnenunter@@
vertief@@
da:
gefahren.
haupt@@
Gas,
Toyota
effekti@@
gelt,
Kilometer.
verhindert,
sser@@
orts@@
ssy@@
stungen
hersteller
uchen
zivile
drate
Park.
versorgung.
man-@@
wohlhabenden
ruft,
Stewar@@
igerweise
Orleans
mäh@@
House
os!
bewussten
Alab@@
Vertre@@
Utop@@
Koso@@
Häuser,
Retro@@
ausgebildete
Selbstbewusstsein
brachten.
Stütz@@
eb@@
lungen.
beschütz@@
spät.
ung-@@
Landschaft,
ling@@
igranten
Uniform
iveau,
Wald.
kreis@@
verknüpfen
arbeit@@
Fabriken,
Terra@@
realistische
my
endeten
"Gott
weil@@
Grünen
ippe
verborgenen
Präsentation.
Hühner
Absicht,
tauchen.
fesselnden
wies
Staatsober@@
Glaub@@
erkenne
präsent
Jon
organisationen,
Kenntnisse
Nähe,
Bewohn@@
White@@
kochen.
Moskitonetze
durchgehen
bewältigen.
hierzu
frustriert
fahrer@@
Räum@@
Erschaff@@
äuft
produktiver
Ausdehnung
Auseinandersetzung
Charakter,
verlangen.
kehrt
– und
wahrhaf@@
spielte,
missbraucht
liessen
-Sho@@
freundlicher
Vorhaben
geschnei@@
vergrößern.
Wind.
berühren,
aussie@@
hinterher
richt,
Fäch@@
haltige
Angaben
begreifen
Ausgang
nützliches
Drin@@
scheiden
Feier
Nütz@@
gesund,
Tests,
nahme@@
Karikaturen
Isra@@
amm@@
Nicht-Nullsummen-@@
dagegen@@
dient,
Leistung,
iel.
leite
weißes
gründete,
irgendet@@
Ego
herein,
wieder:
tu
unen
hältst
Junge.
band,
Spass
standar@@
Protokoll
Westens
rasan@@
igungs@@
angemessen@@
Oxford,
Schott@@
Genuss
Benjam@@
IN@@
B.,
Stabil@@
Instrumente,
angenehmen
Datenbanken
Lamp@@
pädagog@@
nach:
Takti@@
Forschungsergebnisse
klingen.
freut
Neugierde
frequ@@
Fangschrecken@@
faszinierender
pupp@@
Geräuschen
abgespielt
explodier@@
Fang@@
spektakuläre
0ern,
Ausflug
hungr@@
Weltrekord
Vorzüge
unfähig
täuschen
fehler
erhalte
gleichzeitig.
Achse,
errichten.
Paradox@@
prothese
Neurolo@@
lebenslangen
natürlich:
kub@@
Treibhausga@@
zugänglich,
agu@@
NG@@
klen
Chemikal@@
Tuberkulose
Minen@@
psychischer
Einrichtungen,
Bett.
instab@@
nachdenke,
Identitäten
inneh@@
Baham@@
Oscar
Spender
Auswertung
Leitung
verwaltung
beschützen,
erzählten,
Paus@@
augenblicklich
Ze
´s
Leone
mi
eis
Habe
ran
ball-@@
vers
mpf
feiern,
Entwürfe
zel
Drittens:
4:
Mytho@@
ausländischen
dich."
intelligen@@
hmet@@
aufzugeben,
astronom@@
drin,
gege@@
Also:
Vielfalt.
"Dies
Feier@@
mir."
simulieren
Zigaretten
Zufrieden@@
poly@@
Geschmacks@@
gemessen.
gheit
dacht,
entheorie
Oliver
drücke,
Flächen@@
Vogel,
gewich@@
schmeck@@
zelluläre
Zaubertri@@
aal,
träumt
klammer@@
übersetzen,
Musiker,
Chemikalien,
Rahmen@@
figuren
Mexiko.
millionen
Plankton
Funktioniert
Wim@@
Nahrung.
bestehende
sorgfäl@@
Unrecht
gespräch@@
probieren.
Lampen@@
Waschmaschine
konventionellen
sanft
Apple@@
zeitschri@@
ft."
Käfig
liebt,
Gebete
got@@
gestat@@
Thor@@
publiz@@
Umlaufbahn
Vorteil,
Spinnenn@@
Erkäl@@
festgestellt
"De@@
generiert
wald
Küche.
Bord@@
jeder@@
greifbar
Öls
füllte
Flughäfen
hieß,
Erreichen
K:
tragbare
PC@@
Gehirn?
Revolutionen
tekton@@
Emotionen.
agen@@
Qualle
fische,
elegante
säule
Äquator
Zwar
Elite
Reform
leistungen
Tisch,
Meinung.
flaschen
manipuliert
Forschungsarbeit
Gesetze@@
Lebzeiten
agt
unglücklicherweise
weh.
zufrieden.
Schlüssel.
beispielsweise,
anpassen,
Fr@@
bela@@
hinab@@
umgekehr@@
Baum,
Techniken,
Befehl
biologen
Erkun@@
Tesla
Regener@@
versagen,
ell:
Americ@@
Schwangerschaft
dur
herkömmliche
geschützten
eintreten
wussten.
anklick@@
Wetter,
verändernden
ald
Vereinigte
paaren
gezählt
kolonie
hack@@
verpflichtet
-System
Aufgaben.
hinauszu@@
Interaktions@@
näm@@
Code,
feinen
plün@@
sinnvoll,
Funda@@
kontin@@
Worum
Nein!
leistet
zustellen.
änner
pakist@@
16,
gibt:
aufgeklär@@
Spre@@
Ungewiss@@
jung,
helfen."
ram@@
wichtigsten,
agieren
dreißig
fuß@@
verschwindet,
Gesundheitswesen@@
Näh@@
eur
besaß
Kindes@@
Gedul@@
müssen?
Mücke
Jobs.
Einfluss,
verallgemein@@
bücher.
Murray
karte,
Oo@@
iles
Lebensformen
großteils
aker
Sklaverei@@
Appl@@
würdigen
anzuwenden,
gedanke
geraten.
vermischt
Funktions@@
Jupiter
weiterentwickelt
vorzubereiten.
Abhol@@
iten,
fut@@
geschleu@@
Kongressabgeord@@
Palästina
Tor
wirkung
außergewöhnlich.
verleihen
Freundlichkeit
Wall@@
Ratschläge
gy@@
geo@@
virus
Galaxie,
Kanäle
überlebt.
extremer
retro@@
stammen,
ini
Heilige
wissenschaft,
Areale
Kast@@
Wahrnehmung.
Stirn
Schlaganfall
Alphabe@@
ausgeprä@@
Mad@@
grundlegendes
Farmen
SA@@
Vernunft
änder,
Sänger
anfangen?
schütteln.
Abhandlung
beraten
Glückske@@
chtig
Zorn
einzugehen.
Arktis
wochen@@
90-@@
bomben
erwär@@
Punkt:
moleküle
moralisches
Weizen
Transplantation
anzieh@@
Yan@@
damalige
Fuß.
klettern.
senkre@@
befestigt
Luxus@@
Nut@@
antworten.
schenken.
beherrschen.
trainieren,
verrät
niederlän@@
aar,
Rassismus
Bass@@
skizz@@
Berühm@@
Interpret@@
una
Ul@@
tens,
Druck,
Echtzeit-@@
TEDTalk
ure,
kratische
erstellte
Territ@@
demütig@@
Insel,
ring@@
Jerusal@@
unwohl
Blinde
werel@@
Dylan
Hürden
parall@@
Beschrän@@
umpf
Engel
Dozenten
Stunden-@@
Kompromisse
Öffentlichkeit.
Charta
Geh
Kirche,
Gesichter,
bahn,
Zenti@@
geschaff@@
zellen@@
müll@@
Australi@@
abgelen@@
Schließen
Moz@@
skran@@
LEDs
geliebt
umgekehrt
entscheidet
flut@@
dings,
Shu@@
Extra-Dimensionen
cht:
Schweiz
U.S.-@@
geko@@
neurologische
gesunken.
züchten.
anzupassen.
aufgaben
Linksliber@@
ahe
vielfältige
Abenteu@@
drehung
angemessene
smo@@
Sicht.
erlau@@
raten,
Augenbrau@@
Bits
Nachbarn.
verwirklich@@
fotografieren
Historiker
Proteom@@
ösen
Großartige
F.
Dimit@@
entschieden.
geru@@
konvert@@
niedri@@
demü@@
Südost@@
Nordkorea
einverstanden
Int@@
nahele@@
Philadelph@@
Begegn@@
klasse,
gepar@@
Klicks
Rory
falten.
Marker
afrika.
Grundstein
Yeah.
Darle@@
Sensi@@
diversen
Einsteins
loswerden.
Naturschutz
Lebensstandard
Stereot@@
tieferen
gegenüber,
kontamin@@
nannten.
furchter@@
ein?
rechtlich
spinn@@
essen?
iden,
Kuchen@@
Auseinandersetz@@
Sperr@@
Theater@@
blockiert
Petrisch@@
Theater,
führend
pure
Blutdruck
Urteil
IM:
Lon@@
Galaxien@@
streiten.
Innovat@@
äugige
anzusehen
äuben
verfügt
bakterielle
Torna@@
Stopp@@
Bier@@
Authentizität
Möglichkei@@
Cheryl:
Rhin@@
wöl@@
Skri@@
Hautz@@
Krise,
Weltwirtschafts@@
jahrzehntel@@
Melan@@
Peri@@
Ungläub@@
Opfer,
Zittern
Info@@
Matthew
EE@@
vögel
an?"
di-@@
Misstrau@@
Iraner
europä@@
Wähler
Händewaschen
Gemeinschaften,
Savanne
Trä@@
konsu@@
wirksame
YouTube-@@
Solom@@
angew@@
Blinden@@
idge
y".
Ersparnisse
FBI@@
dez@@
aj@@
Kubik@@
Adiposit@@
D:
Data
fin
Schrimp@@
Ratingagent@@
existenti@@
Dubai
iPad
Reaktions@@
Bundesstaaten
Indus-Schrift
Dood@@
FOXO
F&amp;@@
‹,
Gesichtser@@
["'@@
SOS
Everglades
23@@
rennen.
Wiederholung
Projektion
Genauer
beurteilen,
ebenfalls.
Lösung:
befasst
übertra@@
Kohle.
kochen,
200-@@
gemü@@
dahin.
projekt.
verglich@@
aufregenden
Vorteile,
WI@@
dach@@
Unternehmer.
strate@@
zwang
immateri@@
wiederholen,
nehmt
terror@@
Drogen.
Fähigkei@@
blickt
isierung,
schriften.
fantast@@
ausgebildeten
nachweis@@
56
zyklen
pher@@
Aktivität.
computer
zeuge,
russische
ausgegeben,
bewiesen
Automob@@
bewegende
Gebrauchs@@
Emotionen,
kunst.
akzeptiert,
licher.
Designern
Intimität
Cany@@
studio
Mentor
hinweisen,
besagt:
schmie@@
Biodiversit@@
schiff@@
Pig@@
Transp@@
Chromosom
erlaubte,
führung,
zusammengesetzt
mere
Größenordnungen
Erschaffen
al:
Email@@
Frustr@@
alität@@
ssich@@
klag@@
11@@
ruiniert
ative@@
weitermachen,
kauft,
seiten
drucken,
Palm
kleiner.
Kontakte
schmut@@
Brill@@
Herzleiden
ET@@
Prostatakrebs
hochentwickelte
Vorträ@@
überein.
eien@@
iges,
studiere
Entwal@@
Vegetation
unterirdischen
nutzbar
Verhaltensmuster
jagen,
traditionell
Respekt,
Verstand,
fortschrei@@
Entwicklungsländern,
schaden
hat;
umgeben,
ethisch
füttern
hem@@
währenddessen
davor.
Saul
Mull@@
hattest
Interesse.
Kreativität@@
Klienten
alo@@
verlegt
iza
Spekul@@
[undeutlich]
stolz.
Tee@@
sweise
liebte,
Dopam@@
verfolgt.
binden,
"Wür@@
umbringen
schwerwie@@
Regel.
schlechteste
Industriellen
erzogen
weltweites
heiraten,
haltung.
Qualitäten
denjenigen,
ziert
Struktur@@
Versammlung
abschließen
kurz.
pli@@
Ruder@@
lehren.
Schläge
Produkt.
plan.
Ast@@
Glasfa@@
reflektieren
Metalle
festhalten,
ach,
Fühlen
Prär@@
Version.
spez@@
II@@
hezei@@
sspiel
com
rauf
produzierte
dominante
Tomat@@
Haft@@
grupp@@
Gott!
et."
atz
Ox@@
Mund.
deckt,
gewus@@
eiden
Denkmal
verlangsamt
dauer,
einfangen
Element,
Ereignisse,
Ske@@
doo@@
dann.
zug@@
eigung
ske@@
Prü@@
Dunkle
iö@@
Überwachungs@@
Spring@@
vertrieben
Schuss@@
jen@@
gner
hüllen
omateri@@
tragbaren
ungssystem.
mischen,
Lateinamerika
pläne
Wieviel
Coo@@
Handlungs@@
drei-@@
denkst,
Position.
Lebensmitteln
sium
freies
können?"
betäub@@
inspirierten
nes
Beleucht@@
gewicht.
Schweden.
wähle
medien
schicke
Kopern@@
auch:
gesag@@
ib
cker,
bewa@@
Enden
Tok@@
Website.
behäl@@
aufnimmt,
träglich
ausspre@@
Erwachsene.
Spitze.
reichten
philosop@@
McDonald's
ähneln
Tatsache.
herrschte
Verbrecher
-Jährigen
gängen
Sicherheitsgur@@
wettbewerbs@@
gratis
fantastischer
Pillen
"Hör@@
bewege
Mechanis@@
sammlungen
Gegenwar@@
sichtig
Turm
Gymna@@
verne@@
Gerichte
umbi@@
Britann@@
Kätz@@
existierte.
ffe
Portraits
Danke!
Pant@@
gerechtfertig@@
gefährdeten
schatz
Nepal
Öl-@@
Schach
aman@@
amb@@
Worksh@@
beigebracht.
Plattform,
30%
digem
Nobelpreisträger
bisschen.
Zeitung,
Basketball@@
Röntgen-@@
rick
Model@@
Klar
fotografiert.
Überlebensch@@
ianer
en.@@
schwamm@@
ken:
werke.
ons,
zap@@
fließt.
beschützen.
gebaut@@
bezirk
pho@@
Ce@@
Nachbarschaften
ime
Wikipedia,
oft:
Bush-@@
Chat@@
Beiträge
anony@@
Unbekann@@
mod@@
Nano-@@
bezw@@
tragung
2014
Preis-@@
Menschliche
hervorzubringen.
Sap@@
elektro@@
einbeziehen,
1968
akkur@@
13,
"Lass
Designer-@@
therap@@
akustische
revolutionäre
überlag@@
prinzipien
plo@@
moral@@
verantwortlich,
clevere
Nebeneffe@@
Schlussfolgerung
Gedanke.
Mäusen
bräuchten
kürzester
ys@@
Opfern
Amphi@@
terer
krö@@
kar
Silber@@
locken
Asteroid
Wie@@
Vieles
Alphabet
sinken,
braunen
übergewicht@@
Ihnen?
Verkörper@@
fliege
LKWs
weiche
Kometen
Atombombe
Überreste
let
Fusion
ehen
kriegs@@
geleistet
Kreis@@
voraussagen
verursachten
ziemliche
kleben.
gezw@@
wickeln
Betroffenen
relevant.
Erwachsenen,
musikal@@
Karten.
gabe,
Deu@@
auftreten.
ausgebrei@@
Zugegeben,
kürze@@
chemischer
Überflu@@
wissenschaften.
Naturwissenschaften
vorstellt,
waffen.
relevante
Vorbeu@@
Prävention
landeten
gepa@@
aufgel@@
definit@@
Poliz@@
gen",
Harmon@@
Ausstellungs@@
Vorderseite
gewinnt.
"Alles
drauf.
0.@@
gas
Treibstoff@@
dan
ehrt
promiss@@
beliebig
einzigen,
kostspiel@@
Zellul@@
gestei@@
statten
steil
87
risiko
Ghet@@
ausgeschlossen
hässlich
Katrina
Industrien
schädlichen
forderten
Frühstück
Expertise
beeinträchtigt
länder@@
Business-@@
Stroh@@
gesammelt.
Allen
Wunsch.
vorkommen
Landschaft.
Recycling
Kupp@@
Peit@@
zeitlichen
motiviert,
motivieren
Wun@@
maliger
Augenlicht
ologen.
verkündete
NS@@
Erkenn@@
Meldungen
heißes
Handfläche
lächerlich.
Feuerw@@
geleistet.
dritter
erhö@@
klassischer
angrenz@@
Sno@@
bruchs
optimistisch,
ansäss@@
ist"
einrichtungen
erlei
Projekte.
Dritten
pessim@@
sicherzugehen,
realisieren,
Entwicklungsländer,
Karrier@@
Verbrau@@
verwirklichen
gram
Werkzeugen,
Spielern
agieren,
Bildung@@
besorgt.
Spiegel,
y",
planten
vent
don
oberhalb
Präsenz
wanderte
perfe@@
verpflich@@
Ziegen
Initiativen
Tastat@@
anwend@@
umgeh@@
förm@@
hing@@
gestopft
nahtlos
ide.
wundervoll.
Balle@@
anzuneh@@
wundervolles
viktori@@
neun,
zulassen,
dergleichen
Zusat@@
ermordet
geroll@@
Allge@@
könnt.
drucks@@
Kontinenten
gruppen,
technologie.
Führung,
Zy@@
fröhlich
hassen,
Fron@@
rieben@@
vorgestellt,
ze?
sposit@@
gezahlt
umgekehrte
Einkommens
auszusehen.
enken.
Unterdrück@@
Stab
Basket@@
Wohlstand,
Masse,
durchschnittlicher
dramatisch.
viralen
platte
Abend@@
gängige
angu@@
E-Mails,
Zens@@
Spielplatz
folgt:
Entwicklungsl@@
folgende:
Cop@@
beach@@
zene
besucht.
füß@@
Lippen
Medienunternehmen
Sonntag
92
unabhän@@
verschwindet.
feine
Drucker@@
Format@@
geg@@
Dunkeln
:30
seits
eingefangen
Aust@@
treibende
fördert.
Vielen,
Position,
Stoß@@
tierischen
berühmtesten
beque@@
schlimm,
unterhalten,
Bedeutungen
perfekter
Mobilfunk@@
Reiche
ischer.
flächen@@
empfän@@
Energie-@@
still,
hinsehen,
appell@@
erinnere,
Frequenzen
geschätzt,
Anlass
Reichtum,
würdigkeit
Sprün@@
Agenda
Überleg@@
amer@@
[...]
