die 85493
und 79166
der 63149
, 51747
in 49226
. 47831
es 46195
zu 45716
t@@ 45199
das 43481
t 42924
e 41341
er 40721
s@@ 40700
en 40243
ist 39653
den 38895
er@@ 38763
en, 38202
ich 38169
ten 37810
f@@ 37485
wir 37011
te 33408
K@@ 33232
en. 31496
ein 30593
ge@@ 29761
Sie 29630
m@@ 29568
sie 29334
S@@ 29323
st@@ 29164
k@@ 29124
eine 28841
von 28664
an@@ 27998
n@@ 27946
h@@ 27878
dass 27545
M@@ 27371
en@@ 27286
b@@ 27076
sch@@ 26116
t, 26016
be@@ 25976
ch@@ 25418
g@@ 25061
Und 24795
F@@ 24635
nicht 23466
t. 23299
P@@ 23177
u@@ 22899
z@@ 22886
d@@ 22698
B@@ 22280
ä@@ 22239
D@@ 22222
l@@ 22049
mit 21927
r@@ 21760
in@@ 21343
H@@ 21283
i@@ 21198
T@@ 20956
un@@ 20583
auf 20288
L@@ 20121
s 20061
ung 19696
o@@ 19656
al@@ 19645
re@@ 19546
ver@@ 19432
Ich 19365
wie 19347
ü@@ 19308
-@@ 18629
a@@ 18487
für 18215
da@@ 17938
sich 17838
n 17818
um 17434
au@@ 17337
ein@@ 17160
le@@ 17052
einen 16518
G@@ 16454
W@@ 16407
ar@@ 16299
m 15975
an 15873
als 15708
e@@ 15410
dem 15370
"@@ 15123
ss@@ 15096
N@@ 14905
man 14492
or@@ 14456
: 14342
gen 14271
zu@@ 14252
A@@ 14191
Das 14089
w@@ 13910
at@@ 13875
ig@@ 13376
ö@@ 13344
St@@ 13303
p@@ 13156
Es 13075
so 12858
et@@ 12710
ra@@ 12661
was 12632
gen@@ 12624
sind 12500
diese 12410
im 12204
el@@ 12186
Sch@@ 12182
des 12158
Wir 11938
ei@@ 11898
ent@@ 11857
e, 11442
Ver@@ 11418
auf@@ 11346
wenn 11284
einem 11280
rei@@ 11210
R@@ 11147
it@@ 11088
Z@@ 11076
haben 11061
lich 11002
E@@ 10964
je@@ 10928
? 10880
war 10847
einer 10830
de@@ 10736
ur@@ 10432
de 10333
uns 10236
ab@@ 10162
C@@ 10160
te, 10144
ter 10081
a 10074
über 10067
aus 9840
den@@ 9833
ier@@ 9820
l 9746
oder 9689
ch 9625
d 9618
ten, 9520
ß@@ 9447
ben 9441
g 9361
Be@@ 9285
ie@@ 9282
is@@ 9254
st 9229
O@@ 9185
der@@ 9012
aus@@ 8973
Ge@@ 8950
aber 8893
wei@@ 8885
Die 8859
ol@@ 8848
on@@ 8765
auch 8745
ck@@ 8694
s, 8642
kl@@ 8595
Aber 8556
Er@@ 8499
y@@ 8458
chen 8448
ik@@ 8425
Re@@ 8376
s. 8320
v@@ 8277
sag@@ 8142
An@@ 8126
am@@ 8063
lich@@ 7953
J@@ 7943
V@@ 7936
sten 7858
nur 7851
sp@@ 7813
ut@@ 7807
te@@ 7779
ter@@ 7776
ff@@ 7759
-- 7691
stell@@ 7690
om@@ 7670
ist, 7644
her@@ 7509
– 7487
sehr 7484
ti@@ 7466
I@@ 7418
il@@ 7416
ru@@ 7381
ern@@ 7353
la@@ 7342
ich@@ 7304
c@@ 7259
eh@@ 7168
geb@@ 7159
zei@@ 7154
vor@@ 7137
ung@@ 7110
Ar@@ 7085
um@@ 7022
über@@ 6986
In@@ 6970
ten. 6968
ro@@ 6940
än@@ 6931
1@@ 6922
bei 6918
ungen 6894
lo@@ 6795
ie 6737
am 6719
br@@ 6706
dann 6671
wir@@ 6616
mich 6540
j@@ 6490
ge 6486
noch 6458
hier 6438
hei@@ 6400
hat 6400
o 6388
nen 6334
also 6295
ir@@ 6288
mach@@ 6266
all@@ 6220
werden 6166
Menschen 6161
ben@@ 6150
gibt 6149
lie@@ 6117
dieser 6116
können 6115
Sp@@ 6054
ist@@ 6049
f 6043
eu@@ 6012
fin@@ 6010
ag@@ 5925
z 5904
men 5900
che 5893
r 5869
gan@@ 5861
ör@@ 5850
nach 5845
war@@ 5788
ber@@ 5752
kt@@ 5696
Wenn 5694
te. 5675
kann 5674
ige 5650
di@@ 5646
etwas 5644
dar@@ 5625
lei@@ 5614
Pro@@ 5605
se 5601
wen@@ 5600
hat@@ 5596
vor 5580
cht 5574
ell@@ 5565
d, 5541
n, 5443
iert 5408
hn@@ 5382
igen 5352
lichen 5347
ger@@ 5342
wird 5325
mehr 5310
geh@@ 5302
den, 5254
bei@@ 5250
ran@@ 5240
ische 5236
ach@@ 5228
liche 5205
alle 5184
Ein@@ 5167
ssen 5161
ischen 5160
rie@@ 5142
gel@@ 5138
ft 5112
and 5092
gr@@ 5066
zen 5015
icht@@ 5013
kt 5006
ün@@ 4987
we@@ 4927
e. 4925
Au@@ 4923
lu@@ 4923
mir 4917
- 4903
men@@ 4894
habe 4862
ste 4839
zum 4819
eines 4803
Al@@ 4767
tra@@ 4754
durch 4726
hal@@ 4700
lan@@ 4700
äu@@ 4686
isch@@ 4668
se@@ 4661
fü@@ 4652
är@@ 4628
so@@ 4596
hl@@ 4581
er, 4567
im@@ 4560
op@@ 4558
immer 4557
wer@@ 4546
i 4532
ing@@ 4530
me 4529
sehen 4526
groß@@ 4489
ieren 4487
all 4484
." 4482
Gr@@ 4480
wa@@ 4479
unter@@ 4474
mö@@ 4453
zi@@ 4432
weil 4430
ri@@ 4419
he@@ 4384
Ihnen 4373
d. 4355
woll@@ 4352
U@@ 4351
mer@@ 4341
su@@ 4330
gt 4330
ho@@ 4328
us@@ 4326
" 4323
ul@@ 4284
wirklich 4260
gen, 4241
cht@@ 4238
Er 4231
mit@@ 4205
Welt 4201
ma@@ 4196
icht 4178
unsere 4174
to@@ 4173
könn@@ 4161
ot@@ 4156
wel@@ 4118
En@@ 4114
viel 4099
on 4095
per@@ 4089
al 4086
ll@@ 4086
den. 4079
ist. 4079
ken 4078
schaf@@ 4049
meine 4036
wi@@ 4034
for@@ 4034
gef@@ 4029
wur@@ 4025
dieses 4012
man@@ 4011
Was 3999
sen 3990
ihre 3982
Vor@@ 3972
hin@@ 3961
ation@@ 3951
gesch@@ 3941
keine 3902
arbei@@ 3901
keit 3856
soll@@ 3844
kti@@ 3836
Dan@@ 3835
kei@@ 3830
diesem 3813
tz@@ 3763
gew@@ 3758
k 3745
De@@ 3731
ha@@ 3729
ts 3722
ig 3710
heit 3699
dr@@ 3679
ung, 3671
ür@@ 3666
sam@@ 3646
ze 3638
führ@@ 3629
viele 3621
ungs@@ 3619
y 3616
sich@@ 3616
steh@@ 3602
x@@ 3598
ze@@ 3579
We@@ 3573
fen 3562
da 3556
diesen 3553
ob@@ 3551
ation 3537
mo@@ 3533
wor@@ 3521
In 3519
Fra@@ 3516
Bil@@ 3497
Zu@@ 3468
eigen@@ 3454
ern 3453
ts@@ 3453
Or@@ 3445
Ma@@ 3436
sein 3431
be 3425
ap@@ 3422
glei@@ 3418
spiel@@ 3414
bl@@ 3407
wo 3400
wo@@ 3398
♫ 3397
inn@@ 3396
wür@@ 3384
wurde 3379
du@@ 3354
komm@@ 3353
äh@@ 3348
gen. 3338
glau@@ 3326
kun@@ 3319
Der 3318
Also 3307
Proble@@ 3304
utz@@ 3293
fa@@ 3291
and@@ 3287
me@@ 3270
ander@@ 3257
ten@@ 3239
n. 3237
de, 3233
Unter@@ 3230
äl@@ 3227
ah@@ 3220
ste@@ 3214
imm@@ 3211
zur 3209
zwei 3209
Wie 3200
tig 3190
iel@@ 3183
und@@ 3177
ur 3177
mein@@ 3168
andere 3167
ne@@ 3163
ung. 3157
Leute 3155
hr@@ 3142
u 3141
Leben 3138
ihr 3133
ien 3130
letz@@ 3128
pass@@ 3126
pf@@ 3124
en? 3118
ön@@ 3113
ück@@ 3109
2@@ 3101
ß 3092
Mill@@ 3085
seh@@ 3082
af@@ 3080
Ent@@ 3076
haben, 3060
ati@@ 3054
Ges@@ 3046
einfach 3041
lau@@ 3037
bis 3024
m, 3010
h 3008
ge, 3008
jetzt 3007
anderen 3002
under@@ 3000
ent 2990
versch@@ 2981
gu@@ 2971
ih@@ 2963
mal 2954
ik 2944
eit@@ 2943
sit@@ 2938
Aus@@ 2935
kom@@ 2917
ellen 2915
brau@@ 2913
Un@@ 2908
nach@@ 2904
sie@@ 2902
ster@@ 2890
ft@@ 2882
isch 2877
Zeit 2875
Wel@@ 2870
iger 2869
bin 2866
ale 2860
glich@@ 2857
dig@@ 2855
änder@@ 2853
a, 2849
hl 2847
et 2847
fol@@ 2846
chte 2840
nich@@ 2834
fra@@ 2819
Art 2815
müssen 2807
ne 2804
Bei@@ 2799
For@@ 2794
mei@@ 2793
teil@@ 2767
schn@@ 2763
art@@ 2760
Jahren 2754
weiter@@ 2753
enschaf@@ 2743
0@@ 2741
er. 2730
damit 2729
ben, 2729
fahr@@ 2726
bess@@ 2721
fan@@ 2712
unser@@ 2706
sehen, 2705
kommen 2699
rau@@ 2699
chen, 2685
eil@@ 2680
mein 2675
sa@@ 2668
du 2662
ckl@@ 2657
hatte 2654
dies 2649
sind, 2647
ehr@@ 2644
chn@@ 2643
em 2640
ss 2616
konn@@ 2615
Mensch@@ 2612
ex@@ 2610
pp@@ 2606
äch@@ 2605
ie, 2604
ende 2593
Man 2589
Kon@@ 2588
ant@@ 2585
denen 2583
zusam@@ 2580
Jahre 2579
ens 2579
.@@ 2579
wiss@@ 2572
alles 2566
no@@ 2555
ob 2554
versu@@ 2549
denn 2535
waren 2533
elle 2530
or 2527
ich, 2527
Ide@@ 2518
Jahr@@ 2517
ke 2512
schein@@ 2511
ahr@@ 2506
Dinge 2505
oll@@ 2495
wär@@ 2492
de. 2491
dan@@ 2488
b 2484
etz@@ 2479
rit@@ 2477
haben. 2473
ieren. 2465
pr@@ 2463
neu@@ 2455
schen 2440
sind. 2437
alen 2425
her 2421
fe@@ 2417
ic@@ 2407
Auf@@ 2405
sol@@ 2405
schie@@ 2403
schaft 2397
ken@@ 2389
sel@@ 2382
st, 2375
ann@@ 2374
pl@@ 2373
bar@@ 2371
vielleicht 2370
Mit@@ 2368
neh@@ 2367
bin@@ 2365
ionen 2358
selbst 2354
schon 2339
Man@@ 2337
eit 2337
ieren, 2328
halb 2325
Inter@@ 2302
ben. 2301
war, 2299
wahr@@ 2298
hör@@ 2298
machen 2294
Sy@@ 2288
iz@@ 2283
Le@@ 2275
gra@@ 2273
wan@@ 2272
spre@@ 2264
ganz 2264
5 2252
bau@@ 2252
Te@@ 2249
ht 2248
be, 2245
wieder 2243
ihnen 2238
ar 2235
einige 2223
fl@@ 2222
tre@@ 2215
fühl@@ 2214
Diese 2211
größ@@ 2211
schau@@ 2208
4@@ 2206
el 2206
Hier 2205
gl@@ 2201
werden. 2198
Frau@@ 2196
muss 2194
rum 2193
del@@ 2190
ion@@ 2190
tel@@ 2189
em@@ 2188
können. 2186
form@@ 2181
Ab@@ 2176
aten 2164
ser@@ 2159
Se@@ 2157
geht 2157
macht 2156
Gen@@ 2152
Fre@@ 2147
00 2147
zie@@ 2137
ak@@ 2136
ähr@@ 2135
viel@@ 2128
enn@@ 2126
et, 2122
3@@ 2120
oo@@ 2120
ßen 2117
chen. 2116
iert. 2110
Um@@ 2108
qu@@ 2107
seine 2107
besch@@ 2102
kon@@ 2094
ück 2093
Mo@@ 2092
Per@@ 2091
Nach@@ 2090
meiner 2088
so, 2086
nicht, 2086
heute 2084
Leben@@ 2082
5@@ 2081
Wei@@ 2078
sto@@ 2077
paar 2075
TED 2070
zeu@@ 2067
mlich 2065
setz@@ 2062
end 2059
kam@@ 2056
us 2047
han@@ 2043
nah@@ 2042
Her@@ 2042
best@@ 2032
ens@@ 2031
ihn 2030
weise 2024
Stu@@ 2023
chten 2017
sondern 2016
men, 2015
Gehir@@ 1997
ingen 1991
unserer 1984
wicht@@ 1982
drei 1981
mu@@ 1975
möchte 1969
kenn@@ 1968
mal@@ 1964
Ein 1963
Als 1962
?" 1954
entwick@@ 1949
ill@@ 1946
mat@@ 1945
unter 1944
tun 1941
dung 1939
ationen 1939
; 1939
mü@@ 1937
kann@@ 1931
können, 1928
Wo@@ 1927
würde 1923
erzähl@@ 1922
schei@@ 1916
durch@@ 1913
tet 1913
stän@@ 1913
vom 1912
age 1911
nehmen 1911
wissen 1911
Sach@@ 1907
tatsächlich 1907
genau 1905
neue 1903
ies@@ 1901
he 1895
it 1893
Wass@@ 1893
Viel@@ 1888
zwischen 1886
ch, 1885
iert, 1883
zwei@@ 1882
lin@@ 1882
spr@@ 1880
dort 1880
Ber@@ 1874
te: 1870
ät@@ 1870
8@@ 1865
gut 1862
tr@@ 1858
ges 1856
str@@ 1854
tlich 1852
Mar@@ 1850
sen@@ 1848
Kinder 1847
an, 1846
ssen, 1843
ssen. 1839
son@@ 1834
zurück@@ 1832
irgend@@ 1832
ges@@ 1830
Geschichte 1825
ve 1825
funktion@@ 1822
19@@ 1822
natür@@ 1820
richt@@ 1819
versteh@@ 1818
ess@@ 1818
öff@@ 1816
ion 1816
äd@@ 1814
hen 1811
hät@@ 1808
Da@@ 1804
ität 1803
Technolog@@ 1798
werde 1792
sein. 1792
nun 1791
Ih@@ 1788
veränder@@ 1784
halten 1783
pro@@ 1782
ko@@ 1780
enden 1778
ere 1776
Jahr 1775
es, 1770
bil@@ 1764
inter@@ 1762
mus@@ 1760
unden 1759
interess@@ 1758
ken, 1758
Gesch@@ 1756
Nun, 1754
Geb@@ 1752
sein, 1751
fr@@ 1749
bedeut@@ 1748
kein 1747
davon 1741
sogar 1741
is 1739
ierte 1738
alle@@ 1737
Dies 1737
kan@@ 1736
as@@ 1735
det 1735
0 1735
doch 1734
Wir@@ 1729
Schul@@ 1727
olog@@ 1721
ohne 1718
st. 1717
Teil 1716
werden, 1716
Bu@@ 1715
Leu@@ 1714
heraus@@ 1709
pt@@ 1708
näch@@ 1706
pu@@ 1705
Wiss@@ 1705
6@@ 1705
ie. 1703
gehen 1701
Ex@@ 1697
mand 1697
tion@@ 1694
erg@@ 1690
nie@@ 1690
ihr@@ 1690
g, 1689
Talk 1687
mensch@@ 1685
einfach@@ 1682
ster 1682
ihren 1679
Rau@@ 1677
men. 1676
War@@ 1676
! 1664
Eine 1663
unser 1660
schl@@ 1654
m. 1653
voll@@ 1647
an. 1646
kte 1644
bt 1642
ös@@ 1641
Wer@@ 1641
ag 1636
Subtitles 1632
Transcript: 1632
Proz@@ 1632
gerade 1629
Über@@ 1624
So@@ 1624
gab 1623
Nat@@ 1623
schaff@@ 1622
hat, 1621
kann. 1617
Zei@@ 1614
aus, 1612
gib@@ 1609
bewe@@ 1609
hän@@ 1608
9@@ 1608
Di@@ 1607
ersten 1605
ließ@@ 1603
Rei@@ 1602
hier@@ 1602
wie@@ 1601
Ihre 1594
enz@@ 1593
Mon@@ 1593
nie 1592
Mat@@ 1590
Com@@ 1588
etzt 1584
Sie, 1580
beit 1578
wach@@ 1577
während 1577
Mus@@ 1575
wa 1570
et. 1567
Fü@@ 1563
nis 1563
kr@@ 1559
sagen, 1558
gt, 1558
kommt 1557
darüber 1556
kur@@ 1554
eil 1553
ing 1553
sy@@ 1552
So 1550
zieh@@ 1544
7@@ 1544
gab@@ 1537
ult@@ 1535
spiel 1533
sagen 1532
einmal 1526
beg@@ 1525
ger 1523
stan@@ 1522
Dies@@ 1520
t: 1518
spe@@ 1516
cht, 1514
star@@ 1511
Bi@@ 1506
stat@@ 1506
win@@ 1504
Kinder@@ 1504
k. 1501
mm@@ 1491
To@@ 1489
gest@@ 1489
gi@@ 1488
rich@@ 1479
si@@ 1478
Ger@@ 1478
tig@@ 1476
erste 1474
The@@ 1472
a. 1472
ler 1471
fer@@ 1469
Ant@@ 1469
Je@@ 1469
pa@@ 1468
g. 1462
Univer@@ 1457
end@@ 1456
eren 1450
Q@@ 1447
sonder@@ 1447
tes 1445
Kin@@ 1438
sche 1436
tun@@ 1432
ele@@ 1431
ähl@@ 1430
Ta@@ 1419
erz@@ 1419
Ä@@ 1419
vi@@ 1418
ass@@ 1418
A 1411
weg@@ 1409
eri@@ 1402
ide@@ 1402
ig. 1401
Medi@@ 1398
erst 1394
ick@@ 1393
ein, 1389
get@@ 1386
eld 1384
Na@@ 1383
ck 1382
ast@@ 1381
Do@@ 1378
gier@@ 1376
Y@@ 1376
sta@@ 1376
stellen 1374
Ö@@ 1372
Geschich@@ 1364
zel@@ 1361
Wa@@ 1360
un, 1355
La@@ 1353
es@@ 1350
ter, 1346
bel@@ 1346
amil@@ 1342
ont@@ 1342
stem 1337
sin@@ 1333
sor@@ 1327
li@@ 1326
iss@@ 1326
og@@ 1322
ple@@ 1322
hel@@ 1318
2 1317
at 1316
berei@@ 1311
verl@@ 1304
", 1303
itu@@ 1302
". 1297
Men@@ 1295
eite 1292
Ho@@ 1290
allen 1288
ber 1282
hil@@ 1282
.000 1281
ge. 1280
na@@ 1280
tro@@ 1275
Gro@@ 1273
zur@@ 1267
ert 1267
zin@@ 1264
en: 1255
ka@@ 1248
ffen 1247
son 1246
10 1239
verb@@ 1236
des@@ 1231
ktion@@ 1226
ad@@ 1219
'@@ 1217
y, 1215
nor@@ 1215
hy@@ 1209
ler@@ 1206
handel@@ 1205
will@@ 1202
ven 1201
oren 1200
ig, 1196
ment@@ 1194
issen 1191
itä@@ 1185
za@@ 1181
Bo@@ 1180
har@@ 1180
Indi@@ 1173
v 1171
„@@ 1171
tel 1168
do@@ 1167
wil@@ 1166
alis@@ 1162
20@@ 1162
nam@@ 1160
denken 1157
ging 1153
enen 1150
pen 1150
inner@@ 1148
,@@ 1144
ander 1139
Ne@@ 1137
enn 1122
min@@ 1121
stand 1121
le 1120
vier 1116
kleine 1114
amer@@ 1113
bi@@ 1113
rop@@ 1094
ve@@ 1094
tu@@ 1094
spro@@ 1085
t? 1083
iel 1079
hab@@ 1079
dru@@ 1077
ort@@ 1076
meh@@ 1075
stru@@ 1070
ker@@ 1069
kt, 1064
genom@@ 1064
ingen, 1064
mp@@ 1062
p 1058
kel@@ 1055
50 1046
mel@@ 1045
en." 1043
lang@@ 1042
cht. 1042
20 1039
deut@@ 1037
verk@@ 1037
lat@@ 1033
... 1031
bet@@ 1029
was, 1029
les 1027
ontro@@ 1024
lang 1021
entr@@ 1020
ken. 1017
per 1016
Afrik@@ 1010
eg@@ 1007
elt 1004
volu@@ 1003
bo@@ 984
3 981
zo@@ 980
dt 977
pt 971
dre@@ 969
200@@ 964
Ro@@ 963
ohn@@ 957
mor@@ 954
bew@@ 951
ief@@ 951
% 949
ollar 944
as 941
produ@@ 939
ort 938
dig 938
El@@ 935
yp@@ 933
vert@@ 932
ta@@ 928
sl@@ 926
4 923
8 922
net 921
x 918
un 918
ier 914
ieden@@ 913
Chin@@ 913
bra@@ 911
aa@@ 910
Ihr@@ 907
lange 905
sign@@ 905
tsch@@ 900
Amerik@@ 899
kre@@ 896
ingen. 894
po@@ 892
ac@@ 891
net@@ 890
gen: 890
gro@@ 886
1 886
wal@@ 883
von@@ 878
sig@@ 877
dies@@ 875
k, 874
Me@@ 869
ene 861
dien@@ 854
selb@@ 852
au 850
gele@@ 847
peri@@ 828
pun@@ 827
kten 826
eer@@ 805
inder@@ 800
uren 799
stu@@ 799
6 798
30 798
“ 789
kra@@ 787
bu@@ 773
ment 767
♪ 765
ron@@ 762
ter. 753
bre@@ 752
met@@ 752
7 747
New 745
ine 742
TE@@ 742
mar@@ 741
vol@@ 735
gar 732
kt. 731
ef@@ 729
je 723
dit@@ 722
gang 719
Geh@@ 713
ganis@@ 710
ou@@ 709
polit@@ 707
ip@@ 703
öß@@ 703
bare 702
leg@@ 700
Jah@@ 696
omm@@ 694
elleicht 690
00@@ 689
[@@ 686
sein@@ 666
wirkl@@ 664
anders 660
olit@@ 656
ga@@ 654
land 653
000 653
eff@@ 641
let@@ 639
pre@@ 638
llen 626
kel 619
del 617
gende 616
ban@@ 613
kor@@ 605
mens@@ 604
fun@@ 600
einf@@ 598
's 596
gewe@@ 594
ke@@ 592
ser 589
ats@@ 588
syste@@ 586
aut@@ 586
mon@@ 581
par@@ 580
] 578
begr@@ 577
ub@@ 576
9 573
stre@@ 569
Tran@@ 547
dro@@ 540
verh@@ 534
ing, 530
ker 527
ven@@ 525
is, 524
S 520
ver 519
ed@@ 512
bas@@ 511
w 506
organis@@ 503
vat@@ 501
ks 501
worden 499
kop@@ 493
vis@@ 492
om 492
weg 488
fo@@ 481
id@@ 477
plan@@ 474
Ü@@ 470
gend@@ 468
' 464
medi@@ 463
rel@@ 462
enor@@ 458
ieder@@ 452
dra@@ 445
!@@ 442
app@@ 441
ies 431
aat@@ 419
c 416
is. 413
geda@@ 408
the@@ 407
vo@@ 403
atsächlich 403
il 402
iken 400
ir 396
ährend 391
?@@ 383
ant 382
die@@ 382
heu@@ 382
ds 379
el, 378
aar@@ 366
ers 365
heb@@ 355
op 354
ing. 353
On@@ 352
&@@ 344
werk 341
fil@@ 333
sc@@ 333
ci@@ 332
het@@ 329
begin@@ 327
dur@@ 327
ull@@ 324
Tal@@ 323
atie 322
kle@@ 321
/@@ 321
mis@@ 321
»@@ 320
tit@@ 315
ool@@ 314
inge 314
van@@ 314
werk@@ 310
kin@@ 308
;@@ 305
el. 304
ov@@ 302
ce@@ 300
zon@@ 299
technolog@@ 296
of 291
ons 289
co@@ 289
dige 280
ensch@@ 278
mil@@ 276
hu@@ 274
atsäch@@ 266
« 262
ings@@ 260
gez@@ 259
worden. 257
C 255
va@@ 254
I 254
“@@ 254
gebie@@ 248
iver@@ 246
eigen 243
oe@@ 243
echt 243
ot 238
ief 237
gebe@@ 234
–@@ 233
uit@@ 230
D 226
chts 225
energ@@ 224
V 224
proble@@ 216
var@@ 213
ct@@ 213
gens 207
ble@@ 205
Sub@@ 203
T 202
— 196
ade 193
ellei@@ 192
oor@@ 190
 @@ 189
X@@ 188
..@@ 184
iemand 184
sn@@ 181
geme@@ 181
com@@ 178
was. 174
sla@@ 168
een 164
O 160
ond 159
P 157
frik@@ 156
Je 155
zei 155
zit@@ 154
ook 152
schien 151
mom@@ 150
wet@@ 144
]@@ 144
kk@@ 143
merik@@ 142
na 139
%@@ 137
stel@@ 133
sle@@ 131
aat 130
ele 129
fach 128
ds@@ 127
:@@ 126
entwi@@ 123
ders 121
N 121
B 116
aar 114
vin@@ 108
zwi@@ 105
é@@ 104
onder@@ 104
twe@@ 102
erg 101
aal 101
nat@@ 98
eren. 92
mee 91
$@@ 91
M 90
jo@@ 84
E 81
«@@ 80
ed 80
ct 78
lev@@ 77
van 77
werken 76
over 73
” 72
L 71
tot 70
olla@@ 68
chnolog@@ 68
K 68
R 66
over@@ 66
›@@ 66
kwa@@ 64
ek 63
kinder@@ 63
… 63
staat 63
q@@ 62
U 62
zet@@ 62
bren@@ 61
zwe@@ 61
/ 60
X 59
$ 59
kön@@ 57
G 57
dus 56
β@@ 56
W 55
elen 54
hebt 54
met 54
pen. 54
aal@@ 54
é 53
ij@@ 53
hem 53
’@@ 51
con@@ 51
dat 50
we 50
had 50
dit 49
cre@@ 49
F 47
á@@ 45
H 43
dan 42
hoo@@ 39
doo@@ 38
= 38
♫@@ 38
‹@@ 37
oon 36
[ 35
ef 34
dacht 34
°@@ 33
kan 32
½ 32
ap 31
ó@@ 31
open 31
í@@ 31
Q 30
‘ 30
´@@ 30
+ 30
‹ 29
» 28
een@@ 28
‘@@ 28
² 28
elk@@ 28
Y 27
ç@@ 27
è@@ 27
conom@@ 26
ding 26
ga 25
Z 25
hou@@ 24
moe@@ 24
aar. 24
‟ 24
had@@ 24
jon@@ 23
onge@@ 23
‒ 23
_@@ 23
‚@@ 22
zor@@ 22
meer 22
belan@@ 21
We 21
af 20
) 20
J 18
Ze 18
jar@@ 18
werel@@ 18
ã@@ 18
@@@ 16
erde 16
mee@@ 16
j 16
ñ@@ 15
iets 14
—@@ 14
° 14
kon 14
weet 14
'n 14
erd 14
oor 13
idee 13
De 13
”@@ 12
zelf@@ 12
+@@ 12
heid 11
mid@@ 11
hoe@@ 10
ü 10
het 10
à 10
#@@ 10
aan@@ 10
’ 10
zien 10
zo 10
mensen 9
onder 9
uit 9
vre@@ 9
­@@ 9
²@@ 8
…@@ 8
á 8
à@@ 8
zie 8
@@ 8
willen 8
ø@@ 8
wel 7
eel 7
€ 7
onze 7
boe@@ 7
werd 6
bep@@ 6
(@@ 6
ó 6
uw@@ 6
eens 5
eft 5
denk 5
=@@ 5
samen@@ 5
kken 5
hoe 5
^ 5
í 5
gev@@ 5
@@ 5
  4
´ 4
dingen 4
É@@ 4
q 4
â@@ 4
ê@@ 4
^@@ 4
½@@ 4
„ 4
hun 4
_ 4
@@ 4
¼ 3
aan 3
œ@@ 3
¥ 3
ú@@ 3
act@@ 3
™ 3
door 3
ā@@ 3
wat 3
`@@ 3
*@@ 3
raa@@ 3
eg 3
zeg@@ 3
β 3
aam 3
ô@@ 3
vri@@ 3
è 3
‟@@ 3
door@@ 3
Å@@ 3
×@@ 3
vanda@@ 2
toe@@ 2
manier 2
niet 2
♪@@ 2
³ 2
haar 2
® 2
ë@@ 2
noe@@ 2
` 2
heb 2
vra@@ 2
komen 2
ö 2
ý@@ 2
Á@@ 2
ć@@ 2
¶ 2
€@@ 2
¡@@ 2
ī@@ 2
ieve 2
¾ 1
teru@@ 1
want 1
* 1
En 1
)@@ 1
heel 1
© 1
@ 1
zoe@@ 1
к@@ 1
š@@ 1
£ 1
Ç@@ 1
ï@@ 1
， 1
nu 1
î@@ 1
gebru@@ 1
Nu 1
bij@@ 1
Ӓ@@ 1
ō@@ 1
送@@ 1
你@@ 1
葱 1
³@@ 1
beel@@ 1
﻿@@ 1
aak 1
vro@@ 1
 1
@@ 1
Č@@ 1
ć 1
Ű@@ 1
maa@@ 1
ě@@ 1
ï 1
leven 1
ā 1
ū@@ 1
én 1
