die 85135
und 77371
der 58342
in 46641
zu 44308
das 43481
ist 39338
es 38226
ich 37253
wir 37011
Sie 29630
sie 29334
den 28979
ein 28891
von 28664
eine 27370
dass 27269
Und 24795
nicht 23466
mit 21927
auf 19308
wie 18553
Ich 18449
sich 17838
er 17643
für 17072
man 14492
als 14252
um 13897
Das 13691
t 13414
an 13356
. 13149
ten 13126
, 12950
Es 12876
was 12632
dem 12545
sind 12500
diese 12410
im 12204
so 12186
t, 11911
er@@ 11907
einen 11683
Wir 11655
wenn 11284
te 11269
haben 11061
e 11054
t. 11050
en, 11036
des 10499
war 10312
uns 10236
-@@ 9934
t@@ 9735
über 9723
oder 9689
en. 9504
"@@ 9307
einer 9238
einem 9051
ung 8957
an@@ 8916
aber 8893
auch 8745
ge@@ 8615
ver@@ 8611
Die 8598
Aber 8556
aus 8477
be@@ 8467
en 8342
nur 7851
en@@ 7814
-- 7691
ist, 7644
– 7487
sehr 7484
S@@ 7307
un@@ 7223
s@@ 7173
: 7042
s 6921
ein@@ 6811
dann 6671
T@@ 6592
mich 6540
st@@ 6519
noch 6458
sch@@ 6441
hier 6438
hat 6400
also 6295
K@@ 6214
werden 6166
Menschen 6161
gibt 6149
dieser 6116
können 6115
m@@ 6103
Ver@@ 6072
f@@ 5961
nach 5845
B@@ 5808
Sch@@ 5686
h@@ 5679
kann 5674
z@@ 5660
k@@ 5650
A@@ 5648
etwas 5644
bei 5612
ten, 5591
Wenn 5519
ent@@ 5504
d@@ 5473
auf@@ 5463
g@@ 5438
F@@ 5427
e, 5408
wird 5325
mehr 5310
H@@ 5303
alle 5184
s, 5175
b@@ 5145
? 5139
aus@@ 5108
P@@ 5092
R@@ 4943
mir 4917
- 4903
habe 4862
An@@ 4821
zum 4819
ab@@ 4765
r@@ 4742
Be@@ 4616
ch@@ 4608
te, 4590
immer 4557
durch 4495
M@@ 4480
vor 4462
weil 4430
zu@@ 4407
ungen 4380
Ihnen 4373
L@@ 4361
D@@ 4355
am 4302
ischen 4287
wirklich 4260
Er 4231
Welt 4201
ä@@ 4188
über@@ 4178
unsere 4174
um@@ 4163
n@@ 4138
in@@ 4104
viel 4099
E@@ 4086
ten. 4083
ist. 4079
n 4074
meine 4036
dieses 4012
st 3989
e@@ 3986
ihre 3982
iert 3940
s. 3915
keine 3902
ieren 3855
p@@ 3854
W@@ 3838
diesem 3813
G@@ 3798
ter 3791
N@@ 3773
sehen 3766
ische 3764
ss@@ 3753
a 3719
a@@ 3718
e. 3662
viele 3621
Was 3620
re@@ 3600
eines 3597
C@@ 3589
." 3585
vor@@ 3570
gen 3566
da 3556
o@@ 3555
diesen 3553
er, 3526
d 3522
In 3519
ung, 3408
Ein@@ 3407
♫ 3397
Er@@ 3391
i@@ 3389
wurde 3379
ck@@ 3372
St@@ 3358
al@@ 3357
Re@@ 3318
Der 3318
Also 3307
ü@@ 3288
" 3284
l@@ 3277
O@@ 3232
zur 3209
zwei 3209
sein 3199
andere 3167
Leute 3155
ar@@ 3144
chen 3141
Leben 3138
ihr 3133
ier@@ 3088
wo 3084
haben, 3060
einfach 3041
igen 3029
bis 3024
sten 3023
jetzt 3007
anderen 3002
le@@ 2997
it@@ 2993
ge 2974
u@@ 2967
Ge@@ 2957
Wie 2953
ung. 2945
lich 2933
y@@ 2911
ungs@@ 2901
at@@ 2899
ur@@ 2895
Zeit 2875
da@@ 2873
bin 2866
te. 2846
y 2833
her@@ 2830
Art 2815
Z@@ 2815
müssen 2807
Vor@@ 2788
el@@ 2772
ö@@ 2754
Jahren 2754
ch 2748
m 2742
damit 2729
er. 2725
de 2716
g 2712
all 2705
w@@ 2704
se 2694
mein 2675
o 2670
du 2662
hatte 2654
dies 2649
sind, 2647
den, 2634
ter@@ 2623
ern 2622
et@@ 2621
or@@ 2611
n, 2601
Aus@@ 2592
Man 2589
en? 2581
Jahre 2579
i 2574
alles 2566
den@@ 2541
denn 2535
waren 2533
men 2521
gen. 2517
ige 2516
hin@@ 2516
ik@@ 2516
Dinge 2505
liche 2499
gesch@@ 2498
gen, 2482
haben. 2473
lei@@ 2456
lichen 2449
den. 2443
ieren. 2437
sind. 2437
ie 2424
ste 2408
al 2405
gel@@ 2401
ben 2390
vielleicht 2370
is@@ 2368
selbst 2354
d, 2345
ig@@ 2340
schon 2339
ob 2337
and 2334
n. 2331
cht@@ 2330
ation 2320
ieren, 2303
war, 2299
machen 2294
der@@ 2290
z 2290
et 2287
ger@@ 2280
de@@ 2271
ganz 2264
wei@@ 2262
In@@ 2261
sehen, 2256
fen 2248
unter@@ 2244
wieder 2243
ihnen 2238
einige 2223
Diese 2211
ei@@ 2205
Hier 2205
werden. 2198
muss 2194
können. 2186
Ab@@ 2176
au@@ 2174
l 2174
sen 2170
rei@@ 2170
ro@@ 2167
Un@@ 2165
geht 2157
on@@ 2148
elle 2128
isch 2117
seine 2107
wer@@ 2097
d. 2096
Sp@@ 2093
meiner 2088
nicht, 2086
heute 2084
paar 2075
TED 2070
J@@ 2061
gen@@ 2045
ien 2039
I@@ 2038
sp@@ 2037
ber@@ 2035
ihn 2030
gt 2022
h 2018
sondern 2016
unserer 1984
drei 1981
mal 1979
st, 1969
möchte 1969
ung@@ 1967
Ein 1963
ten@@ 1953
la@@ 1946
Als 1945
unter 1944
tun 1941
wa@@ 1931
können, 1928
kl@@ 1926
würde 1923
denen 1918
vom 1912
wissen 1911
ir@@ 1910
tatsächlich 1907
genau 1905
neue 1903
ul@@ 1897
zwischen 1886
dort 1880
ag@@ 1868
gut 1862
ben@@ 1857
ende 1855
Ar@@ 1851
Kinder 1847
an, 1846
ra@@ 1833
di@@ 1829
ss 1827
Geschichte 1825
V@@ 1825
ist@@ 1822
kt@@ 1817
qu@@ 1811
se@@ 1804
all@@ 1801
ts@@ 1796
br@@ 1793
werde 1792
sein. 1792
nun 1791
lie@@ 1785
Jahr 1775
es, 1770
ig 1763
ie@@ 1759
lich@@ 1757
ge, 1755
Nun, 1754
Al@@ 1753
sein, 1751
che 1749
kein 1747
ellen 1745
ru@@ 1743
davon 1741
sogar 1741
de, 1740
Dies 1737
m, 1727
ohne 1718
em 1717
Teil 1716
werden, 1716
il@@ 1712
ti@@ 1707
am@@ 1702
gehen 1701
te@@ 1695
ik 1689
Talk 1687
hal@@ 1685
ssen 1685
wir@@ 1682
ihren 1679
ich, 1678
Le@@ 1677
nen 1670
! 1664
Eine 1663
unser 1660
im@@ 1653
durch@@ 1648
an. 1646
end 1641
kommen 1641
lo@@ 1639
Subtitles 1632
Transcript: 1632
gerade 1629
f 1628
Über@@ 1624
gab 1623
hat, 1621
?" 1618
kann. 1617
heit 1614
me 1611
Kon@@ 1606
ersten 1605
Se@@ 1599
Ihre 1594
nie 1592
zen 1582
Sie, 1580
während 1577
ts 1575
ierte 1572
op@@ 1567
sagen, 1558
darüber 1556
Auf@@ 1555
So 1550
enden 1546
alen 1542
sagen 1532
hn@@ 1530
einmal 1526
c@@ 1517
letzten 1508
jeder 1503
; 1499
k 1498
är@@ 1496
Millionen 1491
iert, 1490
Zu@@ 1487
ch, 1486
tet 1483
st. 1479
ell@@ 1478
erste 1474
nicht. 1464
meinen 1463
ale 1462
etwa 1461
3@@ 1455
mit@@ 1455
zi@@ 1455
wird. 1454
ihrer 1447
ft 1443
ho@@ 1440
nach@@ 1440
kt 1436
b 1434
warum 1433
hat. 1432
war@@ 1432
machen. 1432
meisten 1420
iert. 1420
as@@ 1417
ze 1417
meinem 1417
geb@@ 1416
ganze 1408
dazu 1408
hatten 1406
be 1404
große 1403
us@@ 1403
pf@@ 1402
isch@@ 1396
ken 1396
ma@@ 1389
ut@@ 1386
gegen 1385
ha@@ 1384
könnte 1382
dar@@ 1379
Beispiel 1377
om@@ 1374
än@@ 1372
ster 1372
De@@ 1368
zei@@ 1365
ziemlich 1365
ün@@ 1363
ster@@ 1361
gef@@ 1356
Tag 1355
Nach@@ 1355
ungen, 1353
sen@@ 1352
ben. 1352
Ma@@ 1352
sagte 1350
bei@@ 1350
2@@ 1349
me@@ 1343
v@@ 1342
nichts 1342
sagte: 1341
ät@@ 1339
wurden 1338
U@@ 1337
Frauen 1335
nehmen 1333
ben, 1331
Problem 1326
ing@@ 1319
.@@ 1318
wissen, 1312
ri@@ 1310
chten 1307
j@@ 1306
", 1303
sieht 1302
war. 1300
men@@ 1300
". 1297
kommt 1291
ot@@ 1291
Pro@@ 1290
el 1288
welche 1282
Prozent 1279
aus. 1275
Arbeit 1273
kann, 1271
unseren 1264
wäre 1257
en: 1255
chen. 1254
stell@@ 1251
ens@@ 1250
ne@@ 1247
wird, 1247
doch 1247
lich, 1247
Mar@@ 1246
eu@@ 1246
10 1239
Im 1237
he@@ 1235
kleinen 1233
ationen 1231
weniger 1229
tra@@ 1229
m. 1226
g, 1225
heraus@@ 1225
cht 1225
iger 1224
kon@@ 1222
iz@@ 1222
macht 1208
ser@@ 1205
ins 1203
so@@ 1197
fa@@ 1192
geben 1192
schen 1192
eh@@ 1190
sa@@ 1188
chen, 1186
zwei@@ 1185
ich@@ 1185
Ihr 1183
dr@@ 1181
Spiel@@ 1181
ff@@ 1181
gew@@ 1177
bar 1174
äu@@ 1173
Menschen, 1171
„@@ 1171
hei@@ 1170
to@@ 1169
ur 1169
ft@@ 1164
ter, 1162
ig. 1160
ging 1153
das, 1153
En@@ 1150
ie, 1150
le, 1147
Dann 1146
dabei 1145
ern@@ 1143
dafür 1143
Ende 1142
äl@@ 1142
sse 1140
We@@ 1139
großen 1138
ß@@ 1135
t: 1131
de. 1131
ganzen 1128
on 1128
denken 1126
licher 1126
Di@@ 1125
ischer 1123
viel@@ 1122
teil@@ 1120
eigentlich 1120
Par@@ 1120
sehen. 1119
Unter@@ 1118
vier 1116
man@@ 1116
machen, 1114
her 1114
kleine 1114
Frage 1109
wen@@ 1107
Land 1103
gest@@ 1102
allen 1101
zusammen@@ 1100
star@@ 1099
jemand 1099
hin 1098
ität 1097
kte 1093
weiter 1093
Denn 1090
spiel@@ 1089
natürlich 1087
keinen 1087
tes 1084
t? 1083
Qu@@ 1083
g. 1081
besser 1081
finden 1080
brau@@ 1078
gt, 1075
lan@@ 1074
ach@@ 1074
mach@@ 1071
dig@@ 1065
wor@@ 1064
Kom@@ 1062
zurück@@ 1062
Da@@ 1061
hl@@ 1061
ihm 1061
Wei@@ 1060
tun, 1060
halten 1060
ß 1059
besch@@ 1059
wi@@ 1058
indem 1056
mer@@ 1055
kam 1054
Menge 1054
Mal 1051
bt 1051
Bild 1050
ah@@ 1050
weise 1049
fol@@ 1049
x@@ 1048
beim 1047
ran@@ 1047
jeden 1045
Weg 1043
stellen 1043
en." 1043
Her@@ 1041
ion 1041
richt@@ 1040
20 1039
na@@ 1038
wollen 1038
Daten 1038
versch@@ 1035
seiner 1035
Gen@@ 1030
chte 1029
denke, 1027
seit 1027
su@@ 1024
end@@ 1023
Gegen@@ 1022
Ent@@ 1022
würden 1022
lang 1021
art@@ 1019
ie. 1018
Um@@ 1017
Lebens@@ 1017
Zeit@@ 1014
geh@@ 1013
ke 1010
igkeit 1009
eigenen 1008
Bau@@ 1008
det 1007
vielen 1006
bil@@ 1005
is 1005
Vielen 1004
äch@@ 1004
will 1003
Geld 1002
anzu@@ 1000
hr@@ 1000
aus, 995
ierten 995
leben 994
4@@ 993
zurück 991
lich. 990
... 989
ent 988
ne 986
sich@@ 986
we@@ 985
sollten 984
a, 984
ol@@ 982
darauf 980
ange@@ 979
frei@@ 979
fast 978
Au@@ 978
Da 977
verl@@ 977
Mo@@ 974
hol@@ 972
ze@@ 971
fin@@ 971
daran 970
tig 970
cht, 969
jedes 968
lu@@ 966
Idee 964
ert 963
sit@@ 961
fan@@ 960
vor, 959
Welt@@ 958
Gehirn 957
weiß 954
konnte 954
gute 953
ern. 953
ör@@ 953
ern, 952
bar@@ 951
ment@@ 950
et. 950
enz@@ 950
neuen 949
tun. 948
Stu@@ 948
spr@@ 948
gemacht 948
wunder@@ 947
ßen 946
Bi@@ 945
Dollar 944
Jetzt 941
wollte 941
bau@@ 940
glaube, 938
Wasser 937
lassen 937
pro 936
tig@@ 936
Ber@@ 935
geben, 935
no@@ 935
denken, 933
ob@@ 931
stehen 929
Wer@@ 929
us 928
'@@ 927
ander@@ 927
sen, 926
Dank. 926
tern 926
Dar@@ 924
wenig 924
r 922
unserem 921
ges@@ 921
af@@ 920
kun@@ 920
sollte 917
50 916
"Ich 916
Mit 915
wär@@ 915
stellen, 914
Warum 914
So@@ 914
y, 913
Du 913
erst 912
ktion 909
sin@@ 908
ste@@ 906
eren 905
lange 905
Zukunft 905
lau@@ 905
Ger@@ 903
sei@@ 903
enn@@ 901
or 901
Also, 901
kom@@ 900
Technologie 900
et, 900
gt. 899
ger 898
wegen 898
ja, 897
wahrscheinlich 897
gibt, 897
finden, 897
hen 894
führ@@ 893
seinen 892
men, 891
kur@@ 890
es. 890
ür@@ 889
wo@@ 889
je@@ 888
ssen, 887
du@@ 885
Seite 885
brauchen 882
rie@@ 882
sie@@ 881
mo@@ 881
ungen. 880
mu@@ 880
To@@ 879
do@@ 879
jede 878
weit 878
fünf 877
6@@ 877
nächsten 876
oft 876
kt, 875
liches 875
del@@ 874
ein, 873
keit 872
wir, 870
es@@ 869
str@@ 868
ionen 867
sagte, 867
stand 866
fe@@ 865
Ha@@ 865
ant@@ 863
ch. 863
ehr@@ 862
fl@@ 862
bel@@ 861
cken 860
etwas, 858
best@@ 858
ck 858
bo@@ 858
ap@@ 857
fer@@ 857
der, 857
ig, 857
pp@@ 857
ge. 855
mö@@ 853
setz@@ 852
fü@@ 852
Hand@@ 851
rau@@ 850
2 849
ion@@ 849
ass@@ 849
Rei@@ 848
sam@@ 847
mei@@ 847
ak@@ 846
Ro@@ 846
9@@ 845
könnten 844
nicht@@ 844
bet@@ 841
ungefähr 841
1@@ 841
gehen. 840
ihrem 840
cht. 840
sor@@ 839
enen 839
ic@@ 839
sen. 839
as 838
Gel@@ 838
Ex@@ 836
sel@@ 836
sten, 830
20@@ 828
5 827
dung 826
kten 826
stän@@ 826
gehen, 825
wahr@@ 824
Bu@@ 824
weiter@@ 823
cher 822
Meine 820
ber 817
gemein@@ 816
3 816
Schul@@ 816
schau@@ 815
kel@@ 815
denke 815
ing 814
gr@@ 814
seinem 812
La@@ 811
chen@@ 810
dau@@ 808
bisschen 807
wurde, 807
he 805
isches 805
Gesch@@ 804
Weise 803
schl@@ 803
ill@@ 802
me, 802
lichkeit 801
mal@@ 800
Raum 800
uren 799
Man@@ 799
wer 799
Te@@ 799
30 798
Dinge, 797
voll@@ 797
Gemein@@ 796
ar 795
Für 794
zeigt 794
fe 794
get@@ 793
for@@ 793
Nun 791
Ko@@ 790
Person 790
sche 790
ens 789
geben. 788
wurde. 788
per@@ 786
Ne@@ 785
% 785
später 784
kr@@ 782
schaf@@ 782
mus@@ 781
arbeiten 781
Ta@@ 778
Probleme 774
si@@ 773
7@@ 772
inn@@ 771
ein. 771
Ur@@ 770
men. 769
icht 768
ad@@ 768
200@@ 767
pro@@ 767
Wissen 767
seh@@ 767
Dieses 767
oll@@ 766
irgend@@ 766
hatte, 766
passiert 765
♪ 765
fühl@@ 763
wie@@ 762
lin@@ 760
gesehen 760
nis 760
funktion@@ 759
Milliarden 759
8@@ 757
schaft 756
ess@@ 756
Bo@@ 755
ft, 753
hör@@ 753
ter. 752
auszu@@ 751
zeigen, 750
schnell 750
Kind 750
dessen 749
Min@@ 749
Frau 748
grün@@ 747
stellen. 747
zusammen 747
namens 746
mittel@@ 746
Auf 746
pass@@ 745
Neu@@ 745
New 745
mm@@ 742
wan@@ 742
fahr@@ 741
le. 741
Mein 741
fen, 740
sk@@ 740
ges 739
bl@@ 739
tung 738
verschiedene 737
alten 736
fest@@ 736
pl@@ 736
em@@ 735
glaube 734
möglich 734
sagt 734
weiß, 733
Mann 733
sol@@ 733
habe, 733
tete 733
gar 732
tlich 732
kt. 731
kommen. 731
mü@@ 729
bevor 729
Nor@@ 729
Erde 729
heit, 728
ähn@@ 728
Wo@@ 725
soll@@ 725
je 723
wohl 722
uns, 721
alis@@ 720
Fil@@ 719
Bet@@ 719
le 719
wach@@ 718
arbei@@ 718
sta@@ 718
hätte 718
ja 717
enz 716
Tr@@ 716
auf, 715
zer@@ 715
For@@ 714
Mit@@ 714
sah 713
Doch 713
bereits 712
Sache 712
Mon@@ 711
verk@@ 711
oo@@ 711
wichtig 710
at 710
u 710
Stadt 710
rit@@ 708
aten 708
Informationen 708
sicht@@ 707
erle@@ 707
gra@@ 707
ko@@ 705
Or@@ 705
Körper 704
stoff@@ 703
auf. 703
bringen 703
icht@@ 703
it 703
einander 703
bekommen 702
ast@@ 701
Land@@ 701
Fall 700
ere 699
Wa@@ 699
Grund 699
Welt, 698
gleichen 698
Moment 697
entdeck@@ 697
schein@@ 697
ler@@ 696
and@@ 695
halten, 694
nehmen, 694
einigen 693
Mutter 693
besonders 692
ssen. 691
System 690
Vielleicht 690
ms 690
überall 689
gele@@ 689
mut@@ 689
Zei@@ 688
hab@@ 688
Weil 688
ort@@ 687
mir, 687
gel 687
[@@ 686
Fa@@ 685
euch 683
fra@@ 682
leb@@ 682
se. 680
5@@ 680
Gra@@ 679
etz@@ 679
Groß@@ 679
jedem 678
k, 677
weg@@ 677
Br@@ 677
ation, 677
Welt. 676
Grund@@ 675
Ort 674
dachte 673
Plan@@ 672
ene 672
fahren 671
ktion@@ 671
groß@@ 671
100 670
menschlichen 669
begann 668
des@@ 668
Mus@@ 668
ies@@ 667
Hö@@ 666
schle@@ 666
neu@@ 665
Do@@ 665
verschiedenen 665
finden. 665
tliche 664
län@@ 664
Proble@@ 663
kommen, 662
gleich 660
gegen@@ 660
genug 660
anders 660
so, 659
x 659
verstehen, 659
Arten 659
anz@@ 658
ien, 658
stellt 658
Kur@@ 657
kre@@ 657
Wor@@ 657
gan@@ 656
gerne 656
mat@@ 655
det, 655
aufzu@@ 655
ft. 654
tu@@ 654
Kar@@ 654
Ä@@ 654
alt@@ 653
land 653
Danke. 651
mp@@ 650
USA 649
Teil@@ 649
wür@@ 649
Um 649
iere 648
Bei 648
Lin@@ 647
Schule 647
fall@@ 646
bin@@ 646
s-@@ 645
erwar@@ 643
Antwort 643
hatte. 642
wollen, 642
Frei@@ 640
bewe@@ 640
ähr@@ 639
chn@@ 637
Co@@ 637
dich 637
Ideen 636
Lie@@ 636
Oder 636
zeigen 635
beiden 635
iker 634
Vor 634
hier@@ 632
will@@ 632
manchmal 632
dan@@ 631
19@@ 631
bie@@ 631
a. 631
mich, 629
zeit 625
sie, 625
deren 624
Sei@@ 624
einfach@@ 623
Gruppe 623
Grün@@ 623
bedeut@@ 623
Fahr@@ 623
anderes 622
auss@@ 622
Na@@ 622
Planeten 622
Computer 621
tr@@ 620
Leute, 620
steht 620
win@@ 620
fen. 619
Proje@@ 619
Leuten 619
Je@@ 619
lassen. 618
Ra@@ 618
ken, 618
innerhalb 618
Win@@ 618
könn@@ 618
olog@@ 618
6 617
heit. 617
heraus, 617
produz@@ 616
gende 616
Energie 615
en-@@ 615
ret@@ 614
Fragen 614
besten 614
schaff@@ 613
sprechen 613
Dieser 613
liegt 612
hän@@ 611
genommen 610
richtig 609
ik, 608
Natur 608
kauf@@ 607
Zeit, 607
Ster@@ 607
The@@ 606
zeichn@@ 606
aller 606
Rau@@ 605
entschei@@ 605
Form 605
leben@@ 605
kor@@ 604
ann@@ 604
Forsch@@ 604
haf@@ 603
z, 603
bringen, 603
Aut@@ 603
Geschichten 602
Po@@ 602
sst 602
fal@@ 602
acht@@ 601
drei@@ 600
halten. 600
Wasser@@ 600
eher 600
berei@@ 599
nah@@ 599
sagen: 599
sl@@ 599
heißt 598
gleich@@ 596
nahmen 596
mer 596
Bilder 595
schul@@ 595
Leben@@ 595
ffen 594
re. 593
trä@@ 593
iel@@ 592
irgendwie 592
ta@@ 592
ke@@ 592
einzige 591
Lehr@@ 590
1 590
al, 589
Zwei@@ 589
kran@@ 589
hinter 589
Sie@@ 589
ingen 589
Buch 588
zeu@@ 588
Minuten 588
's 587
versu@@ 587
Inter@@ 587
Bil@@ 587
Licht 585
z. 585
Produ@@ 585
stan@@ 585
tau@@ 585
bringen. 584
musste 584
che, 584
Gu@@ 584
nisse 583
Männer 583
zahl@@ 583
sei 583
waren, 581
sechs 581
Ide@@ 581
oren 580
dies@@ 580
utz@@ 580
eigen@@ 580
Kinder@@ 580
gibt. 579
erzeu@@ 579
ou@@ 579
schwer@@ 578
Unternehmen 578
bekann@@ 577
ation@@ 577
menschliche 576
ste, 575
Ru@@ 575
Projekt 575
würde, 575
del 574
leg@@ 574
be, 574
mel@@ 574
ell 573
9 573
Fol@@ 572
untersu@@ 572
hier, 572
bedeutet, 572
würde. 572
Lei@@ 572
sicher@@ 572
tel@@ 572
schauen 571
los 571
pt@@ 571
15 570
Dan@@ 570
fand 570
os 570
stre@@ 569
ierung 568
tre@@ 568
halt@@ 567
ga@@ 567
braucht 567
erstaun@@ 567
mar@@ 566
versuchen 565
enti@@ 565
meines 565
000 563
4 563
schrei@@ 563
hoff@@ 562
Versu@@ 561
exist@@ 561
form@@ 560
drück@@ 560
habe. 559
krie@@ 559
geht, 559
hören 558
Punkt 558
alt 558
Internet 557
Wissenschaft 557
kamen 556
pa@@ 556
Familie 556
ick@@ 555
krei@@ 555
teten 554
lag@@ 554
üt@@ 554
ausge@@ 553
bedeutet 553
8 553
nämlich 553
gung 553
oben 553
li@@ 553
erweise 553
recht 552
dern 552
nächste 552
deut@@ 551
glauben, 551
Prä@@ 551
ih@@ 551
Stellen 551
Flu@@ 550
konnten 549
schaffen 549
Stunden 549
benutz@@ 549
ück@@ 549
überhaupt 548
stimm@@ 548
Haus@@ 548
han@@ 547
größ@@ 547
Gesellschaft 547
Afrika 547
weitere 546
bi@@ 546
sicher 546
gl@@ 546
Herz@@ 546
ce 545
Part@@ 543
Ist 543
Mikro@@ 542
einzu@@ 542
Lassen 542
vier@@ 541
stei@@ 540
machte 539
eil@@ 539
gi@@ 538
Syste@@ 538
schwier@@ 538
Wel@@ 538
gend 538
Kü@@ 538
persön@@ 537
isten 537
verstehen 536
bare 536
lang@@ 536
Ch@@ 536
zwar 535
ken. 535
elt 535
öff@@ 534
schaffen, 534
dre@@ 534
aufge@@ 533
Rück@@ 532
um, 532
Haupt@@ 532
lern@@ 532
Mensch@@ 531
schließlich 531
baren 531
zen@@ 531
Macht 530
spra@@ 530
innen 530
eigene 529
wohn@@ 529
te: 529
ich. 528
Mädchen 528
ment 528
Fun@@ 527
har@@ 527
Augen 527
ker 527
genau@@ 526
ative 526
Organis@@ 526
also, 526
interess@@ 526
Regierung 524
Mat@@ 524
gs@@ 523
Vortrag 522
verbess@@ 522
Me@@ 522
cke 521
-S@@ 521
net@@ 520
setzen 520
Körper@@ 520
Ju@@ 519
tief@@ 519
hil@@ 519
steck@@ 519
gro@@ 519
gestellt 519
dem, 518
S 517
Zum 517
schließ@@ 517
ver 517
Zusammen@@ 516
sich, 516
sprechen, 516
ation. 515
tz@@ 515
bu@@ 514
Sprache 514
Kop@@ 514
Kor@@ 513
erklär@@ 512
bauen 512
letzte 512
ed@@ 512
mor@@ 512
gewöhn@@ 511
At@@ 511
Kr@@ 511
obwohl 511
Durch@@ 510
lernen 510
Hin@@ 509
Spra@@ 509
th@@ 509
iv@@ 508
handel@@ 508
ure 508
Grunde 508
lö@@ 508
k. 508
h, 508
Hand 508
dir 508
steh@@ 508
forder@@ 508
erzähl@@ 507
eit@@ 507
völlig 507
hoch@@ 507
stellung 506
w 506
res 506
Patienten 506
re, 505
gesagt, 505
sagt, 505
ständig 505
Kan@@ 505
Auto@@ 504
findet 504
Su@@ 503
gleiche 503
organis@@ 503
ken@@ 502
son@@ 502
Musik 502
ner@@ 501
ur, 501
Vater 501
Wal@@ 500
Kopf 500
ier 500
sten. 500
Ele@@ 500
Stück 499
40 499
größte 499
gu@@ 498
Viele 497
stoff 497
Y@@ 497
funktioniert 497
Ba@@ 497
ohn@@ 496
direkt 496
um. 496
solche 496
dien@@ 496
Kl@@ 495
verwen@@ 495
kul@@ 495
Mil@@ 494
lassen, 494
kti@@ 494
Selbst@@ 494
Indien 493
satz 492
spe@@ 492
Krie@@ 492
behandel@@ 492
Web@@ 492
Gehir@@ 492
blei@@ 491
det. 491
ub@@ 491
falls 491
,@@ 490
änder@@ 490
Jah@@ 489
überrasch@@ 489
y. 489
weg 488
äh@@ 488
Kindern 487
führt 487
Auto 487
jedoch 487
Design 486
verbr@@ 486
bas@@ 486
frü@@ 485
selben 484
Ja, 483
meine, 483
zeigt, 483
tet@@ 482
p 482
met@@ 482
veränder@@ 482
chter 481
ine 481
Hause 480
neh@@ 480
glich 480
Ihren 480
bra@@ 480
niemand 480
ba@@ 480
flie@@ 479
al. 479
nehmen. 479
beobach@@ 478
unseres 478
Unsere 478
mein@@ 478
gefähr@@ 478
kann@@ 477
Werkzeu@@ 477
isch. 477
Sti@@ 477
gern 477
Eltern 477
China 476
glaub@@ 476
0@@ 476
tö@@ 476
mon@@ 476
schaffen. 475
] 475
par@@ 475
sein@@ 474
f, 474
waren. 474
Entwicklung 474
tion 474
daran, 474
allem 474
wähl@@ 474
stär@@ 473
zo@@ 473
ban@@ 472
syste@@ 472
hervor@@ 472
Kin@@ 472
ht. 472
Jahrhunder@@ 471
om 471
gehört 470
Lebens 470
spro@@ 469
Gr@@ 469
schie@@ 468
genden 468
gemacht. 468
woll@@ 468
gend@@ 468
in, 468
kehr@@ 467
denken. 467
ik. 467
glei@@ 467
raum 467
hät@@ 466
zü@@ 466
kommt, 466
entwickelt 466
Ban@@ 466
Stre@@ 466
rop@@ 466
Wort 465
Gan@@ 465
stens 465
entschie@@ 465
ät 465
Met@@ 465
geht. 465
gn@@ 465
tel 464
stu@@ 464
überzeu@@ 464
kenn@@ 463
igt 463
s: 463
Gefühl 463
Sol@@ 462
Hilfe 462
müssen, 462
Bild@@ 462
einge@@ 462
Gleich@@ 462
Universum 462
führen 461
nutzen 461
wirtschaf@@ 461
bit@@ 461
ll@@ 460
.000 460
unden 460
og@@ 460
konzentr@@ 459
posit@@ 459
Nicht 459
wä@@ 459
leben. 459
ingen, 459
ente 459
ex@@ 459
Klima@@ 458
sprechen. 458
betra@@ 458
Jahren, 458
ali@@ 458
Bru@@ 458
halb 457
El@@ 457
müssen. 456
son 456
imm@@ 456
anschau@@ 456
Richt@@ 456
nahm 455
lauf@@ 455
Fre@@ 455
Hei@@ 455
welches 455
gut. 455
Denken 455
Ho@@ 454
Bei@@ 453
Han@@ 453
Heute 453
und@@ 453
hatten, 453
ang 453
Schu@@ 452
Lage 452
hö@@ 452
sto@@ 452
o, 452
ive 451
ations@@ 450
aufen 450
Kre@@ 450
fel@@ 450
unglaublich 450
blo@@ 450
klein@@ 450
ron@@ 450
id@@ 450
nis@@ 449
nutz@@ 449
Angst 449
dlich 449
isch, 449
aten, 449
A 449
Film 448
Haus 447
iges 447
Wer 447
wieder@@ 447
Länder 447
damals 447
mal, 446
jähr@@ 446
ka@@ 446
enten 446
nimmt 445
fäh@@ 445
Netz@@ 445
arbeiten, 445
Mag@@ 445
neu 445
Gebäude 444
voll 444
hätten 444
Beispiel@@ 444
lä@@ 444
bel 444
Tier@@ 444
dachte, 443
All@@ 443
me. 443
genauso 443
komplex@@ 443
größten 442
aler 442
Design@@ 442
tion@@ 442
fragen 442
zweite 442
darin 442
Nach 442
ktiv@@ 442
Archite@@ 441
grei@@ 441
weiter. 441
schwar@@ 441
ss, 441
spielen 441
kontroll@@ 441
bezahl@@ 440
Flü@@ 440
kurz 440
mensch@@ 440
Sehen 439
chten, 439
Geb@@ 439
Reihe 438
fr@@ 438
chte, 438
' 438
alität 438
Ges@@ 438
fre@@ 438
dete 438
wäre, 437
mente 437
schwer 437
ler 436
Wir@@ 436
entwickel@@ 436
7 436
tern@@ 435
die, 435
mä@@ 435
wollen. 434
Anfang 434
sehr, 433
dig 433
Am 432
chten. 432
Wan@@ 432
wurden. 432
nor@@ 432
wal@@ 431
hy@@ 431
Bro@@ 431
fanden 430
Mut@@ 430
ner 429
kennen 429
Ja@@ 428
No@@ 428
Lan@@ 428
bereit@@ 427
darüber, 427
Lo@@ 427
sage 426
zieh@@ 426
Tiere 425
he, 425
Bar@@ 425
end. 425
ppe 425
jemals 425
sch 424
Sachen 424
Blu@@ 424
Gi@@ 423
Geh@@ 423
hr 422
äm@@ 422
gang 422
sie. 422
frie@@ 422
anderer 421
beschäft@@ 421
versuchen, 421
Ste@@ 421
Einige 421
Pun@@ 421
Jeder 421
leben, 420
wel@@ 420
hatten. 420
kar@@ 419
Monate 419
Fra@@ 419
Got@@ 419
ip@@ 418
Tage 418
Möglichkeit 418
ismus 418
druck@@ 417
cher@@ 417
lagen 417
angen 417
tragen 417
dn@@ 417
Materi@@ 417
Sym@@ 417
schön@@ 416
ab. 416
Kunst 416
Dro@@ 416
plat@@ 416
Indi@@ 415
ht 415
glauben 415
für@@ 415
Anzahl 415
Thema 414
alle@@ 414
ändern 414
teil 414
Roboter 414
rat@@ 414
Inform@@ 413
heiten 413
Ihrem 413
ist: 413
flu@@ 413
Wochen 413
nachzu@@ 413
Computer@@ 413
und, 412
leist@@ 412
getan 412
einander@@ 412
be. 412
kan@@ 412
Mor@@ 412
ne. 411
sh@@ 411
ziehen 410
nie@@ 409
faszin@@ 409
emp@@ 409
Bel@@ 409
ssen@@ 408
stab@@ 408
leu@@ 408
bauen, 408
Natürlich 408
stellte 408
War@@ 408
Ihrer 408
stra@@ 408
nennen 408
wu@@ 408
möglichen 407
alles, 407
ur. 407
möchte, 406
kleines 406
Männ@@ 406
Aktiv@@ 405
wachsen 405
fach@@ 404
schnell@@ 404
tlichen 404
Namen 404
York 404
vorher@@ 404
guten 404
Verhalten 404
ativen 403
Woche 403
CA: 403
darum, 403
Tatsächlich 403
Art, 403
beg@@ 402
bar. 402
scheint 402
age 402
der. 402
Deshalb 402
gehör@@ 401
Frie@@ 401
Gener@@ 401
plan@@ 401
Alle 401
sicht 401
könnte. 401
hat@@ 401
mitt@@ 401
Per@@ 401
Arbeits@@ 401
Mu@@ 400
arbeiten. 400
ac@@ 400
iken 400
ori@@ 400
Tages 400
ktor 400
Ant@@ 399
sat@@ 399
Gerä@@ 399
fehl@@ 399
helfen 399
Mod@@ 399
auch, 399
hier. 398
perfe@@ 398
bringt 398
199@@ 398
"Das 398
kü@@ 398
eg@@ 397
ktur 397
spar@@ 397
Menschen. 397
iss@@ 397
o. 396
eit 396
.“ 396
verbin@@ 396
Verbindung 395
mussten 395
sieben 395
unten 395
davon, 395
hoch 395
nachdem 394
hinter@@ 394
den? 394
Glück 394
Ob@@ 394
Vi@@ 393
f. 393
schlu@@ 393
verrück@@ 393
Lu@@ 393
passiert, 393
“ 393
nahme 392
Hel@@ 392
Indu@@ 392
zu. 392
app@@ 392
bein@@ 392
bauen. 392
besu@@ 391
fall 390
les 390
eln 390
Super@@ 390
phys@@ 390
"N@@ 390
deshalb 389
zt 389
Pap@@ 389
wollten 389
Unterschied 389
zuvor 389
Energie@@ 389
gän@@ 389
Psych@@ 389
rieb@@ 388
ktive 388
Krebs 388
soziale 388
Während 387
sagt: 387
zen, 387
Stat@@ 387
stam@@ 386
Wohl@@ 386
das? 386
kn@@ 386
unglaub@@ 386
Kla@@ 386
Gehirn@@ 386
Gott 386
kommen@@ 385
äll@@ 385
tä@@ 385
hält 385
Frau@@ 385
Berei@@ 385
Proze@@ 384
recht@@ 384
eri@@ 384
ut 384
Mittel@@ 384
onen 384
Jo@@ 383
sum@@ 383
He@@ 383
Stra@@ 383
?@@ 383
weiß@@ 383
bewus@@ 382
die@@ 382
eller 382
bewer@@ 382
Spiel 382
Beweg@@ 382
zerstör@@ 382
wert@@ 382
bemer@@ 382
Li@@ 382
statt@@ 382
Freunde 382
hren 381
dor@@ 381
Ziel 381
dass, 381
besit@@ 381
Mach@@ 381
abzu@@ 381
Gol@@ 381
stes 381
begr@@ 380
igen, 380
Zeu@@ 380
Ka@@ 380
stern 379
zehn 379
Erfahrung 379
ds 379
Von 379
Jahrzehn@@ 379
"Was 379
niemals 379
zeigen. 379
in. 379
Schwe@@ 379
Autos 378
tsch@@ 378
Ku@@ 378
el, 378
aller@@ 378
s? 378
ließ@@ 378
dazu, 378
vertrau@@ 378
Den@@ 378
on, 377
Tran@@ 377
führen. 377
statt 377
Wirtschaft 377
off@@ 377
Vereinigten 377
liebe 377
gesagt 376
ender 376
grundle@@ 376
reden 375
Son@@ 375
kungen 375
zuneh@@ 375
verfol@@ 375
Feu@@ 375
r. 374
Far@@ 374
60 374
äre 374
vor. 374
mögen 373
macht, 373
verge@@ 373
bru@@ 372
miteinander 372
Kult@@ 372
Foto@@ 372
neues 371
gebaut 371
beste 371
kämpf@@ 371
Meer@@ 371
bre@@ 371
gar@@ 371
18@@ 371
prä@@ 370
möglich@@ 370
gen? 370
Sonnen@@ 370
ße 370
Jahren. 370
ze, 369
spricht 369
stru@@ 369
großart@@ 369
se, 369
Plat@@ 369
erkann@@ 369
testen 368
zel@@ 368
macht. 368
Elekt@@ 368
Gedanken 368
schick@@ 368
d-@@ 368
zentr@@ 368
TED@@ 368
Lehrer 368
system 367
groß 367
errei@@ 367
voller 367
mag 367
Kultur 367
fu@@ 366
flü@@ 366
vi@@ 366
das. 366
ve 366
letz@@ 366
drü@@ 366
lässt 365
soll 365
stelle 365
inspir@@ 365
Schauen 365
sinn@@ 365
darum 365
Schritt 365
stat@@ 365
po@@ 365
pen 365
az@@ 365
ers 365
ktiv 364
Sor@@ 364
stand@@ 364
langen 364
Video 364
plötzlich 363
sonst 363
Beh@@ 363
Lösung 363
Experi@@ 363
net 362
eins 362
dafür, 362
Hälfte 362
lichkei@@ 362
benötig@@ 362
Hinter@@ 362
entlich 362
zähl@@ 362
defin@@ 362
alitä@@ 362
Technologien 361
fragte 361
ücke 361
Gesundheits@@ 361
beide 361
will, 360
Eff@@ 360
Kat@@ 360
Vorstell@@ 360
on. 360
bekommen, 360
a-@@ 360
druck 360
e: 359
ab 359
ste. 359
schaft, 359
komplett 359
benutzen 359
reag@@ 359
chte. 359
mittel 358
daraus 358
Rest 358
vorzu@@ 358
ktionen 358
lü@@ 358
Gebur@@ 358
kompliz@@ 358
rieben 358
absolut 357
sten@@ 357
gewinn@@ 357
draußen 357
deck@@ 357
tem 357
da, 356
ien. 356
Nur 356
25 356
Kunst@@ 356
Har@@ 356
ia 356
Phys@@ 356
entfern@@ 355
besteht 355
herum 355
hl 355
ingt 355
gesamte 355
Obje@@ 355
sig@@ 354
einfache 354
Team 354
Studenten 354
ans 354
klar@@ 354
t." 354
Video@@ 354
nen. 354
Eig@@ 354
nenn@@ 354
ächst 353
ös@@ 353
sau@@ 353
üb@@ 353
ab, 353
gebau@@ 353
omen 353
sozialen 353
bekommen. 353
acht 352
Kapit@@ 352
anstatt 352
passiert. 352
passier@@ 352
Wahrheit 352
seit@@ 352
ket@@ 351
US@@ 351
verwandel@@ 351
i, 351
erkennen, 351
wichtige 351
ehr 351
Sinn 351
Hoch@@ 351
volution@@ 351
wider@@ 351
ang@@ 351
selbst@@ 350
Tex@@ 350
Liebe 350
reib@@ 350
setzen. 350
Kra@@ 350
ven@@ 350
Bewegung 350
Öl@@ 349
ett@@ 349
heits@@ 349
sprech@@ 349
forsch@@ 349
Car@@ 349
stark 349
il 349
Stim@@ 349
beeinflu@@ 349
äf@@ 349
hiel@@ 348
gek@@ 347
Essen 347
herum@@ 347
10@@ 347
Telef@@ 347
unde 347
könnte, 346
unterstütz@@ 346
man, 346
Alles 346
blau@@ 346
häl@@ 346
kal@@ 346
äusch@@ 346
zeige 345
mt 345
yp@@ 345
teilen 345
glichen 345
schaften 345
er: 344
gegenüber 344
ätze 344
is, 344
jen@@ 344
Zahl 344
verbra@@ 344
Fran@@ 344
reg@@ 344
besser@@ 343
fän@@ 343
kleiner 343
reich@@ 343
ph@@ 343
kam, 343
kam@@ 343
Bot@@ 343
let@@ 343
effe@@ 342
Krieg 342
12 342
ati@@ 342
nutzen, 342
On@@ 342
Größe 342
verstehen. 341
junge 341
Frü@@ 341
digen 341
Sam@@ 341
wurden, 341
natür@@ 341
Teile 341
Führ@@ 341
ckl@@ 340
ationen, 340
hau@@ 340
setzen, 340
jeman@@ 340
medizin@@ 340
lernen, 340
wichtig, 339
end, 339
glich@@ 339
Staaten 339
Platz 339
ersch@@ 339
ser 339
Auch 338
invest@@ 338
Unterneh@@ 338
Polit@@ 338
Ländern 338
funktioniert. 338
ke, 338
Poli@@ 338
Dingen 338
Zellen 338
mäß@@ 338
Augen@@ 338
Sü@@ 338
Modell 338
kommt. 337
gesetz@@ 337
Fo@@ 337
konnte. 337
blick 337
Idee, 337
bestimmten 337
alte 337
kung 337
Tit@@ 337
zeit@@ 336
ales 336
Ö@@ 336
en?" 336
Fel@@ 336
hören, 336
Vol@@ 335
Hau@@ 335
dich@@ 335
Studie 335
Molekü@@ 335
gingen 334
verb@@ 334
Länder@@ 334
zurück. 334
ing, 334
ihres 334
Regier@@ 333
Prozess 333
ativ 333
sicher, 333
All 333
Straß@@ 333
schu@@ 333
nütz@@ 332
Meinung 332
öpf@@ 332
Mot@@ 332
Eis@@ 332
wirklich@@ 332
gewe@@ 332
glücklich@@ 332
Wissenschaftler 331
Können 331
Arbei@@ 331
inder@@ 331
Pati@@ 331
!" 330
weltweit 330
endlich 330
kraft 330
Sicher@@ 330
Richtung 330
Oze@@ 330
dann, 330
rü@@ 330
Wür@@ 330
inter@@ 330
gaben 329
Leben. 329
or, 329
erzählen, 329
liegen 329
Chem@@ 329
hel@@ 329
nen@@ 329
heb@@ 328
bitte 328
icht, 328
Str@@ 328
spä@@ 328
Mill@@ 328
tet, 328
gefunden 328
gab@@ 328
spre@@ 328
Nutz@@ 327
dur@@ 327
nen, 327
san@@ 327
ließen 327
pun@@ 326
bessere 326
verkauf@@ 326
ermöglich@@ 326
großer 326
klass@@ 326
ont@@ 326
gut, 326
80 326
Herausforder@@ 326
Luft 325
richtigen 325
Gesundheit 325
schlä@@ 325
Gedan@@ 325
klar, 325
ären 325
e-@@ 325
lat@@ 325
prü@@ 324
Boden 324
Vis@@ 324
mus 324
weil@@ 324
Möglichkeiten 324
Tri@@ 324
sieht, 324
gte 323
Interess@@ 323
Kont@@ 323
wechsel@@ 323
psych@@ 323
Ner@@ 323
Tal@@ 323
besteh@@ 323
produ@@ 322
frag@@ 322
tausende 322
Wohn@@ 322
häuf@@ 322
sehe 322
kle@@ 321
trau@@ 321
/@@ 321
so. 321
Vö@@ 321
mis@@ 321
worden 320
hand@@ 320
Glück@@ 320
Hü@@ 320
wären 320
leicht 320
zen. 320
danach 320
Gar@@ 320
Geschichte. 320
zer 320
Sat@@ 320
Et@@ 320
schen@@ 320
t-@@ 320
helfen, 320
zin@@ 320
»@@ 320
Robo@@ 320
Nacht 319
Städ@@ 319
fen@@ 319
kümmer@@ 319
erhalten 319
Grund, 319
wur@@ 319
Zeit. 319
gru@@ 319
200 319
volle 319
Hig@@ 319
Gemeinschaft 319
Fe@@ 319
at, 318
ativ@@ 318
Technolog@@ 318
Wun@@ 318
gener@@ 318
Bas@@ 318
Jahrhundert 318
ion, 318
50@@ 318
Techn@@ 318
same 318
"O@@ 318
kä@@ 318
Veränderung 318
Entscheidungen 318
alien 317
ht, 317
Waf@@ 317
Fl@@ 317
wissenschaf@@ 317
chter@@ 317
are 316
iel 316
miss@@ 316
heiß@@ 316
Reise 316
fle@@ 316
betracht@@ 316
Technik 316
wandel@@ 316
irgendwo 316
Mal@@ 316
richtige 316
lung 316
Hil@@ 315
länger 315
bestimm@@ 315
mehr@@ 315
merk@@ 315
M: 315
sagen. 314
steu@@ 314
rän@@ 314
inge 314
zuerst 314
Bab@@ 314
gleichzeitig 314
ku@@ 314
Gei@@ 314
Foto 314
ven 314
Baby@@ 314
äss@@ 313
Terror@@ 313
Op@@ 313
Maß@@ 313
kat@@ 312
Job@@ 312
bist 312
falsch 312
Fall@@ 312
versucht 312
tot@@ 312
per 312
daher 311
füll@@ 311
Eines 311
500 311
einzelne 311
An 311
Beziehung 311
Sa@@ 311
verändert 311
Kno@@ 311
sozi@@ 311
stör@@ 311
min@@ 310
Muster 310
dis@@ 310
werk@@ 310
rä@@ 310
sofort 310
allein 310
Städte 310
äume 310
sammel@@ 310
erzählt 309
deten 309
gs 309
künst@@ 309
Dam@@ 309
Tre@@ 309
Bedeutung 309
Erd@@ 309
Miss@@ 309
beginnen 308
äfte 308
ingen. 308
globalen 308
punkt 308
interessan@@ 308
Dien@@ 308
Meter 308
rich@@ 308
Kraft 308
dra@@ 308
ütz@@ 308
Pr@@ 307
Freund 307
amp@@ 307
hast 307
oren, 307
heißt, 307
Publikum 307
aussie@@ 307
Mom@@ 307
zogen 306
immer, 306
zu, 306
aten. 306
Daten@@ 306
Mitte 306
schrieb 306
herr@@ 306
west@@ 306
kop@@ 306
daten 306
Galax@@ 306
mache 305
Sinn@@ 305
versor@@ 305
Pa@@ 305
ssel@@ 305
Nein, 305
Anti@@ 305
Situation 305
el. 304
verändern 304
chs 304
schei@@ 304
sch. 304
jemanden 303
Geschäfts@@ 303
bewegen 303
Pf@@ 303
Sicherheit 303
Buch@@ 303
ma 303
verändern. 303
Blick 303
immer@@ 303
Famil@@ 303
fäll@@ 302
Vorstellung 302
Schlü@@ 302
gemacht, 302
entwickeln 302
Okay, 302
fing 302
ichte 302
großes 302
Mensch 302
Oberfläche 302
hlen 302
moral@@ 302
Ihnen, 301
Leist@@ 301
Wo 301
gebracht 301
lös@@ 301
wusste 301
Rolle 301
w. 300
Risik@@ 300
fiz@@ 300
sphäre 300
techn@@ 300
Ir@@ 300
Hän@@ 300
erkenn@@ 300
gei@@ 300
Aufgabe 299
gesetzt 299
genen 299
kei@@ 299
Selbst 299
Wert 299
Ben@@ 299
gesamten 299
Wahl@@ 298
Beispiel, 298
nit@@ 298
Gewalt 298
Kommunik@@ 298
ziel@@ 298
lossen 298
Schlu@@ 298
ierende 298
bung 298
ov@@ 298
teu@@ 298
deine 298
mung 297
verwenden 297
schnit@@ 297
ritt 297
teile 297
issen 297
brachte 297
Forschung 297
Frage, 297
Umgebung 297
kel 297
schlecht 297
Zugang 297
spielt 297
beginnt 297
er-@@ 296
alter 296
tro@@ 296
d? 296
Fisch@@ 296
antwor@@ 295
dungen 295
führen, 295
Ordn@@ 295
los@@ 295
aa@@ 295
muss, 295
Gefän@@ 295
Freun@@ 295
au 294
Zu 294
erz@@ 294
tet. 294
Dis@@ 294
blick@@ 294
ks 294
Neuro@@ 294
wann 293
umzu@@ 293
eng@@ 293
lief@@ 293
heu@@ 293
Compu@@ 293
en; 293
Karte 293
zig 293
aut@@ 293
Stimme 292
erzählen 292
Blut@@ 292
sagten 292
Vo@@ 292
Wahrschein@@ 292
sag@@ 292
konnte, 292
verteil@@ 292
machten 291
Gele@@ 291
Sache, 291
sü@@ 291
Nachbar@@ 291
ätz@@ 291
rot@@ 291
Tra@@ 291
pflan@@ 291
Bla@@ 291
gen: 291
Medikam@@ 291
Daher 290
sollte. 290
Pot@@ 290
Labor 290
außer 290
ull@@ 290
Ziel@@ 290
Bildung 290
fort@@ 290
che. 290
Geheim@@ 290
igkei@@ 290
müs@@ 290
angef@@ 290
Tro@@ 290
My@@ 290
gier@@ 290
ons 289
bereit 289
sowohl 289
Generation 289
bald 289
würden, 289
schön 289
Ü@@ 289
Gespr@@ 289
Bl@@ 289
gesehen, 289
o-@@ 289
of 289
essen 288
gelö@@ 288
tigen 288
äuß@@ 288
bewusst 288
kra@@ 288
tut 288
Oper@@ 288
Metho@@ 288
amerikanischen 287
Bereich 287
polit@@ 287
endes 287
mehr. 287
erie 287
kultur@@ 287
Leu@@ 287
könnten, 287
bess@@ 286
arbeit 286
Markt 286
Gesell@@ 286
frage 286
erforsch@@ 286
len 286
Krei@@ 286
spezi@@ 286
erhö@@ 286
mi@@ 285
äuf@@ 285
erkennen 285
größer 285
lesen 285
tere 285
manche 285
Straße 285
visu@@ 285
Erfin@@ 284
Wieder@@ 284
reduz@@ 284
reiben 284
bin, 284
Ober@@ 284
Wil@@ 284
verh@@ 284
vorstellen, 284
bekam 283
eil 283
schneller 283
könnten. 283
"Wir 283
Fern@@ 283
masch@@ 283
kost@@ 283
dem@@ 282
aufgrund 282
spann@@ 282
Alter 282
weltwei@@ 282
versteh@@ 282
ag 281
fäl@@ 281
Krank@@ 281
bring@@ 281
Arbeit@@ 281
schreiben 281
Amerika 281
bestimmte 281
fass@@ 281
fühlen 281
gefra@@ 281
Amei@@ 281
Lern@@ 281
Natur@@ 281
Einzel@@ 280
schn@@ 280
Auss@@ 280
icken 280
lage 280
Ingenie@@ 280
Hol@@ 280
großartige 280
oder? 280
erreichen 280
griff 280
wäl@@ 280
Medi@@ 280
Zahlen 280
Wissenschaf@@ 280
Vide@@ 280
Internet@@ 280
Maschin@@ 280
"H@@ 280
dige 280
treffen 279
ellen, 279
glücklich 279
Problem. 279
zumindest 279
komme 279
ich: 279
drit@@ 279
Tat 279
Mäd@@ 279
Wissenschaft@@ 279
Taus@@ 278
näch@@ 278
erzählen. 278
Kohlen@@ 278
Nation@@ 278
herauszufinden, 278
Kontrolle 278
iff@@ 278
Erwachsen@@ 278
Sonne 278
fragen, 278
ensch@@ 278
öffentlichen 277
Tod 277
langsam@@ 277
jungen 277
Firma 277
Betra@@ 277
solchen 277
Kun@@ 277
legen 277
haft 277
würden. 277
Pat@@ 277
einzelnen 277
ften 277
sel 277
Stad@@ 277
ah 277
Kam@@ 277
Entschei@@ 276
gemeinsam 276
Gebäu@@ 276
Fähigkeiten 276
schre@@ 276
tradition@@ 276
kaum 276
sodass 276
zur@@ 276
Energ@@ 275
lösen 275
Sach@@ 275
ce@@ 275
Publik@@ 275
ion. 275
vorher 275
etze 275
flo@@ 274
dlichen 274
gten 274
wohl@@ 274
erwähn@@ 274
ber, 274
kin@@ 274
cker 274
Ergebnis 274
spielen. 274
Erfol@@ 274
neben 273
bere@@ 273
pon@@ 273
gesell@@ 273
gere@@ 273
sterben 273
stehen. 273
Licht@@ 273
her, 273
Dat@@ 273
Nat@@ 273
schafft 273
Fuß@@ 273
ologie 272
Chris 272
tun? 272
Innov@@ 272
licht 272
Raum@@ 272
Kinder, 272
bekannt 272
ris@@ 272
nur, 272
Menschen@@ 272
Demokratie 271
Herausforderung 271
höch@@ 271
zellen 271
zufäll@@ 271
Zukun@@ 271
tische 271
aden 271
igkeiten 271
ath@@ 271
Geschichte, 270
läu@@ 270
gelern@@ 270
tiges 270
Pol@@ 270
iv 270
Schmer@@ 270
Exper@@ 270
anz 270
ausseh@@ 270
Dre@@ 269
Leben, 269
Ang@@ 269
gliche 269
ele@@ 269
Lö@@ 269
darauf, 269
wör@@ 269
Kosten 269
Wol@@ 269
ve@@ 268
ollen 268
Realität 268
Lab@@ 268
ort 268
Bit@@ 268
ckt 268
Gesicht 268
fahren, 268
Fü@@ 268
Preis 268
Mal, 267
Einfluss 267
Pre@@ 267
davon. 267
digit@@ 267
ler, 267
sagten: 267
Beru@@ 267
Wirklichkeit 267
dt 267
bekommt 266
fte 266
klar 266
heutzutage 266
griff@@ 266
läs@@ 266
grund 266
gesam@@ 266
Fähigkeit 266
Struktur 266
Mann, 266
sch, 266
log@@ 266
Person@@ 266
sc@@ 266
Erfolg 265
muss. 265
inner@@ 265
Not@@ 265
Bürger@@ 265
durchschnit@@ 265
ck, 265
uns. 265
Ker@@ 265
if@@ 265
hinzu@@ 265
riesige 265
Strukt@@ 265
B: 265
graf@@ 265
gela@@ 265
erin 265
Erinner@@ 265
is. 264
lok@@ 264
ins@@ 264
ef@@ 264
18 264
gnis 264
op 264
Erfahr@@ 264
Dinge. 264
Schulen 264
fern@@ 263
herzu@@ 263
eben 263
abge@@ 263
lieben 263
dung, 263
Kamer@@ 263
Krankheit 263
Spe@@ 263
Revolution 263
wichtiger 263
nä@@ 263
gebil@@ 262
gewesen 262
Google 262
Problem, 262
Damit 262
rel@@ 262
halt 262
vert@@ 262
Rea@@ 262
« 262
Hy@@ 261
Che@@ 261
Grenzen 261
schaft. 261
ologen 261
bü@@ 261
Regeln 261
"Die 261
tru@@ 261
Frauen, 261
genann@@ 261
Com@@ 261
hielt 260
Invest@@ 260
Maschine 260
Grupp@@ 260
Europa 260
1,@@ 260
bew@@ 260
suchen 260
ings@@ 260
co@@ 260
Seiten 260
Aspe@@ 259
wü@@ 259
ums 259
n? 259
Vertrau@@ 259
außerhalb 259
dunkl@@ 259
gez@@ 259
izi@@ 258
1. 258
Wiss@@ 258
förder@@ 258
höher@@ 258
ome 258
Vir@@ 258
nann@@ 258
Bücher 258
Aben@@ 257
A, 257
ppen 257
Dollar@@ 257
hundert 257
Rat@@ 257
schütz@@ 257
Anwen@@ 256
itä@@ 256
keit, 256
Dru@@ 256
Afrik@@ 256
Bal@@ 256
beru@@ 256
ipp@@ 255
Off@@ 255
nete 255
treten 255
Finanz@@ 255
scher 255
Hu@@ 255
hören. 255
fliegen 255
wollte, 255
ca. 255
the@@ 255
Danke 255
C 255
Gruppen 255
sollten. 255
imin@@ 255
ster, 255
zweiten 255
Universu@@ 255
Individu@@ 255
tat 255
Antwor@@ 255
tern, 255
Erkennt@@ 254
tischen 254
trotzdem 254
stehen, 254
0ern 254
ten: 254
I 254
zeich@@ 254
desto 254
Medien 254
“@@ 254
Tatsache, 254
Musik@@ 254
Sk@@ 254
Am@@ 253
lieb@@ 253
dit@@ 253
welcher 253
lernen. 253
sper@@ 253
setzt 253
akt 253
zusammen. 253
bildung 253
Atom@@ 253
bat@@ 252
normalerweise 252
laufen 252
sequ@@ 252
begannen 252
Test@@ 252
führte 252
veröffentlich@@ 252
außergewöhn@@ 252
iven 252
ult@@ 252
hen. 252
Schwar@@ 252
schön. 252
wand@@ 251
sich. 251
führt. 251
Größ@@ 251
verbunden 251
Theorie 251
konnten. 250
verhinder@@ 250
kte, 250
ix@@ 250
Unser 250
erfolgrei@@ 250
extrem 250
Yor@@ 250
schöne 250
genu@@ 250
schätz@@ 250
berühr@@ 250
Ergebnisse 250
seite 250
schüt@@ 250
Schau@@ 250
Stun@@ 250
Bevölkerung 249
arbeitet 249
ien@@ 249
schnei@@ 249
intellig@@ 249
lehr@@ 249
Zer@@ 249
gelernt 249
Letz@@ 249
Instru@@ 249
Freund@@ 249
David 248
beginn@@ 248
triff@@ 248
Ort, 248
gebie@@ 248
regel@@ 248
Pl@@ 248
ari@@ 248
Will@@ 248
versucht, 248
Fehler 248
möglich, 248
por@@ 248
gesag@@ 248
wenig@@ 248
Klass@@ 248
niedr@@ 247
effizi@@ 247
Gesich@@ 247
ändern. 247
Erei@@ 247
Universität 247
Gew@@ 247
198@@ 247
samen 247
Monaten 247
Krankheiten 247
"Wie 247
Sicht 247
gewalt@@ 247
ries@@ 247
helfen. 247
Haben 246
Wirtschaf@@ 246
ze. 246
Luft@@ 246
gelan@@ 246
Ahn@@ 246
c 246
Deta@@ 246
stud@@ 246
Ken@@ 246
Mitgefühl 246
besondere 245
Kol@@ 245
damit, 245
Jung@@ 245
interessante 245
het@@ 245
gestellt, 245
Liebl@@ 245
abhäng@@ 245
nun, 245
einfach. 245
gutes 245
lose 245
stieg 245
ähnlich 245
Zahl@@ 245
Genau 244
enor@@ 244
Jun@@ 244
selt@@ 244
ide@@ 244
or. 244
weisen 244
ren 244
ches 244
erg@@ 244
fer 244
heit@@ 243
aktu@@ 243
verantwor@@ 243
entweder 243
ihr@@ 243
te? 243
Pass@@ 243
eigen 243
mehrere 243
sexu@@ 243
Evolution 243
beantwor@@ 243
echt 243
eile 243
Sta@@ 243
nennt 242
dür@@ 242
Auswirkungen 242
vermei@@ 242
keit. 242
ssystem 242
heutigen 242
Pflan@@ 242
ord@@ 242
bleiben 242
-B@@ 242
sollen 242
guter 242
Fotos 242
Tagen 241
US-@@ 241
cken. 241
wichtig. 241
Men@@ 241
rund 241
Bezug 241
krit@@ 241
hoffe, 241
ss. 241
Menschheit 241
bestimmt 241
fangen 241
biolog@@ 241
trag@@ 241
Prot@@ 241
hen, 241
Qua@@ 241
Bür@@ 241
Mär@@ 241
fun@@ 241
A. 240
tatsäch@@ 240
halte 240
form 240
Wirtschafts@@ 240
grund@@ 240
blü@@ 240
Schw@@ 240
abhängig 240
Bio@@ 240
schwi@@ 240
Vier@@ 240
Sign@@ 240
Pu@@ 240
öffent@@ 240
Plast@@ 240
teilt 240
bill@@ 239
aktiv@@ 239
sitzen 239
akzept@@ 239
Stelle 239
spür@@ 239
Kreativ@@ 239
tragen. 239
kreb@@ 239
Einer 239
Information 239
selbst. 238
Phän@@ 238
nö@@ 238
unterschei@@ 238
gewähl@@ 238
sagten, 238
ot 238
Manchmal 238
zurück, 238
darin, 238
sahen 238
ton 238
gegeben 238
einzigen 238
ma, 237
Solar@@ 237
kosten@@ 237
erte 237
passieren 237
Schrit@@ 237
fil@@ 237
echte 237
inger 237
zun@@ 237
h. 237
maß@@ 237
ier, 237
Tele@@ 237
ziehen, 236
dort@@ 236
Situ@@ 236
bau 236
verbrei@@ 236
emotion@@ 236
wesent@@ 236
itu@@ 236
Mann@@ 236
Mc@@ 236
kannst 236
rück@@ 236
Karr@@ 236
Im@@ 236
reichen 236
Flug@@ 235
schnitt 235
Lös@@ 235
gezeigt 235
Amerikaner 235
Nummer 235
einfachen 235
Schüler 235
Ding 235
fün@@ 235
seines 235
Gebiet 235
TED-@@ 235
stol@@ 235
arbeitete 235
iti@@ 235
dein 235
Möglichkei@@ 234
dritte 234
Orten 234
finanz@@ 234
gebe@@ 234
Statist@@ 234
dio@@ 234
Pil@@ 234
nei@@ 234
schwierig 234
uten 234
ker@@ 234
fläch@@ 234
gehei@@ 233
sach@@ 233
ist? 233
Beding@@ 233
Orte 233
erreichen. 233
ön@@ 233
versteck@@ 233
erneu@@ 233
eer@@ 233
reis 233
–@@ 233
indi@@ 233
erfun@@ 232
Trau@@ 232
ry 232
Produkt 232
Armut 232
Entwickl@@ 232
Intellig@@ 232
ierenden 232
ian@@ 232
Bewusstsein 232
Ser@@ 232
beschrei@@ 232
präsent@@ 231
dadurch 231
reden, 231
Außer@@ 231
egal 231
gestellt. 231
unterschiedliche 231
typ@@ 231
Vergangenheit 231
Neur@@ 231
ziehen. 231
ger, 231
echt@@ 231
Fen@@ 231
Beginn 230
schlechte 230
kennen, 230
ktiven 230
Politik 230
Fernseh@@ 230
land@@ 230
Prei@@ 230
ach 230
Öko@@ 230
Kris@@ 230
näher 230
tag@@ 230
Del@@ 230
Material 229
ebenso 229
Stro@@ 229
sprach 229
globale 229
i. 229
Million 229
Weg, 229
Umwelt 229
vol@@ 229
Unterstütz@@ 229
Regierungen 229
Privat@@ 229
erreicht 229
nennen. 229
Jedes 229
verlie@@ 229
Künst@@ 229
Tief@@ 229
erweiter@@ 229
offensichtlich 229
wissenschaft@@ 229
ing. 229
Fir@@ 229
wenige 228
geführt 228
funktionieren 228
unge 228
Spa@@ 228
äft@@ 228
unglaubliche 228
"W@@ 228
wert 228
00@@ 228
Experiment 228
Program@@ 228
Ep@@ 228
Ton@@ 228
Bedürf@@ 228
DNA 228
offen@@ 228
Ebene 227
verursach@@ 227
breit@@ 227
trenn@@ 227
toll@@ 227
chs@@ 227
Beispiele 227
Uhr 227
her. 227
hü@@ 227
zusammen, 227
körper@@ 227
genannt 227
Sohn 227
entfernt 227
fest, 227
Bühne 226
danke 226
ager 226
Entwicklungsl@@ 226
übr@@ 226
ition 226
icht. 226
D 226
klin@@ 226
verr@@ 226
Verständnis 226
hin, 225
finde 225
gestell@@ 225
Infrastru@@ 225
Atmo@@ 225
Tag, 225
Pho@@ 225
Komplex@@ 225
eich@@ 225
verbun@@ 225
einfach, 225
sser 225
Manche 225
besonder@@ 225
hnen 225
ismu@@ 225
kurz@@ 224
vermittel@@ 224
ationen. 224
Pri@@ 224
verwendet 224
uit@@ 224
langsam 224
che@@ 224
ikal@@ 224
Bewei@@ 224
mechan@@ 224
70 224
d: 224
afrikan@@ 224
en" 223
Sauer@@ 223
verbreit@@ 223
verloren 223
Eben@@ 223
notwen@@ 223
sobald 223
sollte, 223
Konzept 223
frei 223
som@@ 223
da. 223
Sy@@ 223
verletz@@ 223
Suche 223
wahrschein@@ 223
schw@@ 223
0er 223
grü@@ 223
Aufmerksamkeit 223
chines@@ 223
Nachricht 223
mitten 222
vollen 222
früher 222
00 222
verdien@@ 222
glob@@ 222
Reg@@ 222
bleibt 222
Viel@@ 222
fähr@@ 222
verschwin@@ 222
beschlo@@ 222
malen 222
Tür@@ 222
Wur@@ 221
vat@@ 221
ys 221
männ@@ 221
Künstler 221
enzen 221
ungspro@@ 221
Kn@@ 221
ent, 221
Pal@@ 221
Ter@@ 221
Hunder@@ 221
Fehl@@ 221
Nachrichten 221
einzig@@ 221
Auß@@ 221
ahn 221
amen 221
Wör@@ 221
wiederhol@@ 220
wirklich, 220
ursprün@@ 220
Wachstum 220
Flugzeu@@ 220
geschrieben 220
Linie 220
Inse@@ 220
größere 220
los. 220
heil@@ 220
Regen@@ 220
neun 220
Hoffnung 220
"-@@ 220
schen. 220
Personen 220
kte@@ 220
Technologie, 219
Lit@@ 219
Prinzip 219
interessant 219
vorstellen 219
chtig@@ 219
mass@@ 219
frühen 219
Geschwindig@@ 219
habt 219
ebenfalls 219
Programm 219
vern@@ 219
spru@@ 219
größeren 218
konom@@ 218
bt. 218
Wider@@ 218
keiten 218
möchten 218
jün@@ 218
Großbritann@@ 218
trag 217
John 217
entwickeln, 217
mens@@ 217
ällen 217
igen. 217
Job 217
Standar@@ 217
erinnere 217
teilen. 217
allge@@ 217
eigenes 217
ster. 217
Zwei 217
alle, 216
ür 216
Noch 216
Monat 216
cker@@ 216
pri@@ 216
Kind@@ 216
wusste, 216
ate 216
rechn@@ 216
11 216
führt, 216
Kal@@ 216
Por@@ 216
far@@ 216
belieb@@ 216
Vari@@ 216
Sto@@ 216
Hände 216
feld 215
scho@@ 215
Möglichkeit, 215
300 215
brauchen, 215
beeindruck@@ 215
darf 215
Weise, 215
Frau, 215
Pan@@ 215
Profess@@ 215
Spezies 215
schönen 215
Nehmen 215
i-@@ 215
benutzt 215
Studien 215
ir 214
Kollegen 214
Perspe@@ 214
Liste 214
keiner 214
fas@@ 214
dro@@ 214
z.B. 214
ies 214
Mathemat@@ 214
wichtig@@ 214
kommuniz@@ 214
normal@@ 214
kürz@@ 214
anischen 213
Chanc@@ 213
ssyste@@ 213
Formen 213
politischen 213
verändert. 213
befinden 213
Bildschir@@ 213
versuche 213
Name 213
verstan@@ 213
Beziehungen 213
Heil@@ 213
herunter@@ 213
"A@@ 213
lam@@ 213
kaufen 212
glau@@ 212
ierend 212
dung. 212
cken, 212
tei@@ 212
Mö@@ 212
Morgen 212
tun@@ 212
dings 212
Land, 212
Schü@@ 212
onnen 212
din@@ 212
ne, 211
wirtschaft 211
erlau@@ 211
oka@@ 211
Steu@@ 211
fällt 211
stellten 211
dier@@ 211
sogenann@@ 211
hab 211
Sal@@ 211
Öl 211
gesehen. 211
nein, 211
Ergeb@@ 211
jetzt, 211
lungen 211
blie@@ 211
ren@@ 211
äuser@@ 211
hor@@ 211
Kampf 211
stimmt 210
bemerkenswer@@ 210
Hoffn@@ 210
Firmen 210
will. 210
Herz 210
Team@@ 210
ig? 210
Syn@@ 210
Fu@@ 210
Systeme 210
ero@@ 210
zon@@ 210
natürlich, 210
Konflik@@ 210
utz 209
stoffe 209
äumen 209
stellt, 209
erlaub@@ 209
eig@@ 209
12@@ 209
nam@@ 209
legen, 209
Worte 209
bisher 209
ück 209
he. 209
Schei@@ 209
Vat@@ 209
Bill@@ 209
Lach@@ 209
Müt@@ 209
traf 208
stie@@ 208
Umwelt@@ 208
Familien 208
pas@@ 208
sollten, 208
Himmel 208
ität, 208
Gro@@ 208
übrigens 208
uss@@ 208
wass@@ 208
rus 208
Bevölker@@ 208
fs@@ 208
tragen, 208
B. 208
Identit@@ 208
erzählte 207
Temperat@@ 207
Lösungen 207
lim@@ 207
Kontin@@ 207
verfüg@@ 207
Fortschrit@@ 207
Jahre, 207
taus@@ 207
Glei@@ 207
uren, 207
ernst@@ 207
ci@@ 207
ahr@@ 207
Artikel 207
hörte 207
test 207
Imm@@ 207
aar@@ 207
Aus 207
links 207
politische 207
90 207
lebens@@ 206
fantast@@ 206
formen 206
materi@@ 206
Ty@@ 206
Glob@@ 206
interessiert 206
tausend 206
Zit@@ 206
Unterschie@@ 206
Regi@@ 206
Aufgab@@ 206
erklären, 206
herauszu@@ 206
"S@@ 206
Medizin 206
Erfahrungen 206
Som@@ 206
werke 206
Mathematik 206
herap@@ 206
Tier 206
freu@@ 205
Demokr@@ 205
ble@@ 205
verur@@ 205
Sache. 205
geschie@@ 205
Interesse 205
test@@ 205
Schn@@ 205
agen, 205
Bakterien 205
handelt 205
gens 205
mals 205
las 205
art 205
gesprochen 205
jetz@@ 205
läuft 205
bege@@ 205
Dort 205
Col@@ 205
Dun@@ 205
interag@@ 205
haus@@ 205
städ@@ 205
Mess@@ 205
eilen 204
Wahl 204
folgen@@ 204
ell, 204
sam 204
hne 204
lern 204
v 204
dop@@ 204
stand, 204
berühm@@ 204
oe@@ 204
sätz@@ 204
erinn@@ 204
proble@@ 204
kla@@ 203
eten, 203
genommen, 203
schauen, 203
jenigen, 203
wichtigsten 203
Sub@@ 203
Innovation 203
Geschä@@ 203
Glau@@ 203
Dr. 203
versuchte 203
Typ 203
strei@@ 203
äuser 203
sah, 203
bin. 203
schwa@@ 203
-F@@ 203
bewegen. 203
Tu@@ 203
ball@@ 203
y-@@ 203
Veränderungen 202
T 202
gefunden, 202
zie@@ 202
Diskuss@@ 202
Staat@@ 202
sowie 202
unger 202
Du@@ 202
standen 202
one 202
geboren 202
Kir@@ 202
Brie@@ 201
amerikanische 201
öl@@ 201
entwickelt, 201
197@@ 201
ens, 201
Mitglie@@ 201
mehr, 201
teren 201
mich. 201
mpfen 201
mir. 201
14 201
Nahrung 201
sah@@ 201
samm@@ 201
Auge 201
Theor@@ 201
Institution@@ 201
teilen, 200
Okay. 200
sätzlich 200
verd@@ 200
Seh@@ 200
internation@@ 200
nach, 200
Software 200
angen@@ 200
dimension@@ 200
ten? 200
fühlte 200
Ja. 200
Jede 200
Person, 200
schen, 200
Büro@@ 200
einhalb 200
Krankenh@@ 200
begeister@@ 199
Jan@@ 199
gewan@@ 199
Sekunden 199
nehme 199
Nicht@@ 199
bes@@ 199
eten. 199
ere@@ 199
tief 199
Ozean 199
tol@@ 199
ateg@@ 199
cks 199
Stamm@@ 199
hinaus 199
serv@@ 199
"Es 199
Arm 199
Familien@@ 198
lach@@ 198
Version 198
riesigen 198
nimm@@ 198
leider 198
AID@@ 198
Mü@@ 198
ganzes 198
Mer@@ 198
gefun@@ 198
Scho@@ 198
altung 198
zurückzu@@ 198
Dorf 198
ierte, 198
Eis 198
ief@@ 198
macht@@ 197
Zun@@ 197
Durch 197
begrenz@@ 197
Amerikan@@ 197
Wett@@ 197
ßt 197
Teilen 197
ktions@@ 197
20. 197
prakti@@ 197
E-Ma@@ 197
gesp@@ 197
fahren. 197
rik@@ 197
klein 197
Gri@@ 197
Wit@@ 196
freund@@ 196
Bis 196
eingesch@@ 196
bar, 196
Dor@@ 196
prim@@ 196
dasselbe 196
bilden 196
nachdenken, 196
Eng@@ 196
kap@@ 196
nation@@ 196
Regel@@ 196
bol@@ 196
Untersuch@@ 196
ils 196
land, 196
Glü@@ 196
ierter 196
Fähigkeit, 196
— 196
Char@@ 195
wissenschaftliche 195
Spr@@ 195
agen. 195
Schl@@ 195
konstru@@ 195
ktoren 195
Meeres@@ 195
ete, 195
erfolgreich 195
äche 195
Fle@@ 195
S-@@ 195
Fab@@ 195
wein@@ 195
ille 194
hon@@ 194
neg@@ 194
mutz@@ 194
ert. 194
HI@@ 194
Mehr@@ 194
Kap@@ 194
ktor@@ 194
lebt 194
Result@@ 194
ichten 194
Kern@@ 194
pt 194
scht 194
brei@@ 194
hen@@ 194
15@@ 194
Fak@@ 194
Arbeit, 194
Punkte 194
Stär@@ 194
letztes 194
Schat@@ 194
Spitze 194
Nord@@ 194
Ärzte 194
modernen 193
ellen. 193
Entwicklungs@@ 193
Ressourcen 193
Zeitpunkt 193
maßen 193
Pflanzen 193
Wü@@ 193
konnten, 193
wasser@@ 193
Hall@@ 193
zt, 193
ade 193
winz@@ 193
trin@@ 193
also@@ 193
Univer@@ 193
erinnern 193
lag 193
gestal@@ 193
entr@@ 193
ise 192
rechten 192
gebe 192
jemandem 192
Pra@@ 192
gebrau@@ 192
sein? 192
gehört, 192
gekommen 192
erinnern, 192
bla@@ 192
Ih@@ 192
cken@@ 192
Sind 192
gewal@@ 192
Gewe@@ 192
Sit@@ 192
Typ@@ 192
ßen. 192
front@@ 192
artige 192
Intera@@ 192
Erzähl@@ 191
brech@@ 191
gestor@@ 191
Farbe 191
bewegt 191
greif@@ 191
teste 191
Fün@@ 191
Nich@@ 191
schrän@@ 191
Mam@@ 191
geschrie@@ 190
richten 190
gespro@@ 190
tal@@ 190
G: 190
reden. 190
Massen@@ 190
tern. 190
enter 190
iten 190
radi@@ 190
Chin@@ 190
brechen 190
Erklär@@ 190
wander@@ 190
ücken 190
toff@@ 190
ka 190
lit@@ 190
 @@ 189
Mitarbei@@ 189
Programm@@ 189
Institu@@ 189
Konze@@ 189
schluss 189
denkt, 189
heraus 189
bur@@ 189
ib@@ 189
aren 189
hört 189
Schwier@@ 189
Train@@ 189
erreichen, 189
Nähe 189
dungs@@ 189
bio@@ 189
igkeit, 189
Bü@@ 189
mathemat@@ 189
jene 189
achten 189
Papier 188
weiterhin 188
ikan@@ 188
ktu@@ 188
Leuten, 188
erst@@ 188
wahr? 188
dabei, 188
ontro@@ 188
Zentrum 188
gab, 188
Oh, 188
ändert 188
betriff@@ 188
dreht 188
mir: 188
Meer 188
Gene 188
X@@ 188
benutzen, 188
vers@@ 188
Isra@@ 188
rechts 188
Organ@@ 188
Schlag@@ 188
zeigte 187
Spaß 187
Mein@@ 187
stände 187
arti@@ 187
täglich 187
Rah@@ 187
Zivilis@@ 187
ßen, 187
dischen 187
e? 187
Medizin@@ 187
llen 187
mann 187
Geschle@@ 187
gab. 187
Graf@@ 187
Gesetz 187
Jungen 187
individu@@ 187
fühlt 187
ätzen 187
inform@@ 187
Dank 186
arbeitet, 186
Straßen 186
Staa@@ 186
schri@@ 186
auft 186
b, 186
immer. 186
Sinne 186
zukün@@ 186
int@@ 186
Wicht@@ 186
Behandlung 186
ater 186
anwen@@ 185
Lap@@ 185
genheit 185
ging, 185
fallen 185
prob@@ 185
Keine 185
Ap@@ 185
spielen, 185
Schönheit 185
sent@@ 185
anti@@ 185
wollte. 185
schlü@@ 185
Satell@@ 185
gerä@@ 185
Schimpan@@ 185
Stunde 185
Gest@@ 185
gehe 185
fertig 185
ct@@ 185
empf@@ 185
Mobil@@ 185
online 185
Wörter 185
hle 184
Umwel@@ 184
verwenden, 184
wohin 184
staat@@ 184
hunder@@ 184
Zwe@@ 184
entwer@@ 184
App@@ 184
jahr@@ 184
fur@@ 184
Sekun@@ 184
losen 184
bis@@ 184
vorstell@@ 184
komple@@ 184
wieso 184
ließ 184
gene 183
schwe@@ 183
Ander@@ 183
öffentliche 183
betrachten, 183
ent. 183
Nam@@ 183
besor@@ 183
später, 183
kenne 183
weiteres 183
för@@ 183
geschieht 183
fotograf@@ 183
treffen. 183
Öffent@@ 183
Werte 183
Treib@@ 183
stro@@ 182
tolle 182
Denk@@ 182
natürliche 182
Produkte 182
lösen. 182
Netz 182
zes 182
ungen@@ 182
Tradit@@ 182
Proz@@ 182
trotz 182
began@@ 182
Netzwerk 182
Tau@@ 181
res@@ 181
Em@@ 181
Mir 181
dach@@ 181
Organisation 181
Recht@@ 181
16 181
nicht? 181
Über 181
istische 181
Sen@@ 181
nahe 181
sn@@ 181
Mi@@ 181
Depress@@ 181
Jahr. 181
wissen. 181
Süda@@ 181
riff@@ 181
gearbeitet 181
geme@@ 181
itäten 181
getö@@ 181
fuhr 180
frist@@ 180
100@@ 180
schlimm@@ 180
Mittel 180
iff 180
ge: 180
Philosop@@ 180
Männern 180
hätte, 180
V-@@ 180
unterschiedlichen 180
schlag 180
Wege 180
erung 180
Medikamente 180
Flei@@ 180
transp@@ 180
Mau@@ 180
ekt 180
blin@@ 180
arbeite 180
auch. 180
repräsent@@ 180
gebracht. 180
at. 180
nis, 180
weg. 180
läch@@ 180
Vergleich 180
Grad 180
selbst, 179
utzen 179
drän@@ 179
Gesundheit@@ 179
km 179
einf@@ 179
bt, 179
geworden 179
zy@@ 179
ck. 179
Designer 179
aussehen 179
neuer 179
Wasser, 179
älter 179
Krebs@@ 179
Colle@@ 179
Moment, 179
Hirn@@ 179
bei. 179
nutzen. 179
Kamera 179
zug 179
ingu@@ 179
Hom@@ 179
Geist 179
kont@@ 179
mögliche 178
igsten 178
kol@@ 178
kut@@ 178
Verfügung 178
mod@@ 178
ität. 178
mal. 178
wussten 178
gehört. 178
Spekt@@ 178
Sex@@ 178
fertig@@ 178
San 178
programm@@ 178
Drei@@ 178
ala@@ 178
bild 178
Bedeut@@ 177
arbeitet@@ 177
Handel@@ 177
bares 177
einig@@ 177
behau@@ 177
Za@@ 177
den: 177
Bakter@@ 177
ihnen, 177
des. 177
Niemand 177
Bat@@ 177
fließ@@ 177
Warum? 177
keln 177
bezeichn@@ 177
vermutlich 177
"Warum 177
schrecklich@@ 177
des, 177
Wass@@ 177
cklich@@ 177
Wahrneh@@ 177
ick 177
König@@ 177
Zustand 177
beteil@@ 176
fasst 176
Gerät 176
rig@@ 176
Är@@ 176
geschick@@ 176
196@@ 176
Phil@@ 176
tige 176
Säu@@ 176
ograph@@ 176
Nahrungs@@ 176
wachsen@@ 176
Lernen 176
dium 176
Unterschiede 176
Kaffe@@ 176
bewir@@ 176
ff 176
hohen 176
Strei@@ 176
jenigen 175
Entscheidung 175
Projekte 175
betre@@ 175
-jähr@@ 175
zw@@ 175
"Wenn 175
Chance 175
Sex 175
unsicht@@ 175
Gla@@ 175
Fer@@ 175
Hör@@ 175
Ernähr@@ 175
Verlu@@ 175
erhalten. 175
Kilometer 175
beein@@ 175
dische 175
Ca@@ 175
Landes 175
erlaubt 175
hu@@ 175
religiö@@ 175
lichkeit, 174
Restauran@@ 174
gem 174
eröff@@ 174
as, 174
Todes@@ 174
dene 174
Ox@@ 174
vention@@ 174
Stadt@@ 174
gä@@ 174
agram@@ 174
worden, 174
anfangen, 174
was. 174
fühlen, 174
Dimens@@ 174
ade@@ 174
Wet@@ 174
kolle@@ 174
Ehr@@ 174
gehol@@ 174
Algorith@@ 174
ß, 174
skop@@ 174
fel 174
Katastrop@@ 174
Brenn@@ 173
ange 173
Den 173
trei@@ 173
Markt@@ 173
Wachst@@ 173
Con@@ 173
schon, 173
dieselbe 173
gewiss@@ 173
folgen 173
artig 173
unterschie@@ 173
weise, 173
syn@@ 173
daß 173
nenne 173
ftwa@@ 173
Verhaltens@@ 173
0, 173
äd@@ 173
Sc@@ 173
geschehen 173
genommen. 173
nieman@@ 173
Sozial@@ 173
Umgeb@@ 173
Metap@@ 173
Ziele 173
Wahr@@ 172
rieb 172
Geschich@@ 172
kam. 172
igung 172
Dollar. 172
wirtschaftlichen 172
Kaliforn@@ 172
viellei@@ 172
Zeh@@ 172
haben? 172
mindestens 172
wiederum 172
weiter, 172
Fach@@ 172
Inn@@ 172
Jahr@@ 172
DN@@ 172
bro@@ 172
anfangen 172
Universitä@@ 172
ächt@@ 172
Antworten 172
steht. 172
teilung 172
0-@@ 172
trägt 172
Falls 172
sph@@ 172
ionen, 171
Bäume 171
Studen@@ 171
wes@@ 171
Verantwortung 171
alisierung 171
dge@@ 171
Recht 171
sozu@@ 171
17@@ 171
verändern, 171
was, 171
rechte 171
Bom@@ 171
falsche 171
Brust@@ 171
Wand 171
weiteren 171
dicht 171
gegangen 171
Prozent. 171
Wunder@@ 171
mag@@ 171
les@@ 171
unbedingt 171
zeig@@ 171
minist@@ 171
Freunden 171
Gesetz@@ 171
brauchen. 171
Fest@@ 171
sident 170
Strom 170
weder 170
Jul@@ 170
wichtigste 170
möglich. 170
pre@@ 170
inten@@ 170
möglicherweise 170
sön@@ 170
fühle 170
ül@@ 170
Sil@@ 170
Impf@@ 170
ände 170
Blo@@ 170
Krankenhaus 170
wissenschaftlichen 170
," 170
ic 170
Zau@@ 170
ane 170
Trans@@ 170
Lon@@ 170
eres 169
kün@@ 169
ssel 169
Tatsache 169
hilfe 169
weis@@ 169
to 169
ters 169
Regel 169
tex@@ 169
hi@@ 169
führung 169
Schrift@@ 169
hohe 169
Konferenz 169
Verbindungen 169
ks@@ 169
den." 169
Chirur@@ 169
ulti@@ 168
fähig 168
ung? 168
Nein. 168
Jahr, 168
Großteil 168
wiss@@ 168
ieder@@ 168
taten 168
Folgen@@ 168
ama 168
steht, 168
Frage: 168
Relig@@ 168
Prinzi@@ 168
tiv@@ 168
stim@@ 168
ändern, 168
saß 168
Reaktion 168
aus? 168
Versch@@ 168
nach. 168
lernte 168
Zuerst 168
Sie. 168
Kann 168
Sehr 168
Seine 168
Grun@@ 168
Verhält@@ 168
Könn@@ 168
Ball@@ 168
cool@@ 167
ald 167
Log@@ 167
ung: 167
fälle 167
zuzu@@ 167
günst@@ 167
design@@ 167
erklärt 167
sucht 167
hinein@@ 167
iertes 167
buchstäblich 167
ignor@@ 167
droh@@ 167
zugän@@ 167
Änder@@ 167
ognit@@ 167
Gefühle 167
Berg@@ 167
ing-@@ 167
Leidenschaft 167
lant@@ 167
igkeit. 167
ichts@@ 167
pu@@ 167
eld 167
Gefühl, 167
lief 166
gut@@ 166
Cor@@ 166
entwickeln. 166
kein@@ 166
Schön@@ 166
dieren 166
weib@@ 166
passierte 166
lass@@ 166
hand 166
engl@@ 166
Objekt 166
bewahr@@ 166
reich 166
Verletz@@ 166
heiten, 166
Dra@@ 166
Cha@@ 166
wunderbare 166
Drittel 166
findet. 166
eter 166
Bon@@ 166
dreh@@ 166
0. 165
kraft@@ 165
demokrat@@ 165
Besonder@@ 165
oppel@@ 165
sicherlich 165
Maschinen 165
Wesen 165
13 165
Methode 165
chem@@ 165
ähl@@ 165
Gren@@ 165
Kinder. 165
HIV 165
Vielfalt 165
decken 165
ieren? 165
außerdem 165
16@@ 165
selber 165
erschaffen 165
kument@@ 165
Büch@@ 165
gebro@@ 165
Opfer 165
heraus. 164
e" 164
wichtigen 164
genutzt 164
Druck 164
erstes 164
Region 164
Hor@@ 164
Herzen 164
begann, 164
Stand@@ 164
denkt 164
beschleun@@ 164
Pla@@ 164
wünsch@@ 164
line-@@ 164
Klei@@ 164
Westen 164
sla@@ 164
vollkommen 164
gilt 163
besseren 163
ant 163
kennen. 163
Zusammenhang 163
MI@@ 163
alismus 163
tens 163
ierte. 163
A-@@ 163
ehrlich 163
Zuschau@@ 163
os@@ 163
zusammenzu@@ 163
Eigenschaften 163
Eing@@ 163
net. 163
train@@ 163
Kreb@@ 163
Schlaf@@ 163
ober@@ 163
igt, 163
Zelle 163
Glauben 163
mil@@ 163
een 163
Elektro@@ 163
irgendet@@ 163
Charak@@ 163
neten 163
hilft 162
dachten 162
stron@@ 162
zehn@@ 162
verlassen 162
kosten 162
arch@@ 162
ert, 162
ruh@@ 162
beding@@ 162
Biologie 162
runter@@ 162
Englisch 162
Tan@@ 162
gewisse 162
Stimm@@ 162
Gehirns 162
verstanden 162
offen 162
pr@@ 162
Erleb@@ 162
Chr@@ 161
verschie@@ 161
sammeln 161
feu@@ 161
aufre@@ 161
Deutsch@@ 161
Korrup@@ 161
Milliarde 161
ja@@ 161
noch@@ 161
Orig@@ 161
schreiben. 161
Analy@@ 161
Dabei 161
id 161
Abend 161
ator 161
Wesent@@ 161
Laufe 161
schlaf@@ 161
Freude 161
anc@@ 161
zog 161
von@@ 161
fru@@ 161
fo@@ 161
Gesellschaften 161
elles 161
offensicht@@ 161
fro@@ 161
Frage. 161
seien 161
Rede 160
Flugzeug 160
arbeitet. 160
400 160
istischen 160
zwan@@ 160
hart 160
um: 160
arten 160
Tag. 160
Farben 160
veran@@ 160
ennen 160
Entdeck@@ 160
dec@@ 160
ansehen, 160
welchen 160
Ansatz 160
Gewinn@@ 160
iegel@@ 160
Müll@@ 160
Arbeit. 160
klu@@ 160
deinen 160
ra 160
zieht 160
Position 160
verein@@ 160
O 160
b. 160
Ehe@@ 160
Religion 160
erfüll@@ 160
alt. 160
Arzt 160
igste 160
fei@@ 160
Führungs@@ 160
schmer@@ 159
Insel@@ 159
letztendlich 159
entwickelten 159
unge@@ 159
ond 159
Bild, 159
ige, 159
Lau@@ 159
halten@@ 159
y: 159
werk 159
Rä@@ 159
Ihnen. 159
24 159
strahl@@ 159
außer@@ 159
verschieden@@ 159
heim@@ 159
Schiff@@ 159
Süd@@ 159
rasch@@ 159
Brasil@@ 159
öt@@ 159
Inst@@ 159
Heu@@ 159
fragten 159
Mechan@@ 159
Toilet@@ 159
Pha@@ 159
bedro@@ 159
van@@ 159
Bürger 159
spiele 159
Bienen 159
ore 158
Roll@@ 158
welt@@ 158
hängt 158
hunderte 158
irgendwann 158
stecken 158
za@@ 158
ton@@ 158
Gre@@ 158
hauptsächlich 158
gelegen@@ 158
zt. 158
zeug@@ 158
wus@@ 158
schreiben, 158
iker, 158
rech@@ 158
suchen, 158
hafte 158
Tab@@ 158
Sin@@ 158
stück@@ 158
kunde 158
Intervie@@ 158
Ach@@ 158
dafü@@ 157
dachten, 157
rand 157
spezif@@ 157
Anfan@@ 157
Rom@@ 157
eite 157
Kolle@@ 157
Ärz@@ 157
ier. 157
P 157
lick@@ 157
Journal@@ 157
Dinosau@@ 157
ommer 156
veröffent@@ 156
S: 156
0.000 156
anderen. 156
spiel 156
welt 156
stand. 156
erw@@ 156
est@@ 156
Hon@@ 156
optim@@ 156
frik@@ 156
sthe@@ 156
enz, 155
hig@@ 155
strie 155
Nan@@ 155
treffen, 155
zei 155
dynam@@ 155
len@@ 154
andere, 154
Fortsch@@ 154
Gewal@@ 154
Eigenschaf@@ 154
ium 154
schal@@ 154
identif@@ 154
enten, 154
wom@@ 154
Christ@@ 154
Mex@@ 154
motiv@@ 154
Veränder@@ 154
hinder@@ 154
einiger 153
pte 153
Emotion@@ 153
Fin@@ 153
Je 153
Stan@@ 153
ello@@ 153
industri@@ 153
linken 153
glie@@ 152
s" 152
spir@@ 152
genie@@ 152
Richard 152
Gal@@ 152
as. 152
leren 152
pan@@ 152
Engl@@ 152
erkennen. 152
London 152
beginnen, 152
Behand@@ 152
Klin@@ 152
ffen, 151
tes, 151
Museum 151
stau@@ 151
wich@@ 151
akter@@ 151
go@@ 151
schien 151
richten, 151
Tru@@ 151
w, 150
klär@@ 150
glicht 150
21. 150
"Oh, 150
Sh@@ 150
wart@@ 150
orden@@ 150
enz. 150
gegan@@ 150
f-@@ 150
Arch@@ 150
normale 150
Drit@@ 150
nis. 149
benen 149
Russ@@ 149
dio 149
Los 149
vo@@ 149
analys@@ 149
Sau@@ 149
Emp@@ 149
komm@@ 149
zit@@ 149
la 149
gram@@ 149
Ern@@ 148
menten 148
Paul 148
rum. 148
virtu@@ 148
Mitge@@ 148
dy 148
passen 148
geda@@ 148
Ill@@ 148
Verbin@@ 148
wen 148
völker@@ 147
dig. 147
Don@@ 147
Tor@@ 147
t; 147
-, 147
mlich 147
Eu@@ 147
age@@ 146
Klein@@ 146
regi@@ 146
ett 146
geworden. 146
auff@@ 146
regen@@ 146
olle@@ 146
pot@@ 146
legt 146
auß@@ 146
getro@@ 145
ma. 145
program@@ 145
Mars 145
mm 145
dire@@ 145
drat@@ 145
pol@@ 145
Mass@@ 145
Hir@@ 145
allen@@ 145
Lang@@ 144
Pe@@ 144
ets 144
don@@ 144
]@@ 144
Rich@@ 144
anders. 144
omat@@ 144
Blog@@ 144
Des@@ 144
anfan@@ 144
glückl@@ 143
Bus@@ 143
iet@@ 143
alog@@ 143
utes 143
text 143
10.000 143
moder@@ 143
kk@@ 143
yn@@ 143
inen 143
mmen 143
sion 142
praktisch 142
Andere 142
Dy@@ 142
Mei@@ 142
wet@@ 142
bericht@@ 142
zig@@ 142
gress@@ 142
alles. 142
ger. 142
ment, 142
Bewusst@@ 142
merik@@ 142
Bill 141
oor@@ 141
ration@@ 141
ep@@ 141
ges, 141
Is@@ 141
beob@@ 141
grenz@@ 141
mer, 141
"K@@ 141
lang. 141
dun@@ 141
James 141
ham@@ 141
eben@@ 140
gebracht, 140
morgen 140
anten@@ 140
was? 140
Dies@@ 140
bewegen, 140
Worl@@ 140
Kli@@ 140
ber. 140
oot 140
17 140
ie-@@ 140
eien 140
wis@@ 140
gel, 140
K: 140
Bur@@ 139
dank@@ 139
na 139
45 139
dende 139
John@@ 139
Ga@@ 139
land. 139
Jon@@ 139
ged@@ 139
ha 139
gewor@@ 138
Kör@@ 138
dig, 138
denk@@ 138
istisch 138
5.000 138
Na 138
Prof@@ 138
änder 138
ologische 138
2. 138
Sand@@ 138
richten. 138
ante 137
y? 137
erat@@ 137
%@@ 137
., 137
2000 137
isten, 137
gewicht 137
agno@@ 137
dramat@@ 137
umor 136
"Ja, 136
fläche 136
35 136
net, 136
14@@ 136
h-@@ 136
abil@@ 136
ah, 136
integr@@ 136
amo@@ 136
krat@@ 136
gericht@@ 136
top@@ 135
Bran@@ 135
va@@ 135
organ@@ 135
dran@@ 135
mole@@ 135
gerei@@ 135
wand 135
gin@@ 135
gebor@@ 135
Posit@@ 135
person@@ 135
bede@@ 135
armen 134
ts. 134
gedacht, 134
digt 134
genet@@ 134
ellen@@ 134
Mel@@ 134
vö@@ 134
omet@@ 134
Pen@@ 134
mel 134
ieso 134
Ri@@ 134
"The 134
imp@@ 134
betro@@ 133
proje@@ 133
ktes 133
Star@@ 133
ek@@ 133
Alle@@ 133
stop@@ 133
National 133
bele@@ 133
gib@@ 133
Spit@@ 133
ämpf@@ 133
L: 133
stel@@ 133
geru@@ 132
publ@@ 132
mobil@@ 132
enorme 132
yl@@ 132
Gat@@ 132
erlei 132
Rob@@ 132
bliothe@@ 132
gebo@@ 132
ive@@ 132
kte. 132
Th@@ 132
beweg@@ 132
Nigeri@@ 131
Afghanistan 131
ieb@@ 131
Fant@@ 131
stig@@ 131
roll@@ 131
sle@@ 131
wart 131
Kön@@ 131
inger@@ 131
finan@@ 131
ikt 131
BI@@ 131
dy@@ 131
tan@@ 130
anderen, 130
darüber@@ 130
ute 130
füg@@ 130
aat 130
150 130
profit@@ 130
brit@@ 130
zahl 130
interessant, 130
mes 130
Ke@@ 130
ständ@@ 130
Charles 130
ator@@ 129
innov@@ 129
,5 129
Ris@@ 129
Bra@@ 129
ele 129
gesto@@ 129
Appl@@ 129
re 129
rein 128
stren@@ 128
part@@ 128
uten, 128
rie 128
Schri@@ 128
alit@@ 128
San@@ 128
kür@@ 128
Universit@@ 128
fach 128
pen@@ 128
Tur@@ 128
Kranken@@ 128
stin@@ 128
UN@@ 127
Bezieh@@ 127
kten, 127
elektr@@ 127
ds@@ 127
weg, 127
herapie 127
spun@@ 127
brachten 127
George 127
Freu@@ 127
Lat@@ 127
Stam@@ 127
nissen 127
ool@@ 126
ffen. 126
strie@@ 126
iat@@ 126
m? 126
CO2 126
experi@@ 126
Chicag@@ 126
Mart@@ 126
illeg@@ 126
allen, 126
:@@ 126
funda@@ 126
gedacht 126
ren, 126
trans@@ 125
einz@@ 125
1.@@ 125
GP@@ 125
Michael 125
urn@@ 125
ts, 125
einzel@@ 125
Harvar@@ 125
Ok, 125
xi@@ 125
getroffen 125
un 125
gen." 125
F: 125
"He@@ 124
pel@@ 124
trop@@ 124
berü@@ 124
igte 124
interessant. 124
omm@@ 124
relevan@@ 124
Cit@@ 124
ene@@ 124
Pakist@@ 124
ograf@@ 124
ette 124
pliz@@ 124
real@@ 124
dri@@ 123
entwi@@ 123
ca 123
Verantwor@@ 123
verda@@ 123
bei, 123
scher@@ 123
moderne 123
ffer@@ 123
spit@@ 123
anten 123
technolog@@ 123
Tun@@ 123
em, 123
Gesund@@ 123
dd@@ 123
chron@@ 123
Det@@ 123
Q@@ 123
diesel@@ 122
domin@@ 122
Aufmerksam@@ 122
ische, 122
Mis@@ 122
Sha@@ 122
st-@@ 122
deu@@ 122
opul@@ 122
Nahr@@ 122
go 122
Pau@@ 121
Eg@@ 121
eren, 121
elektron@@ 121
You@@ 121
licht@@ 121
do 121
öhn@@ 121
dank 121
N 121
benö@@ 120
Selb@@ 120
been@@ 120
the 120
treff@@ 120
Francis@@ 120
uz@@ 120
sonder@@ 120
anen 120
Wat@@ 120
sur@@ 120
nom@@ 119
langer 119
ptember 119
dat@@ 119
den-@@ 119
iver@@ 119
ip 119
ment. 118
OK, 118
begonnen 118
mand 118
medi@@ 118
orie 118
13@@ 118
sende 118
ev@@ 118
ings 118
telef@@ 118
bank 118
Sar@@ 118
male 118
Robert 117
etc@@ 117
Fähigkei@@ 117
Milliar@@ 117
ilen 117
New@@ 117
ws 117
ja. 117
P: 117
markt 117
de: 117
sub@@ 117
sign@@ 117
astrop@@ 116
's. 116
moment@@ 116
passen. 116
DNA-@@ 116
abhän@@ 116
ging. 116
ypothe@@ 116
histor@@ 116
char@@ 116
Bri@@ 116
B 116
richt 116
isol@@ 116
ian 116
Gl@@ 116
arme 115
ly@@ 115
Sci@@ 115
Span@@ 115
fla@@ 115
unterschied@@ 115
Mik@@ 115
iegel 114
internationale 114
els 114
Cra@@ 114
City 114
stig 114
sy@@ 114
s." 114
ley 114
imul@@ 114
ack 114
univer@@ 114
T: 114
TEDx@@ 114
Lar@@ 113
50.000 113
pet@@ 113
k-@@ 113
vit@@ 113
mend 113
d." 113
Cam@@ 113
600 113
yber@@ 113
Irak 113
dell 113
iPhon@@ 113
herstellen 112
pra@@ 112
Japan 112
bom@@ 112
pers 112
!@@ 112
heut@@ 112
spiegel@@ 112
phen 112
milit@@ 112
letter@@ 112
wirkl@@ 112
Ressourc@@ 112
energie 111
worden. 111
ende, 111
ale, 111
chsel@@ 111
bat 111
m: 111
allen. 111
abstra@@ 111
Konfl@@ 111
nu@@ 111
co 111
Wikipedi@@ 111
windig@@ 111
&lt;@@ 111
explo@@ 110
öß@@ 110
lokale 110
Sozi@@ 110
daran@@ 110
tran@@ 110
win 110
Goog@@ 110
Ac@@ 110
Al 109
Afrika, 109
ummer@@ 109
beginnen. 109
Mont@@ 109
kuss@@ 109
ice 109
wa 109
Jer@@ 109
onen, 109
außen 108
ens. 108
lang, 108
eth@@ 108
realis@@ 108
chtige 108
al-@@ 108
unt@@ 108
verbinden 108
iden@@ 108
CO2-@@ 107
AR@@ 107
"E@@ 107
rum 107
tes. 107
well@@ 107
site 107
under@@ 107
laub@@ 107
Faceboo@@ 107
Anderson: 106
ool 106
ford 106
us, 106
Ti@@ 106
ron 106
OK. 106
bese@@ 106
0% 106
School 106
ami 106
ypen 106
plo@@ 106
ies, 106
refle@@ 106
link@@ 106
nationale 106
genutz@@ 106
Brit@@ 106
meter 106
verm@@ 106
Facebook 106
0 105
ilis@@ 105
av@@ 105
chmal 105
wagen 105
zwi@@ 105
Gefühl@@ 105
repar@@ 105
rede 105
wit@@ 105
inst@@ 105
oren. 105
oli@@ 105
2008 105
&gt;@@ 105
hit@@ 104
provis@@ 104
rem 104
an? 104
bor@@ 104
verloren. 104
é@@ 104
Yo@@ 104
enten. 104
zeitig 104
pe@@ 104
Net@@ 104
ag, 104
5. 104
onder@@ 104
uten. 104
att@@ 104
digitale 104
...@@ 103
Thomas 103
ends 103
uren. 103
D-@@ 103
Austral@@ 103
"] 103
gere 103
ollywoo@@ 103
Europa@@ 103
schö@@ 103
vis@@ 103
Ghan@@ 102
drin@@ 102
tit@@ 102
ple@@ 102
sex@@ 102
Lauf@@ 102
beren 102
4. 102
kamer@@ 102
twe@@ 102
gift@@ 102
ehen 102
iden 102
Auswir@@ 101
gewis@@ 101
andere. 101
Prin@@ 101
biologische 101
äus@@ 101
stil@@ 101
Dank@@ 101
erg 101
ats@@ 101
wil@@ 101
.00@@ 101
verlei@@ 101
oper@@ 101
profession@@ 101
eter@@ 101
demonstr@@ 101
Bost@@ 101
aal 101
de? 100
span@@ 100
rum, 100
ard 100
3. 100
genetische 100
ide 100
Angel@@ 100
Iran 100
entrum 100
T-@@ 99
mann@@ 99
stri@@ 99
theor@@ 99
klop@@ 99
geboren. 99
com@@ 99
human@@ 99
strateg@@ 99
wn@@ 99
ju@@ 99
Brow@@ 99
gre@@ 99
Die@@ 98
r, 98
chemische 98
Times 98
intelle@@ 98
onnen, 98
respe@@ 98
gste 98
ker, 98
Sing@@ 98
swer@@ 98
rin@@ 98
nat@@ 98
Afrika. 98
idemie 98
Dan 98
ps 98
diagnost@@ 98
absol@@ 98
agin@@ 98
vin@@ 97
Mich@@ 97
schi@@ 97
han 97
ologie, 97
Sich@@ 97
diger 97
ward 97
sym@@ 97
extre@@ 97
Gor@@ 96
ord 96
super@@ 96
kapit@@ 96
industrie 96
Leiden@@ 96
W: 96
ey 96
onnen. 96
A: 96
hn 96
iste 96
ED@@ 96
3D-@@ 96
Washington 95
0,@@ 95
damit@@ 95
automatisch 95
manipul@@ 95
il, 95
sal@@ 95
75 95
ilomet@@ 95
ag. 95
schrift 95
ahl 95
iete 95
and, 95
haupt@@ 95
Iran@@ 95
Afghanist@@ 94
Steve 94
Vergan@@ 94
100.000 94
evolution@@ 94
men? 94
mmer@@ 94
ampagne 94
atom@@ 94
illen 94
expon@@ 94
Golf 94
vel 93
Ziv@@ 93
Go@@ 93
zept@@ 93
Int@@ 93
zhei@@ 93
nachts 93
regul@@ 93
sters 93
ble 93
zutage 93
argu@@ 93
ia, 93
Adam 93
eren. 92
gig 92
China, 92
amer@@ 92
er? 92
band 92
edi@@ 92
eur@@ 92
Zusam@@ 92
2007 92
sport@@ 91
ehl@@ 91
tem@@ 91
mee 91
amerikan@@ 91
hlen@@ 91
etzt 91
schir@@ 91
staun@@ 91
pat@@ 91
mot@@ 91
em. 91
cha@@ 91
roman@@ 91
fab@@ 91
Einstein 91
Bang@@ 91
1.000 91
Ed@@ 91
dien 91
$@@ 91
bal@@ 91
1000 90
4, 90
M 90
fantastische 90
kab@@ 90
line@@ 90
elegan@@ 90
multi@@ 90
n: 90
zusam@@ 90
Twitter 90
geheu@@ 89
pt, 89
Oka@@ 89
vertre@@ 89
Amazon@@ 89
tt 89
8. 89
gol@@ 89
ling 89
C. 89
elektrische 89
islam@@ 89
est 89
Chine@@ 89
Sel@@ 89
foss@@ 88
Zel@@ 88
ado@@ 88
kau@@ 88
leiden 88
vel@@ 88
imit@@ 88
emin@@ 88
olit@@ 88
Willi@@ 88
ya 88
adem@@ 88
Smit@@ 87
194@@ 87
vate 87
Tem@@ 87
yc@@ 87
siden@@ 87
2, 87
flexi@@ 87
stoffen 87
dent 87
pt. 87
dens 87
mens 87
iö@@ 87
Anders 87
tif@@ 87
plom@@ 87
Alex@@ 87
sche@@ 87
dom@@ 87
cor@@ 86
Hier@@ 86
tzdem 86
gang@@ 86
Ira@@ 86
alter@@ 86
ana 86
gescho@@ 86
00.000 86
stige 86
fig@@ 86
install@@ 86
1, 86
IS@@ 86
NASA 85
dru@@ 85
spor@@ 85
Amerik@@ 85
selb@@ 85
spiritu@@ 85
ogra@@ 85
Wach@@ 85
tzlich 85
ube 85
BG: 85
tex 84
isten. 84
thet@@ 84
aria 84
scha@@ 84
yto@@ 84
op-@@ 84
Valle@@ 84
bril@@ 84
tegr@@ 84
Arab@@ 84
Eth@@ 84
by@@ 84
dend 83
priv@@ 83
Can@@ 83
arm 83
ch? 83
appen 83
5, 83
ine@@ 83
MR@@ 83
kör@@ 83
us. 83
opti@@ 83
stä@@ 83
Kontroll@@ 83
Grie@@ 83
systemat@@ 83
DH: 83
ton, 82
Wirkl@@ 82
195@@ 82
Rel@@ 82
Spez@@ 82
gla@@ 82
mende 82
ieten 82
bedien@@ 82
bert 82
digen. 82
handen 82
schil@@ 82
denten 82
hang@@ 82
verdienen 82
enorm 82
C: 82
indu@@ 81
7. 81
top 81
..@@ 81
weiger@@ 81
Wirklich@@ 81
tte 81
Einflu@@ 81
on-@@ 81
Kore@@ 81
ategor@@ 81
sil@@ 81
simul@@ 81
E 81
kommun@@ 81
Andre@@ 81
iop@@ 81
plö@@ 81
deta@@ 81
Twit@@ 81
Konfer@@ 80
ünsch@@ 80
analy@@ 80
hm@@ 80
gene@@ 80
Mac@@ 80
bez@@ 80
tri@@ 80
«@@ 80
digen, 80
geno@@ 80
ed 80
21 80
absolu@@ 79
i: 79
mentale 79
Microso@@ 79
magnet@@ 79
cu@@ 79
27 79
neur@@ 79
dest@@ 79
interpret@@ 79
sum 79
CE@@ 79
ge-@@ 79
ven, 79
99@@ 79
a: 79
urc@@ 79
my@@ 79
Europ@@ 78
ogen 78
S. 78
bun@@ 78
Australi@@ 78
ney 78
jam@@ 78
gent@@ 78
popul@@ 78
benut@@ 78
öntgen@@ 78
denken: 78
Armu@@ 78
verstand 78
kt: 78
minister 77
plan 77
il. 77
mir@@ 77
lev@@ 77
boo@@ 77
technologie 77
van 77
arm@@ 77
king 77
genom@@ 77
lker@@ 77
lou@@ 77
gem@@ 76
extra@@ 76
sso@@ 76
Zus@@ 76
stisch 76
Chil@@ 76
werken 76
Manhat@@ 76
8, 75
val@@ 75
Opf@@ 75
landen 75
ct 75
Hab@@ 75
koo@@ 75
formul@@ 74
S, 74
malige 74
vir@@ 74
ech@@ 74
osop@@ 74
ieder 74
lossen. 74
&amp;@@ 74
technische 73
ite@@ 73
buch@@ 73
ica 73
amb@@ 73
berg@@ 73
geren 73
ther@@ 73
over 73
aar 72
eind@@ 72
ückl@@ 72
jet@@ 72
It@@ 72
such@@ 72
anon@@ 72
gig@@ 72
ftig 72
ren. 72
ham 72
mill@@ 72
put@@ 72
herstellen. 71
iveau 71
ine, 71
Si@@ 71
depress@@ 71
Japan@@ 71
Jam@@ 71
winkel 71
L 71
automat@@ 71
ire@@ 71
obje@@ 71
kleinere 71
neuro@@ 71
Än@@ 71
up@@ 71
plu@@ 70
dienen 70
pret@@ 70
verbo@@ 70
kten. 70
einflu@@ 70
lig@@ 70
tot 70
archite@@ 70
adig@@ 70
Einst@@ 70
chirur@@ 70
blind 70
kamp@@ 69
ia. 69
kro@@ 69
Tim@@ 69
sm@@ 69
OK@@ 69
ire 69
eten 69
ers@@ 69
me: 69
sparen 68
gera@@ 68
metho@@ 68
au. 68
woo@@ 68
kosm@@ 68
olla@@ 68
chnolog@@ 68
ia@@ 68
berg 68
K 68
enschaf@@ 68
post@@ 68
CO@@ 68
stor@@ 68
cir@@ 67
ore@@ 67
hom@@ 67
verdi@@ 67
ampag@@ 67
rische 67
issen. 67
eind 67
scann@@ 67
ric@@ 67
Geor@@ 67
bran@@ 66
R 66
ronen 66
symmet@@ 66
p, 66
stimul@@ 66
transpar@@ 66
pal@@ 66
vermut@@ 66
ven. 66
half 66
›@@ 66
kolon@@ 65
gebra@@ 65
alen, 65
minim@@ 65
Arti@@ 65
werk. 65
Feh@@ 65
intervie@@ 65
demo@@ 65
Ara@@ 65
auto@@ 65
ding@@ 65
werk, 65
agen@@ 64
biz@@ 64
line 64
issen, 64
bac@@ 64
ensicht@@ 64
prin@@ 64
Tatsach@@ 64
press@@ 64
ker. 64
ander 64
kwa@@ 64
format@@ 64
beur@@ 63
verst@@ 63
Öff@@ 63
kinder@@ 63
'. 63
pla@@ 63
… 63
starten 63
ast 63
H: 63
staat 63
ad 63
unt 63
ines@@ 63
max@@ 62
versp@@ 62
temp@@ 62
paar@@ 62
belast@@ 62
temperat@@ 62
Jap@@ 62
zin 62
q@@ 62
U 62
port@@ 62
pie@@ 62
bren@@ 61
and. 61
over@@ 61
onen. 61
erfol@@ 61
zwe@@ 61
Washing@@ 61
ok@@ 61
mde 61
gelei@@ 61
Kommun@@ 61
überhau@@ 61
Verhalten@@ 61
col@@ 60
ek 60
de-@@ 60
Nie@@ 60
peri@@ 60
gang. 60
Din@@ 60
sele@@ 60
Ale@@ 60
genetisch 60
Ben 60
/ 60
singen 60
V 59
echter 59
X 59
etten 59
', 59
rechts@@ 59
rec@@ 59
ie? 59
dag@@ 59
$ 59
zet@@ 59
urr@@ 59
gas 58
it, 58
5% 58
idem@@ 58
anden 58
markt@@ 58
auton@@ 58
wol@@ 58
etz 58
eister@@ 58
stap@@ 58
kön@@ 57
fühl 57
aby@@ 57
cyc@@ 57
G 57
istor@@ 57
rol@@ 57
kru@@ 57
io@@ 56
Ze@@ 56
Mob@@ 56
dal@@ 56
ologisch 56
Ihn@@ 56
olle 56
sek@@ 56
lever@@ 56
ers, 56
chan@@ 56
China. 56
dus 56
robo@@ 56
ister 56
β@@ 56
W 55
ssy@@ 55
kennt@@ 55
Hoff@@ 55
ware 55
Amerika, 55
u, 55
.. 55
E-@@ 55
plant@@ 55
ommun@@ 55
gefähr 55
davon@@ 55
aly@@ 54
stem@@ 54
ies. 54
leer@@ 54
reu@@ 54
elen 54
hebt 54
met 54
bon@@ 54
sprün@@ 54
ve, 54
om, 54
open@@ 54
2-@@ 54
motor@@ 54
technologische 54
dere 54
energ@@ 54
lachen 54
start@@ 54
sus 53
NA@@ 53
chtig 53
wacht 53
é 53
fort 53
stil 53
theorie 53
Natür@@ 53
Demo@@ 53
Euro@@ 53
hem 53
atie, 53
stel 52
jo@@ 52
kern 52
Häl@@ 52
merken 52
haar@@ 52
jun@@ 52
ehmen 52
grie@@ 52
eff@@ 52
atie. 52
Werk@@ 52
ase 51
slag@@ 51
vent@@ 51
atie 51
zut@@ 51
not@@ 51
oc@@ 51
film@@ 51
pati@@ 51
servat@@ 51
pen, 51
institu@@ 50
un, 50
orig@@ 50
verkl@@ 50
dat 50
we 50
elektro@@ 50
ken? 50
ror@@ 50
verbor@@ 50
man. 50
oot@@ 50
anim@@ 50
had 50
.S. 49
dit 49
cre@@ 49
p. 49
dassel@@ 49
hart@@ 49
foto@@ 49
historische 48
Gru@@ 48
dürf@@ 48
The 48
ungsl@@ 48
kosten. 48
ram@@ 48
geld 48
ID@@ 48
vari@@ 47
om. 47
F 47
verg@@ 47
hem@@ 47
last@@ 47
rug 47
Vereinig@@ 47
bot@@ 47
olen 47
slo@@ 47
&amp@@ 47
via 47
ünst@@ 46
dienst 46
Amerika. 46
ptem@@ 46
Mole@@ 46
con@@ 46
iest 46
autor@@ 46
falt 45
result@@ 45
ing: 45
heer@@ 45
diver@@ 45
iar@@ 45
á@@ 45
tum@@ 44
ers. 44
gal@@ 44
Davi@@ 44
extreme 44
” 44
frequ@@ 44
film 44
myster@@ 44
won@@ 43
don 43
Infra@@ 43
spo@@ 43
Möglich@@ 43
Goo@@ 43
air@@ 43
totyp@@ 43
dt, 43
schat@@ 43
Him@@ 43
enige 43
unser@@ 43
red@@ 43
tendlich 43
stütz@@ 43
H 43
ippen 43
volle@@ 43
fant@@ 42
ie: 42
Haar 42
en... 42
näh@@ 42
cr@@ 42
sho@@ 42
Deu@@ 42
dan 42
koor@@ 42
son: 42
extra 42
NAS@@ 41
kunst 41
var@@ 41
u. 41
sens@@ 41
stoppen 41
leg 41
merkt 41
als@@ 41
inc@@ 41
änn@@ 41
ook 41
handel 40
konn@@ 40
rup@@ 40
car@@ 40
ca@@ 40
Franc@@ 40
Wik@@ 40
leiden. 40
Geschäf@@ 40
winkel@@ 40
dam 40
famil@@ 39
hoo@@ 39
völl@@ 39
tic@@ 39
nut@@ 39
kens 39
ständnis 39
iele 39
's, 38
namen 38
it. 38
ief 38
kt? 38
illu@@ 38
ij@@ 38
zon 38
lab@@ 38
telle@@ 38
dt. 38
stem 38
= 38
Kran@@ 38
sour@@ 38
ction@@ 38
♫@@ 38
det@@ 38
bbel@@ 38
licht. 38
design 37
fs 37
wege 37
studen@@ 37
of@@ 37
k: 37
zeh@@ 37
team@@ 37
cin@@ 37
stoppen. 37
dicht@@ 37
pil@@ 37
chts 37
wicht@@ 37
‹@@ 37
ingenie@@ 36
goo@@ 36
igens 36
aliforn@@ 36
hang 36
der? 36
’@@ 36
brand@@ 36
Af@@ 36
belei@@ 36
Chan@@ 36
oon 36
ons@@ 36
biologie 36
bab@@ 36
ipul@@ 36
igeri@@ 35
othe@@ 35
cel@@ 35
grat@@ 35
maan@@ 35
[ 35
astron@@ 35
klim@@ 35
algorit@@ 35
cul@@ 35
zul@@ 35
tschaf@@ 35
ingen@@ 34
kind 34
Dur@@ 34
ders 34
ame 34
ef 34
minder@@ 34
hop@@ 34
ullen 34
bergen 34
sta 34
op. 33
computer 33
gers 33
nacht 33
°@@ 33
aat@@ 33
energie@@ 33
batter@@ 33
Engel@@ 33
bed 33
Twe@@ 33
ep 32
landen. 32
vat 32
hys@@ 32
leger 32
journal@@ 32
kan 32
oel 32
enn 32
½ 32
hält@@ 32
wilde 32
ontroll@@ 32
blog@@ 32
systemen 31
bedenken 31
verminder@@ 31
ap 31
opt@@ 31
leider@@ 31
einde 31
ó@@ 31
fantastisch 31
í@@ 31
ign@@ 31
nul@@ 30
methode 30
tonen 30
eiden 30
Heraus@@ 30
Q 30
situ@@ 30
‘ 30
wilden 30
open 30
k? 30
Resso@@ 30
statist@@ 30
´@@ 30
+ 30
min 30
lon@@ 30
computer@@ 30
geko@@ 29
rechter@@ 29
dacht@@ 29
gels 29
web@@ 29
aar, 29
meh@@ 29
Pak@@ 29
sess@@ 29
fon@@ 29
um? 29
verei@@ 29
instru@@ 29
Zo@@ 29
‹ 29
grenzen 28
Micro@@ 28
sof@@ 28
op, 28
kern@@ 28
ik: 28
» 28
vorm 28
een@@ 28
‘@@ 28
dieren. 28
verga@@ 28
nam 28
Iden@@ 28
.” 28
vide@@ 28
code 28
² 28
elk@@ 28
toon@@ 28
kende 28
nich@@ 28
Y 27
volution 27
Van 27
kenswer@@ 27
z.@@ 27
ähe 27
lingen 27
Mid@@ 27
ç@@ 27
zuminde@@ 27
è@@ 27
appar@@ 27
vis 26
ogen@@ 26
Ama@@ 26
ing? 26
achter 26
gam@@ 26
ummer 26
simp@@ 26
.' 26
ding 26
tech@@ 26
stier@@ 26
schilder@@ 26
atsäch@@ 26
energie. 26
vr@@ 26
ider@@ 26
atische 25
kante 25
fac@@ 25
technologie, 25
TE@@ 25
dieren, 25
val 25
conom@@ 25
pap@@ 25
ga 25
iet 25
mam@@ 25
Z 25
ilet@@ 25
relig@@ 25
volu@@ 25
stral@@ 25
tie 25
allerlei 24
gemen@@ 24
dete@@ 24
lob@@ 24
ari 24
inge@@ 24
hou@@ 24
ps@@ 24
moe@@ 24
pers@@ 24
aar. 24
Mexic@@ 24
artikel 24
kunst@@ 24
säch@@ 24
aat, 24
pas 24
‟ 24
aal. 24
amil@@ 24
sugger@@ 24
landen, 24
eim@@ 24
had@@ 24
alen. 23
studenten 23
terror@@ 23
cent@@ 23
school 23
jon@@ 23
auto 23
zicht@@ 23
kels 23
banen 23
onge@@ 23
dacht, 23
Californ@@ 23
hul@@ 23
eum 23
studie 23
‒ 23
_@@ 23
appen. 22
Afghan@@ 22
team 22
ken." 22
Van@@ 22
meren 22
pens@@ 22
‚@@ 22
echt. 22
cat@@ 22
Micha@@ 22
zor@@ 22
kere 22
jur@@ 22
apit@@ 22
sych@@ 22
meer 22
belan@@ 21
kilometer 21
vul@@ 21
lop@@ 21
vie@@ 21
basis 21
model@@ 21
gigantische 21
beste@@ 21
reger@@ 21
infra@@ 21
ieu 21
dacht 21
bewu@@ 21
ston@@ 21
perat@@ 21
diagno@@ 21
mos@@ 20
enkel 20
ellei@@ 20
oto 20
af 20
tschaft 20
dichter 20
) 20
burger@@ 20
experimen@@ 20
dom 20
elevan@@ 20
af, 20
papier 20
bedan@@ 20
merksam@@ 20
af. 20
oos 20
dood@@ 20
winnen 19
nan@@ 19
begin@@ 19
zei, 19
ul 19
beit 19
buchstäb@@ 19
oom 19
hebt, 19
dra 19
cra@@ 19
md 19
hauptsäch@@ 19
Thom@@ 19
ces 19
viru@@ 19
Ihr@@ 19
önt@@ 19
video 19
hele@@ 19
verborgen 19
micro@@ 19
doo@@ 18
J 18
rol 18
halen 18
Ze 18
jar@@ 18
vers 18
zich@@ 18
aal, 18
ace@@ 18
Oo@@ 18
virus 18
werel@@ 18
osau@@ 18
cli@@ 18
ã@@ 18
diversit@@ 17
gratis 17
clu@@ 17
ken: 17
ons, 17
mom@@ 17
taf@@ 17
gebrei@@ 17
sult@@ 17
loo@@ 17
planten 17
technologie. 17
Over@@ 17
"Als 17
pen. 17
atori@@ 17
ons. 17
stäb@@ 16
achter@@ 16
nummer 16
staat, 16
bevol@@ 16
@@@ 16
gelo@@ 16
erde 16
binnen 16
mee@@ 16
moment 16
kend 16
j 16
eer 16
cur@@ 16
affe@@ 15
plast@@ 15
ec@@ 15
’s 15
is? 15
werken. 15
je. 15
ñ@@ 15
school@@ 15
kers 15
Unser@@ 15
;@@ 15
enig@@ 14
angst 14
iets 14
zil@@ 14
'-@@ 14
vogel@@ 14
Stru@@ 14
ving 14
—@@ 14
we, 14
° 14
21@@ 14
unbeding@@ 14
kon 14
familie 14
prof@@ 14
urs 14
weet 14
'n 14
erd 14
meer@@ 14
dol@@ 14
oor 13
video@@ 13
izen 13
zit 13
verband 13
exper@@ 13
nov@@ 13
Phon@@ 13
idee 13
mee. 13
verra@@ 13
We 13
keu@@ 13
fron@@ 13
waa@@ 13
is: 13
dimens@@ 13
elekt@@ 13
atie@@ 13
bedacht 13
veren 13
profess@@ 13
restauran@@ 12
staat. 12
name 12
verle@@ 12
rust@@ 12
Tel@@ 12
alax@@ 12
keren 12
gewo@@ 12
vest@@ 12
Aar@@ 12
kopp@@ 12
”@@ 12
usst 12
geschieden@@ 12
fact@@ 12
je, 12
vall@@ 12
Kamp@@ 12
zelf@@ 12
aal@@ 12
merk 12
+@@ 12
simpel 12
wickl@@ 12
heid 11
lanc@@ 11
experiment 11
rest 11
erden 11
vind 11
internet@@ 11
wier@@ 11
leveren 11
mid@@ 11
wachten 11
periode 11
rode 11
elen, 11
tra 11
ding, 11
voel@@ 11
cep@@ 11
cip@@ 10
problemen 10
ü 10
India 10
cent 10
het 10
onden 10
compu@@ 10
nab@@ 10
dier 10
klo@@ 10
aart 10
dit. 10
foto 10
gramm@@ 10
reden@@ 10
à 10
had, 10
#@@ 10
modellen 10
’ 10
we. 10
britann@@ 10
robot@@ 10
zien 10
hou 10
redu@@ 10
zo 10
Chinese 10
hoe@@ 9
aat. 9
universit@@ 9
mun@@ 9
nee, 9
mensen 9
onder 9
gebre@@ 9
id. 9
ftware 9
ilt 9
ct. 9
een, 9
De 9
Ont@@ 9
teren, 9
dron@@ 9
wind 9
duc@@ 9
kant 9
werken, 9
aspe@@ 9
moo@@ 9
tafel 9
Googl@@ 9
uit 9
vre@@ 9
trot@@ 9
kop 9
verbe@@ 9
hous@@ 9
­@@ 9
Tij@@ 9
antische 8
vak@@ 8
ting 8
kant. 8
a's 8
²@@ 8
teur 8
"We 8
perio@@ 8
…@@ 8
dat, 8
Denk 8
mate 8
minuten 8
elen. 8
inkom@@ 8
warm@@ 8
ding. 8
tele@@ 8
á 8
diensten 8
ieu@@ 8
plex@@ 8
à@@ 8
zie 8
hebt. 8
dan, 8
sterf@@ 8
nau@@ 8
tien 8
@@ 8
willen 8
koff@@ 8
baby@@ 8
blik@@ 8
ø@@ 8
gezin@@ 8
ese 7
kie@@ 7
gericht 7
Oce@@ 7
wel 7
irgen@@ 7
intro@@ 7
iemand 7
aan@@ 7
bracht 7
antie 7
ook, 7
nik@@ 7
kost 7
cle@@ 7
eel 7
cel 7
€ 7
dell@@ 7
onze 7
stal 7
&g@@ 7
boe@@ 7
probe@@ 7
water 7
gor@@ 7
impa@@ 7
loten 6
werd 6
zwar@@ 6
minde@@ 6
mocht 6
cont@@ 6
bep@@ 6
(@@ 6
verwa@@ 6
minder 6
Is 6
deur 6
student 6
meer, 6
pad 6
ó 6
uw@@ 6
cap@@ 6
zien, 6
Om@@ 6
Noor@@ 6
van, 6
ieus 6
Fäh@@ 6
Azi@@ 6
dinosau@@ 6
had. 6
cept 6
ctu@@ 5
media 5
eens 5
haa@@ 5
ctor 5
hard 5
wusst@@ 5
Vanda@@ 5
eft 5
over. 5
bal 5
zicht 5
denk 5
motion@@ 5
=@@ 5
prototyp@@ 5
erd. 5
samen@@ 5
kken 5
bene@@ 5
vl@@ 5
meten 5
een. 5
niveau 5
van. 5
kant@@ 5
koe@@ 5
ree@@ 5
soms 5
book 5
identit@@ 5
olie 5
irur@@ 5
nive@@ 5
cit@@ 5
software 5
ming 5
langs 5
ieden@@ 5
dat. 5
meer. 5
dok@@ 5
noo@@ 5
lus@@ 5
neuronen 5
inse@@ 5
lessen 5
hoe 5
mati@@ 5
Ler@@ 5
^ 5
ering 5
mob@@ 5
í 5
gev@@ 5
@@ 5
conc@@ 5
helft 4
broo@@ 4
bli@@ 4
vla@@ 4
bescher@@ 4
aars 4
lucht@@ 4
  4
God 4
´ 4
ellig@@ 4
deren, 4
dingen 4
wacht@@ 4
ährend 4
slagen 4
"De 4
oog 4
zam@@ 4
verwar@@ 4
lucht 4
public@@ 4
Met 4
patro@@ 4
É@@ 4
intu@@ 4
roe@@ 4
q 4
Nee, 4
â@@ 4
spel@@ 4
ê@@ 4
leert 4
rikan@@ 4
^@@ 4
strali@@ 4
aire 4
favor@@ 4
ou, 4
universum 4
½@@ 4
Masch@@ 4
vu@@ 4
„ 4
orde 4
ief. 4
dste 4
hun 4
mede@@ 4
basis@@ 4
voc@@ 4
satell@@ 4
_ 4
@@ 4
¼ 3
verko@@ 3
teren. 3
aan 3
wed@@ 3
week 3
oog@@ 3
iets@@ 3
gou@@ 3
œ@@ 3
ze: 3
¥ 3
vermo@@ 3
kans 3
Mens@@ 3
meis@@ 3
kil@@ 3
wist 3
vester@@ 3
ilometer 3
ú@@ 3
bov@@ 3
vorige 3
model 3
talk 3
boom 3
act@@ 3
™ 3
wak@@ 3
demon@@ 3
distri@@ 3
mming 3
aas@@ 3
vorm@@ 3
uit, 3
mis 3
idee. 3
ganis@@ 3
labor@@ 3
kend. 3
gorit@@ 3
volut@@ 3
Staten 3
school, 3
uit. 3
door 3
gee@@ 3
dollar@@ 3
present@@ 3
stemmen 3
gestel@@ 3
ā@@ 3
aas 3
wat 3
VS 3
ywoo@@ 3
`@@ 3
kant, 3
*@@ 3
raa@@ 3
eg 3
stelt 3
eert 3
zeg@@ 3
β 3
struct@@ 3
aag 3
aam 3
wap@@ 3
school. 3
ô@@ 3
Wash@@ 3
heel@@ 3
vri@@ 3
è 3
zit, 3
‟@@ 3
door@@ 3
Å@@ 3
kracht 3
verde@@ 3
×@@ 3
erd, 2
stof 2
fügung 2
ook. 2
aties 2
oop 2
ieven 2
vanda@@ 2
toe@@ 2
Over 2
manier 2
zinn@@ 2
best 2
hij@@ 2
gron@@ 2
kun 2
niet 2
♪@@ 2
aans 2
kken, 2
sne@@ 2
zien@@ 2
computers 2
vallen 2
wetten 2
³ 2
hield 2
loc@@ 2
zwa@@ 2
"Je 2
ocht@@ 2
haar 2
niet@@ 2
wee@@ 2
ieman@@ 2
water@@ 2
® 2
neer@@ 2
impan@@ 2
geschre@@ 2
ë@@ 2
veil@@ 2
dingen, 2
ähr 2
mogen 2
internet 2
neem 2
zett@@ 2
entwick@@ 2
dingen. 2
noe@@ 2
` 2
commun@@ 2
machin@@ 2
roo@@ 2
heb 2
voe@@ 2
verschu@@ 2
vra@@ 2
dagen 2
komen 2
rapp@@ 2
ergens 2
ligt 2
ö 2
ý@@ 2
tien@@ 2
data 2
architect@@ 2
plic@@ 2
tek@@ 2
zit. 2
Ten 2
contro@@ 2
problemen. 2
opper@@ 2
Á@@ 2
ć@@ 2
¶ 2
€@@ 2
¡@@ 2
vidu@@ 2
ī@@ 2
Face@@ 2
ieve 2
cris@@ 1
Ons 1
water, 1
e-ma@@ 1
enigen, 1
even@@ 1
gist@@ 1
o's 1
Heb 1
¾ 1
fundamen@@ 1
symb@@ 1
impact 1
Net 1
duiz@@ 1
machine 1
zaa@@ 1
beet@@ 1
comple@@ 1
zij@@ 1
teru@@ 1
mondi@@ 1
kken@@ 1
teert 1
want 1
doe@@ 1
colle@@ 1
oce@@ 1
* 1
fic@@ 1
komen. 1
enthous@@ 1
kwan@@ 1
lapt@@ 1
hemat@@ 1
wel, 1
heid, 1
En 1
vou@@ 1
)@@ 1
heel 1
heet 1
ific@@ 1
© 1
winn@@ 1
communic@@ 1
dorp 1
@ 1
dden 1
aan, 1
zoe@@ 1
cte 1
ultur@@ 1
Bij@@ 1
к@@ 1
eco@@ 1
š@@ 1
direct 1
£ 1
Ç@@ 1
air 1
heen 1
ï@@ 1
emot@@ 1
zette 1
slim@@ 1
genomen 1
manieren 1
korte 1
， 1
nu 1
vast@@ 1
oud. 1
informat@@ 1
website 1
lab 1
plane@@ 1
drie@@ 1
jes. 1
crisis 1
î@@ 1
gebru@@ 1
perso@@ 1
Hoe@@ 1
bena@@ 1
Nu 1
gat 1
hoek 1
inno@@ 1
herinn@@ 1
zo. 1
bij@@ 1
Ӓ@@ 1
eerden 1
momenten 1
kwaa@@ 1
Ie@@ 1
verlies 1
deden 1
water. 1
klinkt 1
tradit@@ 1
type 1
Algorit@@ 1
bron 1
ō@@ 1
送@@ 1
你@@ 1
葱 1
linker@@ 1
dering 1
Elk 1
jul@@ 1
kopen. 1
open. 1
³@@ 1
spect@@ 1
filo@@ 1
tele 1
beel@@ 1
patronen 1
baby 1
ollar@@ 1
aard@@ 1
﻿@@ 1
binnen@@ 1
wet 1
deren. 1
gelov@@ 1
ief, 1
icro@@ 1
milieu@@ 1
kom 1
stoor@@ 1
Brazil@@ 1
ij, 1
aak 1
econom@@ 1
dollar. 1
reken@@ 1
blik 1
vro@@ 1
weken 1
kracht@@ 1
sug@@ 1
flic@@ 1
ijen 1
 1
@@ 1
enzo@@ 1
product 1
tient@@ 1
Of 1
dacht: 1
Č@@ 1
oud 1
aard 1
ć 1
Ű@@ 1
crimin@@ 1
idee@@ 1
maal@@ 1
icus 1
ici 1
ě@@ 1
slach@@ 1
hersen@@ 1
rond@@ 1
ï 1
kopen 1
leven 1
experimenten 1
ā 1
ū@@ 1
én 1
