die 85013
und 76884
der 56787
in 45051
zu 43915
das 43451
ist 39162
wir 37011
ich 36793
es 35283
Sie 29484
sie 29238
von 28508
ein 27852
dass 27269
eine 26630
Und 24739
den 24283
nicht 23466
mit 21898
auf 18600
wie 18506
Ich 18333
sich 17838
für 16820
man 14389
als 14065
Das 13650
um 13111
Es 12860
sind 12500
diese 12410
was 12241
im 12079
so 12003
an 11876
dem 11856
Wir 11633
einen 11323
wenn 11284
haben 11019
er 10747
war 10294
uns 10236
des 9825
oder 9689
über 9361
einer 8969
aber 8893
einem 8810
Die 8580
Aber 8488
auch 8428
aus 7863
nur 7851
-- 7650
ist, 7593
– 7487
sehr 7484
dann 6671
mich 6540
hier 6438
hat 6400
also 6295
noch 6242
Menschen 6161
werden 6134
dieser 6116
können 6115
gibt 6049
nach 5845
kann 5674
"@@ 5647
etwas 5644
Wenn 5519
wird 5325
bei 5262
mehr 5226
alle 5066
mir 4917
habe 4862
zum 4819
- 4785
weil 4418
Ihnen 4373
durch 4321
wirklich 4260
vor 4203
Welt 4201
immer 4187
Er 4186
unsere 4174
am 4063
ist. 4047
dieses 4012
ihre 3982
meine 3969
keine 3902
viel 3857
diesem 3813
Was 3586
diesen 3553
viele 3537
eines 3516
-@@ 3485
In 3479
sehen 3419
♫ 3397
wurde 3379
da 3345
Also 3307
an@@ 3223
zur 3209
zwei 3209
Der 3180
andere 3167
sein 3162
Leute 3155
Leben 3138
ihr 3133
te 3080
er@@ 3066
haben, 3060
wo 3050
einfach 3041
bis 3024
jetzt 3007
anderen 3002
Wie 2929
en, 2892
Zeit 2875
ten 2874
bin 2866
Art 2815
müssen 2807
, 2794
t, 2775
Jahren 2754
damit 2729
t. 2671
du 2662
hatte 2654
sind, 2647
dies 2627
. 2593
Jahre 2579
mein 2570
Man 2566
alles 2566
ein@@ 2543
denn 2535
waren 2533
ver@@ 2506
Dinge 2505
haben. 2473
en. 2469
auf@@ 2460
sind. 2437
un@@ 2424
ab@@ 2401
vielleicht 2370
selbst 2354
t 2353
schon 2339
: 2282
all 2265
ganz 2264
ob 2244
wieder 2243
war, 2243
ihnen 2238
machen 2231
aus@@ 2225
einige 2223
muss 2194
können. 2186
Diese 2182
werden. 2180
Hier 2172
" 2162
geht 2157
sehen, 2121
seine 2107
? 2100
ung 2100
meiner 2088
nicht, 2086
heute 2084
paar 2075
TED 2070
be@@ 2036
ihn 2030
sondern 2016
unserer 1984
drei 1981
möchte 1969
Als 1945
tun 1941
können, 1928
Ein 1925
würde 1923
s 1917
e 1916
vom 1912
tatsächlich 1907
genau 1905
neue 1903
wissen 1891
dort 1880
e, 1864
gut 1862
and 1850
Kinder 1847
denen 1833
Geschichte 1825
s, 1798
werde 1792
nun 1791
s. 1790
Jahr 1775
sein. 1770
te, 1757
er, 1752
kein 1747
zwischen 1741
davon 1741
sogar 1741
Ver@@ 1737
sein, 1725
Dies 1719
ohne 1718
Teil 1716
werden, 1716
." 1714
ten, 1700
ihren 1679
Talk 1669
unser 1660
über@@ 1660
Nun, 1642
Subtitles 1632
Transcript: 1632
gerade 1629
unter 1629
Eine 1627
hat, 1621
an, 1618
kann. 1617
gab 1602
vor@@ 1600
Ihre 1594
zu@@ 1582
Sie, 1580
ersten 1578
während 1577
darüber 1556
es, 1543
ge@@ 1540
en@@ 1529
einmal 1526
So 1525
ich, 1515
letzten 1508
nie 1507
jeder 1503
sagen, 1502
Millionen 1491
ung, 1483
mal 1470
nicht. 1464
etwa 1461
wird. 1454
erste 1449
ihrer 1447
ung. 1438
ten. 1434
warum 1433
hat. 1432
meisten 1420
meinem 1417
ganze 1408
dazu 1408
hatten 1406
große 1403
könnte 1382
ent@@ 1381
machen. 1380
gehen 1378
Beispiel 1377
te. 1374
An@@ 1370
an. 1369
sch@@ 1368
ziemlich 1365
Tag 1355
meinen 1352
sagte 1350
nichts 1342
sagte: 1341
wurden 1338
Frauen 1335
Problem 1326
wissen, 1312
sieht 1302
war. 1300
iert 1292
kommt 1291
Prozent 1279
Arbeit 1273
ieren 1272
kann, 1271
t@@ 1271
e. 1268
unseren 1264
wäre 1257
er. 1257
wird, 1247
ischen 1239
Im 1237
s@@ 1234
kleinen 1233
sagen 1232
weniger 1229
ungen 1227
kommen 1224
welche 1209
macht 1208
um@@ 1207
ins 1203
ter 1200
doch 1196
Vor@@ 1191
Menschen, 1171
ging 1153
das, 1153
Dann 1146
dabei 1145
dafür 1143
Ende 1142
Ihr 1139
großen 1138
S@@ 1132
10 1130
ganzen 1128
en 1128
ieren. 1121
eigentlich 1120
gegen 1119
kleine 1114
Frage 1109
Land 1103
en? 1094
A@@ 1093
weiter 1093
Denn 1090
natürlich 1087
keinen 1087
K@@ 1081
besser 1081
Be@@ 1080
machen, 1074
vier 1065
ihm 1061
tun, 1060
indem 1056
kam 1054
Menge 1054
aus. 1054
Mal 1051
Bild 1050
beim 1047
! 1046
jeden 1045
Weg 1043
wollen 1038
Daten 1038
seiner 1035
ungs@@ 1034
seit 1027
würden 1022
jemand 1015
igen 1014
Ein@@ 1013
denke, 1009
Ab@@ 1008
eigenen 1008
vielen 1006
Vielen 1004
will 1003
Geld 1002
Sch@@ 996
zurück 991
sollten 984
k@@ 981
darauf 980
fast 978
Da 977
daran 970
jedes 968
Idee 964
Gehirn 957
P@@ 956
weiß 954
konnte 954
ern 953
ieren, 953
gute 953
", 951
neuen 949
tun. 948
gemacht 948
sehen. 947
20 945
Dollar 944
wollte 941
allen 939
glaube, 938
Wasser 937
pro 936
Aus@@ 935
st@@ 935
a 928
geben 927
Dank. 926
b@@ 925
wenig 924
?" 923
Jetzt 921
unserem 921
ige 921
nehmen 921
Er@@ 919
sollte 917
"Ich 916
Mit 915
„@@ 906
Zukunft 905
... 901
Technologie 900
gibt, 897
denken 895
f@@ 894
Warum 894
E@@ 892
seinen 892
T@@ 889
Seite 885
durch@@ 883
ische 880
Also, 879
jede 878
fünf 877
nächsten 876
oft 876
wahrscheinlich 874
ende 874
wir, 870
; 869
sagte, 867
lange 865
d@@ 859
etwas, 858
sten 857
o 855
g@@ 855
iert. 852
brauchen 849
könnten 844
st 842
ungefähr 841
ierte 841
vor, 841
ihrem 840
unter@@ 831
". 823
in@@ 823
finden 819
lassen 818
denke 815
seinem 812
m@@ 807
bisschen 807
wurde, 807
stellen 804
Weise 803
z@@ 802
a@@ 800
Raum 800
ungen, 799
B@@ 798
Dinge, 797
Un@@ 796
Für 794
zeigt 794
Meine 790
Person 790
iert, 789
wurde. 788
h@@ 787
leben 786
später 784
Probleme 774
enden 771
zurück@@ 768
Dieses 767
en: 766
hatte, 766
passiert 765
♪ 765
weit 764
Nun 764
wer 764
de 763
Du 761
Milliarden 759
zusammen@@ 758
aus, 758
R@@ 754
erst 752
n, 752
zeigen, 750
schnell 750
Kind 750
Frau 748
liche 748
zusammen 747
namens 746
New 745
W@@ 743
G@@ 742
ierten 742
denken, 738
verschiedene 737
i 734
glaube 734
weiß, 733
Mann 733
habe, 733
hin@@ 733
gar 732
n. 731
es. 730
bevor 729
Erde 729
Ge@@ 728
ch@@ 725
Auf 724
ation 723
je 723
uns, 721
Re@@ 718
hätte 718
auf, 715
o@@ 714
sah 713
n@@ 713
Doch 713
bereits 712
Sache 712
wichtig 710
Stadt 710
Wissen 708
Informationen 708
gen 707
O@@ 706
Körper 704
30 703
bekommen 702
ja 700
Fall 700
Grund 699
Welt, 698
sagt 698
Moment 697
lang 696
m 696
Mutter 693
Mein 693
besonders 692
H@@ 692
überall 689
arbeiten 689
mir, 687
L@@ 686
euch 683
e@@ 682
y 681
d, 680
einigen 679
ischer 678
jedem 678
Welt. 676
D@@ 675
F@@ 674
Ort 674
dachte 673
System 672
ste 671
50 670
lichen 670
al@@ 669
n 669
menschlichen 669
Vielleicht 669
begann 668
Weil 666
verschiedenen 665
mit@@ 664
genug 660
verstehen, 659
Arten 659
'@@ 658
N@@ 656
gerne 656
gesehen 655
M@@ 652
Auf@@ 651
100 651
Danke. 651
USA 649
Um 649
i@@ 648
Bei 648
Schule 647
Antwort 643
hatte. 642
wollen, 642
so, 640
geben, 640
chen 637
dich 637
Ideen 636
Oder 636
beiden 635
ja, 635
en." 635
d. 634
Vor 634
re@@ 633
r@@ 633
manchmal 632
mich, 629
her@@ 625
sie, 625
Gruppe 623
finden, 623
ungen. 622
anderes 622
gehen, 622
l@@ 622
Planeten 622
Computer 621
Leute, 620
auf. 620
Leuten 619
anders 619
wegen 618
innerhalb 618
heraus, 617
zeigen 616
Energie 615
ier@@ 614
Fragen 614
besten 614
bringen 614
Dieser 613
liegt 612
lich 611
richtig 609
Natur 608
Zeit, 607
aller 606
Form 605
geben. 605
Geschichten 602
gleich 601
eher 600
sagen: 599
se 598
heißt 598
Über@@ 597
C@@ 596
st, 596
anzu@@ 596
Bilder 595
ar@@ 594
hin 594
ck@@ 593
gleichen 592
irgendwie 592
einzige 591
möglich 591
y@@ 590
gen, 589
ern, 589
% 589
Buch 588
Minuten 588
end 586
at@@ 586
Licht 585
stellt 585
auszu@@ 584
musste 584
ter@@ 584
Männer 583
sei 583
t? 582
deren 582
sechs 581
stehen 580
waren, 580
gibt. 579
Unternehmen 578
sen 578
gehen. 576
sprechen 576
menschliche 576
Projekt 575
würde, 575
de@@ 572
hier, 572
bedeutet, 572
würde. 572
it@@ 571
isch 569
d 568
versuchen 565
meines 565
[@@ 561
den, 560
habe. 559
t: 558
Punkt 558
Internet 557
Wissenschaft 557
Familie 556
bedeutet 553
nämlich 553
oben 553
nächste 552
p@@ 551
glauben, 551
Stellen 551
15 550
konnten 549
Stunden 549
kommen. 549
überhaupt 548
Gesellschaft 547
u@@ 547
ge, 547
Afrika 547
weitere 546
isches 543
Lassen 542
al 541
da@@ 539
or@@ 539
nach@@ 538
halten 537
verstehen 536
ss@@ 536
zwar 535
Macht 530
tes 530
kommen, 530
eigene 529
wohl 529
de, 528
Mädchen 528
Augen 527
ger@@ 527
also, 526
sicher 525
Regierung 524
In@@ 523
ur@@ 521
machte 520
ung@@ 520
a, 519
St@@ 519
em 519
Zum 517
sich, 516
den@@ 516
gen@@ 514
Sprache 514
Wasser@@ 513
letzte 512
ein, 511
bringen. 511
steht 511
obwohl 511
lernen 510
ien 510
lich. 509
ange@@ 508
Grunde 508
Hand 508
dir 508
völlig 507
hinter 507
bringen, 506
ä@@ 506
Patienten 506
gen. 505
gesagt, 505
braucht 504
Le@@ 503
gleiche 503
Unter@@ 503
Musik 502
Vater 501
Kopf 500
geht, 500
Stück 499
el@@ 499
sprechen, 499
ie 498
Viele 497
Vortrag 497
funktioniert 497
direkt 496
solche 496
le@@ 495
heraus@@ 493
Indien 493
ik@@ 489
Haupt@@ 489
ein. 488
h 488
fand 488
Kindern 487
Auto 487
aufzu@@ 487
jedoch 487
Ist 487
ben 486
Design 486
lassen. 484
z 483
ig. 483
Ja, 483
meine, 483
Hause 480
Ihren 480
niemand 480
schauen 479
gel@@ 479
se@@ 479
unseres 478
Unsere 478
größte 478
ro@@ 477
ch 477
Eltern 477
China 476
waren. 474
Entwicklung 474
daran, 474
allem 474
Schul@@ 472
iger 470
Lebens 470
weiter@@ 469
gemacht. 468
ern. 468
Wort 465
ge. 465
alen 464
m, 464
Gefühl 463
Hilfe 462
müssen, 462
Universum 462
nutzen 461
40 461
De@@ 461
Lebens@@ 461
ge 460
en-@@ 460
Nicht 459
Zeit@@ 459
sprechen. 458
Jahren, 458
lich, 458
is@@ 457
müssen. 456
nahm 455
welches 455
gut. 455
Denken 455
Heute 453
hatten, 453
Lage 452
unglaublich 450
bar 449
Angst 449
ig@@ 449
den. 449
entwickelt 448
Film 448
Haus 447
Länder 447
damals 447
neu 445
Gebäude 444
hätten 444
gehört 444
ter, 444
genauso 443
größten 442
zweite 442
darin 442
Nach 442
st. 442
weiter. 441
finden. 441
2 440
ik 440
kurz 440
Sehen 439
on@@ 439
Reihe 438
Zu@@ 438
et 438
hoch@@ 438
Z@@ 438
wäre, 437
schwer 437
kamen 435
zer@@ 435
wollen. 434
alten 434
Anfang 434
sehr, 433
Al@@ 433
te@@ 433
Am 432
et@@ 432
wurden. 432
geht. 432
hören 431
der@@ 431
ts 431
ten@@ 431
sen@@ 430
kennen 429
darüber, 427
men 427
alt 426
ie, 426
I@@ 426
Tiere 425
jemals 425
Sachen 424
dachte, 423
sagt, 423
weg@@ 422
nimmt 422
geb@@ 422
spielen 422
gern 422
sie. 422
ber@@ 422
me 421
anderer 421
versuchen, 421
Einige 421
Jeder 421
hatten. 420
Monate 419
Tage 418
Möglichkeit 418
rei@@ 418
Nach@@ 417
einzu@@ 417
chen, 417
ab. 416
Kunst 416
glauben 415
dessen 415
Anzahl 415
Thema 414
recht 414
J@@ 414
Roboter 414
versch@@ 414
ig 413
Ihrem 413
los 413
ist: 413
Wochen 413
w@@ 413
bauen 412
licher 412
gt 411
Natürlich 408
Ihrer 408
nennen 408
ausge@@ 407
führt 407
alles, 407
ei@@ 407
möchte, 406
kleines 406
Spiel@@ 406
Namen 404
York 404
guten 404
Verhalten 404
au@@ 404
Woche 403
di@@ 403
CA: 403
darum, 403
Tatsächlich 403
Art, 403
is 403
Sp@@ 403
ken 402
Grund@@ 402
Deshalb 402
könnte. 401
ens 400
fragen 400
sage 400
Tages 400
helfen 399
auch, 399
Um@@ 398
hier. 398
bringt 398
"Das 398
falls 398
Menschen. 397
ist@@ 397
a. 396
führen 395
Verbindung 395
mussten 395
sieben 395
unten 395
davon, 395
hoch 395
nachdem 394
sp@@ 394
Glück 394
lei@@ 393
getan 393
passiert, 393
wer@@ 392
g, 392
Alle 392
ie@@ 391
schließlich 391
Wer 391
stellte 390
deshalb 389
wollten 389
halten. 389
Unterschied 389
zuvor 389
bei@@ 389
fanden 388
3 388
Krebs 388
soziale 388
c@@ 387
leben. 387
Während 387
z. 387
das? 386
arbeiten, 386
s-@@ 385
genommen 384
dem, 383
Spiel 382
Freunde 382
Ziel 381
dass, 381
abzu@@ 381
zen 380
zehn 379
Erfahrung 379
Von 379
"Was 379
niemals 379
zeigen. 379
Autos 378
arbeiten. 378
dazu, 378
5 377
Wirtschaft 377
Vereinigten 377
liebe 377
gesagt 376
leben, 376
der, 376
reden 375
nehmen, 375
die, 375
wa@@ 375
lassen, 375
Mar@@ 372
m. 372
miteinander 372
neues 371
ing 371
ha@@ 371
Welt@@ 370
sagt: 370
Jahren. 370
Ar@@ 369
Gedanken 368
Lehrer 368
Gott 368
groß 367
beste 367
1 367
000 367
voller 367
mag 367
Kultur 367
das. 366
] 366
Ma@@ 366
lässt 365
soll 365
Schauen 365
darum 365
Schritt 365
kt 365
schaffen 364
weg 364
Video 364
plötzlich 363
ö@@ 363
Lösung 363
dafür, 362
stand 362
Hälfte 362
findet 361
Technologien 361
fragte 361
chen. 361
ter. 361
beide 361
will, 360
be 360
bekommen, 360
ben@@ 360
komplett 359
benutzen 359
daraus 358
ra@@ 358
Rest 358
teil@@ 358
absolut 357
draußen 357
kommt, 356
Nur 356
besteht 355
herum 355
zeigt, 355
gesamte 355
ig, 355
eren 354
einfache 354
Team 354
Studenten 354
ie. 354
-S@@ 354
V@@ 354
ab, 353
Se@@ 353
sozialen 353
hen 353
bekommen. 353
anstatt 352
gesch@@ 352
passiert. 352
Wahrheit 352
acht 351
ziehen 351
wichtige 351
Sinn 351
Arbeits@@ 351
ale 350
Liebe 350
Bewegung 350
setzen 349
Bau@@ 349
liches 349
stark 349
ationen 349
Qu@@ 348
ssen 348
Essen 347
könnte, 346
man, 346
nen 345
eins 344
gegenüber 344
Pro@@ 344
Zahl 344
k 343
kleiner 343
Computer@@ 343
am@@ 342
aufge@@ 342
Krieg 342
nutzen, 342
Größe 342
verstehen. 341
junge 341
wurden, 341
macht, 341
Teile 341
il@@ 340
lernen, 340
Ent@@ 340
wichtig, 339
Staaten 339
schaffen, 339
Platz 339
ck 339
Auch 338
sonst 338
Ländern 338
funktioniert. 338
Dingen 338
Zellen 338
U@@ 338
Modell 338
iere 337
g. 337
konnte. 337
möglichen 337
Idee, 337
ster 337
bestimmten 337
cken 337
wei@@ 337
ti@@ 336
l 336
ierung 335
fen 335
war@@ 335
Studie 335
g 335
erkennen, 335
gingen 334
zurück. 334
3@@ 334
ihres 334
de. 333
Prozess 333
ene 333
t." 333
sicher, 333
All 333
schen 333
Meinung 332
ir@@ 332
.“ 332
tet 332
Wissenschaftler 331
Mit@@ 330
weltweit 330
macht. 330
all@@ 330
einander 330
Richtung 330
dann, 330
fahren 330
Leben. 329
Alles 329
erzählen, 329
bare 328
bitte 328
ag@@ 328
ü@@ 327
än@@ 327
bessere 326
großer 326
gut, 326
to@@ 326
ke 326
Luft 325
richtigen 325
Gesundheit 325
klar, 325
ben, 325
scheint 325
Boden 324
25 324
le, 324
Kom@@ 324
Möglichkeiten 324
elle 323
he@@ 323
Gen@@ 323
in, 323
ma@@ 322
ger 322
cht@@ 322
sehe 322
ab 321
wieder@@ 321
kl@@ 321
Energie@@ 321
et. 321
worden 320
wären 320
leicht 320
einge@@ 320
danach 320
Geschichte. 320
igkeit 320
helfen, 320
Nacht 319
zeige 319
erhalten 319
Grund, 319
Zeit. 319
Gemeinschaft 319
Jahrhundert 318
al, 318
u 318
Veränderung 318
Entscheidungen 318
pf@@ 317
Reise 316
Technik 316
ul@@ 316
zwei@@ 316
richtige 316
länger 315
enen 315
zuerst 314
Kon@@ 314
gleichzeitig 314
ser@@ 314
Foto 314
alte 314
ß@@ 314
fest@@ 313
se. 312
men. 312
bist 312
falsch 312
versucht 312
daher 311
Eines 311
einzelne 311
An 311
Beziehung 311
200 311
verändert 311
Muster 310
la@@ 310
sofort 310
allein 310
Städte 310
ster@@ 310
erzählt 309
's 309
Bedeutung 309
' 309
beginnen 308
i, 308
globalen 308
Meter 308
Kraft 308
ens@@ 308
Freund 307
ich. 307
b 307
hast 307
heißt, 307
Publikum 307
voll 306
Mitte 306
schrieb 306
bauen. 306
mache 305
Können 305
stellen. 305
teilen 305
Nein, 305
Situation 305
ellen 304
verändern 304
men, 303
jemanden 303
ss 303
bewegen 303
Sicherheit 303
kt@@ 303
äu@@ 303
verändern. 303
Blick 303
as 302
.@@ 302
Vorstellung 302
gemacht, 302
entwickeln 302
Okay, 302
ständig 302
großes 302
Mensch 302
Oberfläche 302
Rück@@ 301
Ihnen, 301
Wo 301
so. 301
wusste 301
Rolle 301
al. 301
4 301
60 300
tern 300
!" 299
schaffen. 299
Aufgabe 299
bauen, 299
ation, 299
Selbst 299
Wert 299
gesamten 299
fa@@ 298
Gegen@@ 298
herum@@ 298
Beispiel, 298
Gewalt 298
ru@@ 298
hei@@ 298
deine 298
verwenden 297
bet@@ 297
12 297
brachte 297
stellen, 297
Forschung 297
Frage, 297
lich@@ 297
Umgebung 297
schlecht 297
Zugang 297
beginnt 297
Selbst@@ 297
sa@@ 297
Bu@@ 295
muss, 295
ändern 295
ere 295
Zu 294
vor. 294
»@@ 294
ben. 293
Karte 293
Stimme 292
erzählen 292
sagten 292
konnte, 292
Sache, 291
Kinder@@ 291
Daher 290
sollte. 290
Labor 290
außer 290
Hand@@ 290
Bildung 290
80 290
ko@@ 289
bereit 289
sowohl 289
hervor@@ 289
Generation 289
bald 289
würden, 289
et, 289
gesehen, 289
z, 288
tut 288
um, 288
Bereich 287
op@@ 287
wir@@ 287
mehr. 287
so@@ 287
y, 287
könnten, 287
Markt 286
Neu@@ 286
erkennen 285
größer 285
ern@@ 285
Bo@@ 285
manche 285
Straße 285
bin, 284
vorstellen, 284
bekam 283
schneller 283
um. 283
Man@@ 283
ik, 283
könnten. 283
be, 283
"Wir 283
bau@@ 283
aufgrund 282
Alter 282
sin@@ 282
da, 281
schreiben 281
Amerika 281
bestimmte 281
fühlen 281
igen, 281
ers 281
großartige 280
oder? 280
erreichen 280
ation. 280
Zahlen 280
ur 280
sagen. 279
treffen 279
gleich@@ 279
ien, 279
glücklich 279
Problem. 279
Ro@@ 279
zumindest 279
heit 279
fahr@@ 279
zu. 279
irgendwo 279
Tat 279
halten, 278
erzählen. 278
herauszufinden, 278
Kontrolle 278
bar. 278
or 278
Sonne 278
fragen, 278
öffentlichen 277
Tod 277
nahmen 277
ne@@ 277
jungen 277
Firma 277
solchen 277
würden. 277
Ha@@ 277
einzelnen 277
qu@@ 276
Fa@@ 276
gemeinsam 276
Fähigkeiten 276
kaum 276
sodass 276
machten 275
spricht 275
ste, 275
vorher 275
end. 275
hal@@ 275
kon@@ 274
Groß@@ 274
En@@ 274
Ergebnis 274
spielen. 274
neben 273
lichkeit 273
us 273
men@@ 273
e-@@ 273
Chris 272
tun? 272
er: 272
Kinder, 272
nur, 272
amerikanischen 271
Demokratie 271
na@@ 271
Herausforderung 271
Geschichte, 270
se, 270
Tier@@ 270
of 270
6 269
Leben, 269
und, 269
lesen 269
darauf, 269
ch, 269
fing 269
Kosten 269
2@@ 268
on 268
Realität 268
zu, 268
Gesicht 268
ot@@ 268
är@@ 268
Preis 268
Mal, 267
Einfluss 267
gt. 267
en; 267
heit, 267
davon. 267
ne 267
bar@@ 267
bewusst 267
Gehirn@@ 267
sagten: 267
Wirklichkeit 267
bekommt 266
klar 266
heutzutage 266
ender 266
her 266
Fähigkeit 266
Struktur 266
Mann, 266
lo@@ 266
Erfolg 265
muss. 265
uns. 265
riesige 265
ell@@ 264
Dinge. 264
Schulen 264
er-@@ 263
Krankheit 263
voll@@ 263
Revolution 263
wichtiger 263
gewesen 262
Google 262
Problem, 262
Damit 262
e: 261
ze 261
Grenzen 261
schön 261
Regeln 261
"Die 261
Frauen, 261
Maschine 260
Europa 260
suchen 260
Seiten 260
Da@@ 260
4@@ 260
La@@ 259
gebaut 259
spiel@@ 259
außerhalb 259
ert 259
che 259
führen. 258
bt 258
denken. 258
om@@ 258
ts@@ 258
isch. 258
t-@@ 258
Bücher 258
sk@@ 257
statt 256
a-@@ 256
kte 255
selben 255
wollte, 255
ca. 255
Danke 255
Gruppen 255
sollten. 255
zweiten 255
tat 255
immer, 254
lösen 254
wann 254
trotzdem 254
Kunst@@ 254
ft 254
wachsen 254
desto 254
Medien 254
Tatsache, 254
welcher 253
lernen. 253
eln 253
bekannt 253
tragen 253
zusammen. 253
ations@@ 253
ans 252
zeit 252
normalerweise 252
18 252
begannen 252
führte 252
el 252
ant@@ 252
sich. 251
verbunden 251
kam, 251
ber 251
Theorie 251
konnten. 250
Unser 250
su@@ 250
extrem 250
isch, 250
Ergebnisse 250
baren 249
sten, 249
Bevölkerung 249
ut@@ 249
Au@@ 249
gelernt 249
in. 249
David 248
Rei@@ 248
Ort, 248
versucht, 248
dar@@ 248
Fehler 248
eh@@ 247
dung 247
Universität 247
mögen 247
Monaten 247
Krankheiten 247
"Wie 247
Sicht 247
innen 247
helfen. 247
Haben 246
Daten@@ 246
Mitgefühl 246
en?" 246
damit, 245
interessante 245
nun, 245
einfach. 245
gutes 245
Körper@@ 245
ähnlich 245
sieht, 245
Genau 244
besch@@ 244
ch. 244
teten 243
Do@@ 243
ill@@ 243
entweder 243
eigen@@ 243
mehrere 243
Evolution 243
tete 243
nennt 242
Auswirkungen 242
best@@ 242
heutigen 242
kommt. 242
y. 242
bleiben 242
sollen 242
guter 242
Fotos 242
we@@ 241
Tagen 241
wichtig. 241
rund 241
Bezug 241
hoffe, 241
Menschheit 241
führen, 241
bestimmt 241
enz@@ 241
Mikro@@ 241
sen, 241
frei@@ 241
gebracht 240
wür@@ 240
Super@@ 240
sitzen 239
heit. 239
Stelle 239
gefunden 239
Einer 239
Information 239
selbst. 238
ho@@ 238
eben 238
Mon@@ 238
te: 238
ar 238
sagten, 238
Manchmal 238
zurück, 238
darin, 238
sahen 238
at 238
einzigen 238
gef@@ 237
So@@ 237
passieren 237
os 237
ach@@ 237
ak@@ 236
hundert 236
ich@@ 236
wider@@ 236
el, 236
cke 236
kannst 236
“ 236
gezeigt 235
Amerikaner 235
Nummer 235
einfachen 235
Schüler 235
ste@@ 235
endes 235
Ding 235
Mo@@ 235
seines 235
dern 235
Gebiet 235
bo@@ 235
arbeitete 235
dein 235
ion@@ 235
dritte 234
Orten 234
fliegen 234
schwierig 234
sche 234
Eis@@ 234
ist? 233
Orte 233
Su@@ 233
erreichen. 233
kt. 233
lan@@ 232
Produkt 232
sse 232
Armut 232
Bewusstsein 232
tra@@ 232
ing@@ 232
oren 231
dadurch 231
reden, 231
Her@@ 231
egal 231
end, 231
Licht@@ 231
unterschiedliche 231
me, 231
ation@@ 231
Vergangenheit 231
Beginn 230
schlechte 230
Politik 230
Wei@@ 230
laufen 230
näher 230
us@@ 230
Material 229
ebenso 229
sprach 229
globale 229
kennen, 229
Million 229
Weg, 229
Umwelt 229
Regierungen 229
sterben 229
erreicht 229
nennen. 229
Jedes 229
ken, 229
offensichtlich 229
wenige 228
funktionieren 228
ik. 228
Ru@@ 228
unglaubliche 228
geh@@ 228
wert 228
nehmen. 228
Experiment 228
DNA 228
ri@@ 228
Ebene 227
8 227
le. 227
Beispiele 227
Uhr 227
zusammen, 227
genannt 227
dig@@ 227
Sohn 227
ehr@@ 227
entfernt 227
fest, 227
Bühne 226
br@@ 226
stehen. 226
Co@@ 226
Verständnis 226
US-@@ 225
finde 225
Tag, 225
mer@@ 225
ell 225
Po@@ 225
gestellt 225
einfach, 225
Manche 225
Ta@@ 225
lie@@ 224
verwendet 224
stehen, 224
fangen 224
gew@@ 224
langsam 224
en" 223
selbst@@ 223
verloren 223
sobald 223
sollte, 223
Konzept 223
frei 223
Suche 223
Aufmerksamkeit 223
Nachricht 223
früher 222
f 222
bleibt 222
stelle 222
ändern. 222
es@@ 222
sen. 222
ze, 221
abge@@ 221
Künstler 221
ten: 221
500 221
echte 221
Haus@@ 221
Nachrichten 221
end@@ 220
gen? 220
wirklich, 220
Wachstum 220
geschrieben 220
Linie 220
größere 220
los. 220
fe@@ 220
neun 220
tem 220
Hoffnung 220
"-@@ 220
Personen 220
bel@@ 220
Technologie, 219
Prinzip 219
interessant 219
vorstellen 219
ds 219
gt, 219
frühen 219
ebenfalls 219
Programm 219
hören, 219
chen@@ 219
größeren 218
seh@@ 218
ier 218
möchten 218
John 217
entwickeln, 217
det. 217
testen 217
j@@ 217
Job 217
erinnere 217
ssen, 217
teilen. 217
eigenes 217
Zwei 217
alle, 216
Noch 216
Monat 216
Luft@@ 216
mal, 216
wusste, 216
iz@@ 216
Hände 216
ken. 215
as@@ 215
tig 215
Möglichkeit, 215
300 215
Weise, 215
Frau, 215
Ho@@ 215
Spezies 215
Ne@@ 215
Nehmen 215
benutzt 215
Studien 215
Kollegen 214
bil@@ 214
Liste 214
keiner 214
legen 214
z.B. 214
h, 214
s: 214
For@@ 214
is, 214
gegeben 214
on, 213
ionen 213
kt, 213
Öl@@ 213
Formen 213
politischen 213
verändert. 213
versuche 213
Herz@@ 213
Name 213
Beziehungen 213
iges 212
kaufen 212
liegen 212
Mittel@@ 212
Morgen 212
Y@@ 212
Menschen@@ 212
le 212
Land, 212
essen 211
rau@@ 211
v@@ 211
fällt 211
hab 211
Öl 211
gesehen. 211
nein, 211
ziehen. 211
jetzt, 211
Kampf 211
stimmt 210
fen. 210
Lehr@@ 210
Firmen 210
ums 210
will. 210
Herz 210
Sonnen@@ 210
TED-@@ 210
schrei@@ 210
Systeme 210
im@@ 210
Wer@@ 210
natürlich, 210
Land@@ 210
Worte 209
bisher 209
A 209
danke 208
traf 208
Familien 208
i. 208
sollten, 208
Himmel 208
We@@ 208
übrigens 208
man@@ 208
B. 208
erzählte 207
Lösungen 207
Jahre, 207
te? 207
ck, 207
d-@@ 207
Gesundheits@@ 207
Artikel 207
hörte 207
ich: 207
Aus 207
19@@ 207
Or@@ 207
links 207
Atom@@ 207
politische 207
90 207
Di@@ 206
x@@ 206
interessiert 206
art@@ 206
erklären, 206
Medizin 206
Erfahrungen 206
dr@@ 206
"H@@ 206
cken. 206
ges 206
Mathematik 206
Tier 206
Sache. 205
arbeitet 205
Interesse 205
fen, 205
Bakterien 205
handelt 205
läuft 205
tr@@ 205
Dort 205
fer@@ 205
ät@@ 205
To@@ 205
Wahl 204
Ko@@ 204
Geschäfts@@ 204
det, 204
ckt 204
re, 204
Lern@@ 204
zei@@ 204
echt 204
k, 203
Finanz@@ 203
wichtigsten 203
Innovation 203
Dr. 203
versuchte 203
Typ 203
ta@@ 203
mel@@ 203
At@@ 203
Bi@@ 203
wi@@ 203
bin. 203
o, 203
stre@@ 203
Frei@@ 203
bewegen. 203
leben@@ 203
sinn@@ 203
Veränderungen 202
sowie 202
mach@@ 202
ion 202
geboren 202
amerikanische 201
entwickelt, 201
Ban@@ 201
mehr, 201
mich. 201
mir. 201
Par@@ 201
Nahrung 201
ad@@ 201
Auge 201
rie@@ 200
Durch@@ 200
Okay. 200
mat@@ 200
1@@ 200
nach, 200
lieben 200
Software 200
fühlte 200
Ja. 200
Jede 200
Person, 200
Wal@@ 200
me@@ 199
Sekunden 199
nehme 199
langen 199
endlich 199
Bar@@ 199
ur, 199
tief 199
Ozean 199
5@@ 199
her, 199
"S@@ 199
hinaus 199
Hoch@@ 199
"Es 199
Arm 199
Version 198
riesigen 198
f, 198
ganzes 198
Lei@@ 198
kom@@ 198
zurückzu@@ 198
zi@@ 198
Dorf 198
Eis 198
ziehen, 197
del@@ 197
ft. 197
weise 197
Durch 197
ment@@ 197
Teilen 197
der. 197
Kar@@ 197
klein 197
Auto@@ 196
Bis 196
dasselbe 196
bilden 196
nachdenken, 196
sel@@ 196
lau@@ 196
Fähigkeit, 196
— 196
brauchen, 195
wissenschaftliche 195
k. 195
si@@ 195
Musik@@ 195
erfolgreich 195
Fisch@@ 195
ff@@ 194
mal@@ 194
Gel@@ 194
da. 194
Arbeit, 194
du@@ 194
Punkte 194
Leben@@ 194
letztes 194
Spitze 194
schön. 194
Ärzte 194
modernen 193
Ressourcen 193
Zeitpunkt 193
Design@@ 193
vier@@ 193
Pflanzen 193
konnten, 193
hier@@ 193
Gra@@ 193
aten 193
erinnern 193
reichen 193
Umwelt@@ 192
rechten 192
tliche 192
gebe 192
jemandem 192
tausende 192
sein? 192
gehört, 192
gekommen 192
erinnern, 192
f. 192
isten 192
ären 192
zen, 192
sie@@ 192
Ka@@ 192
spielt 192
ol@@ 192
y-@@ 192
ste. 191
hinter@@ 191
sau@@ 191
san@@ 191
Farbe 191
bewegt 191
reden. 190
it 190
möglich, 190
cht 190
ken@@ 190
gende 190
i-@@ 190
mü@@ 189
heraus 189
komme 189
ft@@ 189
hört 189
erreichen, 189
Nähe 189
jene 189
Papier 188
weiterhin 188
Leuten, 188
wahr? 188
dabei, 188
Zentrum 188
gab, 188
Oh, 188
mir: 188
Meer 188
Gene 188
auss@@ 188
7 188
Kl@@ 188
20. 188
benutzen, 188
mo@@ 188
Wohn@@ 188
rechts 188
zeigte 187
Spaß 187
her. 187
e? 187
zen@@ 187
ander@@ 187
reg@@ 187
gab. 187
Gesetz 187
Jungen 187
per 187
Dank 186
Straßen 186
drei@@ 186
Sinne 186
kar@@ 186
fe 186
get@@ 186
isch@@ 186
je@@ 186
18@@ 186
Behandlung 186
age 186
alt@@ 185
ging, 185
fallen 185
Keine 185
spielen, 185
Schönheit 185
stellten 185
wollte. 185
Dat@@ 185
Stunde 185
gehe 185
fertig 185
ur. 185
mer 185
ensch@@ 185
Natur@@ 185
70 185
online 185
Wörter 185
,@@ 184
verwenden, 184
wohin 184
Blut@@ 184
frage 184
nicht@@ 184
steh@@ 184
sicher@@ 184
Zwei@@ 184
14 184
hält 184
Ber@@ 184
Einzel@@ 184
system 183
öffentliche 183
betrachten, 183
später, 183
weiteres 183
geschieht 183
8@@ 183
el. 183
treffen. 183
Werte 183
tolle 182
natürliche 182
Produkte 182
gaben 182
lösen. 182
Netz 182
ine 182
trotz 182
schen, 182
Netzwerk 182
Mir 181
Organisation 181
nicht? 181
Über 181
nahe 181
iker 181
kan@@ 181
schau@@ 181
Jahr. 181
wissen. 181
Na@@ 181
ierte, 181
gearbeitet 181
schauen, 180
Mittel 180
Männern 180
hätte, 180
unterschiedlichen 180
Wege 180
Medikamente 180
o-@@ 180
arbeite 180
auch. 180
Vergleich 180
Grad 180
selbst, 179
km 179
geworden 179
ssen. 179
Designer 179
setzen. 179
sten. 179
aussehen 179
gang 179
neuer 179
Kur@@ 179
Wasser, 179
Moment, 179
Internet@@ 179
nutzen. 179
lose 179
Kamera 179
Win@@ 179
tlich 179
Geist 179
dan@@ 178
pro@@ 178
Verfügung 178
che, 178
wussten 178
ing, 178
ze@@ 178
stell@@ 178
volle 178
ex@@ 178
gehört. 178
gesprochen 178
Hin@@ 178
San 178
-F@@ 178
bin@@ 178
mm@@ 177
hl@@ 177
cht. 177
o. 177
ihnen, 177
Niemand 177
sah, 177
Warum? 177
vermutlich 177
"Warum 177
Zustand 177
kur@@ 176
Gerät 176
flü@@ 176
me. 176
verb@@ 176
Lernen 176
Unterschiede 176
weisen 176
ließen 176
hohen 176
Entscheidung 175
Projekte 175
"Wenn 175
s? 175
Chance 175
Sex 175
Kern@@ 175
Wahl@@ 175
erhalten. 175
Kilometer 175
aler 175
Landes 175
erlaubt 175
do@@ 175
Ste@@ 175
hielt 174
det 174
cken, 174
ktion 174
anfangen, 174
fühlen, 174
sor@@ 174
wunder@@ 174
tz@@ 174
Den 173
leider 173
Markt@@ 173
20@@ 173
schon, 173
dieselbe 173
folgen 173
Kan@@ 173
schöne 173
daß 173
nenne 173
herunter@@ 173
geschehen 173
Ch@@ 173
Sozial@@ 173
6@@ 173
Ziele 173
ales 172
Dollar. 172
gel 172
Wirtschafts@@ 172
16 172
haben? 172
mindestens 172
wiederum 172
weiter, 172
7@@ 172
eller 172
Fach@@ 172
schaft 172
anfangen 172
ten? 172
Antworten 172
alität 172
Falls 172
Bäume 171
Verantwortung 171
Recht 171
eu@@ 171
verändern, 171
falsche 171
Wand 171
weiteren 171
gegangen 171
Prozent. 171
unbedingt 171
erin 171
Freunden 171
brauchen. 171
Mensch@@ 170
Strom 170
is. 170
weder 170
mar@@ 170
wichtigste 170
ien. 170
möglicherweise 170
setzt 170
fühle 170
mut@@ 170
Krankenhaus 170
wissenschaftlichen 170
fühlt 170
Me@@ 170
ismus 169
Tatsache 169
Massen@@ 169
pp@@ 169
Regel 169
Zusammen@@ 169
Sind 169
hohe 169
Konferenz 169
Tro@@ 169
Verbindungen 169
fr@@ 169
kor@@ 168
Kat@@ 168
ung? 168
Nein. 168
Jahr, 168
Großteil 168
ion, 168
Raum@@ 168
taten 168
af@@ 168
täglich 168
Frage: 168
Reaktion 168
aus? 168
eil@@ 168
Bet@@ 168
nach. 168
ierter 168
lernte 168
igkeit, 168
Zuerst 168
Sie. 168
Sehr 168
Seine 168
ft, 167
führ@@ 167
erklärt 167
hinein@@ 167
buchstäblich 167
gra@@ 167
Gefühle 167
Leidenschaft 167
fort@@ 167
"A@@ 167
Gefühl, 167
lief 166
hand@@ 166
entwickeln. 166
passierte 166
Sie@@ 166
Objekt 166
tet, 166
wunderbare 166
sh@@ 166
Drittel 166
Gleich@@ 166
gener@@ 165
Bild@@ 165
Ku@@ 165
sicherlich 165
Maschinen 165
Wesen 165
Methode 165
kenne 165
Kinder. 165
HIV 165
Vielfalt 165
ieren? 165
außerdem 165
selber 165
erschaffen 165
He@@ 165
tausend 165
Opfer 165
genden 164
hin, 164
heraus. 164
e" 164
tet. 164
wichtigen 164
genutzt 164
Druck 164
Gesch@@ 164
erstes 164
em@@ 164
Region 164
miss@@ 164
Herzen 164
begann, 164
tung 164
Westen 164
vollkommen 164
gilt 163
besseren 163
Zusammenhang 163
bereit@@ 163
hn@@ 163
ck. 163
ion. 163
ehrlich 163
Eigenschaften 163
Ex@@ 163
h. 163
Schlaf@@ 163
Hirn@@ 163
Per@@ 163
zeit@@ 163
Zelle 163
Glauben 163
ze. 163
ließ 163
bedeut@@ 163
cher@@ 162
neu@@ 162
kennen. 162
hilft 162
tlichen 162
verlassen 162
gestellt. 162
kosten 162
Biologie 162
Ra@@ 162
Bio@@ 162
Ur@@ 162
les 162
Englisch 162
gewisse 162
form@@ 162
Gehirns 162
Wieder@@ 162
lag 162
offen 162
Rau@@ 162
dachten 161
10@@ 161
Milliarde 161
schreiben. 161
Dabei 161
ierende 161
Abend 161
ms 161
Laufe 161
Freude 161
zog 161
Gesellschaften 161
Frage. 161
seien 161
Rede 160
Flugzeug 160
ons 160
Nutz@@ 160
400 160
istischen 160
hart 160
hab@@ 160
Tag. 160
Farben 160
ansehen, 160
welchen 160
Ansatz 160
Arbeit. 160
Met@@ 160
deinen 160
Position 160
ah@@ 160
Religion 160
zahl@@ 160
Mor@@ 160
alt. 160
Arzt 160
viel@@ 160
ne. 159
enz 159
Fernseh@@ 159
letztendlich 159
entwickelten 159
Bild, 159
gest@@ 159
Ihnen. 159
24 159
enten 159
arbei@@ 159
ic@@ 159
chte, 159
denkt 159
den? 159
teilen, 159
inter@@ 159
fehl@@ 159
Min@@ 159
wert@@ 159
Mil@@ 159
fragten 159
Bürger 159
Bienen 159
Tür 158
uren 158
treten 158
ret@@ 158
che. 158
Tisch 158
chte 158
hängt 158
hunderte 158
irgendwann 158
dreht 158
erung 158
Gu@@ 158
tu@@ 158
Forscher 158
entlang 158
hauptsächlich 158
schreiben, 158
setzen, 158
Freiheit 158
suchen, 158
will@@ 158
veränder@@ 158
wahre 157
mitten 157
kurze 157
fall 157
dachten, 157
tern. 157
Zeug 157
befinden 157
Ihres 157
lesen. 157
entschied 157
Ide@@ 157
erhalten, 157
kop@@ 157
pl@@ 157
erster 157
Architektur 156
starke 156
dies@@ 156
Buch@@ 156
hören. 156
All@@ 156
anderen. 156
Lieblings@@ 156
gu@@ 156
cht, 156
ster, 156
ing. 156
Wasser. 156
Daten, 156
kostet 156
wenigen 156
x 156
ler 155
Außerdem 155
Kor@@ 155
Raum, 155
Zeiten 155
Jahr@@ 155
Du@@ 155
11 155
und@@ 155
wahr 155
herausfinden, 155
tief@@ 155
9@@ 155
Materialien 155
bl@@ 155
treffen, 155
fahren, 155
Online-@@ 155
kurzen 155
pass@@ 155
stellung 154
Städten 154
andere, 154
Br@@ 154
nutz@@ 154
eure 154
ran@@ 154
bloß 154
los@@ 154
aktiv 154
alter 154
tere 154
dort, 154
schaut 154
hr@@ 154
Seite, 154
echten 154
be. 154
Ju@@ 154
cher 154
sich@@ 154
normalen 154
Te@@ 154
schönen 154
he 153
persönlichen 153
sein@@ 153
Sommer 153
chten, 153
einiger 153
betrachten 153
berei@@ 153
ß 153
Jahre. 153
dagegen 153
wahr@@ 153
for@@ 153
Je 153
usw. 153
ative 153
Tre@@ 153
linken 153
Fällen 153
brauchte 153
Babys 153
funktioniert, 152
ions@@ 152
machen? 152
s" 152
are 152
Unterstützung 152
Junge 152
Flug@@ 152
Richard 152
bi@@ 152
anderem 152
lebt 152
Botschaft 152
noch, 152
gemein@@ 152
tragen. 152
Fluss 152
on. 152
klingt 152
Hei@@ 152
mp@@ 152
Modelle 152
losen 152
Obwohl 152
"Du 152
Gott, 152
tel@@ 152
erkennen. 152
," 152
London 152
beginnen, 152
Fest@@ 152
Wandel 152
heiten 151
holen 151
hätten, 151
Tausende 151
Lin@@ 151
Museum 151
Jahres 151
War@@ 151
Tieren 151
dorthin 151
per@@ 151
werde, 151
reich@@ 151
somit 151
Beim 151
sie: 151
Karriere 151
ändern, 151
Pu@@ 151
Nichts 151
ähnliche 151
Haut 151
wuchs 151
dritten 151
schafft 151
kten 150
fähig 150
El@@ 150
21. 150
Gegensatz 150
lö@@ 150
Stadt@@ 150
"Oh, 150
nichts. 150
zufällig 150
So, 150
entdeckt 150
ung: 150
legen. 150
ßen 150
saß 150
Kreativität 150
alleine 150
gesagt: 150
Jahrhunderts 150
ationen. 150
nächstes 150
stan@@ 150
roten 150
weg. 150
zug 150
Fenster 150
kraft 150
Welche 150
Nutzen 149
wäre. 149
he, 149
sta@@ 149
Geschäft 149
Sprach@@ 149
Lu@@ 149
Los 149
älter 149
Krebs@@ 149
lieber 149
hol@@ 149
mein@@ 149
tragen, 149
raus@@ 149
fahren. 149
Dingen, 149
vollständig 149
schie@@ 149
tern, 149
Risiko 149
Gesetze 149
Hinter@@ 149
Spielen 149
Präsident 149
ap@@ 148
Fortschritt 148
Paul 148
Kontakt 148
fol@@ 148
nachzudenken, 148
Nachdem 148
Ton@@ 148
meistens 148
ür@@ 148
gelernt, 148
System, 148
ka@@ 148
hoffe 148
bleiben. 148
zit@@ 148
benutzen. 148
ner@@ 147
fuhr 147
trifft 147
ermöglicht 147
recht@@ 147
kre@@ 147
flo@@ 147
Atmosphäre 147
geschichte 147
nicht-@@ 147
ent 147
-B@@ 147
ing-@@ 147
Fuß 147
"N@@ 147
ierenden 147
Seit 147
vergessen 147
chten 147
Land. 147
ör@@ 147
führt. 147
po@@ 147
kaufen, 146
Klein@@ 146
kraft@@ 146
äm@@ 146
geworden. 146
fl@@ 146
Und, 146
gs 146
Car@@ 146
Dass 146
Fahr@@ 146
iertes 146
entschieden 146
fin@@ 146
Virus 146
medizinische 146
Objekte 146
Neuronen 146
"Sie 146
Sterne 146
ser 146
Eigentlich 146
laut 146
Komplexität 146
ku@@ 146
Polizei 146
land 146
Klasse 146
sammeln 145
Masse 145
Zusammenarbeit 145
Basis 145
irgend@@ 145
Bedingungen 145
äre 145
Mars 145
entwickelt. 145
fest 145
gl@@ 145
Projekt, 145
ität 145
zahlen 145
ün@@ 145
Wo@@ 145
Tra@@ 145
beobachten 145
möchte. 145
mus@@ 145
wirst 145
9 145
wir. 145
dete 145
Im@@ 145
bewusst, 145
Videos 145
Traum 145
normale 145
irgendetwas 145
wen@@ 145
soll. 145
Kann 145
erg@@ 145
anschauen, 145
teilt 145
Kü@@ 145
fer 145
Ganz 144
sicht@@ 144
Werkzeuge 144
Infrastruktur 144
sage, 144
Geschwindigkeit 144
Einsatz 144
lösen, 144
13 144
erstaunliche 144
zusammenzu@@ 144
ob@@ 144
Sein 144
Publikum: 144
Frieden 144
leisten 144
solch 144
anders. 144
rot@@ 144
ert. 144
Tochter 144
gebracht. 144
verstanden 144
pa@@ 144
Soldaten 144
Loch 144
erzeugt 144
Mess@@ 144
zt 143
sam@@ 143
diejenigen, 143
einfacher 143
wirtschaftlichen 143
ges@@ 143
ss. 143
zen. 143
Gewicht 143
gefunden. 143
entscheiden, 143
Jobs 143
häufig 143
unmöglich 143
Forsch@@ 143
wobei 143
10.000 143
befindet 143
ker 143
verhalten 143
ger, 143
The@@ 143
Geld, 143
allerdings 143
bild 143
"Nein, 143
Folge 143
praktisch 142
Andere 142
uren, 142
soll@@ 142
"W@@ 142
Vertrauen 142
Insekten 142
Har@@ 142
Geh@@ 142
ess@@ 142
persönliche 142
elles 142
ner 142
alles. 142
Versuch 142
igkeit. 142
Beispiel. 142
deut@@ 142
Test 142
aussieht. 142
Bill 141
betrachten. 141
Film@@ 141
kaufen. 141
einmal, 141
ce 141
Vision 141
bu@@ 141
legen, 141
ip@@ 141
verl@@ 141
Qualität 141
Waffen 141
sozusagen 141
sollen. 141
ren 141
star@@ 141
lang. 141
hen, 141
ähn@@ 141
Erde. 141
Universums 141
Osten 141
James 141
Augen@@ 141
Nor@@ 140
net 140
ionen, 140
bar, 140
sit@@ 140
Haufen 140
Entwicklungs@@ 140
/@@ 140
bares 140
Plan@@ 140
arten 140
morgen 140
leg@@ 140
w 140
Höhe 140
bewegen, 140
Kind, 140
ma 140
schaute 140
schwer, 140
17 140
he. 140
t; 140
Büro 140
stra@@ 140
prä@@ 140
Gefängnis 140
bel 140
ber, 139
Gelegenheit 139
halbe 139
lin@@ 139
hin. 139
Sa@@ 139
natürlichen 139
musst 139
relativ 139
wieso 139
kle@@ 139
verlieren 139
Fol@@ 138
produzieren 138
tre@@ 138
wohn@@ 138
ierten, 138
hoffentlich 138
kü@@ 138
"Der 138
schw@@ 138
Mehr 138
Tr@@ 138
Typen 138
geschah 138
ment 138
Tab@@ 138
lichsten 138
traditionellen 138
früh 138
Ba@@ 138
grundlegende 138
messen 138
gte 138
mittel 137
form 137
Wir@@ 137
ihr, 137
Plan 137
Baby 137
Bildern 137
ischem 137
ang@@ 137
2000 137
anischen 137
isten, 137
fragen: 137
westlichen 137
des, 137
Ger@@ 137
no@@ 137
ke, 137
Ausbildung 137
gen: 137
"Ja, 136
funktion@@ 136
dessen, 136
Problemen 136
hätte. 136
heute, 136
sucht 136
dennoch 136
sei, 136
Sie? 136
habt 136
tsch@@ 136
setzte 136
35 136
suchen. 136
halt@@ 136
ften 136
iv@@ 136
scheinen 136
teste 136
ys 136
wo@@ 136
wieder. 136
gten 136
sto@@ 136
– @@ 136
Klima@@ 135
Teil@@ 135
Bürger@@ 135
üb@@ 135
tischen 135
herum. 135
Che@@ 135
geführt 135
äl@@ 135
komplexe 135
genug, 135
Stadt, 135
Flu@@ 135
Gehirn. 135
Kal@@ 135
Materie 135
vert@@ 135
Karten 135
Wind 135
Institutionen 135
gestern 134
Familien@@ 134
hän@@ 134
Wald 134
armen 134
fühlen. 134
geschaffen 134
was, 134
genauer 134
Ganze 134
hen. 134
Neuro@@ 134
gefähr@@ 134
Moleküle 134
du, 134
hel@@ 134
Feuer 134
wieder, 134
lässt. 134
Spiele 134
Begriff 134
kungen 134
Solar@@ 134
Geld@@ 134
erschaffen, 134
lagen 134
"The 134
Partner 133
mögliche 133
ann@@ 133
digen 133
Bei@@ 133
existiert 133
re. 133
steht, 133
Not@@ 133
acht@@ 133
zunächst 133
Wor@@ 133
ßen, 133
nete 133
ber. 133
wollten, 133
National 133
Ordnung 133
Am@@ 133
hö@@ 133
Ober@@ 133
behandelt 133
Wunsch 133
Sekunde 133
Klimawandel 133
Lo@@ 133
r 132
halte 132
chten. 132
wohl@@ 132
enorme 132
rief 132
meiste 132
fen@@ 132
sterben. 132
Kopf@@ 132
steigen 132
angefangen 132
menschlicher 132
jemand, 132
TED@@ 132
wirtschaftliche 132
Herausforderungen 132
mor@@ 132
schlechten 132
anz@@ 132
Wohl@@ 132
total 132
freien 132
braucht, 131
Afghanistan 131
welchem 131
kurzem 131
wor@@ 131
tes, 131
Straßen@@ 131
Zeichen 131
tut, 131
meist 131
Blut 131
Stimmen 131
cks 131
reich 131
beinahe 131
ies@@ 131
dahin 131
nennen, 131
tau@@ 131
stattdessen 131
Ausdruck 131
Idee. 131
ac@@ 131
igt 131
Ameisen 131
Meilen 130
anderen, 130
150 130
gebaut. 130
Privat@@ 130
höher 130
Zell@@ 130
Kunden 130
mu@@ 130
Geräte 130
worüber 130
rechte 130
met@@ 130
aller@@ 130
or, 130
erklären 130
I 130
Schei@@ 130
interessant, 130
par@@ 130
li@@ 130
Charles 130
spreche 130
Gang 130
fel@@ 130
Bitte 130
Ja@@ 130
Physik 130
ändert 130
Probleme, 129
flu@@ 129
zeu@@ 129
Gefahr 129
bit@@ 129
Ideen, 129
erleben 129
Gemeinde 129
Aufgaben 129
gung 129
verletz@@ 129
legt 129
ton 129
Geburt 129
teile 129
ete, 129
oo@@ 129
mess@@ 129
Seite. 129
C 129
Sam@@ 129
Filme 129
gr@@ 129
Mu@@ 129
tig@@ 129
Krie@@ 129
kürzlich 129
Gründe 129
rein 128
fiel 128
gut@@ 128
grün@@ 128
deutlich 128
vollen 128
Einkommen 128
lebens@@ 128
gene 128
Pre@@ 128
ellen, 128
vorzu@@ 128
ige, 128
gegen@@ 128
des. 128
aber, 128
strei@@ 128
lä@@ 128
San@@ 128
hinzu@@ 128
Ziel@@ 128
dunkle 128
digitalen 128
herr@@ 128
gezeigt, 128
steht. 128
Aktivität 128
Beine 128
laufen. 128
eine, 128
schen. 128
Mach@@ 128
werk@@ 128
Plastik@@ 128
Kein 128
Mc@@ 128
la 128
str@@ 127
Papier@@ 127
fängt 127
Leistung 127
gewissen 127
Produktion 127
Sogar 127
Rahmen 127
weg, 127
alle. 127
verbessern. 127
Kr@@ 127
brachten 127
George 127
mehr@@ 127
Rat@@ 127
zeichn@@ 127
wär@@ 127
hinein 127
werden? 127
Titel 127
schn@@ 126
kam. 126
raus 126
Perspektive 126
Terror@@ 126
Schlüssel 126
stern 126
ßt 126
stecken 126
Telefon@@ 126
Experimente 126
verkauft 126
ate 126
ück@@ 126
Punkt, 126
davor 126
zieht 126
Gehirne 126
Fernsehen 126
Mädchen, 126
CO2 126
ersch@@ 126
tion 126
schei@@ 126
ef@@ 126
inform@@ 126
ven 126
Erd@@ 126
besondere 126
diejenigen 126
Experten 126
Fisch 126
ben? 125
formen 125
schwarze 125
zwei, 125
Ecke 125
hör@@ 125
ke@@ 125
las 125
id@@ 125
Michael 125
nachzu@@ 125
fte 125
ks 125
Ok, 125
lokalen 125
quasi 125
genommen. 125
getroffen 125
schwer@@ 125
äch@@ 125
unbe@@ 124
enz, 124
at, 124
Politiker 124
Themen 124
Drogen@@ 124
dauert 124
Handy 124
1. 124
einf@@ 124
des@@ 124
blick@@ 124
realen 124
rück@@ 124
nen, 124
erfunden 124
fragt 124
krit@@ 124
schön@@ 124
and@@ 124
Schu@@ 124
interessant. 124
blauen 124
ss, 124
Stufe 124
Wahrscheinlichkeit 124
Wel@@ 124
erzähle 123
besser. 123
brauche 123
tiges 123
Staat 123
Organisationen 123
Geheim@@ 123
funktionieren. 123
kämpf@@ 123
besser, 123
Männer, 123
arbeit 123
son 123
Kriegs@@ 123
halb@@ 123
Krise 123
Häuser 123
moderne 123
beeinflusst 123
vorher@@ 123
test 123
Fra@@ 123
stand. 123
ies 123
wechsel@@ 123
hinweg 123
essen. 123
laden 123
win@@ 123
soll, 123
unabhängig 123
raum 123
Stattdessen 123
teil 123
entstehen 123
kal@@ 123
durchschnittliche 123
S 122
Werkzeug 122
schul@@ 122
eres 122
Folgen 122
äußerst 122
deswegen 122
är 122
lässt, 122
los, 122
rechn@@ 122
Mag@@ 122
Kn@@ 122
Intelligenz 122
rate 122
kämpfen 122
verwenden. 122
Mutter, 122
sch, 122
erwarten 122
verein@@ 122
ure 122
falsch. 122
liche, 122
verbrachte 122
gs@@ 122
seitdem 122
Erde, 122
Hel@@ 122
erhält 122
stolz 122
solcher 121
Sorgen 121
bleiben, 121
produziert 121
sol@@ 121
National@@ 121
Video@@ 121
bekamen 121
aufgenommen 121
Schw@@ 121
Nieder@@ 121
wesentlich 121
gemeinsame 121
ativen 121
was? 121
Stra@@ 121
Vier@@ 121
trag@@ 121
"K@@ 121
No@@ 121
sch. 121
trä@@ 121
mon@@ 121
Tal@@ 121
werfen 121
klar@@ 121
Verhältnis 121
Öffentlichkeit 121
Bel@@ 121
Ä@@ 121
positive 121
dank 121
sst 121
Großbritannien 121
egal, 120
as, 120
kr@@ 120
Hü@@ 120
dung. 120
Energie, 120
na 120
Quelle 120
Sicherheits@@ 120
Gar@@ 120
mal. 120
0@@ 120
Zukunft. 120
lesen, 120
Fil@@ 120
län@@ 120
hat@@ 120
Satz 120
elt 120
Bildschirm 120
fre@@ 120
Arbeiten 120
Affen 120
the 120
Kontext 120
stärker 120
ität, 120
menschliches 120
th@@ 120
stand, 120
soviel 120
erinnert 120
entwickelte 120
Grenze 120
aten, 120
sä@@ 120
sind? 120
internationalen 120
Bewegungen 120
afrikanischen 120
Möglichkeiten, 119
warten 119
Geld. 119
Sobald 119
verursacht 119
Lage, 119
bringt. 119
langer 119
11. 119
September 119
denkt, 119
betrachtet 119
junger 119
sl@@ 119
45 119
ert, 119
haft 119
Lö@@ 119
nah@@ 119
Forschungs@@ 119
Kommunikation 119
hy@@ 119
liegt. 119
Zeitalter 119
Wa@@ 119
Süd@@ 119
Hu@@ 119
hinaus@@ 119
etz@@ 119
Kern 119
nah 119
gewinnen 119
bekannten 119
basiert 119
Brot 119
Weile 119
om 119
könnt 119
setz@@ 119
USA, 118
Sachen, 118
arbeiteten 118
vielleicht, 118
schlagen 118
woll@@ 118
benötigt 118
Dis@@ 118
Bur@@ 118
Industrie 118
OK, 118
Entdeckung 118
lediglich 118
begonnen 118
Sen@@ 118
iss@@ 118
Strom@@ 118
Netz@@ 118
Worten 118
lichem 118
erzeugen 118
Regen@@ 118
Verstand 118
sprachen 118
Strukturen 118
machte, 118
keit. 118
vorbei@@ 118
getötet 118
fern@@ 117
hren 117
satz 117
Robert 117
19. 117
Kindheit 117
abhängig 117
Hintergrund 117
enden, 117
unglaublichen 117
nichts, 117
Test@@ 117
richtig? 117
klein@@ 117
wählen 117
Müll@@ 117
ja. 117
Verhaltens@@ 117
wirkliche 117
verbessern 117
überzeugt, 117
Effekt 117
Damals 117
äh@@ 117
entdecken 117
schlechter 117
falschen 117
Professor 117
Elektro@@ 117
Tests 117
Identität 117
han@@ 117
Schutz 117
Leider 117
retten. 117
USA. 116
Landwirtschaft 116
finde, 116
Planeten, 116
umzu@@ 116
aufs 116
steckt 116
ckt. 116
to 116
alle@@ 116
Gibt 116
Schimpansen 116
herauszu@@ 116
essen, 116
versuchte, 116
ging. 116
schien 116
schließen 116
ähnlichen 116
schu@@ 116
ger. 116
fertig@@ 116
manchen 116
B 116
gehör@@ 116
schicken 116
Planeten. 116
mei@@ 116
Lied 116
ban@@ 115
ologie 115
genau, 115
Arbeit@@ 115
arme 115
bilden. 115
verantwortlich 115
werk 115
schwierig, 115
bringt, 115
deten 115
aren 115
bezüglich 115
morgens 115
Jemand 115
brechen 115
Gleiche 115
Wunder@@ 115
Schwester 115
Organ@@ 115
Wieso 115
-, 115
Berg@@ 115
Fü@@ 115
Individuen 115
schl@@ 115
Lachen 115
Fal@@ 115
Stress 115
so: 114
verwendet, 114
internationale 114
fe, 114
Mond 114
Star@@ 114
rein@@ 114
Norden 114
City 114
Beispiel: 114
lebte 114
Sprachen 114
liegt, 114
Einen 114
sag@@ 114
Lebens. 114
vorstellen. 114
groß@@ 114
trägt 114
Meeres@@ 114
Heil@@ 114
lu@@ 114
Daten. 114
n? 114
Sand@@ 114
runter 114
pr@@ 114
Außen@@ 114
bauten 114
Bruder 114
kun@@ 114
Ball@@ 114
TEDx@@ 114
zogen 113
Informations@@ 113
persönlich 113
wächst 113
Aspekt 113
Generationen 113
igen. 113
großartigen 113
rote 113
Dollar, 113
immer. 113
Händen 113
Ansicht 113
jährigen 113
ator 113
Wesentlichen 113
Unternehmen, 113
getan. 113
sehr. 113
Angst, 113
heben 113
fand, 113
führten 113
Herr 113
laufen, 113
600 113
ie-@@ 113
Pa@@ 113
fan@@ 113
Irak 113
reicht 113
möchten, 113
zü@@ 113
Mutter@@ 113
re 113
net@@ 112
herstellen 112
Kombination 112
Kräfte 112
mö@@ 112
Pil@@ 112
möglich. 112
erschaffen. 112
"Nun, 112
dung, 112
Japan 112
schlag 112
ationen, 112
Hund 112
kel@@ 112
scheinbar 112
hoch. 112
onen 112
kamen, 112
ße 112
fra@@ 112
heit@@ 112
ma, 112
unglaublich. 112
Dar@@ 112
Schutz@@ 112
Teilchen 112
Anteil 111
besseres 111
Gemeinden 111
gebracht, 111
organis@@ 111
worden. 111
ve 111
sitzt 111
zellen 111
bestehen 111
Ker@@ 111
anhand 111
konstru@@ 111
Schlüssel@@ 111
ent, 111
Hinsicht 111
Fall, 111
?“ 111
dort. 111
bat 111
tut. 111
halt 111
fach@@ 111
Geschichten, 111
Hö@@ 111
heiten, 111
sehe, 111
isiert 111
eng@@ 111
Pat@@ 111
drehen 111
vorbei 111
fingen 111
d: 111
feu@@ 111
ster. 111
Mütter 111
dafür. 110
gegeben. 110
Drei 110
Grundlage 110
schock@@ 110
geln 110
Baum 110
sprech@@ 110
197@@ 110
Ob 110
Gemein@@ 110
brauch@@ 110
Fragen, 110
lokale 110
Schiff@@ 110
medizinischen 110
ihnen. 110
Dra@@ 110
Seh@@ 110
Leute. 110
dungs@@ 110
uner@@ 110
Nationen 110
gesund 110
Dazu 110
druck@@ 110
moralische 110
sei. 110
öffnen 110
Bon@@ 110
Web 110
hafte 110
könn@@ 110
Konflikt 110
Hy@@ 110
führt, 110
Indien, 110
zerstör@@ 110
ive 110
Al 109
Afrika, 109
darüber. 109
gehalten 109
dieselben 109
bietet 109
Danach 109
gemeinsamen 109
den: 109
Stre@@ 109
äuß@@ 109
beginnen. 109
entscheiden 109
entsteht 109
etwas. 109
Gol@@ 109
Gedicht 109
hoch, 109
t" 109
genannt. 109
lag@@ 109
Gespräch 109
weiterer 109
Phänomen 109
Weise. 109
Wür@@ 109
Laden 109
Kam@@ 109
Deswegen 109
Glück, 109
haften 109
üt@@ 109
außen 108
einfach@@ 108
Gesundheit@@ 108
hätten. 108
ens. 108
schon. 108
A-@@ 108
lang, 108
holen. 108
ent. 108
letz@@ 108
erkenn@@ 108
ungs-@@ 108
weltweiten 108
Sal@@ 108
gegenseitig 108
Sauerstoff 108
Gutes 108
ast@@ 108
ht, 108
spiel 108
wenden 108
Elemente 108
Linien 108
Darum 108
woher 108
Mann: 108
ßen. 108
Wahrnehmung 108
pt@@ 108
al-@@ 108
beobachten, 108
verbinden 108
derzeit 108
ed@@ 108
Schmerz 108
schlag@@ 108
Armen 108
ia 108
barer 107
zuzu@@ 107
erlaubt, 107
grundsätzlich 107
brauchten 107
herum, 107
halb 107
viel, 107
ktion. 107
anschau@@ 107
jener 107
arbeitet, 107
folgende 107
nutzt 107
"E@@ 107
Beste 107
verbringen 107
höre 107
barkeit 107
nde 107
Gewebe 107
Mal@@ 107
gefragt, 107
dungen 107
tes. 107
Etwas 107
krei@@ 107
Website 107
Träume 107
Kin@@ 107
bele@@ 107
handeln 107
Details 107
Brücke 107
wein@@ 107
lauf@@ 106
Bevor 106
Anderson: 106
Erst 106
ant 106
veröffentlicht 106
Landschaft 106
Staaten, 106
erlauben 106
viele, 106
benutz@@ 106
us, 106
passt 106
groß. 106
OK. 106
schwarzen 106
School 106
Fische 106
werde. 106
Li@@ 106
ierte. 106
as. 106
Psych@@ 106
stu@@ 106
Eindruck 106
Sü@@ 106
2. 106
nen. 106
Knochen 106
vorne 106
oben. 106
Gut, 106
ba@@ 106
tel 106
schätzen 106
speziellen 106
issen 106
kti@@ 106
Abschluss 106
Facebook 106
wofür 105
dürfen 105
ell, 105
offenen 105
schnell. 105
bedeutet. 105
senden 105
blaue 105
Existenz 105
Blu@@ 105
scher 105
inn@@ 105
kin@@ 105
Anstatt 105
durch. 105
brei@@ 105
rä@@ 105
verkaufen 105
druck 105
gefunden, 105
Lebewesen 105
50@@ 105
rede 105
Gehen 105
unteren 105
Versuch, 105
greifen 105
wussten, 105
neh@@ 105
Jahrzehnten 105
sterben, 105
sches 105
Lan@@ 105
wä@@ 105
2008 105
Maßstab 105
Tri@@ 105
Gei@@ 105
Freunde, 105
.« 105
setzten 104
Zunächst 104
Produ@@ 104
inge 104
Pf@@ 104
Länder, 104
gestorben 104
Jungs 104
verloren. 104
y: 104
sieht. 104
Viren 104
steigt 104
Gute 104
verbreitet 104
gruppe 104
ön@@ 104
buch 104
Mat@@ 104
Bal@@ 104
Regel@@ 104
mögen, 104
wichtig@@ 104
igkeiten 104
fal@@ 104
Telefon 104
Tu@@ 104
enz. 104
Feld 104
digitale 104
fun@@ 104
chte. 104
icht@@ 104
Fakten 104
gen." 104
Damen 104
sogenannte 104
weißen 103
drän@@ 103
schwe@@ 103
beschäftigt 103
ve@@ 103
Ausmaß 103
wären, 103
Thomas 103
cker 103
erzeugen. 103
tausenden 103
es? 103
betrachtet, 103
len 103
gend 103
Gr@@ 103
mittels 103
Danke, 103
Schluss 103
ven@@ 103
nahmen, 103
Körpers 103
lichen, 103
glaubt, 103
ker@@ 103
statt@@ 103
Gehirn, 103
schen@@ 103
Gegenteil 103
Inter@@ 103
gän@@ 103
Funktion 103
immer@@ 103
Innen@@ 103
ernst 103
Medikament 103
"] 103
stür@@ 103
Augenblick 103
Wirkung 103
überzeugen, 103
199@@ 103
Schule, 103
kommen@@ 102
Mengen 102
fall@@ 102
wahr. 102
hil@@ 102
Ohne 102
fürs 102
bieten 102
Zitat 102
verrückt 102
drei, 102
Lauf@@ 102
Pan@@ 102
Organismen 102
il 102
dliche 102
rit@@ 102
war: 102
Pap@@ 102
Fleisch 102
Den@@ 102
solange 102
Jo@@ 102
schüt@@ 102
ren@@ 102
Hunderte 102
krank 102
gebaut, 102
weiße 102
daten 102
Zuhause 102
bie@@ 102
brau@@ 102
Gan@@ 102
isierung 102
ide@@ 102
gegeben, 102
reagieren 102
schützen. 102
folgenden 102
Spieler 102
Bauern 102
kann@@ 101
freund@@ 101
Gründe, 101
Mehrheit 101
Recht@@ 101
Verbreitung 101
wie@@ 101
Risiken 101
änder@@ 101
andere. 101
wan@@ 101
spar@@ 101
biologische 101
ort 101
fläche 101
Sport@@ 101
Druck@@ 101
wollten. 101
198@@ 101
standen 101
nannte 101
komplexen 101
Verlust 101
lage 101
Bau 101
ler, 101
Kamer@@ 101
nis@@ 101
Rätsel 101
mt 101
entstanden 101
perfekte 101
gro@@ 101
Fel@@ 101
Spe@@ 101
vorstell@@ 101
Wit@@ 101
Sat@@ 101
nötig 101
art 101
verändert, 101
Medien@@ 101
Beweise 101
pre@@ 101
blieb 101
Mau@@ 101
grünen 101
klin@@ 101
stimm@@ 101
Umfeld 101
gewinnen. 101
neten 101
aussehen. 101
stär@@ 101
spiele 101
Lasst 101
Miss@@ 101
Freundin 101
Volk 101
Vorfahren 101
derselben 100
heb@@ 100
einiges 100
Mitarbeiter 100
Nation 100
produ@@ 100
Kap@@ 100
Militär@@ 100
design@@ 100
spr@@ 100
gedacht, 100
plat@@ 100
noch. 100
kreativen 100
Bett 100
lieb@@ 100
tat, 100
Mill@@ 100
Sinn, 100
Genom 100
hergestellt 100
ologen 100
Na 100
haf@@ 100
DNA-@@ 100
sten@@ 100
Bild. 100
ergibt 100
für@@ 100
ters 100
mann 100
Ben@@ 100
genetische 100
baut 100
tä@@ 100
Dafür 100
fu@@ 100
ens, 100
Tief@@ 100
Statistiken 100
Park 100
ges. 100
gel. 100
tanz@@ 100
ismus, 100
dige 100
Technologie. 100
perfekt 100
Tru@@ 100
Iran 100
Berg 100
eln, 100
Baby@@ 100
Ozeane 100
Führungs@@ 100
Entwicklungsländern 99
Anwendung 99
Vorteil 99
Gesellschaft, 99
sollen, 99
benötigen 99
insbesondere 99
igung 99
ick@@ 99
nochmal 99
inspiriert 99
A, 99
entdecken, 99
erzählt, 99
Buchstaben 99
freie 99
Potential 99
id 99
möglich@@ 99
lautet: 99
Lebensmittel@@ 99
High 99
wur@@ 99
geboren. 99
flie@@ 99
grüne 99
tische 99
Architekten 99
Mund 99
Emotionen 99
Je@@ 99
Pla@@ 99
t?" 99
Musik, 99
Erklärung 99
Tonnen 99
kte. 99
Grün@@ 99
gewesen. 99
genügend 99
Schule. 99
warten, 99
zentr@@ 99
behandeln 99
leb@@ 99
lös@@ 99
Mass@@ 99
Nord@@ 99
Krei@@ 99
en". 99
feld 98
ort@@ 98
fälle 98
gelöst 98
folgt 98
Diskussion 98
krie@@ 98
liegen. 98
Code 98
Mikroben 98
chemische 98
Times 98
Finger 98
Machen 98
Hör@@ 98
forsch@@ 98
kriegen 98
selten 98
respekt@@ 98
starken 98
lernt 98
Bil@@ 98
Far@@ 98
gelassen 98
“@@ 98
Stu@@ 98
Pe@@ 98
keit, 98
besie@@ 98
Afrika. 98
wen 98
benutzt, 98
sei@@ 98
spielte 98
Dan 98
On@@ 98
Rechte 98
ette 98
stes 98
verfügbar 98
Drei@@ 98
Temperatur 98
Netzwerke 98
Küste 98
alis@@ 97
ungsp@@ 97
herausgefunden, 97
untersuchen 97
Korruption 97
dauerte 97
Macht@@ 97
Nutzung 97
kün@@ 97
Minuten, 97
darunter 97
dies, 97
son@@ 97
Nachbarn 97
dachte: 97
lebenden 97
chs 97
Tiere, 97
brechen. 97
speziell 97
Bla@@ 97
enn@@ 97
Part@@ 97
schließen, 97
c 97
Por@@ 97
igten 97
min@@ 97
woran 97
jährige 97
Gesamt@@ 97
dra@@ 97
weshalb 97
ati@@ 97
Ahnung, 97
Ander@@ 97
Augen. 97
Gründen 97
Maß@@ 97
Pfund 97
Billionen 97
wirklich. 97
heits@@ 97
Frauen@@ 97
tro@@ 97
Operation 97
Erfindung 96
Aben@@ 96
Kurs 96
Wohlstand 96
herzustellen. 96
industrie 96
gefangen 96
ja@@ 96
gehören 96
schlagen. 96
darf 96
Zimmer 96
uss@@ 96
Untersuchung 96
Ton 96
scht 96
or. 96
wunderbaren 96
richt@@ 96
iten 96
Zweck 96
Definition 96
hilft, 96
viel. 96
anten 96
ron@@ 96
ih@@ 96
gezogen 96
Insel 96
ktion, 96
Würde 96
flüss@@ 96
Erkenntnis 96
Pal@@ 96
Bereiche 96
ver 96
Elektrizität 96
krat@@ 96
Auss@@ 96
glücklich@@ 96
auseinander@@ 96
HIV-@@ 96
musste. 96
3D-@@ 96
Zahn@@ 96
musste, 95
Washington 95
benen 95
ll@@ 95
Todes@@ 95
zusammenge@@ 95
stoff 95
gäbe 95
ische, 95
späten 95
Schn@@ 95
mehreren 95
grosse 95
basierend 95
weise. 95
automatisch 95
Nahrungs@@ 95
zugänglich 95
Fälle 95
alt, 95
scheint, 95
Wil@@ 95
sel 95
bern 95
Augen, 95
Schwer@@ 95
untersuchen, 95
Wissenschaft, 95
Werbung 95
kra@@ 95
Boot 95
one 95
Anti@@ 95
verlie@@ 95
beschloss 95
Frauen. 95
rat@@ 95
erte 95
irgendeine 95
at. 95
Vari@@ 95
weiss 95
0ern 95
75 95
ende, 95
deiner 95
Familie, 95
ppe 95
genug. 95
heran@@ 95
olog@@ 95
Reg@@ 95
Kapit@@ 95
grundlegenden 95
schwierige 95
Mission 95
stimmen 95
Beweis 95
Ozean@@ 95
Galaxien 95
bahn@@ 95
mes 95
beweg@@ 95
fü@@ 95
atoren 95
gel, 95
hielten 94
gan@@ 94
herzustellen, 94
Fortschritte 94
lichkeit. 94
punkt 94
Aber, 94
Drogen 94
istische 94
gewisser 94
Maus 94
cken@@ 94
einfaches 94
Steve 94
Oh 94
stieg 94
geworden, 94
100.000 94
kul@@ 94
See 94
Ess@@ 94
mil@@ 94
kung 94
hat? 94
wenigstens 94
Wind@@ 94
ingen 94
kulturelle 94
treten, 94
Regierungs@@ 94
entspricht 94
nieder@@ 94
Bereichen 94
igt, 94
"O@@ 94
maß@@ 94
Golf 94
erklär@@ 94
hierher 94
bahn 94
Stärke 94
bekann@@ 93
durchgeführt 93
ischen, 93
Problem@@ 93
Denk@@ 93
Ländern, 93
Computer. 93
entschieden, 93
Kra@@ 93
unterschiedlich 93
teren 93
nein. 93
toll 93
Ga@@ 93
schle@@ 93
auftau@@ 93
vergangenen 93
vers@@ 93
Kulturen 93
Vögel 93
mitzu@@ 93
baute 93
erle@@ 93
Ant@@ 93
ität. 93
nachts 93
hält, 93
ktion@@ 93
regul@@ 93
stoff@@ 93
großartig. 93
Bedürfnisse 93
nachdenken 93
tatsächlich, 93
ov@@ 93
nachzudenken. 93
ings 93
Fehl@@ 93
Planet 93
kn@@ 93
gn@@ 93
Lü@@ 93
Hand. 93
Freund@@ 93
bereit, 93
Kindern, 93
Kraft@@ 93
England 93
ale, 93
ds@@ 93
artigen 93
Radi@@ 93
Mehr@@ 93
unternehmen 93
Momente 93
Kampagne 93
Hat 93
gedacht 93
tern@@ 93
stör@@ 93
Adam 93
strö@@ 92
begeistert 92
erfahren 92
Holz@@ 92
Voll@@ 92
finanz@@ 92
Doktor@@ 92
fallen. 92
Jahrzehnt 92
Flü@@ 92
Angst. 92
Prozess@@ 92
sogenannten 92
Mut@@ 92
os@@ 92
bilden, 92
nie@@ 92
retten 92
schaften 92
Resultat 92
wachsen. 92
Immer 92
China, 92
Sc@@ 92
Alles, 92
ssen@@ 92
igsten 92
gewinn@@ 92
lebende 92
Große 92
worauf 92
iker, 92
genau@@ 92
ub@@ 92
zig 92
richten 92
Kultur, 92
er? 92
Ort. 92
glich@@ 92
anschauen 92
Epidemie 92
band 92
Wirtschaft@@ 92
eindeutig 92
stehe 92
Tor@@ 92
wovon 92
gi@@ 92
behalten 92
untersucht 92
Rot@@ 92
Aktivitäten 92
Indem 92
bewe@@ 92
kontrollieren 92
West@@ 92
ktionen 92
klar. 92
2007 92
dazu@@ 91
eben@@ 91
öff@@ 91
iel@@ 91
196@@ 91
leistungs@@ 91
Computer, 91
kreative 91
genen 91
erwartet 91
lebten 91
eigentliche 91
Klang 91
letzter 91
Sagen 91
fisch@@ 91
sie? 91
lichste 91
können? 91
erfahren, 91
produz@@ 91
sc@@ 91
glichen 91
12@@ 91
blei@@ 91
Men@@ 91
Fast 91
lasst 91
mit, 91
realis@@ 91
Schreib@@ 91
ß, 91
Einstein 91
Schwierigkeiten 91
nisse 91
Geheimnis 91
lü@@ 91
Innerhalb 91
stück 91
let@@ 91
1.000 91
Erinnern 91
Inhalt 91
Bilder, 91
Minute 91
Weg. 91
anische 91
Charakter 91
Schließlich 91
höhere 91
Einstellung 91
Kontin@@ 91
hinten 91
Tur@@ 91
hu@@ 91
entgegen@@ 91
ten." 91
Was, 91
Wann 91
dlich 91
hlen 91
Prim@@ 91
lichkeit, 90
zweimal 90
teilweise 90
Durchschnitt 90
allem, 90
genommen, 90
schnell, 90
AIDS 90
engag@@ 90
geschieht, 90
1000 90
ien@@ 90
land@@ 90
Flie@@ 90
Diagramm 90
fäh@@ 90
Jahrzehnte 90
männ@@ 90
fantastische 90
Sol@@ 90
iere, 90
weise, 90
gestellt, 90
findet, 90
bekomme 90
beeinflussen 90
lichkeiten 90
gelesen 90
passen 90
Rücken 90
zunehmend 90
voneinander 90
Einheit 90
ik-@@ 90
mer, 90
ht 90
komm@@ 90
les@@ 90
b. 90
dokument@@ 90
Familie. 90
Weg@@ 90
„Ich 90
Gesichter 90
Lie@@ 90
ktiv@@ 90
Methoden 90
lehr@@ 90
eingesch@@ 90
Bildungs@@ 90
bekannte 90
Ehe@@ 90
hängen 90
mensch@@ 90
Heutzutage 90
beispielsweise 90
dro@@ 90
s." 90
ic 90
Kab@@ 90
Com@@ 90
Park@@ 90
Interaktion 90
Verstehen 90
Twitter 90
fliegen. 89
eln. 89
brenn@@ 89
Indien. 89
super@@ 89
ssystem 89
Deutschland 89
brü@@ 89
größ@@ 89
Naja, 89
Neues 89
hau@@ 89
vieles 89
genetischen 89
oberen 89
Darstellung 89
gewinnen, 89
te." 89
Rand 89
gelegt 89
zes 89
ktoren 89
Uns 89
University 89
Schwar@@ 89
College 89
ce@@ 89
verbunden. 89
ker, 89
wasser 89
besteht, 89
doppelt 89
Jun@@ 89
ier, 89
che@@ 89
repräsent@@ 89
Mensch, 89
gek@@ 89
log@@ 89
Löcher 89
Zuschauer 89
eri@@ 89
Unter 89
Gemeinschaften 89
Vorstellungen 89
aufgebaut 89
y" 89
Raum. 89
dische 89
Phase 89
elektrische 89
fliegen, 89
chinesische 89
nden 89
Erinnerung 89
Männchen 89
stammt 88
spann@@ 88
Kohlenstoff@@ 88
Bin@@ 88
Unternehmer 88
Sh@@ 88
Con@@ 88
anstelle 88
durch, 88
wasser@@ 88
tö@@ 88
eingesetzt 88
gesunden 88
fühl@@ 88
sü@@ 88
Lau@@ 88
denselben 88
gesetzt 88
Großmutter 88
starb 88
versu@@ 88
deinem 88
spezielle 88
interessanten 88
bestand 88
Roh@@ 88
welt@@ 88
schlug 88
Oper@@ 88
Verlauf 88
aussieht, 88
spricht, 88
Sk@@ 88
Mot@@ 88
bewer@@ 88
Überleben 88
schaft, 88
drücken 88
sich: 88
land. 88
heißen 88
entfernt, 88
ländlichen 88
Fe@@ 88
igste 88
rufen 88
nachdenken. 88
stie@@ 88
empf@@ 88
Han@@ 88
Gold@@ 88
erkannte 88
schön, 88
ist." 88
indischen 88
Blau@@ 88
wachsen, 87
Handel 87
Vorteile 87
erlebt 87
bezahlt 87
Respekt 87
geschickt 87
passiert? 87
sowas 87
halten@@ 87
Großen 87
rum@@ 87
Ahnung 87
momentan 87
strahl@@ 87
verschiedener 87
biologischen 87
zieh@@ 87
jemanden, 87
Gespräch@@ 87
glich 87
World 87
Männ@@ 87
schaft. 87
antwor@@ 87
ot 87
müsste 87
sicher. 87
ihn, 87
bla@@ 87
schützen 87
worum 87
gespielt 87
Spiel. 87
erkennt 87
dens 87
Vater, 87
normal 87
lass@@ 87
X@@ 87
Aspekte 87
Eltern, 87
Wahrscheinlich 87
setzt. 87
stück@@ 87
Aufnahmen 87
trau@@ 87
Anders 87
Zer@@ 87
frü@@ 87
visuelle 87
wel@@ 87
erlauben, 87
real@@ 87
eten, 87
Achse 87
sexuelle 87
tan@@ 86
Trau@@ 86
effektiv 86
aktiv@@ 86
ga@@ 86
arbeitet. 86
Indi@@ 86
zehn@@ 86
ursprünglich 86
Techn@@ 86
fünf@@ 86
versuchten 86
fil@@ 86
dien@@ 86
1.@@ 86
verglichen 86
17@@ 86
grossen 86
befinden. 86
technischen 86
leichter 86
b, 86
ionen. 86
Trotzdem 86
Erstens, 86
erhielt 86
zeichnen 86
Vorstellung, 86
wem 86
sammeln, 86
höchsten 86
Gener@@ 86
oll@@ 86
bau 86
treten. 86
gesetzt. 86
bewegt, 86
maschine 86
schlu@@ 86
Methode, 86
Licht, 86
Aufnahme 86
verschwen@@ 86
Ster@@ 86
amp@@ 86
wieviel 86
an: 86
14@@ 86
Wettbewerb 86
Fall. 86
erklären. 86
Zit@@ 86
Nan@@ 86
Viertel 86
2010 86
Zur 86
passieren. 86
besonderen 86
Patient 86
ches 86
nis, 86
lern@@ 86
moralischen 86
Raub@@ 86
Lektion 86
tin 86
Innovationen 85
ne, 85
ppen 85
Verwendung 85
schauten 85
kungen, 85
drück@@ 85
Son@@ 85
bt. 85
NASA 85
Handys 85
vieler 85
sein." 85
Gla@@ 85
fähigkeit 85
verk@@ 85
emp@@ 85
Sprache, 85
Buch, 85
vertraut 85
konzentrieren 85
Wur@@ 85
spät 85
e." 85
in-@@ 85
est@@ 85
Folie 85
kauf@@ 85
riesiges 85
geschafft 85
digung 85
cker@@ 85
Rad@@ 85
kat@@ 85
Erfahrung, 85
teuer 85
offen@@ 85
Mexiko 85
ernst@@ 85
unterstützen. 85
pu@@ 85
Sei@@ 85
real 85
bezahl@@ 85
beschreibt 85
brach 85
endet 85
versuche, 85
daran. 85
Gegenwart 85
nicht." 85
yp@@ 85
müssten 85
land, 85
Dam@@ 85
Wach@@ 85
ick 85
Plötzlich 85
Erinnerungen 85
BG: 85
CO2-@@ 84
entfernt. 84
schü@@ 84
wären. 84
systeme 84
Debatte 84
wiss@@ 84
tritt 84
Nase 84
heute. 84
investieren 84
Bra@@ 84
harte 84
Kunst, 84
Hinblick 84
hoffen, 84
Bru@@ 84
Zeitraum 84
Fer@@ 84
Design-@@ 84
15@@ 84
Malaria 84
Train@@ 84
schä@@ 84
suchte 84
erstaunlich 84
pflanzen 84
dar. 84
schein@@ 84
wach@@ 84
Kerl 84
Quadrat@@ 84
herausfinden 84
Autor 84
"B@@ 84
Harvard 84
ckt, 84
Zeitung 84
kel, 84
tue 84
behaupten, 84
umgehen 84
irgendjemand 84
Fotograf@@ 84
ero@@ 84
Schatten 84
ep@@ 84
sprach, 84
erreicht. 84
Informationen, 84
ang 84
gewonnen 84
Schlag@@ 84
vielmehr 84
entstand 84
verteil@@ 84
Klassenzimmer 84
Mio. 84
app@@ 84
oper@@ 84
leist@@ 84
öhn@@ 84
an? 84
wu@@ 84
etzen 84
Büro@@ 84
fragte: 84
Dinosaurier 84
mark@@ 84
bung 84
Chinesen 84
gesprochen. 83
dene 83
Kalifornien 83
mache, 83
erwarten, 83
Mangel 83
schaff@@ 83
überrascht 83
Anführer 83
Steuer@@ 83
Mus@@ 83
läuf@@ 83
interessiert, 83
bekommt, 83
entdeckte 83
auff@@ 83
drin 83
stän@@ 83
schwere 83
Stücke 83
oben, 83
zähl@@ 83
a" 83
schließen. 83
höheren 83
zun@@ 83
oren, 83
v 83
Normalerweise 83
en! 83
erstaun@@ 83
welt 83
einst 83
lieben, 83
mittleren 83
struktur@@ 83
system, 83
treff@@ 83
See@@ 83
veränderte 83
Worten, 83
p 83
bewegung 83
Ke@@ 83
verblüff@@ 83
emotionale 83
Antwort. 83
kennt 83
Design, 83
Blatt 83
uren. 83
Strategie 83
Cra@@ 83
Bevölkerungs@@ 83
Gegend 83
tenden 83
Arm@@ 83
Vogel@@ 83
gehabt 83
Molekül 83
3. 83
Orte, 83
polit@@ 83
Regionen 83
Eigen@@ 83
verständ@@ 83
überzeu@@ 83
Lebens, 83
Kranken@@ 83
Situationen 83
dig 83
Konflik@@ 83
isol@@ 83
cm 83
Sur@@ 83
Kontroll@@ 83
erfüll@@ 83
ete. 83
ian@@ 83
Wegen 83
dy@@ 83
DH: 83
Kurz 82
saßen 82
Glück@@ 82
ierung, 82
System. 82
mag, 82
dor@@ 82
ass@@ 82
Erstens 82
erklärt, 82
Erfin@@ 82
ermöglichen, 82
Fo@@ 82
lebt, 82
dahinter 82
ät 82
rieben, 82
Sonnenlicht 82
Tran@@ 82
seltsame 82
machte. 82
besagt, 82
-A@@ 82
feststellen, 82
schlimmer 82
Afrikas 82
tru@@ 82
Chemikalien 82
Spr@@ 82
Bro@@ 82
Medizin@@ 82
Stammzellen 82
iven 82
beginnt, 82
kannte 82
Stadt. 82
ermöglicht, 82
verstanden, 82
umso 82
jetzt. 82
Prot@@ 82
zt, 82
Webseite 82
vi@@ 82
ansehen 82
og@@ 82
es: 82
Prozent, 82
Sau@@ 82
Blog@@ 82
2005 82
aden 82
ungss@@ 82
kommunizieren 82
physische 82
deck@@ 82
Art. 82
allen, 82
ris@@ 82
hoher 82
ologe 82
haus 82
Süden 82
hoff@@ 82
Wissenschaftler, 82
bereich 82
wirken 82
Pol@@ 82
winzigen 82
Fliegen 82
Ost@@ 82
ierung. 82
gesp@@ 82
Impf@@ 82
100@@ 82
Wagen 82
altes 82
kulturellen 82
verbessert 82
vierte 82
traditionelle 82
verdienen 82
Bas@@ 82
Israel 82
enorm 82
Strei@@ 82
selbstverständlich 82
arabischen 82
din@@ 82
dis@@ 82
Metapher 82
Lebensmittel 82
sch 81
glauben. 81
Darüber 81
Eins 81
Chance, 81
Level 81
Radio@@ 81
mass@@ 81
interessanter 81
"Hey, 81
Wider@@ 81
ph@@ 81
Präsentation 81
spür@@ 81
Ideen. 81
mittlerweile 81
arm 81
fährt 81
eit 81
Zivilisation 81
defin@@ 81
braucht. 81
au 81
runter@@ 81
“. 81
Körper, 81
schlägt 81
Faktor 81
trag 81
stab@@ 81
Sil@@ 81
Farb@@ 81
Chemie 81
Sozi@@ 81
mis@@ 81
jenem 81
freu@@ 81
Süß@@ 81
dischen 81
Kaffee 81
zentrale 81
Kameras 81
Got@@ 81
Kreis 81
Aut@@ 81
"F@@ 81
verdien@@ 81
irgendeinem 81
schalten 81
beinhaltet 81
Fuß@@ 81
erweise 81
verlieren, 81
existieren 81
Brasilien 81
ismus. 81
zin@@ 81
Web@@ 81
keln 81
Information@@ 81
Signale 81
vorhanden 81
Zentral@@ 81
far@@ 81
bitten, 81
E 81
Sand 81
begannen, 81
führung 81
ausgesetzt 81
mi@@ 81
Essen, 81
fei@@ 81
zeigt. 80
aten. 80
Wunder 80
wal@@ 80
MIT 80
sse, 80
etc. 80
Ereignisse 80
Rechts@@ 80
Op@@ 80
eten. 80
worden, 80
"T@@ 80
Liebe, 80
Entdeckungen 80
Mitglieder 80
konzentr@@ 80
überleben 80
schaft@@ 80
steck@@ 80
möchten. 80
samen 80
Glas 80
körper@@ 80
Natur, 80
verlassen, 80
leucht@@ 80
Probleme. 80
Status 80
Wüste 80
Ära 80
Geräusche 80
dat@@ 80
Arme 80
tiefer 80
har@@ 80
wundervolle 80
Lauf 80
ier. 80
untersuchen. 80
«@@ 80
integr@@ 80
sech@@ 80
ar, 80
schwan@@ 80
aussehen, 80
Gi@@ 80
wirklichen 80
Gebiete 80
befindet. 80
unterstützen 80
Tradition 80
Physiker 80
fäll@@ 80
modell 80
ente 80
Teilnehmer 80
ell. 80
produzieren. 80
Galaxie 80
gerät 80
nahme 80
kostenlos 80
Gesetz@@ 80
kung. 80
Gerechtigkeit 80
besitzen 80
zeit, 80
drehte 80
kühl@@ 80
21 80
weltweite 80
frag@@ 80
einander. 80
Dreh@@ 80
Fl@@ 80
Weihnachts@@ 80
Tau@@ 79
verschie@@ 79
ler@@ 79
gearbeitet, 79
Staat@@ 79
kte, 79
Wirtschaft, 79
Statist@@ 79
gelebt 79
gebraucht 79
Dutzend 79
versuchen. 79
toll, 79
ziel@@ 79
Okay? 79
anderes. 79
zimmer 79
digt 79
nütz@@ 79
Fokus 79
Schritte 79
Bedrohung 79
Gewinn@@ 79
99 79
funktionier@@ 79
zer 79
hü@@ 79
Kommen 79
27 79
Dre@@ 79
Kreb@@ 79
My@@ 79
D 79
ktor@@ 79
Stand 79
Gro@@ 79
Erfahrung. 79
eng 79
Richtige 79
raten 79
geschieht. 79
mittel@@ 79
innere 79
alisierung 79
König 79
folgen. 79
Möglichkeiten. 79
co@@ 79
Helden 79
steigen. 79
Grafik 79
öffentlich 79
womit 79
Pass@@ 79
offene 79
verbinden. 79
kontroll@@ 79
Stuhl 79
gefährlich 79
den." 79
Sach@@ 79
Patienten, 79
Pen@@ 79
Größ@@ 79
igte 79
Log@@ 79
verstehe 79
:@@ 79
erneut 79
Lebenserwartung 79
ansieht, 79
Kapitel 79
ut 79
enthält 79
a: 79
echtes 79
chinesischen 79
Märkte 79
Ernähr@@ 79
vergessen, 79
Regierung, 79
muster 79
Schuhe 78
End@@ 78
Werden 78
ellen. 78
iche 78
Wäre 78
Handel@@ 78
Zweitens 78
Aufbau 78
Inspiration 78
gekommen. 78
Bank 78
doch, 78
Analyse 78
Stat@@ 78
wähl@@ 78
techn@@ 78
umgeben 78
zeichen 78
drüben 78
legten 78
US@@ 78
gesunde 78
förder@@ 78
Sachen. 78
d? 78
sammeln. 78
Prozess, 78
beobachtet 78
Ham@@ 78
ß. 78
nei@@ 78
5. 78
popul@@ 78
een 78
Schauspiel@@ 78
Stimm@@ 78
hnen 78
motiv@@ 78
liefer@@ 78
Arbeiter 78
Interess@@ 78
Klima 78
iken 78
Viel@@ 78
Dan@@ 78
T 78
denken: 78
un 78
Entwickl@@ 78
Prinzipien 78
$@@ 78
Konsequenzen 78
Entfernung 78
sche, 78
same 78
verstand 78
nennt. 78
sehen? 78
nationale 78
Leu@@ 78
dem@@ 78
elektrischen 78
positiven 78
Euch 78
fordert 78
nor@@ 78
Gesundheitswesen 78
Folgendes 78
Plastik 78
Privatsphäre 78
Bienen@@ 78
2009 78
konzentrieren, 77
getan, 77
stoffe 77
nimmt, 77
Kontinent 77
Staats@@ 77
richtig. 77
Terrorismus 77
hilfe 77
wirft 77
naja, 77
privaten 77
il. 77
Seele 77
trafen 77
"Okay, 77
produzieren, 77
zählen 77
Vertrau@@ 77
Proben 77
insgesamt 77
gruppen 77
5.000 77
Zellen, 77
explo@@ 77
Schlei@@ 77
m-@@ 77
erscheint 77
denn, 77
werfen, 77
verlieren. 77
Hören 77
passier@@ 77
Sinn. 77
schaue 77
also: 77
präsent@@ 77
Zukunft, 77
Körper. 77
%. 77
zent@@ 77
diger 77
geber 77
mögen. 77
Räume 77
Berge 77
selbe 77
näher@@ 77
Ursprung 77
glaubt 77
ont@@ 77
vorhin 77
hast, 77
Interessen 77
vertrau@@ 77
ppen@@ 77
wie: 77
on-@@ 77
erwar@@ 77
unge@@ 77
Ausstellung 77
nis 77
za@@ 77
beg@@ 77
Trans@@ 77
reale 77
exist@@ 77
inen 77
markt 77
dunklen 77
Instrument 77
früheren 77
ade 77
Beru@@ 77
benutzt. 77
diert 77
heim@@ 77
nahmen. 77
Schrift@@ 77
Hunger 77
ffen, 77
inzwischen 77
erzeu@@ 77
wird? 77
wunderschöne 77
2,@@ 77
Werk 77
Signal 77
ah 77
Pinguine 77
Polizei@@ 77
Lang@@ 76
Technologien, 76
Riesen@@ 76
endste 76
Bran@@ 76
ses 76
Absicht 76
Fun@@ 76
wie, 76
Schl@@ 76
Teams 76
mussten, 76
isten. 76
erten 76
Rock@@ 76
chemischen 76
k-@@ 76
schlimmsten 76
Eing@@ 76
Programme 76
Laptop 76
scher@@ 76
Stein@@ 76
entwickel@@ 76
wiederhol@@ 76
plan@@ 76
ktor 76
Anstieg 76
weiß@@ 76
teln 76
tion@@ 76
messen. 76
jeweils 76
"Oh 76
eren, 76
Martin 76
ihm, 76
Christ@@ 76
pe 76
Internet. 76
Industrie@@ 76
betra@@ 76
bestät@@ 76
Spiegel@@ 76
gebie@@ 76
Realität. 76
visuellen 76
Nachbar@@ 76
Islam 76
Kir@@ 76
Kirche 76
Änderungen 76
gefragt 76
Jahrzehn@@ 76
diges 76
Bl@@ 76
erzähl@@ 76
Wol@@ 76
bedroh@@ 76
Außer@@ 76
beru@@ 76
sum@@ 76
Rea@@ 76
schicken. 76
zel@@ 76
gross@@ 76
Bein 76
ley 76
Verwand@@ 76
programm@@ 76
afrikanische 76
« 76
ket@@ 75
krise 75
aktu@@ 75
Invest@@ 75
betre@@ 75
ile 75
Kohle@@ 75
äuf@@ 75
seid 75
lieben. 75
notwendig 75
bas@@ 75
groß, 75
zeichnet 75
oh, 75
Tanz@@ 75
Gedanke 75
infiz@@ 75
Ir@@ 75
Gesellschaft. 75
Schne@@ 75
ernsthaft 75
Bewegung. 75
4. 75
Macht, 75
Weiter@@ 75
pen 75
interessieren 75
Lager 75
anscheinend 75
“, 75
Potenzial 75
warum. 75
folgen, 75
Tom 75
enten, 75
?", 75
len@@ 75
Aufstieg 75
deln 75
hält. 75
den-@@ 75
beschrieben 75
igt. 75
go@@ 75
mag@@ 75
wü@@ 75
sal@@ 75
Gemälde 75
Führ@@ 75
stets 75
Peter 75
tert 75
Frau: 75
dern. 75
8. 75
Minuten. 75
zeigten 75
unten. 75
schließ@@ 75
Quellen 75
bü@@ 75
losigkeit 75
Proteine 75
gru@@ 75
passieren, 75
Willen 75
oren. 75
sign@@ 75
ina 75
Antibiotika 75
Australien 75
gabe 75
pol@@ 75
landen 75
präsentiert 75
Würden 75
Reaktionen 75
hor@@ 75
Kopf. 75
Schau@@ 75
Lach@@ 75
Geschäfte 75
Verbrechen 75
st." 75
kooper@@ 75
Hunde 75
Wellen 75
getroffen, 74
sorgen, 74
Allgemein@@ 74
bewohn@@ 74
formen. 74
Dollar-@@ 74
enormen 74
Ziel, 74
Mü@@ 74
ktor, 74
hinsichtlich 74
soweit 74
Bericht 74
gearbeitet. 74
Sinn@@ 74
entdecken. 74
gegenüber@@ 74
lang@@ 74
hier? 74
bra@@ 74
Mann@@ 74
Meer@@ 74
Dach 74
Auswahl 74
Wort@@ 74
entworfen 74
Ad@@ 74
kam@@ 74
oft, 74
Baum@@ 74
Teil, 74
Garten 74
machen." 74
Schaden 74
kaufte 74
iv 74
16@@ 74
lustig 74
fach 74
aktuellen 74
Hilfs@@ 74
gewesen, 74
Stand@@ 74
stand@@ 74
sahen, 74
treiben 74
stop@@ 74
betrifft 74
bewegt. 74
Eltern@@ 74
Sech@@ 74
punkte 74
gefragt: 74
Ökonomen 74
interess@@ 74
verfolgen 74
krank@@ 74
enzen 74
verbinden, 74
tauchen 74
seite 74
stein@@ 74
Internet, 74
Symbol 74
Fre@@ 74
öfter 74
trat 74
verteilt 74
Gleichgewicht 74
lung 74
Del@@ 74
Ser@@ 74
Kenia 74
ks@@ 74
haltung 74
Stein 74
weist 74
langsamer 74
vertei@@ 74
wählen, 74
Ereignis 74
anti@@ 74
bezahlen 74
Tiefe 74
Hand, 74
Moment. 74
Führer 74
stat@@ 74
Brü@@ 74
sozialer 74
überrasch@@ 74
ologie, 74
gefühl@@ 74
Wörter@@ 74
Roboter@@ 74
Brust@@ 74
Wild@@ 74
BF: 74
nis. 73
Heimat@@ 73
fle@@ 73
ener 73
technische 73
gebiet 73
wirtschaft 73
weite 73
kümmern 73
Armee 73
fragen. 73
jähr@@ 73
beeindruck@@ 73
War 73
Prei@@ 73
Modell@@ 73
fassen 73
weibliche 73
Treffen 73
Modell, 73
Ökosystem 73
messen, 73
fügen 73
beweisen, 73
behandel@@ 73
Kla@@ 73
ci@@ 73
dig. 73
Ernährung 73
kolle@@ 73
unterstütz@@ 73
überall. 73
kennen@@ 73
Nerven@@ 73
Fragen. 73
Schnell@@ 73
prim@@ 73
beschlossen, 73
heu@@ 73
posit@@ 73
blin@@ 73
Rom@@ 73
exakt 73
dern, 73
übertragen 73
Plat@@ 73
fasst 73
wahren 73
ou@@ 73
Aktiv@@ 73
auslö@@ 73
ipp@@ 73
regelmäßig 73
P 73
Mö@@ 73
Tele@@ 73
platz@@ 73
ath@@ 73
nahezu 73
Zauber@@ 73
sichtbar 73
Könnte 73
west@@ 73
erstellt 73
spielt. 73
irgendwelche 73
unterscheiden 73
Besonder@@ 73
Dimensionen 73
greif@@ 73
Liefer@@ 73
Zerstörung 73
Gespräche 73
Dadurch 73
test@@ 73
schöpf@@ 73
Sar@@ 73
Militär 73
bekannt, 73
forschung 73
fasziniert 73
achten 73
Ursache 73
Organe 73
Nachrichten@@ 72
effizi@@ 72
schwer. 72
...@@ 72
ktionen, 72
Cor@@ 72
geschrieben. 72
800 72
nützlich 72
schwierig. 72
struktur 72
Designs 72
Gruppe, 72
Vorstellungskraft 72
Vol@@ 72
gewöhnliche 72
glaub@@ 72
überleben. 72
höchste 72
Air@@ 72
liegen, 72
Inneren 72
Regen 72
töten 72
eins, 72
mente 72
entdeckt, 72
fragt, 72
mich: 72
Punkt. 72
Erwachsenen 72
Gest@@ 72
zerstört 72
cke, 72
Teenager 72
Gewinn 72
fest. 72
noch@@ 72
Denkweise 72
Spektrum 72
Hause. 72
Student 72
bten 72
us. 72
einen, 72
Marke 72
ansehen. 72
weiß. 72
jenen 72
froh, 72
em, 72
Volks@@ 72
überraschend 72
Ende. 72
terin 72
Mi@@ 72
verrückte 72
Übersetz@@ 72
lasse 72
ium 72
zeigte, 72
Werbe@@ 72
passierte, 72
Gut. 72
tun@@ 72
keinem 72
inneren 72
nimmt. 72
Francisco 72
Sha@@ 72
Echtzeit 72
rö@@ 72
übrig 72
Weisheit 72
Bill@@ 72
heutige 72
inner@@ 72
250 72
Fertig@@ 72
nationalen 72
fache 72
lok@@ 72
Führung 72
gehend 72
Krieges 72
Konflikte 72
Sprache. 72
Sichtweise 72
zukünftigen 72
1,@@ 72
Mei@@ 72
PM: 72
Geräusch 72
Psychologie 72
Energie. 71
Brief 71
invest@@ 71
herstellen. 71
iger, 71
Durchschnitts@@ 71
Näch@@ 71
gele@@ 71
Wege, 71
Wird 71
Wissen, 71
Heim@@ 71
res 71
Laufen 71
diskut@@ 71
großartig 71
ierungs@@ 71
x, 71
Inseln 71
Einfach@@ 71
zukünftige 71
kten, 71
Darauf 71
intelligente 71
App@@ 71
iff@@ 71
lass 71
grundlegend 71
Tumor 71
wunderbar 71
fließ@@ 71
trock@@ 71
Hoffnung, 71
19 71
Zug 71
Bor@@ 71
Rö@@ 71
Kli@@ 71
erstellen, 71
einziges 71
Flugzeu@@ 71
nen@@ 71
arti@@ 71
Herausforderung, 71
legte 71
mung 71
Computern 71
menge 71
monat@@ 71
Boden@@ 71
kraft, 71
rü@@ 71
zig@@ 71
Restaurant 71
erkannte, 71
Fein@@ 71
bein@@ 71
leiden 71
Kop@@ 71
Gemeinschaft, 71
ffen 71
Wort, 71
reiche 71
schlecht. 71
ohn@@ 71
komplizierte 71
zahl 71
kleinere 71
Fläche 71
station 71
Pakistan 71
artige 71
isch-@@ 71
Darwin 71
glücklich. 71
Male 71
Roboter, 71
Erwartungen 71
Dunkelheit 71
Schicht 71
Wissenschaftlern 71
Yorker 71
Pet@@ 71
Schicksal 71
Kultur@@ 71
wisst 71
König@@ 71
täglichen 71
optim@@ 71
hät@@ 71
demonstr@@ 71
Obama 71
Hum@@ 71
Gor@@ 70
schöner 70
bill@@ 70
aktuelle 70
Versuchen 70
w, 70
icken 70
Atem@@ 70
Insel@@ 70
Char@@ 70
näch@@ 70
gestalten 70
schauen. 70
inklusive 70
fern 70
23 70
Fortschrit@@ 70
Mut 70
Autos, 70
imm@@ 70
öpf@@ 70
handel@@ 70
dich@@ 70
Gedanken, 70
Einblick 70
revolution@@ 70
verbracht 70
ter-@@ 70
außergewöhnliche 70
ausschließlich 70
bevorzu@@ 70
Blumen 70
einschließlich 70
vertre@@ 70
haben." 70
gar@@ 70
ine@@ 70
heil@@ 70
?@@ 70
Strand 70
erzeugen, 70
springen 70
ermöglichen 70
bende 70
Frau. 70
Studen@@ 70
imit@@ 70
Kreuz@@ 70
Beruf 70
bis@@ 70
dün@@ 70
sozi@@ 70
Instrumente 70
Ran@@ 70
Öko@@ 70
alismus 70
gestalten. 70
beizu@@ 70
tot 70
Vorgang 70
vorzustellen, 70
Erfolgs@@ 70
zo@@ 70
Standard@@ 70
ori@@ 70
gerei@@ 70
Unfall 70
älteren 70
Erwachsene 70
Satelliten 70
vo@@ 70
Betrachten 70
Zähne 70
Serie 70
Col@@ 70
ckte 70
ha 70
Wikipedia 70
Magnet@@ 70
kungen. 70
schätzen, 70
letztlich 70
sage: 70
Wieder 70
physischen 70
A. 70
Schon 70
Gut 70
blind 70
Herren, 70
Entstehung 70
wandel@@ 70
ele@@ 70
Algorithmen 70
Versuche 70
Wahr@@ 69
Unterhaltung 69
gesetz@@ 69
mit. 69
glücklich, 69
zie@@ 69
unterhalb 69
bricht 69
ari@@ 69
schnitt 69
behör@@ 69
Ordnung. 69
orient@@ 69
Folgendes: 69
Neben@@ 69
50.000 69
Organis@@ 69
Chancen 69
Text@@ 69
klick@@ 69
Kabel 69
karte 69
schnelle 69
Wälder 69
beobachten. 69
anfing, 69
dende 69
akzept@@ 69
verschwinden 69
trinken 69
tiefe 69
erscheinen 69
Natur. 69
bte 69
ktes 69
bemerkt, 69
frem@@ 69
erstaunlichen 69
Span@@ 69
häuf@@ 69
spezi@@ 69
Person@@ 69
Sex@@ 69
Schrit@@ 69
Technolog@@ 69
material 69
Firma, 69
nisse. 69
konserv@@ 69
heisst 69
Gemü@@ 69
Foto@@ 69
Umgang 69
lich: 69
ppen, 69
verkehr@@ 69
passierte. 69
erz@@ 69
zt. 69
bekannt. 69
enti@@ 69
verbindet 69
blo@@ 69
Zun@@ 69
yl@@ 69
sonder@@ 69
bei, 69
verkaufen. 69
Zei@@ 69
Letztes 69
bemerkenswerte 69
Berei@@ 69
Theater 69
genannt, 69
Anfang. 69
Leh@@ 69
Tür@@ 69
volles 69
abgesch@@ 69
licherweise 69
Haus. 69
Autor@@ 69
do 69
Samen 69
SMS 69
Symptome 69
Boston 69
Jeden 69
Eu@@ 69
nissen 69
seit@@ 69
niedr@@ 69
Ohren 69
linke 69
Paar 68
sparen 68
investieren, 68
ierend 68
Projekten 68
funktionieren, 68
Nicht@@ 68
handeln. 68
Funktion@@ 68
Human@@ 68
zeug 68
grei@@ 68
vier, 68
Ganzen 68
heiten. 68
Band 68
Gen 68
Kre@@ 68
Genom@@ 68
quelle 68
räum@@ 68
erheb@@ 68
spe@@ 68
Arten, 68
Funktionen 68
statt. 68
sche. 68
lautet 68
Tages@@ 68
vorsichtig 68
Überall 68
macht@@ 68
läuft. 68
passen. 68
Ele@@ 68
gefahren 68
Rat 68
erforscht 68
Universitäten 68
Spiegel 68
hoffnungs@@ 68
Schiff 68
erforder@@ 68
stoffen 68
berühm@@ 68
gegangen. 68
zufrieden 68
Leiter 68
Arbei@@ 68
versteckt 68
keiten 68
Kraft, 68
Sicht@@ 68
Versch@@ 68
veran@@ 68
hörten 68
leisten. 68
-P@@ 68
sern 68
entwickl@@ 68
Pun@@ 68
beschleun@@ 68
hl, 68
besessen 68
Labor@@ 68
berg 68
teu@@ 68
ton@@ 68
oh 68
Gän@@ 68
ech@@ 68
Mitglied 68
Tour@@ 68
Mittleren 68
verbreiten 68
grü@@ 68
22 68
setzt, 68
grund@@ 68
liefern 68
gebrau@@ 68
Chicago 68
Staaten. 68
aus: 68
"Aber 68
werte 68
Etwa 68
ha, 68
verwandeln 68
öl@@ 68
steigen, 68
Schaf@@ 68
Kompon@@ 68
rop@@ 68
schreckliche 68
schaften, 68
beschrän@@ 68
werfen. 68
lebe 68
voll. 68
okay, 68
toll. 68
4, 68
ärmsten 68
gehen? 68
Wahlen 68
Tö@@ 68
Terroristen 68
malen 68
Flagge 68
17. 68
wäl@@ 68
Decke 68
also. 68
Such@@ 68
Nar@@ 68
Füße 68
"L@@ 68
Gedichte 68
ull@@ 68
schwierigen 68
é@@ 68
kenn@@ 67
Wan@@ 67
dlichen 67
Haiti 67
Zucker@@ 67
Institut 67
ett 67
Holz 67
unterstützen, 67
entscheidende 67
Gedanken@@ 67
beseit@@ 67
Sti@@ 67
sorgen 67
195@@ 67
steckt. 67
Team@@ 67
Nam@@ 67
leeren 67
kamen. 67
Diesen 67
Licht. 67
enten. 67
ignor@@ 67
Herstellung 67
spro@@ 67
versteht 67
geschrieben, 67
Problems 67
fragte, 67
Schuld 67
Gottes 67
Prof@@ 67
2, 67
bild@@ 67
Ter@@ 67
kreb@@ 67
begonnen, 67
erforschen 67
Anti-@@ 67
Gebäude, 67
ungssystem 67
32 67
Person. 67
tier@@ 67
allgemeine 67
Stephen 67
proje@@ 67
allzu 67
Statt 67
Geburts@@ 67
Musiker 67
Schmerzen 67
Video, 67
jeder, 67
Lehrer, 67
tü@@ 67
block@@ 67
Detail 67
Show 67
stellt, 67
ball@@ 67
Erfolg. 67
hn 67
gewalt@@ 67
annehmen, 67
licht 67
fall. 67
dungen, 67
Wissens@@ 67
altet 67
Mann. 67
besuchen 67
Geb@@ 67
install@@ 67
verwal@@ 67
Multi@@ 67
basierte 67
Fall@@ 67
mäß@@ 67
beschreiben, 67
positiv 67
nachhaltige 67
Golf@@ 67
erkran@@ 67
Afrikaner 67
auseinander 67
retten, 67
religiösen 67
Frie@@ 67
schickte 67
lit@@ 67
behinder@@ 67
lach@@ 66
Roll@@ 66
Januar 66
politisch 66
gefällt 66
stün@@ 66
verwendet. 66
hle 66
zeit. 66
Verbesserung 66
R 66
kreativ 66
194@@ 66
st? 66
Sub@@ 66
beunruhig@@ 66
Reisen 66
Budget 66
ilen 66
anschaut, 66
Richtig? 66
getrennt 66
del 66
rot 66
nannten 66
Kohlenstoff 66
künstliche 66
Leit@@ 66
pt 66
700 66
Anruf 66
darauf. 66
tung, 66
glei@@ 66
brechen, 66
klop@@ 66
Müll 66
Wurzeln 66
chter 66
änderte 66
z-@@ 66
wirkt 66
gefallen 66
aufgewachsen 66
Hotel 66
ingen. 66
haben: 66
Wander@@ 66
Fünf 66
stoßen 66
misch@@ 66
mer. 66
allgemeinen 66
bestimmen, 66
läuft, 66
träum@@ 66
verbessern, 66
Studium 66
abgesehen 66
stimul@@ 66
schrieben 66
öffnet 66
Theorien 66
Ca@@ 66
Leiden 66
gebor@@ 66
schick@@ 66
Sitz@@ 66
Prototypen 66
stellung, 66
Aufmerksamkeit. 66
verwandelt 66
ble 66
starben 66
furcht@@ 66
schneiden 66
Geburtstag 66
Pl@@ 66
Projekt. 66
Wolken 66
ht. 66
Haut@@ 66
General 66
lernte, 66
Tag@@ 66
Herr@@ 66
E-Mail 66
C, 66
Eric 66
Street 66
Fin@@ 66
nämlich, 66
Schulen, 66
jenseits 66
ta 66
tet@@ 66
Diagno@@ 66
bene 66
Hun@@ 66
errei@@ 66
Tat@@ 66
Video: 66
richtung 66
beu@@ 66
ven. 66
bedeuten 66
pe@@ 66
Ansichten 66
Ep@@ 66
Analy@@ 66
half 66
gaben, 66
bewunder@@ 66
Ball 66
Aufgabe, 66
on: 66
kg 66
wissenschaften 66
ings@@ 66
nä@@ 66
ältere 66
Gras 66
›@@ 66
Schlaf 66
gewöhn@@ 65
Nigeria 65
gesprochen, 65
Woher 65
Ingenieur@@ 65
gelt 65
herstellen, 65
cool 65
7. 65
Studi@@ 65
ser, 65
griffen 65
fügt 65
weiterzu@@ 65
zeuge 65
was. 65
New@@ 65
alen, 65
erst, 65
Post@@ 65
Umständen 65
stau@@ 65
Cro@@ 65
Schlu@@ 65
lebt. 65
bücher 65
erreicht, 65
stücke 65
verlassen. 65
schreibt 65
Programm@@ 65
Änderung 65
Jung@@ 65
winzige 65
studieren 65
durchs 65
meinen, 65
Literatur 65
Stamm@@ 65
mern 65
sogar, 65
bildung 65
vergröß@@ 65
Glücklicherweise 65
schließt 65
sicht 65
nahm, 65
maschin@@ 65
Wissenschafts@@ 65
Plattform 65
alität, 65
ikan@@ 65
Acht@@ 65
übernehmen 65
gründete 65
Systems 65
Schrei@@ 65
alter@@ 65
kleinen, 65
schule 65
Cha@@ 65
Zwischen@@ 65
Open 65
weh@@ 65
graben 65
Flasche 65
Verfahren 65
spreche, 65
Gam@@ 65
Aussage 65
sprach@@ 65
hielt, 65
fe. 65
denen, 65
OK? 65
gend@@ 65
kte@@ 65
exponenti@@ 65
günst@@ 65
Blick@@ 65
istin 65
herein@@ 65
Et@@ 65
Schwarze 65
Wasch@@ 65
sur@@ 65
Bus 65
drehen. 65
wör@@ 65
domin@@ 65
kran@@ 65
icht, 65
Hir@@ 65
westliche 65
inmitten 65
wander@@ 65
Wetter@@ 65
Tan@@ 65
Batterie 65
Unterricht 65
zeichnet. 65
Pin@@ 65
Vogel 65
gebiete 65
Pflanze 65
gleich. 65
Kongress 65
Pollen 65
App 65
fahrt 64
Investitionen 64
Transport@@ 64
eil 64
ungeheuer 64
Ingenieure 64
schluss 64
Pra@@ 64
private 64
Doppel@@ 64
okay. 64
verbess@@ 64
en", 64
erst@@ 64
bitten 64
kommenden 64
Polio 64
dur@@ 64
liefert 64
Technik, 64
ten-@@ 64
Dru@@ 64
erklärte 64
rat 64
Versorgung 64
Weibchen 64
zunehmen, 64
reise 64
Rob@@ 64
versuchten, 64
verh@@ 64
Muskel@@ 64
steu@@ 64
Proje@@ 64
Gebäuden 64
ek@@ 64
"M@@ 64
kten. 64
ung" 64
Valley 64
Sit@@ 64
interessiert. 64
vollstän@@ 64
lungen 64
greifen, 64
stens 64
Geschenk 64
dig, 64
Kö@@ 64
Musik. 64
Arch@@ 64
sitzen, 64
Verteilung 64
en.“ 64
schwieriger 64
dazu. 64
bestra@@ 64
interagieren 64
digen, 64
Kindes 64
benutze 64
anders, 64
zweites 64
haus@@ 64
ker. 64
vergleichen 64
ra 64
unten, 64
niemanden 64
verwirr@@ 64
Top@@ 64
menten 64
Maß 64
ämpf@@ 64
Richtungen 64
ble@@ 64
Lat@@ 64
zeichnete 64
reduzieren 64
spielt, 64
Pflanzen@@ 64
Könnten 64
proble@@ 64
glücklicher 64
Fabrik 64
Beide 64
schwäch@@ 64
beschlossen 64
erwe@@ 64
denk@@ 64
zusätzliche 64
Krankheit. 64
sat@@ 64
!@@ 64
Jetzt, 64
Verkehr 64
zeiten 64
Trick@@ 64
vor: 64
einzigartige 64
Mark 64
icht. 64
Haie 64
Geschichtenerzähl@@ 64
Sin@@ 64
Brust 64
Sauerstoff@@ 63
Gericht 63
Bre@@ 63
Niveau 63
endsten 63
ierungen 63
Lösung. 63
Welten 63
Zweitens, 63
Kredit@@ 63
eg@@ 63
wand@@ 63
theit 63
produktion 63
Mer@@ 63
ge: 63
Kind. 63
Russland 63
stoff, 63
mach 63
neigen 63
York, 63
DNS 63
Säuget@@ 63
120 63
stamm@@ 63
lange, 63
don@@ 63
verst@@ 63
ard 63
angesehen 63
Bot@@ 63
stein 63
angefangen, 63
Glei@@ 63
erste, 63
mäßig 63
schafft, 63
Bedeut@@ 63
fahrer 63
Abhängigkeit 63
Vereinten 63
all, 63
bei. 63
Spinn@@ 63
industrielle 63
herausgefunden 63
weiten 63
Kurve 63
… 63
ei 63
englischen 63
zuvor. 63
graus@@ 63
Instru@@ 63
klei@@ 63
brachte. 63
gend, 63
Hol@@ 63
mussten. 63
Glück. 63
Gegenden 63
recht. 63
schrift 63
genaue 63
schütz@@ 63
Material, 63
besuchte 63
aner 63
op 63
stimmt. 63
starten 63
jung 63
Präsidenten 63
besor@@ 63
simul@@ 63
Weltkrieg 63
klassische 63
C. 63
schmerz@@ 63
fass@@ 63
Hal@@ 63
staatlichen 63
zusätzlich 63
2006 63
anders@@ 63
Ehe 63
ad 63
drücken, 63
ierten. 63
ins@@ 63
"G@@ 63
Mathematiker 63
Sie: 63
testen, 63
schwerer 63
Bibel 63
Saal 63
verfolgen. 63
Nahen 63
Start@@ 63
Hack@@ 63
00@@ 63
lebendig 63
hne 63
begrenz@@ 63
schnell@@ 63
Sammlung 63
Geräusch@@ 63
Humor 62
flog 62
gemacht@@ 62
Beitrag 62
Rechn@@ 62
Kohle 62
Lit@@ 62
untersu@@ 62
verbringen, 62
kontro@@ 62
regel@@ 62
ator@@ 62
Weltbevölkerung 62
griff@@ 62
hm@@ 62
Eigenschaft 62
Erforschung 62
elt. 62
ogen 62
2003 62
machst 62
Juni 62
ration@@ 62
sprü@@ 62
Angriff 62
ruh@@ 62
if@@ 62
sequenz@@ 62
Sor@@ 62
gesammelt 62
Komponenten 62
Betrieb@@ 62
ck-@@ 62
belast@@ 62
halben 62
Poly@@ 62
Zucker 62
S. 62
ar. 62
]. 62
klapp@@ 62
Prä@@ 62
igkeits@@ 62
arbeiter 62
dü@@ 62
..." 62
möglichkeiten 62
töten. 62
versorgung 62
einsetzen 62
por@@ 62
passt. 62
iens 62
sagen? 62
befrei@@ 62
dest 62
holen, 62
Renn@@ 62
erneu@@ 62
Form. 62
Lot@@ 62
kontrollieren. 62
gewähr@@ 62
Kun@@ 62
wünsch@@ 62
blö@@ 62
außer@@ 62
derer 62
ingen, 62
individuellen 62
20.000 62
Studien@@ 62
Studio 62
"Ge@@ 62
stei@@ 62
Spezial@@ 62
teure 62
samkeit 62
städtischen 62
tete, 62
werden." 62
anschauen. 62
Geschäft@@ 62
werke 62
gier@@ 62
Mode@@ 62
Erzähl@@ 62
einen. 62
Feind 62
beding@@ 62
kletter@@ 62
gesagt. 62
stimmt, 62
Berechnungen 62
steuern. 62
200@@ 62
Atem 62
wir? 62
verfolgt 62
Bildung, 62
große, 62
fort. 62
vierten 62
Wände 62
n: 62
transform@@ 62
gekommen, 62
gebrochen 62
itz@@ 62
blut@@ 62
garant@@ 62
erweise, 62
werdet 62
Techniken 62
allen. 62
tag@@ 62
eig@@ 62
drü@@ 62
wählen. 62
Winter 62
Milliar@@ 62
Weltkrie@@ 62
erfunden. 61
Effizienz 61
circa 61
hr 61
aufbauen 61
itäts@@ 61
kümmer@@ 61
schaffte 61
Cent 61
aufzubauen, 61
cool. 61
Dienst 61
1,5 61
entdeck@@ 61
geschaffen, 61
weis@@ 61
Tem@@ 61
dran 61
zerstören 61
mus, 61
schrecklich 61
Gebrauch 61
anderes, 61
hieß 61
95 61
t! 61
vielerlei 61
einig@@ 61
wissenschaft@@ 61
berührt 61
Kommunikations@@ 61
Gefängnis@@ 61
führte, 61
fördern. 61
allgemein 61
Typ@@ 61
icht 61
reisen 61
Liebes@@ 61
brachte, 61
Verlangen 61
scht. 61
agen, 61
erfol@@ 61
dun@@ 61
Bö@@ 61
här@@ 61
zwe@@ 61
behandeln, 61
ativer 61
Irgend@@ 61
Menschlichkeit 61
Ruf 61
berühmten 61
0er 61
achten, 61
Ärz@@ 61
Bedarf 61
verwen@@ 61
tolles 61
Klassen@@ 61
geworfen 61
trug 61
britischen 61
Jugend@@ 61
kultur 61
kompliziert 61
mächtige 61
65 61
Höhepunkt 61
Anwendungen 61
h-@@ 61
Maschine, 61
füll@@ 61
Frem@@ 61
wunderschönen 61
Kopf, 61
], 61
Teufel 61
Mas@@ 61
Hom@@ 61
städ@@ 61
Konzer@@ 61
argument@@ 61
tran@@ 61
Waffe 61
agen. 61
Islam@@ 61
Röntgen@@ 61
Gerü@@ 61
lernten 61
überraschende 61
Autismus 61
europäischen 61
beeinflussen. 61
Pharma@@ 61
tungs@@ 61
Schat@@ 61
Malari@@ 61
-jährige 61
Innovation, 61
Schwan@@ 61
bro@@ 61
Akt 61
Dennoch 61
Will@@ 61
Kommun@@ 61
geteilt 61
überwältig@@ 61
Vorträge 61
rich@@ 61
Gesundheit, 61
impf@@ 61
Aktion 61
Hinweise 61
konzentrieren. 61
Frieden@@ 61
reicher 61
mpf@@ 61
skal@@ 61
Schreiben 61
Unterschied. 61
nett 61
unterwegs 61
verliert 61
BIP 61
Dienstleistungen 61
experiment@@ 61
Handlungen 61
Einrichtungen 61
stag 61
verabschie@@ 61
frustr@@ 61
Pr@@ 61
Mik@@ 61
nie. 61
Erlebnis 61
Population 61
Wand@@ 61
schicken, 61
Bibliothe@@ 61
Dank, 60
Freund, 60
Logik 60
wert. 60
Ghana 60
Brau@@ 60
gebe@@ 60
Diskuss@@ 60
erleben. 60
schönes 60
erforschen. 60
Flug 60
Kunst. 60
bitte, 60
Quanten@@ 60
Pop@@ 60
betrifft, 60
bildet 60
karten 60
gebeten, 60
Spaß. 60
einziger 60
Lesen 60
Knie 60
vereinfach@@ 60
Knopf 60
leid, 60
nisse, 60
diesmal 60
sn@@ 60
Kanada 60
dieren 60
zellen, 60
gesetzt, 60
glaubte 60
kräfte 60
tollen 60
Kluft 60
sozial 60
gleich, 60
weisen. 60
etabl@@ 60
Somit 60
wirken. 60
inspir@@ 60
vorbei. 60
Unterhalt@@ 60
Protein 60
gelangen, 60
kung, 60
wachsende 60
Szene 60
belieb@@ 60
erziel@@ 60
Gemüse 60
Boden, 60
ma. 60
gewählt 60
Operationen 60
großartig, 60
schaut, 60
auf: 60
Uganda 60
Bewohner 60
Inhalte 60
ursprünglichen 60
durchzu@@ 60
gang. 60
Südafrika 60
stellte, 60
betrieben 60
finanziellen 60
irgendeiner 60
befür@@ 60
Erstaun@@ 60
ätzen 60
Form@@ 60
Angeles 60
Film, 60
sele@@ 60
hi@@ 60
ungen@@ 60
aufen. 60
Spiel, 60
genetisch 60
Nachbarschaft 60
ges, 60
2.000 60
Summe 60
soziales 60
religiöse 60
Text 60
Homo 60
dar, 60
Rechen@@ 60
Strategien 60
Standpunkt 60
willst 60
satz@@ 60
gesellschaftlichen 60
klasse 60
Sektor 60
gesell@@ 60
Krimin@@ 60
ore 60
Ländern. 60
zentrum 60
medizin@@ 60
Alters@@ 60
Chaos 60
Dreie@@ 60
Gipfel 60
193@@ 60
verkün@@ 60
Studenten, 60
Prop@@ 60
Währ@@ 60
Tanz 60
/ 60
liebte 60
pfen 60
jahr@@ 60
übertragen. 60
singen 60
Sens@@ 60
Lösung, 60
YouTube 60
AB: 60
KB: 60
Korallen 60
plus 59
isieren 59
ausprob@@ 59
Situation, 59
leu@@ 59
gender 59
Ern@@ 59
passen, 59
staat@@ 59
Globalisierung 59
bru@@ 59
einander, 59
flug@@ 59
Erfinder 59
gebildet 59
ativ 59
Einmal 59
echter 59
Resultate 59
Gelegenheit, 59
X 59
Motor@@ 59
Vielzahl 59
besitzt 59
ktions@@ 59
Gerade 59
Scho@@ 59
de-@@ 59
Microsoft 59
winzig 59
überschrei@@ 59
iert? 59
gelangen. 59
Beh@@ 59
"Wissen 59
wechseln 59
Fern@@ 59
Blätter 59
Kultur. 59
mende 59
system. 59
Muskeln 59
weiger@@ 59
bestimmen 59
mir@@ 59
handeln, 59
manipul@@ 59
Frank 59
verrückt. 59
fantastisch. 59
zugleich 59
18. 59
Prozesse 59
Bess@@ 59
il, 59
wundervollen 59
jährlich 59
aufbau@@ 59
Viel 59
Trick 59
Produkt@@ 59
verhindern. 59
perfekten 59
gewonnen. 59
wahrschein@@ 59
Bewegung, 59
kultur@@ 59
verhindern, 59
umgehen. 59
ktive 59
aussieht 59
spä@@ 59
pan@@ 59
enden. 59
änder 59
D-@@ 59
bemerkt 59
Stan@@ 59
bemerkte 59
ie? 59
Jim 59
artig 59
aufhören, 59
virtuellen 59
wand 59
beantworten. 59
ursprüngliche 59
Dun@@ 59
$ 59
Tit@@ 59
Titel@@ 59
Gew@@ 59
überzeugt 59
verschieden 59
Schwei@@ 59
int@@ 59
Klin@@ 59
mann@@ 59
st-@@ 59
ssp@@ 59
anfangen. 59
gewöhnlich 59
fehlt 59
greifen. 59
Py@@ 59
testen. 59
Verhalten, 59
Ägypten 59
Frankreich 59
Journal@@ 59
danach, 59
sche@@ 59
ben." 59
vis@@ 59
Weltraum 59
ktiv 59
Hyper@@ 59
Schweden 59
Gal@@ 59
verbunden, 59
iPhone 59
8, 58
suchten 58
ment. 58
bewusst. 58
arbeitete, 58
Nähr@@ 58
Konzepte 58
Systemen 58
erstellen 58
Informationen. 58
reiste 58
globaler 58
funktionierte 58
sicheren 58
plan 58
Verkehrs@@ 58
Bob 58
profit@@ 58
rieb 58
geändert 58
spüren 58
gewissermaßen 58
ieb@@ 58
schickten 58
gesto@@ 58
Haus, 58
Monate, 58
Stiftung 58
line@@ 58
mus 58
Stück@@ 58
Bedenken 58
unterscheiden. 58
kurzer 58
begrün@@ 58
Trotz 58
Tja, 58
Links 58
er." 58
it, 58
Mac@@ 58
leicht, 58
schätz@@ 58
sprache 58
hörte, 58
Erkrankungen 58
5, 58
Biologen 58
Ebenen 58
der: 58
Big 58
herauszufinden 58
dire@@ 58
grenz@@ 58
verletzt 58
D. 58
neuesten 58
berühmte 58
genie@@ 58
nt 58
taten, 58
aufhören 58
Motor 58
sse@@ 58
industriellen 58
Allerdings 58
Zwill@@ 58
treibt 58
Magie 58
wissenschaftlich 58
Fahrer 58
gewaltige 58
enthalten 58
verfol@@ 58
Chem@@ 58
regener@@ 58
kap@@ 58
ia@@ 58
sammelt 58
Zeug, 58
schon@@ 58
Element 58
ka 58
Geschichten. 58
irgendein 58
Mutter. 58
fotograf@@ 58
sicht. 58
wich@@ 58
Lag@@ 58
yn@@ 58
vertrauen 58
licht@@ 58
Jahrhundert, 58
Individu@@ 58
Wachstums@@ 58
ke. 58
unmöglich. 58
klat@@ 58
gefährliche 58
beträgt 58
sicherer 58
sechs@@ 58
ya 58
still 58
eingeführt 58
traf, 58
33 58
prü@@ 58
Lebensqualität 58
live 58
Partei 58
Ben 58
bedarf 58
beides 58
unmöglich, 58
Regi@@ 58
verbreitete 58
kei@@ 58
zeichnen. 58
delt 58
izi@@ 58
früh@@ 58
digen. 58
sende 58
Universum, 58
zur@@ 58
ag 58
Ment@@ 58
Metern 58
Fähigkeiten, 58
geno@@ 58
Stern 58
knapp 58
ulen 58
verdienen. 58
Ungleichheit 58
ätze, 58
Lass 58
faszinierende 58
Auswirkung 58
6. 58
1, 58
gelernt. 58
w-@@ 58
iesen. 58
frau@@ 58
einmal. 58
sätze 58
schnei@@ 58
g-@@ 58
iv. 58
behandeln. 58
Moral 58
Mur@@ 58
Offen@@ 58
mithilfe 58
misst 58
matik 58
Falle 58
platz 58
Zufriedenheit 58
dich, 58
Videospiele 58
Gold 58
vergessen. 58
Geheimnisse 58
verbracht, 58
Unternehmer@@ 58
Erdbeben 58
Erkenntnisse 58
Chip 58
?« 58
hon@@ 57
Ausgaben 57
führenden 57
folgen@@ 57
politik 57
verwandeln. 57
stabilis@@ 57
diese, 57
Kapitalismus 57
entscheidend 57
Köpfen 57
Paris 57
Flugzeuge 57
raus, 57
über, 57
inspirieren 57
Pri@@ 57
stände 57
Auto, 57
Form, 57
Worte, 57
Luft. 57
zeichnen, 57
ograph@@ 57
überqu@@ 57
fanden, 57
Apple 57
Medi@@ 57
elegan@@ 57
Asien 57
Guten 57
verschmutz@@ 57
train@@ 57
tende 57
Bundes@@ 57
ern? 57
Therapie 57
ry 57
bleibt. 57
Bibliothek 57
Dinger 57
darstellt. 57
gebeten 57
13@@ 57
Bildung. 57
Geistes@@ 57
schlafen 57
verknüpf@@ 57
ihn. 57
fangen. 57
geschafft, 57
Mont@@ 57
erfinden 57
Schü@@ 57
Bedürfnis 57
Itali@@ 57
komplette 57
vorbereitet 57
Großvater 57
folg@@ 57
beängstig@@ 57
chter@@ 57
gescho@@ 57
gens 57
Elefanten 57
Solche 57
Toten 57
Straf@@ 57
betroffen 57
erweiter@@ 57
individuelle 57
rufen, 57
erhöht 57
damit. 57
Mischung 57
organ@@ 57
Unglaub@@ 57
sse. 57
Cit@@ 57
dien 57
kämpfen. 57
entwerfen, 57
kosten@@ 57
Rich@@ 57
Katastrophe 57
verbin@@ 57
machten, 57
Stahl@@ 57
effizient 57
utz@@ 57
Meister@@ 57
ativ@@ 57
Rass@@ 57
ichen 57
phys@@ 57
verkauf@@ 57
unver@@ 57
Stift 57
dicht 57
gebung 57
schweren 57
Drit@@ 57
Exper@@ 57
Erdbe@@ 57
gehei@@ 57
Flo@@ 57
infiziert 57
Konsu@@ 57
innen, 57
ch? 57
Beruf@@ 57
de: 57
Dor@@ 57
einfach: 57
imp@@ 57
Alternative 57
angesichts 57
prei@@ 57
gestalten, 57
kräf@@ 57
Feuer@@ 57
Box 57
drehen, 57
Anzeichen 57
Studie, 57
Gedächtnis 57
Tauch@@ 57
Elekt@@ 57
korre@@ 57
John@@ 57
Grippe 57
Erkennt@@ 56
aufen 56
Kapital 56
halten? 56
fällen 56
Wahl. 56
Gerät, 56
genau. 56
Ze@@ 56
beschäftigen, 56
Gewalt, 56
Hoffnung. 56
atives 56
Mob@@ 56
zwar, 56
lauf 56
Gedanke, 56
fassen, 56
stü@@ 56
erei 56
interessantes 56
Wollen 56
te-@@ 56
Yo@@ 56
Pazif@@ 56
Konstru@@ 56
kombin@@ 56
besorgt 56
Bit@@ 56
Software, 56
Hor@@ 56
schreibe 56
T-@@ 56
neulich 56
Generation, 56
Bewegungs@@ 56
bewahr@@ 56
prob@@ 56
Lungen@@ 56
gewe@@ 56
erforschen, 56
beginne 56
m? 56
Überraschung 56
konzentriert 56
wegzu@@ 56
bt, 56
Depression 56
iken, 56
verstanden. 56
wichtiger, 56
ies, 56
Net@@ 56
cke. 56
Nicht-@@ 56
geboren, 56
erer 56
gegründet 56
still@@ 56
Personen, 56
wünschte, 56
wahrscheinlich, 56
Unternehmen. 56
Schülern 56
kognitive 56
such@@ 56
Glas@@ 56
einzig 56
Büchern 56
erstellen. 56
Anwen@@ 56
interpret@@ 56
Ausrüstung 56
arm@@ 56
ausseh@@ 56
zweieinhalb 56
Kleidung 56
Wohlbefinden 56
fand. 56
isierte 56
holte 56
verab@@ 56
Boden. 56
ativ. 56
Anim@@ 56
ed 56
Kurzem 56
läch@@ 56
Woche, 56
die@@ 56
"Wer 56
schafts@@ 56
kommunizieren. 56
gern, 56
Journalisten 56
Prozent@@ 56
Vorhersagen 56
teilung 56
gewann 56
Brüder 56
Einheiten 56
sind: 56
Teleskop 56
Blase 56
Oft 56
suche 56
ers, 56
oder, 56
lehnen 56
Universum. 56
Null 56
Früh@@ 56
zufäll@@ 56
kontrolliert 56
Unterneh@@ 56
gelöst. 56
China. 56
halte, 56
züge 56
Ner@@ 56
Höhle 56
eit@@ 56
trägt. 56
"Ist 56
ren, 56
einsetzen, 56
fällt, 56
bew@@ 56
indische 56
euer 56
lernt, 56
Später 56
wodurch 56
schützen, 56
nam@@ 56
Kongo 56
Küche 56
ihr@@ 56
bot 56
heiße 56
schwimmen 56
Zweifel 56
dabei. 56
Fliege 56
Genauso 56
gei@@ 56
"Und 56
Mam@@ 56
bal@@ 56
Eier 56
automat@@ 56
Nachfrage 56
been@@ 56
Hühn@@ 56
seht 56
Lebensraum 56
schrieb: 55
wesen 55
verbrenn@@ 55
Brenn@@ 55
Uni 55
formen, 55
Begriff@@ 55
Dann, 55
erwähn@@ 55
mobil@@ 55
ruft 55
Dien@@ 55
kein@@ 55
ung." 55
dann? 55
geändert. 55
hinein, 55
Spann@@ 55
Vis@@ 55
erre@@ 55
Tränen 55
S, 55
wahr, 55
fasst, 55
for 55
Weltall 55
Untersuchungen 55
schlechtes 55
Bildschir@@ 55
Klu@@ 55
Presse 55
kab@@ 55
Amerika, 55
fördern 55
drücken. 55
studiert 55
Persön@@ 55
abhän@@ 55
Scham 55
"Sch@@ 55
to, 55
Knochen@@ 55
rea@@ 55
beschä@@ 55
Krankheiten, 55
em. 55
besucht 55
Auft@@ 55
'. 55
Trends 55
rum. 55
schlä@@ 55
Kurz@@ 55
reinig@@ 55
merken, 55
verkauft. 55
Sing@@ 55
mag. 55
tige 55
leid. 55
unterstützt 55
.. 55
Erstens: 55
erw@@ 55
ckten 55
reib@@ 55
ries@@ 55
Kit@@ 55
Firmen, 55
E-@@ 55
später. 55
Obje@@ 55
Jahrhundert. 55
Ries@@ 55
eien 55
gerettet 55
gefun@@ 55
Früher 55
wissenschaftler 55
Erwachsen@@ 55
Th@@ 55
ologischen 55
Gestaltung 55
nenne. 55
3.000 55
erkannt, 55
Lächeln 55
ge-@@ 55
ling 55
schlussendlich 55
normal@@ 55
Faktoren 55
Ri@@ 55
Werkzeuge, 55
Vers@@ 55
arch@@ 55
Erfol@@ 55
Flüss@@ 55
stam@@ 55
maßen 55
Gas 55
kürz@@ 55
robu@@ 55
punkt. 55
Wale 55
gab@@ 55
Angebot 55
Programmier@@ 55
tun." 55
großem 55
Preise 55
Stil 55
geschehen. 55
ungewöhn@@ 55
abhäng@@ 55
Chinas 55
fallen, 55
x. 55
Training 55
aktive 55
Klinik 55
Andrew 55
Städte, 55
stecken. 55
währ@@ 55
seltsam@@ 55
tät@@ 55
Statistik 55
Europa, 55
scheu@@ 55
netz@@ 55
Grenz@@ 55
schlau@@ 55
fän@@ 55
beruf@@ 55
weniger. 55
dient 55
ruhig 55
boden 55
ähnlich. 55
Ungefähr 55
übereinstimm@@ 55
Schrift 55
Umstände 55
Einkommens@@ 55
test, 55
Center 55
Diagnose 55
wellen 55
Fort@@ 55
Göt@@ 55
Zweiten 55
drücke 55
leiten 55
sucht, 55
unterschied@@ 55
Kindern. 55
men? 55
Werke 55
Gat@@ 55
häufiger 55
Depressionen 55
Hacker 55
weisen, 55
Bord 54
betr@@ 54
Emissionen 54
vielmals. 54
glau@@ 54
Saf@@ 54
kol@@ 54
freue 54
Sinne, 54
hoffen 54
Annahme 54
dauer@@ 54
2001 54
globales 54
gewöhnlichen 54
Bus@@ 54
wozu 54
Sicherheit@@ 54
besser@@ 54
erfolgreiche 54
investiert 54
hingegen 54
Bedeutung. 54
loszu@@ 54
häu@@ 54
billiger 54
Mün@@ 54
weiss, 54
ds, 54
minim@@ 54
definieren 54
Fantasie 54
Präsiden@@ 54
beschwer@@ 54
jedoch, 54
entfernten 54
dete, 54
Ken@@ 54
Revolution, 54
bes 54
weißt 54
außergewöhnlichen 54
Bürgermeister 54
Gott. 54
hebt 54
Bandbreite 54
Mannes 54
Einfach 54
aufrecht 54
unendlich 54
holt 54
Dün@@ 54
sters 54
gegangen, 54
O 54
Reich 54
dre@@ 54
loses 54
gewaltigen 54
berühmt 54
überlegen, 54
tat. 54
erstre@@ 54
spezifischen 54
ich? 54
Gesicht@@ 54
zeige, 54
ms. 54
glückliche 54
verlang@@ 54
schafften 54
jene, 54
Jedenfalls 54
L 54
mathematische 54
Erste 54
artiges 54
ack 54
hre, 54
keinerlei 54
Steven 54
Schle@@ 54
erwähnt 54
Mär@@ 54
fliegt 54
durchschnittlich 54
geschafft. 54
meinte 54
dreimal 54
Bereich, 54
Cal@@ 54
Einführung 54
grundle@@ 54
grün 54
Pfer@@ 54
blu@@ 54
Februar 54
hen@@ 54
leisten, 54
zurecht@@ 54
Schön@@ 54
kümmert 54
Königin 54
Projekt@@ 54
zentralen 54
technologische 54
Nervenzellen 54
Ret@@ 54
dere 54
kel. 54
Pferd 54
langsam@@ 54
Dich@@ 54
verfolgen, 54
Theorie, 54
fein@@ 54
Verrück@@ 54
blü@@ 54
aut@@ 54
abstra@@ 54
ordn@@ 54
klu@@ 54
Island 54
hof 54
wechseln. 54
Hem@@ 54
eigentlichen 54
wehr@@ 54
Spur 54
lachen 54
schufen 54
sicherstellen, 54
ater 54
so? 54
ausser@@ 54
Welle 54
wirklich@@ 54
Fig@@ 54
pas@@ 54
Merk@@ 54
erforsch@@ 54
erwi@@ 54
alisiert 54
loser 54
schlei@@ 54
Gebiet, 54
gewohn@@ 54
ökonomischen 54
schwim@@ 54
effektiv@@ 54
Mechanismus 54
iden 54
RB: 54
Tee 54
GPS-@@ 54
Oxytocin 54
Verkehr@@ 53
dankbar 53
aktiven 53
vermitteln, 53
entwicklung 53
dort@@ 53
begrenzt 53
pra@@ 53
gere@@ 53
i: 53
konkurr@@ 53
gekauft 53
erleben, 53
effizienter 53
sex@@ 53
Figur 53
s", 53
schlau 53
Go@@ 53
Hölle 53
Organismus 53
bedingungen 53
erhielten 53
erweitern 53
aufnehmen 53
Gas@@ 53
natürlicher 53
ersetzen 53
Yor@@ 53
erfahr@@ 53
ischerweise 53
fort 53
ments 53
Kul@@ 53
wachsen@@ 53
Wein 53
Bis@@ 53
spra@@ 53
tiefen 53
Heimat 53
Projekte, 53
Mittel, 53
zwei. 53
mochte 53
verlor 53
Angriff@@ 53
Institute 53
kraft. 53
benutzten 53
besit@@ 53
klinische 53
', 53
männliche 53
85 53
Kolle@@ 53
lehren 53
aufmerksam 53
wachsenden 53
entdeckt. 53
Flüssigkeit 53
lich? 53
Kevin 53
Sä@@ 53
Howard 53
witz@@ 53
Tom@@ 53
kurz@@ 53
blau@@ 53
Kaffe@@ 53
stur@@ 53
Magazin 53
Haar@@ 53
beeinflusst. 53
Wissenschaft. 53
aufnahme 53
pen@@ 53
Dame 53
existiert. 53
scho@@ 53
warf 53
Moral@@ 53
Lehrern 53
mischen 53
Simul@@ 53
Haare 53
an." 53
sitzen. 53
gelben 53
Schach@@ 53
krimin@@ 53
William 53
Kle@@ 53
ichten 53
Stun@@ 53
fall, 53
Blickwinkel 53
kleine, 53
Umgebung, 53
Lam@@ 53
Sport 53
landete 53
Bir@@ 53
umher@@ 53
Off@@ 53
Film. 53
mächtig 53
n." 53
2011 53
interagieren. 53
ermöglichen. 53
betro@@ 53
beschreiben. 53
formul@@ 53
vergleich@@ 53
verursacht. 53
beantworten 53
Meere 53
d" 53
öffnen, 53
Partner@@ 53
Länder. 53
regelmäß@@ 53
Anerkennung 53
britische 53
Überrasch@@ 53
Lichter 53
Bewei@@ 53
"Ver@@ 53
Austausch 53
Flächen 53
moralisch 53
bestimmt, 53
uit@@ 53
graph@@ 53
vermittel@@ 53
massive 53
Dichte 53
Computer-@@ 53
schrecklichen 53
neu. 53
Tasche 53
berühr@@ 53
discher 53
seltsam 53
Interview 53
Vergnügen 53
Stunden, 53
Ach@@ 53
Flügel 53
Vir@@ 53
beglei@@ 53
het@@ 53
verrückten 53
Maschine. 53
Macht. 53
Spekt@@ 53
sicherzustellen, 53
Rab@@ 53
Bü@@ 53
Sommer@@ 53
Studien, 53
Glaube 53
Maschin@@ 53
besteht. 53
stelle, 53
Comic@@ 53
reagiert 53
Erinner@@ 53
wertvoll 53
spieler 53
Jur@@ 53
Jon@@ 53
dy 53
Muster, 53
erschreck@@ 53
Studierenden 53
&lt;br&gt;@@ 53
fuhren 52
hinaus, 52
Koch@@ 52
steuern 52
sichere 52
sorgfältig 52
Thema, 52
fantastischen 52
Tausenden 52
Regier@@ 52
extra@@ 52
Tode 52
ökonom@@ 52
Risik@@ 52
hoben 52
elt, 52
Forschung, 52
fiz@@ 52
Wettbewer@@ 52
großartiges 52
Chef 52
erinnerte 52
Luft, 52
stel 52
Pho@@ 52
Gre@@ 52
mitteln 52
Tempo 52
irgendwas 52
leer@@ 52
herunter 52
flei@@ 52
glaubten, 52
irgend 52
zelle 52
reagieren, 52
improvis@@ 52
gemeinsam@@ 52
Gehirns. 52
enheit 52
Paar@@ 52
Unterschie@@ 52
Japan@@ 52
ober@@ 52
keits@@ 52
Abfall 52
ts, 52
benden 52
Feedback 52
Bedürf@@ 52
Offensichtlich 52
zugeben, 52
Tage, 52
schrieb, 52
ag, 52
sah. 52
Zeitungen 52
pun@@ 52
ausgesch@@ 52
Gleichung 52
igem 52
Cyber@@ 52
stadt 52
entfernen 52
beln 52
kern 52
spezifische 52
definiert 52
einzige, 52
schutz@@ 52
finanzielle 52
glamourö@@ 52
überrascht, 52
ahn@@ 52
angenommen 52
befest@@ 52
om, 52
Straße, 52
ppe, 52
Leid 52
Muslime 52
ierendes 52
Störungen 52
ia, 52
raus. 52
ren. 52
Offenheit 52
bemü@@ 52
ven, 52
Radio 52
Argument 52
Hirn 52
falsch, 52
Häl@@ 52
alem 52
Schwe@@ 52
ah, 52
großart@@ 52
ler. 52
äss@@ 52
merken 52
ele 52
befinden, 52
Maßnahmen 52
neugierig 52
Poster 52
fuer 52
dynam@@ 52
schnit@@ 52
Fahrzeu@@ 52
gesun@@ 52
Waffen@@ 52
Demo@@ 52
Nachhaltigkeit 52
ir 52
reagieren. 52
haar@@ 52
blicken 52
spen@@ 52
hingehen 52
Kön@@ 52
erinnern. 52
Zusammen 52
un. 52
ps 52
cher, 52
waff@@ 52
Hans 52
außergewöhnlich 52
nebenbei 52
kurs 52
Posit@@ 52
verur@@ 52
geleitet 52
zell@@ 52
über. 52
Führung@@ 52
geräte 52
hinunter 52
Freu@@ 52
Telef@@ 52
arten, 52
ives 52
ifiz@@ 52
Zivil@@ 52
geholfen 52
bungen 52
Mikroskop 52
Gegenstände 52
Halb@@ 52
berücksicht@@ 52
Unterwasser@@ 52
Persönlichkeit 52
Freunde. 52
Eisen@@ 52
Verhalten. 52
Energieverbrauch 52
Lücke 52
ältesten 52
Chirurg 52
transport@@ 52
Kampf@@ 52
Algorithmus 52
["@@ 52
sensi@@ 52
Elektron@@ 52
Abendessen 51
gedruck@@ 51
geschrie@@ 51
0,@@ 51
beteiligt 51
Entschei@@ 51
gewan@@ 51
stellen? 51
ett@@ 51
Konsumenten 51
Dialog 51
vorwärts 51
schlimmste 51
darf, 51
verd@@ 51
besserer 51
Sprung 51
bor@@ 51
coole 51
technisch 51
ließ@@ 51
emotionalen 51
Moor@@ 51
keit 51
ron 51
trenn@@ 51
ten; 51
Satelliten@@ 51
Extre@@ 51
wichtiges 51
ase 51
komplexer 51
Relig@@ 51
Witz 51
ale. 51
schalten. 51
Entwurf 51
Lös@@ 51
erstaunlich, 51
begrü@@ 51
beschreiben 51
virtuelle 51
Entwicklungsländer 51
wütend 51
Bio-@@ 51
sy@@ 51
Schre@@ 51
trage 51
Brustkrebs 51
Architekt 51
bist, 51
Abstand 51
Typ, 51
betrü@@ 51
voran@@ 51
großartiger 51
scht, 51
Dingen. 51
mus. 51
Amazon@@ 51
MR@@ 51
uns: 51
Nachhaltig@@ 51
Feld@@ 51
Stär@@ 51
fossilen 51
angetrieben 51
Brian 51
rel@@ 51
ologische 51
Übergang 51
solches 51
befrie@@ 51
haft, 51
rik@@ 51
gül@@ 51
äufe 51
vermeiden. 51
erin, 51
hat: 51
Spuren 51
Ehemann 51
reduziert 51
gez@@ 51
medi@@ 51
Molekü@@ 51
Ob@@ 51
angen 51
all. 51
tel, 51
Nu@@ 51
not@@ 51
Fangen 51
schuf 51
mittel. 51
Verletz@@ 51
fort, 51
definitiv 51
sucht. 51
Transparenz 51
2-@@ 51
ane 51
ome 51
20-@@ 51
verstär@@ 51
Armut, 51
liches. 51
bert 51
Richtung. 51
os, 51
Optimismus 51
Jedoch 51
komplex@@ 51
Lehre 51
Herausforderung. 51
Gast@@ 51
Klavier 51
modell@@ 51
iver 51
Schnitt 51
M 51
gemäß 51
bezieh@@ 51
Reden 51
innov@@ 51
organisationen 51
links, 51
Hindernisse 51
mals 51
Brie@@ 51
Ac@@ 51
typischen 51
"? 51
äche 51
muslimischen 51
wohlhab@@ 51
gib@@ 51
Klass@@ 51
großen, 51
Schwein@@ 51
swer@@ 51
verließ 51
ingt 51
jegliche 51
Strö@@ 51
beantwor@@ 51
demokratische 51
film@@ 51
E: 51
Essen. 51
pflanz@@ 51
fluss 51
., 51
fisch 51
Liber@@ 51
Grupp@@ 51
Chirurgen 51
Cur@@ 51
quellen 51
elle, 51
Künstler@@ 51
Unternehmens@@ 50
Marken@@ 50
Thema. 50
atmen 50
tung. 50
verbreit@@ 50
Risiko@@ 50
Einfachheit 50
kritische 50
buch@@ 50
euren 50
ihr. 50
-jährigen 50
ökonomische 50
Jugend 50
son, 50
Beispiel@@ 50
kann? 50
akzeptieren 50
Ordnung, 50
entwerfen. 50
Mittelpunkt 50
bekam, 50
Party 50
schlagen, 50
Pause 50
Probe 50
kalt 50
Meiner 50
isieren, 50
ansteck@@ 50
ungsprozess 50
raffin@@ 50
ständen 50
erstmals 50
den?" 50
klass@@ 50
Altern@@ 50
angesch@@ 50
Design. 50
traurig 50
sagt. 50
spor@@ 50
können: 50
Rande 50
Labor, 50
Science 50
E-Mails 50
appen 50
Amp@@ 50
bedeckt 50
man: 50
Umstän@@ 50
dargestellt 50
identifiz@@ 50
z: 50
ts. 50
rollen 50
"Ja@@ 50
Proze@@ 50
rieb@@ 50
einfluss@@ 50
erhöhen 50
biologisch 50
nachhaltig 50
erungen 50
lese 50
beschäftigt, 50
Dem 50
systems 50
benötigen, 50
10, 50
Hut 50
tatsächliche 50
gend. 50
kla@@ 50
leiten. 50
9, 50
verr@@ 50
Konzentr@@ 50
Säu@@ 50
Kä@@ 50
Rezept 50
findet. 50
Bäumen 50
Autoren 50
Bücher, 50
Maße 50
Hot@@ 50
organisiert 50
hl. 50
von@@ 50
intelligenten 50
Muster. 50
obje@@ 50
Gü@@ 50
Mart@@ 50
erische 50
komme, 50
Ram@@ 50
gehalten. 50
Mich 50
Länge 50
ey 50
person@@ 50
fäl@@ 50
Anrei@@ 50
beobacht@@ 50
iesen 50
ogra@@ 50
G 50
Felsen 50
er" 50
sper@@ 50
legt, 50
gelassen. 50
Spezies, 50
program@@ 50
Ratten 50
Produktions@@ 50
chs@@ 50
schwei@@ 50
Üb@@ 50
neue, 50
Schöpf@@ 50
Tun@@ 50
bedeck@@ 50
Gefahren 50
unabhängige 50
starr@@ 50
beruh@@ 50
trägt, 50
Kolonie 50
hinder@@ 50
iv, 50
unglaub@@ 50
ult@@ 50
verloren, 50
1-@@ 50
ungsan@@ 50
gelangen 50
schwarzes 50
entwerfen 50
Fußball@@ 50
aufzubauen. 50
stel@@ 50
man. 50
Handeln 50
Investition 50
Taten 50
verursach@@ 50
isieren. 50
wesentlichen 50
Out@@ 50
eile 50
Sonne, 50
geschaffen. 50
schlü@@ 50
tit@@ 50
neugier@@ 50
els 50
gezwungen 50
ball 50
ähr@@ 50
Symbole 50
"P@@ 50
Nachricht@@ 50
anim@@ 50
Zeh@@ 50
Gran@@ 50
Sonne. 50
bemerken 50
höchst 50
Hause, 50
Fels@@ 50
geschütz@@ 50
Roman 50
Spar@@ 50
problem 50
mikro@@ 50
offenbar 50
Strahlung 50
"Wo 50
Beweg@@ 50
Nacht, 49
wun@@ 49
entsetz@@ 49
durchaus 49
heißt. 49
verkaufen, 49
demokratischen 49
Fahrrad 49
Dezember 49
bezahlen, 49
Wirtschaft. 49
Besonders 49
übrigens, 49
2004 49
geschä@@ 49
mittel, 49
Laut 49
hinaus. 49
dran@@ 49
herumzu@@ 49
gehe, 49
Schnee 49
wagen 49
Vorschlag 49
hunder@@ 49
stern. 49
kleineren 49
aufregende 49
künstlichen 49
Auffassung 49
Ausnahme 49
das?" 49
Experi@@ 49
sach@@ 49
Liebl@@ 49
Doku@@ 49
stoß@@ 49
Wetter 49
Standar@@ 49
hinunter@@ 49
männlichen 49
Futter 49
Blät@@ 49
herstell@@ 49
aufregend 49
Waren 49
versor@@ 49
Politik@@ 49
Strahl@@ 49
hinein. 49
tatsächlichen 49
kontrollieren, 49
Krankheit, 49
Künstler, 49
Wein@@ 49
Dichter 49
istisch 49
schlaf@@ 49
Trend 49
m: 49
rang@@ 49
Buch. 49
Abl@@ 49
Immun@@ 49
kreiert 49
pte 49
10-@@ 49
offensichtlich, 49
Bohr@@ 49
verantwor@@ 49
stischen 49
gelangt 49
baten 49
20, 49
f-@@ 49
drit@@ 49
gefallen. 49
Politik, 49
bezeichnen 49
interessieren, 49
zwanzig 49
Vortrags 49
Balance 49
schwar@@ 49
tauschen 49
Organisationen, 49
ule 49
verschieden@@ 49
sinn 49
Gesundheit. 49
Häuser@@ 49
Kapital@@ 49
erkannt 49
kau@@ 49
kleinsten 49
Gehirns, 49
darstellen. 49
hren. 49
Landes. 49
eer@@ 49
Kommunikation@@ 49
bilder 49
bestehen. 49
zogen, 49
Toilet@@ 49
korrig@@ 49
fasst. 49
haftes 49
Ray 49
trifft, 49
Atome 49
gemessen 49
nennt, 49
ieren@@ 49
geben? 49
Hitze 49
Media 49
Onkel 49
bel. 49
Katze 49
Medizin. 49
Gegenstand 49
falten 49
Herstell@@ 49
Exist@@ 49
Sonder@@ 49
ständige 49
26 49
Stoff 49
Gebieten 49
Experiment@@ 49
hinzu. 49
bewegte 49
brech@@ 49
Arz@@ 49
Belohnung 49
fasste 49
Mensch. 49
bö@@ 49
gemacht? 49
post@@ 49
trü@@ 49
Besten 49
Neuigkeiten 49
Rollen 49
herausforder@@ 49
Zahl@@ 49
lichkei@@ 49
gerichtet 49
Seiden@@ 49
Streben 49
Materi@@ 49
schließlich, 49
zweifel@@ 49
Noten 49
Gram@@ 49
eilen 49
Angesicht 49
Bahn@@ 49
Schlagzeilen 49
riesiger 49
samm@@ 49
Geiste@@ 49
Psychologen 49
sammelten 49
Blei@@ 49
Kooperation 49
Beschreibung 49
Sel@@ 49
füt@@ 49
normales 49
erstaunlich. 49
Veränderung. 49
Kilo 49
Texas 49
festzu@@ 49
wuch@@ 49
benutzte 49
Richter 49
lat@@ 49
teil. 49
ermöglich@@ 49
multi@@ 49
&lt;br/&gt;@@ 49
Tipp@@ 48
antwortete: 48
historische 48
reduzieren. 48
Up@@ 48
28 48
arr@@ 48
ffen. 48
Freiwill@@ 48
verhindern 48
ritt 48
Syste@@ 48
aufnahmen 48
gendes 48
zutiefst 48
Berat@@ 48
Gru@@ 48
Mond@@ 48
genießen 48
verkehr 48
Oberflächen 48
Unterschied, 48
Liebe. 48
aufbauen, 48
halbes 48
davor, 48
richtig, 48
Interpretation 48
bedeutend 48
Pflanzen, 48
unsichtbar 48
blau 48
kel 48
Religionen 48
schriften 48
erei@@ 48
probieren 48
berichtet 48
besitzen. 48
Assist@@ 48
schwarz 48
deprim@@ 48
tödliche 48
Diabetes 48
Tum@@ 48
kämpfen, 48
ist; 48
dringen 48
mä@@ 48
psychische 48
Enkel@@ 48
decken 48
läu@@ 48
Alzheimer 48
ungsl@@ 48
gewebe 48
festgestellt, 48
Explosion 48
historischen 48
bezeichnet 48
gezeigt. 48
in: 48
betracht@@ 48
d." 48
Ruhe 48
sparen. 48
weiblichen 48
Frau@@ 48
Stoff@@ 48
verrückt, 48
ausreichend 48
tägliche 48
umzugehen. 48
ition 48
kungs@@ 48
üblichen 48
Freiheit, 48
Medium 48
firma 48
erschaff@@ 48
konsum@@ 48
Wirbel@@ 48
verdient 48
draußen, 48
klein, 48
regen@@ 48
dn@@ 48
risk@@ 48
aufgenommen. 48
Mauer 48
erem 48
kosten. 48
drinnen 48
verschick@@ 48
80@@ 48
Wohnung 48
machten. 48
erwartet, 48
fro@@ 48
"Mein 48
Appar@@ 48
Metho@@ 48
Papier, 48
di 48
anen 48
chem@@ 48
Kopie 48
Don@@ 48
Buchstab@@ 48
Toilette 48
Hil@@ 48
Hügel 48
schaften. 48
Grund. 48
typische 48
Heu@@ 48
orden@@ 48
radikal 48
wartet 48
mpfen 48
etes 48
kümmern. 48
elektronische 48
dauern 48
Zellen. 48
Gewe@@ 48
frucht@@ 48
gering@@ 48
err@@ 48
recyc@@ 48
drückt 48
wenigsten 48
Asteroiden 48
eingeladen 48
cht? 48
Null@@ 48
Zufall 48
hie@@ 48
van@@ 48
geld 48
Inst@@ 48
steiger@@ 48
sieben@@ 48
Keiner 48
nenne, 48
Vo@@ 48
restlichen 48
spei@@ 48
rufen. 48
Rettung 48
statt, 48
Engagement 48
rech@@ 48
Abenteuer 48
Geruch 48
anc@@ 48
vergan@@ 48
größtenteils 48
enor@@ 48
Praxis 48
sprach. 48
öffentlicher 48
Stör@@ 48
Ungleich@@ 48
Kollegen, 48
diese. 48
Wahrscheinlichkeit, 48
überall, 48
bzw. 48
sam 48
Wichtigste 48
repräsentiert 48
Fernseher 48
erfahren. 48
euch, 48
anre@@ 48
Felder 48
denden 48
Aufgabe. 48
marsch@@ 48
Familien, 48
Gesundheitssystem 48
my@@ 48
zustand 48
Wahn@@ 48
Welches 48
Ameise 48
probleme 48
nenn@@ 48
Tei@@ 48
quer 48
Vi@@ 48
hlt 48
öffnen. 48
klinischen 48
natürlich. 48
te" 48
Robo@@ 48
Maschinen@@ 48
bislang 48
zieht, 48
roll@@ 48
nachdenkt, 48
But@@ 48
Gefä@@ 48
vermeiden 47
Parti@@ 47
Erfindungen 47
wohl, 47
Dorf@@ 47
voraus@@ 47
ätze. 47
fördern, 47
programm 47
ix@@ 47
Vier 47
Interessante 47
erie 47
Fro@@ 47
bizar@@ 47
egal. 47
Endes 47
Finden 47
Irgendwie 47
ehrlich, 47
verdammt 47
berichten, 47
om. 47
e". 47
nutzten 47
heiß@@ 47
Haust@@ 47
dimension@@ 47
geschei@@ 47
tert, 47
Vermögen 47
Motivation 47
praktiz@@ 47
F 47
Übung 47
Bevölkerung, 47
geführt, 47
jag@@ 47
Entwicklung. 47
Wut 47
ade@@ 47
Gruppen, 47
Nelson 47
verg@@ 47
erin. 47
The 47
Profess@@ 47
Verletzungen 47
Fran@@ 47
Hast 47
zogen. 47
u, 47
Köpfe 47
Ara@@ 47
satz, 47
os. 47
Silicon 47
entstehen. 47
Hä@@ 47
lossen 47
nachzudenken 47
Tat, 47
Entdec@@ 47
Tages, 47
ch-@@ 47
teil, 47
serv@@ 47
verbreitet. 47
Ziel. 47
Bier 47
dazwischen 47
West 47
bestimmtes 47
mmer@@ 47
geschah, 47
anz 47
kamer@@ 47
Bürgerkrie@@ 47
Ende, 47
halt, 47
Punkten 47
einzig@@ 47
gefühl 47
Chin@@ 47
gelang 47
Neue 47
Kris@@ 47
Krankenhaus@@ 47
Modell. 47
einzigartigen 47
Pul@@ 47
beschloss, 47
negativen 47
Reichtum 47
erzählte, 47
frühe 47
begeg@@ 47
teilt. 47
massiven 47
danken 47
Sir 47
Vat@@ 47
ppen. 47
Joe 47
eine. 47
bös@@ 47
Besitzer 47
Gemeinschaft. 47
bel, 47
größeres 47
Verl@@ 47
art, 47
alisieren 47
ide 47
bot@@ 47
Verhält@@ 47
greift 47
hierfür 47
tier 47
Schwestern 47
Gründer 47
spektakul@@ 47
dichte 47
Taschen@@ 47
rieben 47
beobachtet, 47
mel 47
glaubte, 47
Oel 47
Gall@@ 47
konfrontiert 47
persön@@ 47
bezo@@ 47
UN-@@ 47
chan@@ 47
chtige 47
hört, 47
an-@@ 47
illen 47
recherch@@ 47
anwenden 47
Lieder 47
3-@@ 47
spaz@@ 47
Tagen, 47
BI@@ 47
Amerikas 47
Reise, 47
Taliban 47
mmel@@ 47
Zie@@ 47
Tropfen 47
slo@@ 47
Doktor 47
angenommen, 47
verkaufte 47
Ei@@ 47
Tim 47
tige, 47
schla@@ 47
Arthur 47
sil@@ 47
kette 47
vorauss@@ 47
Nahr@@ 47
Phil@@ 47
Kuchen 47
hinauf 47
komplex 47
iden@@ 47
bring@@ 47
Sta@@ 47
Frü@@ 47
Zimmer@@ 47
Bewer@@ 47
ter: 47
richten, 47
Pä@@ 47
eurer 47
stap@@ 47
interag@@ 47
Wirtschaftswachstum 47
Mike 47
Zentimeter 47
&amp; 47
detaill@@ 47
Rätsel@@ 47
Famil@@ 47
Nerven 47
Großeltern 47
Pingu@@ 47
0-@@ 47
geschützt 47
Israel@@ 47
SW: 47
Gore 46
Kell@@ 46
w. 46
punkt, 46
Energien 46
anwen@@ 46
denkt. 46
Manager 46
Frühling 46
eins. 46
Solarenergie 46
langsam. 46
bleibt, 46
Wurzel@@ 46
io@@ 46
zte 46
Angestell@@ 46
zerbrech@@ 46
stellt. 46
demokrat@@ 46
Beispiele. 46
dienst 46
dit@@ 46
US 46
Rak@@ 46
zwölf 46
Wochen@@ 46
interessan@@ 46
staatliche 46
Brennstoff@@ 46
aufre@@ 46
Regeln, 46
Abweich@@ 46
Job, 46
Amerika. 46
rie 46
Prie@@ 46
Sequenz 46
tausend@@ 46
ali@@ 46
besitzen, 46
betrachtet. 46
Wellen@@ 46
kompon@@ 46
menten, 46
Syn@@ 46
Stille 46
Hilfe. 46
Dollar@@ 46
net, 46
ak 46
jahrelang 46
Hass@@ 46
Erkran@@ 46
heilen 46
Regenwald 46
bringe 46
Leistungen 46
ieren." 46
Afrik@@ 46
vielfäl@@ 46
Hän@@ 46
verzweifelt 46
Programm, 46
Rolle. 46
York. 46
Belast@@ 46
Organ 46
Brustkreb@@ 46
persönlicher 46
Mr. 46
Bedauern 46
Stämme 46
folgendes: 46
Schichten 46
Impfstoff 46
Fahrzeuge 46
technik 46
iker. 46
grad 46
toten 46
Kno@@ 46
erfand 46
Annahme, 46
Blogs 46
vernetz@@ 46
graf@@ 46
Erschein@@ 46
Saturn 46
bekam. 46
flächen 46
streben 46
drängt 46
lossen, 46
Einzelnen 46
Steine 46
Besit@@ 46
ve. 46
Konsum 46
fließt 46
der-@@ 46
Milch 46
Verkauf 46
amerikan@@ 46
Fu@@ 46
Struktur, 46
bekommt. 46
Dynamik 46
fachen 46
Gebäu@@ 46
raum, 46
räume 46
Alkohol@@ 46
,000 46
wiederzu@@ 46
Krieg. 46
Sätze 46
ben: 46
Za@@ 46
Mark@@ 46
englische 46
S-@@ 46
iste 46
faszinier@@ 46
Prozess. 46
hassen 46
Graf@@ 46
Griff 46
behalten, 46
blieben 46
Revolution. 46
Erfahr@@ 46
bre@@ 46
issen, 46
sser 46
Jahrhunder@@ 46
Handl@@ 46
dauern@@ 46
gestartet 46
9. 46
Interessanterweise 46
Patient@@ 46
üben 46
skop@@ 46
sagen@@ 46
dunkel 46
Aber@@ 46
Sekunden, 46
Auto. 46
Fahrrad@@ 46
verlag@@ 46
3, 46
erschüt@@ 46
Zü@@ 46
Umfrage 46
menden 46
"D@@ 46
ehr 46
2,5 46
teuer. 46
stellen: 46
bedroht 46
eten 46
schlie@@ 46
gin@@ 46
inger 46
Gewinner 46
wiederholt 46
ße, 46
verhalten, 46
klär@@ 46
and, 46
Lab@@ 46
politischer 46
bedeutende 46
Besuch 46
heben, 46
Faszin@@ 46
Bakterien, 46
kollektiven 46
Stimme, 46
lern 46
islamischen 46
linge 46
Sum@@ 46
Mama 46
Stimme: 46
gerade@@ 46
Anreize 46
Hochschul@@ 46
Kindersterblichkeit 46
gestre@@ 46
Muster@@ 46
est 46
Indiens 46
ct@@ 46
funktion 46
Lärm 46
Winter@@ 46
Babies 46
Boo@@ 46
Institution 46
organisation 46
Wichtigkeit 46
ereien 46
Zahlen, 46
Emp@@ 46
Long 46
se: 46
Femin@@ 46
anz. 46
tot. 46
Elektroden 46
Refle@@ 46
Higgs-@@ 46
Eins, 46
Gletscher 46
ktiven 46
cool@@ 45
neg@@ 45
möglichst 45
Berechnung 45
del. 45
Lehren 45
arbeite, 45
av@@ 45
fertig. 45
dete. 45
klare 45
fortschrit@@ 45
drin@@ 45
gangen 45
hmen 45
ite@@ 45
weit@@ 45
absolute 45
Mal. 45
vention@@ 45
She@@ 45
Jeff 45
gründen 45
amerikanischer 45
dienen 45
Market@@ 45
weib@@ 45
Zeiten. 45
Zeichn@@ 45
Mittagessen 45
29 45
toler@@ 45
Wasserstoff 45
deckt 45
Kohlendioxid 45
Enzy@@ 45
Untersuch@@ 45
Kontak@@ 45
langsam, 45
kehr@@ 45
geseh@@ 45
6, 45
kognitiven 45
löst 45
Beobacht@@ 45
fer, 45
schießen 45
chern 45
können." 45
Philosophie 45
Bom@@ 45
Dank! 45
Krebs, 45
Hypothe@@ 45
bemerkte, 45
Zurück 45
fange 45
High@@ 45
drüber 45
starkes 45
ktor. 45
komplizier@@ 45
va@@ 45
bestehen, 45
spiegel@@ 45
Information, 45
Hit@@ 45
ämmer@@ 45
schal@@ 45
Metall@@ 45
Anpass@@ 45
tigem 45
Spezi@@ 45
starb. 45
s". 45
Urkn@@ 45
Wirklich 45
ließ. 45
gelegen@@ 45
Taus@@ 45
by 45
Jahre@@ 45
C-@@ 45
runter. 45
verständlich 45
human@@ 45
effektiver 45
laden, 45
Dist@@ 45
Kurse 45
illeg@@ 45
ment, 45
darf. 45
Vortrag. 45
bohr@@ 45
Mem@@ 45
Kill@@ 45
entr@@ 45
ere, 45
natur@@ 45
Gur@@ 45
Gut@@ 45
beleu@@ 45
val@@ 45
pul@@ 45
schlecht, 45
Är@@ 45
fälle, 45
Versicher@@ 45
Manhattan 45
Entfern@@ 45
beteil@@ 45
Werten 45
verschwunden. 45
Jahrhunderts, 45
Bilder. 45
Dür@@ 45
ärz@@ 45
Mädchen. 45
Strecke 45
Stamm 45
Kämpf@@ 45
Mitarbei@@ 45
klug 45
ue 45
Hypothese 45
ws 45
Deutsch@@ 45
Nutzer 45
boo@@ 45
2012 45
Realit@@ 45
klaren 45
ison 45
Maschinen, 45
merk@@ 45
Sign@@ 45
Zeitpunkt, 45
Ebenso 45
Reichweite 45
Besch@@ 45
Hersteller 45
breiten 45
arer 45
schwachen 45
Million@@ 45
Teenag@@ 45
hindurch 45
tot@@ 45
result@@ 45
Streit 45
Neg@@ 45
ing: 45
frei, 45
Pha@@ 45
Wert@@ 45
Anführ@@ 45
Plätze 45
radikale 45
ausgewähl@@ 45
Nation@@ 45
raum. 45
formt 45
Religion, 45
kreieren, 45
untere 45
kro@@ 45
ief@@ 45
o: 45
Wissenschaf@@ 45
größer. 45
ernähr@@ 45
Top-@@ 45
Live-@@ 45
erscheinen, 45
Fehler. 45
Methoden, 45
"Er 45
Zahl, 45
durchschnittlichen 45
Herkunft 45
ände 45
se-@@ 45
Denn, 45
absol@@ 45
gesün@@ 45
brem@@ 45
5-@@ 45
Hob@@ 45
Direktor 45
druck. 45
kompet@@ 45
Wohl 45
Täusch@@ 45
aufeinander 45
Bakter@@ 45
Dienstleist@@ 45
Verlu@@ 45
bedeutete, 45
Perfe@@ 45
Tony 45
forscher 45
beibringen, 45
forder@@ 45
Tour 45
mente. 45
sendet 45
Vom 45
42 45
reflekt@@ 45
Netzwerk@@ 45
fundamentale 45
ala@@ 45
iar@@ 45
Großbritannien, 45
ity 45
Friedens@@ 45
belohn@@ 45
up@@ 45
geführt. 45
verbraucht 45
Gesichts@@ 45
Lad@@ 45
Allgemeinen 45
á@@ 45
Koran 45
Passwörter 45
sowieso 45
genet@@ 45
Verhalten@@ 45
Pflege@@ 45
dürfen. 44
Weißen 44
liches, 44
Phan@@ 44
wachte 44
Len@@ 44
langen, 44
Wahl, 44
Davon 44
beginnt. 44
stro@@ 44
fiel@@ 44
Debat@@ 44
kümmern, 44
global 44
erreich@@ 44
Oxford 44
tätig 44
Schnitt@@ 44
Dynam@@ 44
Pläne 44
dungen. 44
Meinung, 44
Besitz 44
knüpf@@ 44
ät, 44
Erwart@@ 44
Altern 44
projekt 44
Gebäudes 44
Kreise 44
schnitte 44
paar@@ 44
Rad 44
schte 44
"Ihr 44
lauter 44
gerä@@ 44
darin. 44
Gates 44
Jane 44
glie@@ 44
uten 44
bestimmen. 44
liebt 44
Beu@@ 44
Orten, 44
kinder@@ 44
Lehrer. 44
Verzweiflung 44
gelang@@ 44
Namen, 44
stete 44
nahm. 44
merkwür@@ 44
jetzt? 44
ieren: 44
Publikum, 44
Fläch@@ 44
tex@@ 44
r. 44
iger. 44
alisierten 44
Zeu@@ 44
Schmer@@ 44
fokuss@@ 44
dlicher 44
Ira@@ 44
hob 44
pt. 44
entsteht. 44
Knoten 44
bon@@ 44
Produktivität 44
Letz@@ 44
ille 44
last@@ 44
zählen. 44
Mäus@@ 44
Wald@@ 44
igkei@@ 44
Monaten, 44
Clu@@ 44
vat@@ 44
beschäftigen 44
Teleskop@@ 44
Bä@@ 44
ge? 44
6.000 44
Astron@@ 44
ras@@ 44
materi@@ 44
Software@@ 44
Cre@@ 44
drauf 44
Lov@@ 44
stark, 44
Zugriff 44
Brit@@ 44
Ges@@ 44
Zeug. 44
Türen 44
Inspir@@ 44
Sondern 44
Diam@@ 44
Tragö@@ 44
nicht: 44
Interessan@@ 44
Ähn@@ 44
besa@@ 44
Grun@@ 44
Sitz 44
hierbei 44
gelö@@ 44
Ausmaß@@ 44
Hektar 44
Hau@@ 44
Schwarz@@ 44
lehn@@ 44
tur@@ 44
Schwellen@@ 44
besu@@ 44
Salz@@ 44
spielten 44
Sohn, 44
ers. 44
Sei 44
mechan@@ 44
Sto@@ 44
ige. 44
Organisation, 44
niemandem 44
flexi@@ 44
Ding, 44
CD@@ 44
mathematischen 44
Umwelt, 44
eventuell 44
einhalb 44
Hinweis 44
überzeugen 44
begann. 44
Nächstes 44
Laptops 44
genannten 44
Effe@@ 44
physikalischen 44
Oder, 44
prakti@@ 44
langes 44
Dimens@@ 44
draußen. 44
überleben, 44
gelegt, 44
ju@@ 44
fang 44
Liter 44
Trag@@ 44
1998 44
Wärme 44
zurückkehr@@ 44
wünsche 44
verlei@@ 44
Erkenntnis, 44
weitaus 44
Diskussionen 44
dran. 44
rum, 44
Nie@@ 44
extreme 44
Regierung. 44
Asi@@ 44
Euro 44
Erwärmung 44
warten. 44
niedrigen 44
Regierungen, 44
Schulter 44
Kau@@ 44
sha@@ 44
geni@@ 44
male 44
Lehrerin 44
ließen, 44
Empf@@ 44
Intuition 44
benötigen. 44
Verbün@@ 44
Stufen 44
Fremden 44
entes 44
Normal@@ 44
Nordamerik@@ 44
Systeme, 44
ärm@@ 44
Videospiel@@ 44
Cli@@ 44
dir@@ 44
erfreu@@ 44
vern@@ 44
es." 44
Finger@@ 44
Washington, 44
womöglich 44
Versagen 44
Bein@@ 44
Ruanda 44
hundert@@ 44
"Wa@@ 44
gst 44
ppe. 44
Autorität 44
mals, 44
Entscheidung, 44
Rot 44
Kenn@@ 44
film 44
Gl@@ 44
Chirur@@ 44
Töne 44
plätze 44
definieren. 44
Medikam@@ 44
eineinhalb 44
Slums 44
Informat@@ 44
ologie. 44
täglich@@ 44
Mitgefühl, 44
Stich@@ 44
Ägyp@@ 44
Wat@@ 44
Sternen@@ 44
übers 44
Fahrt 44
zusammens@@ 44
Fünf@@ 44
eröffnet 43
niedrig 43
Bedeutung, 43
Daumen 43
Dorf, 43
tert. 43
verwandeln, 43
Auswir@@ 43
stellte. 43
vorn 43
Designer, 43
beton@@ 43
nahme, 43
Aspe@@ 43
gelte 43
erinnert, 43
schluss@@ 43
Jahrhunderts. 43
minister 43
12. 43
30.000 43
Flugzeug@@ 43
Rennen 43
wonach 43
Erweiterung 43
Selbst, 43
beschreib@@ 43
Team, 43
faszinierend. 43
Genome 43
entdeckten 43
Infra@@ 43
verbo@@ 43
Warte@@ 43
heim 43
Kil@@ 43
Ordn@@ 43
sorgen. 43
höch@@ 43
kür@@ 43
Chines@@ 43
tue, 43
Betreu@@ 43
mpft 43
Mitgefühl. 43
Gebur@@ 43
digt, 43
schuss 43
fähig, 43
getestet 43
fragt: 43
dir, 43
würdest 43
toller 43
bio@@ 43
kurzes 43
fix@@ 43
Freude, 43
Fakt 43
rieb, 43
rutsch@@ 43
Gemäl@@ 43
festen 43
wort 43
sexuellen 43
nun@@ 43
schneller, 43
Buches 43
ordnung 43
temperatur 43
allgemein@@ 43
histor@@ 43
auswei@@ 43
beziehen 43
lig@@ 43
Rand@@ 43
Geschmack 43
ühr@@ 43
Fehler, 43
Experte 43
ph 43
Intellig@@ 43
Rin@@ 43
K 43
wit@@ 43
Vert@@ 43
Sag@@ 43
ungewöhnliche 43
bewaff@@ 43
Pot@@ 43
TED. 43
Schil@@ 43
drei. 43
einander@@ 43
jederzeit 43
irgendeinen 43
haft. 43
kaputt 43
Restaurants 43
jemandem, 43
keines 43
örtlichen 43
Therap@@ 43
gelbe 43
geblieben 43
asien 43
kräft@@ 43
verrück@@ 43
erfinden, 43
king 43
ansonsten 43
Wolke 43
weil, 43
az@@ 43
Jahrhunderte 43
tigen 43
langweil@@ 43
förmige 43
ausgebildet 43
Quant@@ 43
Schizophrenie 43
2050 43
Junge, 43
ay@@ 43
Strän@@ 43
vielen, 43
tel. 43
halt. 43
schrift@@ 43
erneuerbare 43
licher, 43
motor@@ 43
Mobiltelef@@ 43
überwinden, 43
sub@@ 43
Auflösung 43
Umgebung. 43
geht's 43
t". 43
Ok. 43
zeigten, 43
einzigartig 43
warum? 43
umkrei@@ 43
Sternen 43
alität. 43
ergän@@ 43
Start 43
bahnen 43
vernachläss@@ 43
Erlaubnis 43
Fluss@@ 43
chen? 43
Proto@@ 43
Fau@@ 43
Result@@ 43
angeht, 43
kompliziert. 43
ender@@ 43
reduz@@ 43
Stelle, 43
oftmals 43
unser@@ 43
ökologischen 43
Install@@ 43
Behörden 43
S: 43
lebte, 43
Stau@@ 43
dreh@@ 43
Fabriken 43
gedacht. 43
Krankheits@@ 43
AIDS-@@ 43
Ohr 43
Richt@@ 43
lokal 43
Letztendlich 43
fassen. 43
stütz@@ 43
verheer@@ 43
ähnliches 43
16. 43
körperliche 43
plötz@@ 43
Business 43
gebra@@ 43
negative 43
Termin@@ 43
ärger@@ 43
H 43
ff 43
größe 43
Täuschung 43
umm@@ 43
jetz@@ 43
ktionen. 43
erzählten 43
Schlacht 43
Roten 43
Pflege 43
Initiative 43
ungser@@ 43
böse 43
überwinden 43
Mein@@ 43
natürliches 43
Höhlen 43
Stimul@@ 43
wir: 43
ausgewählt 43
besteh@@ 43
Schwerkraft 43
robo@@ 43
Orche@@ 43
sitzt, 43
Mechan@@ 43
gedul@@ 43
unterricht 43
sle@@ 43
Q@@ 43
illa 43
rekonstru@@ 43
frie@@ 43
Veränderung, 43
Laser@@ 43
Durchmesser 43
Klimawandels 43
Karte. 43
durchgeführt, 43
Krieg, 43
sperr@@ 43
Wörterbuch 43
Löwen 43
mysteriö@@ 43
anget@@ 43
hä@@ 43
vermitteln. 43
kommunizieren, 43
Familienmitglie@@ 43
bereiten 43
Käfer 43
Drohnen 43
Fellow 43
TK: 43
geflo@@ 42
öffnete 42
bast@@ 42
klicken 42
zenden 42
Allein 42
Eng@@ 42
voranzu@@ 42
Meinungen 42
tischer 42
qualifiz@@ 42
Zweitens: 42
eurem 42
Arbeitsplätze 42
Investit@@ 42
lichere 42
überlebt 42
Konkurr@@ 42
stärksten 42
Fähigkeiten. 42
Hey, 42
Entdeck@@ 42
verliebt 42
vergleichen. 42
weit, 42
Prin@@ 42
Genen 42
unternehmen, 42
kno@@ 42
Wasserstoff@@ 42
darstellen, 42
iegel@@ 42
intellig@@ 42
drucken 42
Wohin 42
geht's. 42
veröffentlichten 42
stammen 42
investieren. 42
stimme 42
Belohn@@ 42
studieren. 42
verschwinden. 42
Wüsten@@ 42
ft? 42
angepasst 42
prozess 42
n?" 42
Misser@@ 42
Dau@@ 42
Egal, 42
st: 42
de? 42
Tätigkeit 42
steigt. 42
Gesicht, 42
quet@@ 42
ie: 42
mangel@@ 42
ließen. 42
betrifft. 42
wissenschaft 42
harten 42
Kühl@@ 42
bestimmt. 42
gänge 42
mmer 42
schlage 42
gefüllt 42
Haar 42
Vit@@ 42
ergeben 42
lagen. 42
Typen, 42
Medien, 42
Woche. 42
wiegt 42
Anten@@ 42
steckt, 42
rechts@@ 42
King 42
getrieben 42
en... 42
Welt? 42
näh@@ 42
digitalis@@ 42
lern, 42
gemeinschaf@@ 42
fs@@ 42
Differ@@ 42
zusammenhän@@ 42
Bestimm@@ 42
Arbeitsplatz 42
opti@@ 42
Prototyp@@ 42
sprit@@ 42
dies. 42
billig 42
verdienen, 42
U 42
beliebigen 42
Konsum@@ 42
samer 42
Auff@@ 42
veröffentlichen 42
normaler 42
Analogie 42
Literat@@ 42
mitt@@ 42
schnellen 42
Sonn@@ 42
widerspiegel@@ 42
Rein@@ 42
Baseball@@ 42
Süd-@@ 42
Skulpturen 42
Staub 42
Illusion 42
zahlen. 42
projiz@@ 42
Koordin@@ 42
aufgenommen, 42
Nat@@ 42
ine. 42
Patent@@ 42
ismus@@ 42
Rio 42
Journalist 42
Schlam@@ 42
freiwill@@ 42
existiert, 42
nie, 42
Andererseits 42
Wechsel@@ 42
Chips 42
30@@ 42
markt@@ 42
ücken 42
scheint. 42
sprechen@@ 42
Schä@@ 42
Bestandteil 42
Stro@@ 42
verschwunden 42
ewig 42
Interaktionen 42
taus@@ 42
symbol@@ 42
Ameisen@@ 42
kritischen 42
Intera@@ 42
ße. 42
s?" 42
dring@@ 42
Widerspruch 42
bedeutete 42
redet 42
aber@@ 42
ach 42
gingen. 42
2.@@ 42
Treibstoff 42
Stahl 42
50. 42
Ab 42
rieben. 42
wertvolle 42
bewirken 42
startete 42
Reser@@ 42
Zut@@ 42
Nordamerika 42
übersetzt 42
unglaubliches 42
heiraten 42
Schöne 42
Überwach@@ 42
Wochen, 42
Alexander 42
Namen. 42
Amerikaner, 42
dramatisch 42
ckl@@ 42
48 42
Internets 42
Option 42
Winkel 42
dest@@ 42
zoom@@ 42
Füßen 42
gewa@@ 42
vermittelt 42
wet@@ 42
haber 42
besonders, 42
Port@@ 42
Mega@@ 42
Demokratie, 42
Einrichtung 42
q@@ 42
55 42
Wär@@ 42
Beinen 42
anbie@@ 42
produziert, 42
Haltung 42
dringend 42
kts 42
begeistert, 42
ierer 42
bedeutungs@@ 42
ständig. 42
glän@@ 42
Merkmale 42
genommen@@ 42
North 42
Schall@@ 42
Klang@@ 42
Datenbank 42
Rou@@ 42
Ö@@ 42
koordin@@ 42
gang@@ 42
Rolle, 42
Plan, 42
Woll@@ 42
"I@@ 42
Erziehung 42
probe 42
anspruchs@@ 42
Anhänger 42
transplant@@ 42
ändert, 42
meln 42
Wet@@ 42
verbr@@ 42
fün@@ 42
hren, 42
30-@@ 42
scann@@ 42
Grün 42
son: 42
bezahlen. 42
Dy@@ 42
erfinden. 42
ser. 42
Geht 42
extra 42
mikroskop@@ 42
Brief@@ 42
psychischen 42
Küsten@@ 42
demselben 41
Kommentare 41
schmer@@ 41
Ganz@@ 41
Rechner 41
Mai 41
leistung 41
top@@ 41
maxim@@ 41
hier: 41
Smith 41
liebsten 41
gewor@@ 41
Eben@@ 41
entscheidenden 41
Glo@@ 41
Annahmen 41
mächtig@@ 41
igere 41
modelle 41
ersetzt 41
Sprit@@ 41
veranst@@ 41
zuhause 41
Entwicklung, 41
lage, 41
anischer 41
Zwischen 41
wunderbar. 41
Wahrheit, 41
tendieren 41
ors 41
Zeichnungen 41
ine, 41
Kleine 41
draussen 41
5000 41
dier@@ 41
Zusätzlich 41
theoret@@ 41
10. 41
fehler@@ 41
mt. 41
Auftrag 41
Websei@@ 41
p. 41
kä@@ 41
behalten. 41
Chr@@ 41
mächtigen 41
ht@@ 41
töten, 41
Ratte 41
fröh@@ 41
blicken, 41
Ehre 41
Kana@@ 41
inder@@ 41
stieß 41
bruch 41
Lunge 41
entfern@@ 41
repar@@ 41
kasten 41
ica 41
stammt. 41
sorge 41
gebäu@@ 41
wollen? 41
Anthrop@@ 41
gerufen 41
Beginnen 41
sterben@@ 41
zieht. 41
0, 41
lud 41
schaf@@ 41
zuru@@ 41
Geben 41
ähnlicher 41
finden? 41
Elektronen 41
Blat@@ 41
handelt. 41
Tendenz 41
kart@@ 41
ungsweise 41
stirbt 41
annehmen 41
Blog 41
well@@ 41
Tim@@ 41
Hallo, 41
hafter 41
Ausgabe 41
wärts. 41
Song 41
Menschenrechte 41
begegnen 41
Erzählung 41
terte 41
Bücher@@ 41
Tex@@ 41
El 41
Materialien, 41
Harry 41
könne 41
wild 41
gie@@ 41
äd@@ 41
berührt, 41
sst, 41
begreifen, 41
io 41
verfü@@ 41
leich@@ 41
veröffentlicht. 41
auß@@ 41
Marketing 41
vergleichen, 41
gezogen, 41
vermute, 41
sitz 41
leute 41
meister@@ 41
Ah, 41
Richtung, 41
Fotografie 41
abgel@@ 41
Fotograf 41
eingesetzt. 41
moder@@ 41
Tier, 41
u. 41
staaten 41
Stunden. 41
hilfreich 41
schwache 41
Demonstration 41
alber@@ 41
bericht@@ 41
richtungen 41
Arti@@ 41
läss@@ 41
Betra@@ 41
Paradig@@ 41
eter 41
Zykl@@ 41
Dienste 41
hört. 41
Simulation 41
Spaß, 41
Stoffwechsel@@ 41
Vorstellungs@@ 41
Vortrag, 41
gründen. 41
übliche 41
Antwort, 41
entscheiden@@ 41
Sprech@@ 41
Fettleibigkeit 41
dum@@ 41
dimensionalen 41
beschei@@ 41
Ü@@ 41
Treppe 41
pum@@ 41
daher, 41
Alle@@ 41
versteh@@ 41
Ressourcen, 41
zugrunde 41
Gesetzen 41
Leer@@ 41
kleinste 41
ministerium 41
Glob@@ 41
Daraus 41
UN 41
60@@ 41
sammel@@ 41
beobach@@ 41
verlangsam@@ 41
stoppen 41
liest 41
klassischen 41
Google, 41
barkeit, 41
up 41
ungsn@@ 41
obere 41
geschlossen 41
Medikamenten 41
gep@@ 41
Sicherheit, 41
Wortes 41
Hung@@ 41
grä@@ 41
iti@@ 41
dem. 41
interagieren, 41
Maus@@ 41
Earth 41
außergewöhn@@ 41
IS@@ 41
Recht. 41
Entweder 41
enttäusch@@ 41
T. 41
lichen. 41
Kind@@ 41
wis@@ 41
erkennt, 41
„Das 41
Intervie@@ 41
psychologische 41
behauptet, 41
N 41
Dunkel@@ 41
spontan 41
erfassen 41
legen@@ 41
Schädel 41
Will 41
rennen 41
ktivität 41
ums. 41
enthüll@@ 41
Palästin@@ 41
90@@ 41
zens@@ 41
hervor, 41
Erschaffung 41
gaben. 41
durfte 41
Geschlecht 41
bösen 41
ausdrücken 41
neben@@ 41
niedrig@@ 41
Gefühl@@ 41
Bauch 41
beeinflussen, 41
leiten, 41
Gewiss@@ 41
studierte 41
onen, 41
tum 41
charakter@@ 41
achten. 41
3D 41
leuchten 41
Gehir@@ 41
Sensoren 41
Fischerei@@ 41
Eier@@ 41
werk, 41
Fett 41
überraschenden 41
Ly@@ 41
"Weißt 41
woanders 41
Fen@@ 41
tote 41
and. 41
abe 41
Robotern 41
Ethik 41
Alternativen 41
Daniel 41
Sho@@ 41
Vergangenheit, 41
LG: 41
Küchen@@ 41
identifizieren 41
Entropie 41
Pfle@@ 41
EM: 41
Stran@@ 40
Flut 40
stands@@ 40
Meinungs@@ 40
Kochen 40
sparen, 40
Mikro-@@ 40
Bauern@@ 40
mug@@ 40
Wissens 40
muss@@ 40
handel 40
funktionierte. 40
Kolon@@ 40
anfän@@ 40
Versu@@ 40
Wett@@ 40
gelan@@ 40
konn@@ 40
cor@@ 40
weltweit. 40
"die 40
Automobil@@ 40
ei, 40
zusammenarbeiten 40
Hoffentlich 40
bess@@ 40
isst 40
durchgeführt. 40
hlen@@ 40
außerorden@@ 40
the@@ 40
Überlebens@@ 40
Energ@@ 40
engl@@ 40
net. 40
zählt 40
lege 40
iere. 40
Schub@@ 40
"In 40
kunft 40
tiere 40
gewöhnt 40
stern, 40
lehrt 40
am, 40
Wort. 40
dumm 40
laden. 40
Enkel 40
Alter@@ 40
Waf@@ 40
wid@@ 40
aktiver 40
Stanford 40
Leber@@ 40
stehenden 40
keln, 40
auffäll@@ 40
komplexes 40
Oktober 40
vorgestellt 40
interview@@ 40
gelaufen 40
Standards 40
visualis@@ 40
richtet 40
Samm@@ 40
handelt, 40
Schriftsteller 40
altung 40
beginn@@ 40
kehren 40
37 40
kreieren 40
Abschnitt 40
Liebling@@ 40
danken, 40
ungspro@@ 40
ersetzen. 40
ruf 40
Gegenteil. 40
Gleichzeitig 40
Cambridge 40
Technik. 40
Rü@@ 40
well 40
Bauch@@ 40
analys@@ 40
Supermarkt 40
wuß@@ 40
erwähnt, 40
rup@@ 40
direkte 40
beeinflusst, 40
Diagram@@ 40
zende 40
hielt. 40
hinterlassen 40
.com 40
schar@@ 40
syste@@ 40
zes. 40
Flüchtlinge 40
iken. 40
produkte 40
Sekunden. 40
Misch@@ 40
äf@@ 40
Komment@@ 40
fla@@ 40
unsichtbaren 40
zeitgenöss@@ 40
atom@@ 40
ehl@@ 40
natür@@ 40
taten. 40
recht, 40
bemerkenswert 40
ignorieren 40
–, 40
Stad@@ 40
Künst@@ 40
Gang@@ 40
Innovation. 40
griff 40
wächst. 40
25@@ 40
schlimm 40
wirtschaftlich 40
perfekt. 40
Unfälle 40
tödlichen 40
Betracht 40
relevant 40
Punkt@@ 40
Satellit@@ 40
iver@@ 40
ichten, 40
Band@@ 40
Reise@@ 40
darstellt, 40
Schauspieler 40
lag. 40
36 40
Gewalt@@ 40
dienst@@ 40
entdeckte, 40
liefen 40
yer 40
Aff@@ 40
viertel 40
bedeuten, 40
beliebt 40
enge 40
gsten 40
bitte. 40
Angel@@ 40
endete 40
verbindet. 40
beendet 40
Projekts 40
Sinne@@ 40
sion 40
Ap@@ 40
entsprechend 40
Ereign@@ 40
typisch 40
ersten, 40
Stur@@ 40
Fle@@ 40
Brück@@ 40
Kreislauf 40
Schlange 40
Größenordnung 40
Bescheid 40
absichtlich 40
Sonnensystem 40
hervorra@@ 40
bemer@@ 40
Popul@@ 40
binden. 40
taucht 40
lustig. 40
folgendes 40
Grafik@@ 40
Letzten 40
gefolgt 40
preis 40
untersucht, 40
leiden. 40
zerstört. 40
antrei@@ 40
rechts, 40
gleichen. 40
Kriege 40
Prozentsatz 40
Ebene, 40
zweiter 40
Männer. 40
ian 40
Interviews 40
ätz@@ 40
spricht. 40
V-@@ 40
veröffentlicht, 40
ausrei@@ 40
ats@@ 40
Kollege 40
fünf, 40
Alltag 40
Empathie 40
existieren. 40
Jesus 40
gehören, 40
Hon@@ 40
dies: 40
ausbreit@@ 40
Platz. 40
Feu@@ 40
wandern 40
Kro@@ 40
organisierten 40
Ärzten 40
Osten, 40
Treibhausgase 40
bereit. 40
Comedy 40
glücklicherweise 40
gefährlich. 40
Skal@@ 40
stin@@ 40
nette 40
Komman@@ 40
mathemat@@ 40
Quadrat 40
da? 40
qualität 40
Gross@@ 40
Opf@@ 40
Landes, 40
Sendung 40
Gig@@ 40
Animation 40
le: 40
umwandel@@ 40
Poesie 40
Sprechen 40
Batter@@ 40
Formul@@ 40
Phantom-@@ 40
Rückmel@@ 40
Gleichungen 40
sammelte 40
Männer@@ 40
Korallen@@ 40
Landwir@@ 40
Coll@@ 40
schlägen 40
üben. 40
tür@@ 40
Delfine 40
zahlen, 40
systematisch 40
harm@@ 40
Führungskräfte 40
Glamour 40
synchron@@ 40
Bären 40
Meile 40
RM: 40
Restauran@@ 39
rieb. 39
ös@@ 39
Larry 39
Amy 39
U.S. 39
Abfall@@ 39
beibringen 39
Situationen, 39
ausgegeben 39
verbringen. 39
Vermut@@ 39
erlebt. 39
Gesich@@ 39
Übertragung 39
ia. 39
Entwicklungen 39
liefern. 39
Widerstand 39
gäbe, 39
herbei@@ 39
us-@@ 39
Spielzeug 39
200.000 39
betrei@@ 39
Spannung 39
Hier@@ 39
Skulptur 39
Dimension 39
dge@@ 39
Grand 39
Uhr@@ 39
Konzept, 39
Tisch@@ 39
element@@ 39
etten 39
synthet@@ 39
strahlung 39
durchge@@ 39
zwischen@@ 39
Arzt, 39
origin@@ 39
Entwur@@ 39
Reihenfolge 39
kauft 39
lassen? 39
age@@ 39
kamera 39
Karten@@ 39
frei. 39
Län@@ 39
weitgehend 39
Lebensstil 39
jedenfalls 39
damals, 39
Verhaltensweisen 39
schär@@ 39
räumen 39
sinn. 39
Sorge 39
de." 39
beenden. 39
teilten 39
Krebs. 39
gehenden 39
krebs 39
verwandel@@ 39
Ikon@@ 39
trifft. 39
planen 39
beschäftigen. 39
Seitdem 39
übt 39
ologin 39
sexuell 39
Lieb@@ 39
spüren, 39
werden: 39
welt. 39
völl@@ 39
sind; 39
aufregend. 39
gestalt@@ 39
öt@@ 39
berg@@ 39
zerstören, 39
Kollis@@ 39
geheime 39
Sollte 39
nehmen? 39
veröffentlich@@ 39
einzelnes 39
Sechs 39
berühren 39
England, 39
Tricks 39
gerne, 39
Geträn@@ 39
ve, 39
Schätzung 39
nochmals 39
80ern 39
ner, 39
füllen 39
hing 39
Genet@@ 39
pla@@ 39
starteten 39
Foto, 39
behandelt. 39
rechnen 39
leicht. 39
hl 39
xi@@ 39
Repräsent@@ 39
geist@@ 39
gerecht 39
göt@@ 39
Rückseite 39
Ja 39
mache. 39
Ed@@ 39
schau 39
langweilig 39
"Be@@ 39
reich. 39
Dro@@ 39
1990 39
-Jähr@@ 39
generell 39
unangeneh@@ 39
Nas@@ 39
Autoun@@ 39
Heilung 39
kostenlose 39
ika 39
stöß@@ 39
schneiden. 39
abend 39
fühlte, 39
Figuren 39
Betrachtung 39
büro@@ 39
Himmel@@ 39
Gelände 39
geschlagen 39
St. 39
Ebene. 39
glo@@ 39
gingen, 39
enes 39
Angestellten 39
Parteien 39
Kannst 39
maßnahmen 39
ärer 39
Kosm@@ 39
fährt, 39
Immunsystem 39
win 39
hell@@ 39
Metaphern 39
l. 39
nieman@@ 39
Astronomen 39
Bausteine 39
physikalische 39
starb, 39
unmittelbar 39
Kart@@ 39
spun@@ 39
Straß@@ 39
gehende 39
gebo@@ 39
verbrauch 39
Zahl. 39
spart 39
Kosten. 39
Ersatz@@ 39
Hund, 39
erd@@ 39
Berufs@@ 39
Tax@@ 39
Wunsch, 39
–@@ 39
Bab@@ 39
Meistens 39
gefährlichen 39
Moment@@ 39
drin. 39
beacht@@ 39
Theat@@ 39
Afrikan@@ 39
Recht, 39
anpassen 39
unterricht@@ 39
Englisch@@ 39
Wechsel 39
ierender 39
pliz@@ 39
schätzen. 39
Krit@@ 39
Entscheidungen, 39
set@@ 39
Benjamin 39
Herausforderungen, 39
Cap@@ 39
Kognit@@ 39
g: 39
geln, 39
körperlichen 39
istischer 39
v. 39
Ergebnis@@ 39
antwortete 39
Irgendwann 39
Güter 39
Demokratie. 39
Charakter@@ 39
Experiment, 39
Fiktion 39
Quantenmechanik 39
Rollstuhl 39
Dr@@ 39
2: 39
Polizisten 39
tiefgrün@@ 39
wirkt. 39
geborenen 39
put@@ 39
springen. 39
Korallenriffe 39
Reformen 39
Regul@@ 39
gesünder 39
Erkrankung 39
lerin 39
chtigen 39
Äuß@@ 39
Zuschau@@ 39
50-@@ 39
gesellschaftliche 39
Ja? 39
Str@@ 39
dunkler 39
Psychiat@@ 39
reich, 39
zusätzlichen 39
Orchester 39
Nachrichten, 39
Symphon@@ 39
Substanz 39
veröffentlichte 39
Ye@@ 39
Toiletten 39
Drohne 39
Gripp@@ 39
β@@ 39
Probanden 39
's, 38
hinzu, 38
Isol@@ 38
umweltfreund@@ 38
Produkten 38
Manage@@ 38
pon@@ 38
liegenden 38
Werkzeug, 38
alternative 38
Prozesses 38
trag, 38
Produkte, 38
h: 38
betreiben 38
barkeit. 38
treiben. 38
Notwendigkeit 38
angeblich 38
ol 38
rasch 38
'000 38
ausgebil@@ 38
pri@@ 38
erzeugt. 38
bestimm@@ 38
allererst 38
Selektion 38
dünne 38
agen 38
kennt. 38
dadurch, 38
Kolonien 38
ets 38
designer 38
Autos. 38
"Naja, 38
Henry 38
Ingenie@@ 38
ei. 38
Phänom@@ 38
namen 38
tanzen 38
Beglei@@ 38
bur@@ 38
intensiv 38
eren. 38
lösung 38
größer, 38
X-@@ 38
Moder@@ 38
ür 38
starten, 38
4.000 38
it. 38
"Ein 38
preis@@ 38
DP: 38
tiv@@ 38
7, 38
Kategorie 38
form. 38
Tieren, 38
"Na 38
lage. 38
müsst 38
ziel 38
spit@@ 38
deines 38
hast. 38
Fehler@@ 38
kt? 38
Jaz@@ 38
getroffen. 38
klingen 38
Motiv@@ 38
onen. 38
Agrar@@ 38
unwahrschein@@ 38
Amerik@@ 38
zunehmen. 38
nachah@@ 38
her? 38
stung 38
Dasselbe 38
gelangt, 38
vollständige 38
Evolution@@ 38
lands 38
van 38
heisst, 38
geln. 38
brüche 38
gegessen 38
ollen 38
seltsamen 38
has@@ 38
eröff@@ 38
Bank@@ 38
geschickt, 38
Aufruf 38
rechts. 38
Gou@@ 38
Kalifornien, 38
Anwäl@@ 38
gemeinnützige 38
anz, 38
versteckten 38
musikalische 38
le? 38
technologie 38
teilt, 38
geringen 38
maschinen 38
zes, 38
Mathe@@ 38
Liz@@ 38
werken 38
draht@@ 38
elen 38
A: 38
Neugier@@ 38
Büro. 38
zung 38
werk. 38
kast@@ 38
Vergessen 38
gestütz@@ 38
geschnit@@ 38
ungsin@@ 38
Tragödie 38
talent@@ 38
gegeb@@ 38
trugen 38
stem 38
ds. 38
behörde 38
Schaut 38
= 38
passt, 38
May@@ 38
organisieren. 38
umfassen@@ 38
nutzt, 38
Transpar@@ 38
erfordert 38
Innere 38
entschied, 38
mitteln, 38
Bergen 38
zwan@@ 38
allein. 38
August 38
weniger, 38
han, 38
angefertig@@ 38
Klassenz@@ 38
ographie 38
beantworten, 38
haufen 38
Straße. 38
Türkei 38
Frucht@@ 38
Firmen@@ 38
methoden 38
Weltbank 38
befindet, 38
Thermo@@ 38
fas@@ 38
lächer@@ 38
Hausaufgaben 38
une 38
Klavier@@ 38
anschließend 38
konstan@@ 38
Dörfer 38
Handy@@ 38
schalt@@ 38
Kosten@@ 38
herrscht 38
Warn@@ 38
Geschwindig@@ 38
Biosphäre 38
Kran@@ 38
unterrichten, 38
gelegt. 38
schlicht 38
Materie, 38
Physik, 38
anwenden, 38
vermeiden, 38
ente, 38
teile, 38
glaubten 38
nähr@@ 38
absorb@@ 38
Einwohner 38
Aktivisten 38
Veränder@@ 38
kommun@@ 38
verantwortungs@@ 38
Tsunami 38
sagte. 38
kontakt@@ 38
fähigen 38
fotografiert 38
arbeiteten, 38
fangen, 38
Alter, 38
verlangt 38
gere 38
kreis 38
Stig@@ 38
irr@@ 38
übertrag@@ 38
kreativer 38
hohem 38
korrekt 38
welt, 38
Bildungssystem 38
Wert, 38
Job. 38
Zahlen. 38
habt, 38
Gleichheit 38
vorsicht@@ 38
Glauben, 38
bewusst@@ 38
drauf@@ 38
wachen 38
ausmacht. 38
netz 38
bank 38
Individuum 38
Symbol@@ 38
weißt, 38
Ausland 38
Nachmittag 38
♫@@ 38
reiß@@ 38
gehalten, 38
det@@ 38
Wirk@@ 38
kinder 38
Block 38
älteste 38
verstor@@ 38
Versuch@@ 38
niedrige 38
Quer@@ 38
lief, 38
erleb@@ 38
tion. 38
Bestandteile 38
entlich 38
stheorie 38
Vaters 38
jeden, 38
erisch 38
heit? 38
plötzlich, 38
ende@@ 38
Amerikan@@ 38
geläh@@ 38
künst@@ 38
Pflan@@ 38
Gehör@@ 38
Anweis@@ 38
Bür@@ 38
nete, 38
davon@@ 38
liebe, 38
aal 38
Wähl@@ 38
itäten 38
Australien, 38
aktiviert 38
start@@ 38
Eigenschaften, 38
Sympt@@ 38
Apf@@ 38
Speicher 38
personalis@@ 38
stoßen. 38
lichkeits@@ 38
Enthüll@@ 38
Kandidaten 38
Entscheidungs@@ 38
kont@@ 38
Schwi@@ 38
Effekte 38
licht. 38
eth@@ 38
Märkten 38
Inse@@ 38
ografie 38
findung 38
Sturm 38
klein. 38
Bombe 38
virtu@@ 38
Kartoff@@ 38
worin 38
Einwohn@@ 38
Lehrer@@ 38
bat@@ 38
bir@@ 38
gehabt. 38
binden 38
Stü@@ 38
langfristige 38
Blö@@ 38
Mathematik@@ 38
ihm. 38
Fla@@ 38
wand. 38
Prakti@@ 38
Jungen, 38
Nachrichten. 38
Komm 38
La 38
State 38
omet@@ 38
li 38
Gesichtsaus@@ 38
Baumkron@@ 38
attra@@ 38
Foie 38
Green@@ 38
Verletzlichkeit 38
Ford 37
's. 37
deten, 37
Technologie@@ 37
lohn@@ 37
unterhalt@@ 37
bran@@ 37
Rauch 37
füllt 37
schneller. 37
endem 37
Planung 37
beobachtete 37
Juli 37
Erbe 37
saubere 37
angewendet 37
verwandelt. 37
Zug@@ 37
Mögliche 37
altern@@ 37
tliches 37
länder 37
alien 37
ssystem@@ 37
sitze 37
Weltraum@@ 37
festzustellen, 37
hey, 37
Dü@@ 37
Geschwindigkeit, 37
schnellsten 37
nack@@ 37
gestorben. 37
gewinnt 37
voraus, 37
design 37
austau@@ 37
physisch 37
Wohnungen 37
intensi@@ 37
Bade@@ 37
Pion@@ 37
Ozeans 37
130 37
gesammel@@ 37
Hat@@ 37
injiz@@ 37
steuern, 37
ehemalige 37
fs 37
arzt 37
stellung. 37
Komplex@@ 37
keiten, 37
Herbst 37
le-@@ 37
verwendeten 37
tiefsten 37
Väter 37
linie 37
wege 37
kluge 37
Einzige, 37
verbreiten. 37
wirk@@ 37
Hunde@@ 37
bekämpfen, 37
Substan@@ 37
holz 37
test. 37
erzählt. 37
gänzlich 37
fanden. 37
gelegentlich 37
schwa@@ 37
stru@@ 37
Talente 37
einer, 37
spiel. 37
Hier, 37
stoff. 37
Pfa@@ 37
Gebäude. 37
Käf@@ 37
moderner 37
tionen 37
Etwas, 37
Ven@@ 37
breite 37
intuit@@ 37
Dauer 37
schlag, 37
brillan@@ 37
erober@@ 37
Antwor@@ 37
ite 37
Zeichnung 37
heiß 37
schwier@@ 37
Aufzeichnungen 37
zurückgehen 37
stisch 37
gerin 37
Hotel@@ 37
Läch@@ 37
Beer@@ 37
Sher@@ 37
Hell@@ 37
Kandi@@ 37
geschah. 37
heiligen 37
ness 37
Widerstands@@ 37
vergewaltigt 37
schüchter@@ 37
Flughafen 37
schuldigen 37
bieten, 37
Gehör 37
eigener 37
finanziert 37
k: 37
alltäglichen 37
Schwanz 37
unterrich@@ 37
alitäts@@ 37
Internet-@@ 37
oberfläch@@ 37
Leonardo 37
Italien 37
umge@@ 37
Fet@@ 37
effiziente 37
Hill@@ 37
ca 37
ministeri@@ 37
Kuh 37
dustrie 37
Verkaufs@@ 37
Krankenhäuser 37
Farbe, 37
äter 37
kannten 37
Stock 37
gehabt, 37
landes@@ 37
Gewebe@@ 37
ermöglicht. 37
Vent@@ 37
Bauen 37
Phänomen, 37
wol@@ 37
ms, 37
rischen 37
litten 37
we 37
Glauben@@ 37
Anweisungen 37
zeh@@ 37
Pau@@ 37
Büch@@ 37
rüber 37
sofort, 37
gründeten 37
ermut@@ 37
verhandel@@ 37
richten. 37
zufällige 37
freier 37
Millionen. 37
niedriger 37
senden, 37
Graph@@ 37
Transist@@ 37
hunderten 37
ra, 37
dür@@ 37
ns 37
Verbesserungen 37
se? 37
bevölker@@ 37
unvermeid@@ 37
age. 37
Objekten 37
bär@@ 37
geschwindigkeit 37
reparieren 37
Anreiz 37
gefei@@ 37
dichten 37
November 37
schläge 37
Größe. 37
stoppen. 37
Medikamente, 37
Wesen, 37
meint 37
dürfen, 37
toll@@ 37
füllen, 37
nirgendwo 37
hung 37
schwierigsten 37
vorhan@@ 37
Einschränkungen 37
involv@@ 37
glücklichen 37
gewicht 37
brin@@ 37
eite 37
Parks 37
Zerstör@@ 37
Ahnung. 37
Nah@@ 37
bewegungen 37
stehende 37
benötigte 37
Kliniken 37
prozess@@ 37
Häusern 37
Westen, 37
Profit 37
Dank@@ 37
wahrhaftig 37
Gerüst 37
einsetzen. 37
Beschäft@@ 37
geschehen, 37
Dör@@ 37
träumen 37
erfolgreichen 37
Äthiopien 37
Europa. 37
Stabilität 37
aa@@ 37
chtet 37
losig@@ 37
Anwesenheit 37
Trennung 37
verheiratet 37
unterrichtet 37
wahrnehmen 37
Schweigen 37
wunderbares 37
gelten 37
das: 37
veranschau@@ 37
Medizin, 37
getragen 37
jenes 37
vor? 37
verhalten. 37
inie 37
sorgt 37
Syndro@@ 37
knapp@@ 37
europäische 37
Briefe 37
schot@@ 37
Rhythmus 37
stands 37
enter 37
bedro@@ 37
Ozean. 37
sich? 37
Spra@@ 37
erschafft 37
wirtschaftlicher 37
ität@@ 37
gesellschaft 37
oli@@ 37
erfasst 37
Hilfsmittel 37
licht, 37
war? 37
Grü@@ 37
Sierra 37
Kalorien 37
Pack@@ 37
sprang 37
anwenden. 37
Mis@@ 37
Unsicht@@ 37
Treib@@ 37
leiden@@ 37
Brown 37
Patienten. 37
del, 37
Roboter. 37
fik@@ 37
Staub@@ 37
gela@@ 37
ump@@ 37
gebil@@ 37
legung 37
Völker 37
zeichnet, 37
Der@@ 37
Katzen 37
Nigeri@@ 37
Öl, 37
verring@@ 37
ct 37
1950 37
staat 37
mutig 37
Kugel 37
Bol@@ 37
präzise 37
Black@@ 37
Betrü@@ 37
Vater. 37
Netzwerken 37
Nä@@ 37
Wörter, 37
Wörtern 37
Einstellungen 37
Versprechen 37
untereinander 37
organisierte 37
CA@@ 37
ütze 37
waffen 37
350 37
kost@@ 37
Ballon 37
Lügen 37
Rituale 37
Symmetrie 37
Symmet@@ 37
Flag@@ 37
wöch@@ 37
Spielzeu@@ 37
beeindruckende 37
beher@@ 37
litt 37
City. 37
komplizierten 37
Fleisch@@ 37
Em@@ 37
Hätte 37
Ignoranz 37
servat@@ 37
Al-@@ 37
Schad@@ 37
Facebook-@@ 37
"Eine 36
Geschich@@ 36
Temperatur@@ 36
geheimnis@@ 36
98 36
sso@@ 36
Erzählen 36
involviert 36
Ökonom@@ 36
Afghanistan, 36
Infrastruktur, 36
geschie@@ 36
sender 36
UN@@ 36
feind@@ 36
Art@@ 36
Orbit 36
reine 36
r, 36
herzlichen 36
zug, 36
okay? 36
Inn@@ 36
Wahrheit. 36
flogen 36
Übrigens 36
Betracht@@ 36
essenti@@ 36
Hardware 36
way 36
komment@@ 36
iron@@ 36
Mel@@ 36
Versionen 36
zahlt 36
runter, 36
Zähl@@ 36
Mach 36
lade 36
nur: 36
analysieren 36
rann@@ 36
Nest 36
definieren, 36
Säugetiere 36
gig 36
liebe@@ 36
Wildnis 36
beigebracht 36
Asth@@ 36
Industri@@ 36
entschei@@ 36
stet 36
Mandela 36
Apart@@ 36
befand 36
handelte 36
verlust 36
zeichnung 36
strom 36
dä@@ 36
ses. 36
intelligent 36
eindring@@ 36
initi@@ 36
pein@@ 36
tun?" 36
Ell@@ 36
kaliforn@@ 36
Camp@@ 36
Städ@@ 36
Schreibtisch 36
starten. 36
bekommen@@ 36
ney 36
Mary 36
Stimmung 36
Nacht. 36
Lieder@@ 36
Traditionen 36
alismus. 36
yn 36
enzen, 36
häl@@ 36
geschätz@@ 36
40@@ 36
Gift@@ 36
3,@@ 36
hang 36
risik@@ 36
unterbrochen 36
Kapazität 36
versorgen. 36
zuletzt 36
japanischen 36
hergestellt. 36
unendliche 36
Branche 36
Zehn 36
erkläre 36
wichtig? 36
kör@@ 36
nar@@ 36
schme@@ 36
tt 36
Mathematik, 36
Schri@@ 36
South 36
Tät@@ 36
ffer 36
elektronischen 36
bes@@ 36
elte 36
schlimm@@ 36
stecken, 36
genutzt, 36
praktische 36
gerissen 36
Pir@@ 36
com@@ 36
Nachricht, 36
Neugier 36
press@@ 36
tigkeit 36
brand@@ 36
spru@@ 36
transpar@@ 36
Blasen 36
gehören. 36
geschnitten 36
konzentrierte 36
Verteidigungs@@ 36
verbreiten, 36
Wies@@ 36
Akadem@@ 36
geschichte. 36
zone 36
Initi@@ 36
schwach 36
belei@@ 36
gur@@ 36
bewirken. 36
anzusehen, 36
verhält 36
Leistungs@@ 36
stattfindet. 36
gezwungen, 36
übertragen, 36
Bilder@@ 36
Pfei@@ 36
Äl@@ 36
genutz@@ 36
Chan@@ 36
Stir@@ 36
erlebte 36
Bett@@ 36
sthe@@ 36
Stam@@ 36
könnte? 36
Basis@@ 36
wat@@ 36
Bli@@ 36
molekularen 36
fair 36
2030 36
cin@@ 36
Hinder@@ 36
ok@@ 36
ham@@ 36
Favor@@ 36
speichern 36
rufe 36
strit@@ 36
40.000 36
dauern, 36
Nano@@ 36
Beispielen 36
Rate 36
verklein@@ 36
druck, 36
Schwimm@@ 36
behaupt@@ 36
ziehe 36
Therapien 36
Ursachen 36
Ansatz, 36
uns? 36
gelesen, 36
Seel@@ 36
anderthalb 36
fair@@ 36
verschwindet 36
Back@@ 36
Konserv@@ 36
Oberfläche. 36
implant@@ 36
ello@@ 36
Vulkan@@ 36
Nadel 36
etz 36
G-@@ 36
innen. 36
position 36
vermut@@ 36
sen: 36
schalten, 36
unterschiedlicher 36
zunehmen@@ 36
leer 36
Mühe 36
Heimatstadt 36
Gesicht. 36
leere 36
komisch 36
gebauten 36
zurzeit 36
Motoren 36
energie 36
Front 36
Kauf@@ 36
Konflikten 36
Ents@@ 36
geschäft 36
Lektionen 36
nation@@ 36
ssysteme 36
ützen 36
tete. 36
häuser 36
Sekunde. 36
repliz@@ 36
unheim@@ 36
Fußab@@ 36
Fabrik@@ 36
aufbauen. 36
Vorher@@ 36
Kampag@@ 36
Stimme. 36
dri@@ 36
Klimawandel. 36
ausgeben, 36
erwähnen, 36
Vagin@@ 36
jüngeren 36
Amerikanischen 36
nder 36
72 36
Wunder, 36
persönliches 36
kommen? 36
akadem@@ 36
also? 36
wieviele 36
versteht, 36
entgegen 36
Übrigens, 36
fällt. 36
ernst. 36
au, 36
notwendigen 36
öpfe 36
Seil 36
dicht@@ 36
schneiden, 36
geringer 36
Spitzen@@ 36
Material@@ 36
erfüllt 36
Scott 36
veränderten 36
ständigen 36
biologie 36
Ero@@ 36
iet@@ 36
lag, 36
vernicht@@ 36
privat@@ 36
Ärzte, 36
Bürgern 36
warst 36
März 36
Verantwor@@ 36
Fundament 36
Arten. 36
Feuerwehr@@ 36
Haa@@ 36
wahrnehmen. 36
empfinden 36
hilfrei@@ 36
Ausschnitt 36
Lee 36
wörtlich 36
Klänge 36
Schlä@@ 36
stä@@ 36
gewachsen 36
Stapel 36
warm 36
gebäude 36
Quar@@ 36
unterrichten 36
Tar@@ 36
freiwillig 36
Rekor@@ 36
kostet. 36
Sy@@ 36
Sich@@ 36
fantastisches 36
Behandlungs@@ 36
Jonathan 36
gebrochen. 36
kult@@ 36
Republik 36
Eth@@ 36
als, 36
entzün@@ 36
chtern 36
ücke 36
amen 36
geh 36
fus@@ 36
Werk@@ 36
indi@@ 36
Ak@@ 36
ehrgei@@ 36
trans@@ 36
legt. 36
konfl@@ 36
Geck@@ 36
Halt@@ 36
versicher@@ 36
Aristoteles 36
vermisch@@ 36
Therapeu@@ 36
Dete@@ 36
Speich@@ 36
Adop@@ 36
pflanzen, 36
bestän@@ 36
Menschen? 36
mente, 36
FBI 36
Derek 36
LT: 36
katastrop@@ 35
wärm@@ 35
kolon@@ 35
 @@ 35
gem 35
Programmierer 35
ute 35
Freiwilligen 35
passte 35
Kass@@ 35
100-@@ 35
satz. 35
Umwelt. 35
hlen, 35
Kör@@ 35
Wiederaufbau 35
gestell@@ 35
fehlen 35
wächst, 35
ereig@@ 35
leben? 35
AG: 35
3000 35
Passag@@ 35
gestör@@ 35
Kommunikation, 35
Ärger 35
süchtig 35
ersetzen, 35
Ve@@ 35
ehe@@ 35
tum@@ 35
Agen@@ 35
Urlaub 35
vertrauen, 35
ly@@ 35
Pocken 35
unglaublich, 35
Grundlagen 35
Methan 35
Foundation 35
Kol@@ 35
Software-@@ 35
meine. 35
Ironie 35
Privi@@ 35
nachvoll@@ 35
hinzufügen. 35
tik@@ 35
"St@@ 35
Drucker 35
berechtig@@ 35
leiden, 35
günstig 35
Gewinne 35
Französ@@ 35
intellektuelle 35
Liebe@@ 35
zog, 35
Grau@@ 35
menschlich 35
faszinierenden 35
verzweifel@@ 35
Tiere. 35
Florida 35
mitnehmen 35
Blü@@ 35
durchführen 35
abgestimm@@ 35
Sollten 35
entsteht, 35
ktoren, 35
komm 35
rum 35
verwer@@ 35
Mode 35
Ingenieur 35
Minute. 35
traumat@@ 35
Schokolade 35
Myth@@ 35
Menschheit. 35
Kompet@@ 35
Sexu@@ 35
starker 35
p, 35
Dutzende 35
Schnit@@ 35
Labor. 35
verzerr@@ 35
verteilt. 35
Teil. 35
trennen 35
reag@@ 35
ses, 35
acken 35
Mäuse 35
praktischen 35
iell 35
Definit@@ 35
herz@@ 35
authenti@@ 35
hand 35
able 35
alisierte 35
alten, 35
elf 35
Berührung 35
entspricht. 35
Raumes 35
präzis@@ 35
auf? 35
Glä@@ 35
ise 35
gründen, 35
Jugendlichen 35
einbe@@ 35
Texte 35
Eigent@@ 35
gliche 35
pin@@ 35
Tage. 35
Rap@@ 35
komische 35
stätte 35
unde 35
stun@@ 35
militärische 35
packen 35
Botschaft, 35
e", 35
run@@ 35
Markt. 35
aussu@@ 35
einzel@@ 35
unterstützt. 35
spekul@@ 35
lers 35
hir@@ 35
frage, 35
spunkt 35
Job@@ 35
gol@@ 35
interessanterweise 35
erschien 35
verärger@@ 35
50, 35
Dumm@@ 35
geeignet 35
sind." 35
ßt, 35
Forschern 35
zusammenarbeiten, 35
ord@@ 35
ade. 35
Absol@@ 35
organisieren 35
gegenwärtigen 35
vorzustellen. 35
berührt. 35
zueinander 35
dreidimensionalen 35
Akti@@ 35
bedeuten. 35
Leucht@@ 35
am. 35
bekämpfen. 35
opf@@ 35
Erstes 35
Block@@ 35
müs@@ 35
vergleichbar 35
Bri@@ 35
bewohner 35
Freiheit. 35
Orten. 35
erstaunt 35
erfüllen 35
E-Mail@@ 35
Rückgang 35
faktoren 35
begeister@@ 35
Zehn@@ 35
31 35
hunderttausende 35
fortzu@@ 35
breit 35
2002 35
Rob 35
Tieren. 35
verschmel@@ 35
schrit@@ 35
Behandlungen 35
Katastrophen 35
hinzuge@@ 35
woraus 35
Leidenschaft. 35
Vergangenheit. 35
Grenzen. 35
Chil@@ 35
dreieinhalb 35
regeln 35
Wochen. 35
Wirklich@@ 35
brauchte, 35
schicht 35
üblicherweise 35
Fahrra@@ 35
bemerken, 35
Frequenz 35
klang 35
gens. 35
Stück, 35
mann, 35
eigentlich, 35
34 35
igte, 35
Jack 35
Universums, 35
angebo@@ 35
alisten 35
Detroit 35
tat@@ 35
Tinten@@ 35
zerstören. 35
Skla@@ 35
nachhaltigen 35
unterneh@@ 35
ple@@ 35
fte, 35
afrika 35
[ 35
Landschaften 35
Preis@@ 35
nd 35
"Wow, 35
Vergnü@@ 35
Schild 35
kriegen. 35
eins: 35
kk@@ 35
Überwachung 35
rückwärts 35
Virus, 35
normal. 35
Klimawandel, 35
offensichtliche 35
beachten 35
g? 35
mont@@ 35
Beginn@@ 35
wette, 35
Privileg 35
fährt. 35
Ag@@ 35
Fantas@@ 35
Zuhör@@ 35
erwartet. 35
fen? 35
15. 35
Schicks@@ 35
spre@@ 35
Schüler, 35
dumme 35
Gebo@@ 35
Des@@ 35
versteckte 35
endlich, 35
wo, 35
Fit@@ 35
Rhyth@@ 35
spannen 35
stellten, 35
aku@@ 35
x-@@ 35
kollab@@ 35
Gab@@ 35
Nahrung, 35
Experiment. 35
Fische, 35
genom@@ 35
verw@@ 35
kampf@@ 35
Hero@@ 35
geholfen, 35
Königreich 35
beliebige 35
begonnen. 35
Vorbild 35
Sün@@ 35
Jul@@ 35
"Ja." 35
schre@@ 35
Trocken@@ 35
Distanz 35
hüb@@ 35
Müttern 35
Wall 35
Erzieh@@ 35
Passwör@@ 35
seins 35
ultimative 35
Atlantik 35
Ren@@ 35
Behinderungen 35
Goldene 35
wärmer 35
ks, 35
wenden, 35
Verbindungen, 35
Darwin@@ 35
Ada@@ 35
oti@@ 35
Lob@@ 35
el-@@ 35
gröss@@ 35
Beachten 35
fris@@ 35
kaput@@ 35
führende 35
"Wo@@ 35
algorit@@ 35
Aufgrund 35
gestiegen 35
Tod. 35
isierten 35
kalten 35
Fahrzeug 35
Sterbe@@ 35
einfachste 35
Poli@@ 35
nervös 35
att@@ 35
lossen. 35
schrecklich. 35
allein@@ 35
Watt 35
Bomben 35
Cam@@ 35
fo@@ 35
zul@@ 35
Empfänger 35
bewahren 35
abstrakte 35
Diplom@@ 35
Rit@@ 35
Szenario 35
müh@@ 35
Caf@@ 35
ative, 35
riebenen 35
Papier. 35
Schriftstell@@ 35
Integr@@ 35
Anliegen 35
Sender 35
Scheibe 35
verlor@@ 35
Rettungs@@ 35
Sky@@ 35
anfan@@ 35
Sowjetunion 35
Schwimmen 35
Zurück@@ 35
dal@@ 35
Gelen@@ 35
Luther 35
Comics 35
Gewohn@@ 35
Bruno 35
Mul@@ 35
Rover 35
Seide 35
nahen 35
erwarten. 35
Seife 35
Dschihad 35
Tasman@@ 35
MT: 35
JF: 35
Einzelne 34
schief 34
gien, 34
neutr@@ 34
zieren 34
erwer@@ 34
chter, 34
eingeschrän@@ 34
Prüf@@ 34
Republikaner 34
Räumen 34
ahnen 34
herausstellt, 34
kochen 34
erhit@@ 34
beschäftigt. 34
Kommentar 34
stät@@ 34
setzen? 34
gelehrt 34
zehntausende 34
gewand@@ 34
nördlichen 34
entworfen, 34
Na, 34
Publikum. 34
60ern 34
stände, 34
gemeinsames 34
mentale 34
Reise. 34
Chris, 34
folge 34
ganzer 34
entschlüssel@@ 34
vorhersagen 34
s' 34
T-Shir@@ 34
Bakterium 34
gnis 34
zahlreiche 34
lock@@ 34
Träumen 34
Wunden 34
Bedien@@ 34
geschichten 34
leitungen 34
Rückkehr 34
Standard 34
fir@@ 34
deuten 34
les, 34
leise 34
Genau. 34
ändert. 34
Regenwal@@ 34
Gehirnen 34
studieren, 34
Konzentration 34
Schimpan@@ 34
emotional 34
twe@@ 34
anderswo 34
schlimmer, 34
Beton 34
Proble@@ 34
kind 34
kreu@@ 34
phänomen@@ 34
gern. 34
beenden 34
TED, 34
kauften 34
nachgedacht, 34
teres 34
Unru@@ 34
wand, 34
du? 34
Mist@@ 34
AR@@ 34
anzusehen. 34
Ted 34
Lager@@ 34
Mathematik. 34
sein; 34
Anpassung 34
Ansammlung 34
sprin@@ 34
Photo@@ 34
Interessantes 34
Verzerr@@ 34
ur-@@ 34
sern, 34
Idee: 34
Fass@@ 34
Dur@@ 34
ib@@ 34
gesteu@@ 34
Ökosysteme 34
magische 34
Jan@@ 34
Forschungen 34
ät. 34
steigen@@ 34
umgeb@@ 34
ok, 34
produziert. 34
Seien 34
Gründen. 34
beschleunigt 34
Glücklich@@ 34
gibt's 34
überlegen 34
Milch@@ 34
Stor@@ 34
falsch@@ 34
Angebo@@ 34
Schritt, 34
Publik@@ 34
zurückkehren 34
Gescheh@@ 34
ver, 34
ders 34
Plast@@ 34
lust@@ 34
irdische 34
Cartoons 34
Wahrnehm@@ 34
O-@@ 34
Ausrüst@@ 34
Ergebnis, 34
Darin 34
verge@@ 34
vergewaltig@@ 34
ame 34
etzen. 34
alisieren. 34
Traum, 34
genutzt. 34
außerordentlich 34
parti@@ 34
bevor@@ 34
Wissen. 34
Anlage 34
Strukturen, 34
Brut@@ 34
Formel 34
Jam@@ 34
ganz@@ 34
Prostitu@@ 34
ckung 34
Kühe 34
Mythos 34
Endeffekt 34
Anfan@@ 34
aufnehmen. 34
verurteilt 34
Antworten. 34
fehlenden 34
jüngsten 34
Tolle 34
digten 34
Glau@@ 34
Balken 34
bezieht 34
Vorder@@ 34
Sieht 34
bewir@@ 34
Herangehensweise 34
fühle, 34
Realität, 34
aul@@ 34
ichten. 34
Kilometern 34
Verhandlungen 34
70ern 34
Weiß 34
annte 34
Beleuchtung 34
überwinden. 34
Eindruck, 34
Gebir@@ 34
Mön@@ 34
Zel@@ 34
Filme, 34
Geographic 34
unglücklich@@ 34
quäl@@ 34
kosten, 34
Zentren 34
teilte 34
Down@@ 34
umfassende 34
Redakte@@ 34
Engl@@ 34
Ergebnis. 34
Kanal 34
gewissem 34
Square 34
sinnvoll 34
anden, 34
mlich 34
Glied@@ 34
vorherseh@@ 34
verarbeiten 34
ster-@@ 34
warum, 34
betreiben, 34
Prioritäten 34
umgekehrt. 34
„Was 34
gegründet. 34
Leist@@ 34
Jungs, 34
Universums. 34
Gravit@@ 34
versp@@ 34
Horizont 34
sicht, 34
Objekte, 34
Botschaften 34
Nachts 34
Kiste 34
Melo@@ 34
Virtu@@ 34
Deine 34
droh@@ 34
U-Bahn 34
daraus. 34
französische 34
heißt: 34
M: 34
Tot@@ 34
scha@@ 34
Alt@@ 34
vergess@@ 34
Banken 34
küste 34
Fälle, 34
90er 34
Straßen, 34
gangs@@ 34
Pandem@@ 34
selb@@ 34
Klasse, 34
Sied@@ 34
ry, 34
Öl. 34
Fab@@ 34
boar@@ 34
Infe@@ 34
reichen, 34
nehmen@@ 34
dreht. 34
Tut 34
eindeut@@ 34
wissenschaftlicher 34
hängen. 34
Minist@@ 34
dert 34
gener 34
Euro@@ 34
anzugehen. 34
itä@@ 34
Dankeschön. 34
Dick@@ 34
zweier 34
gelen@@ 34
Hauses 34
verstand, 34
Rente 34
erwachsene 34
Funktionsweise 34
Zuhörer 34
Unabhäng@@ 34
ehmen 34
betonen, 34
mten 34
Athei@@ 34
Gib 34
et-@@ 34
Zukunfts@@ 34
Profil 34
umgehen, 34
igkeit@@ 34
reduzieren, 34
geistigen 34
Open-Source-@@ 34
Kontrolle. 34
studien 34
Sekunde, 34
men." 34
einzur@@ 34
Wand, 34
Schluss, 34
Fischer 34
Ritu@@ 34
Truppen 34
Höhlen@@ 34
Völkermord 34
Danke@@ 34
geteil@@ 34
Erst@@ 34
Ah@@ 34
Umgebungen 34
die: 34
Entwicklungshilfe 34
Institution@@ 34
erledigt 34
verständnis 34
schätze 34
spiritu@@ 34
erreichen? 34
Sicherheit. 34
allen@@ 34
Absichten 34
Philosop@@ 34
teile. 34
andauern@@ 34
spüren. 34
Ausbreitung 34
beeinflu@@ 34
Nährstoffe 34
Asp@@ 34
mals. 34
meister 34
singen, 34
Juden 34
pati@@ 34
fühlt. 34
tenen 34
städte 34
Lich@@ 34
Töchter 34
Muslim@@ 34
Parlament 34
Reform@@ 34
blät@@ 34
globalis@@ 34
mens@@ 34
diagnostiz@@ 34
Region, 34
fet@@ 34
erzieh@@ 34
beam@@ 34
Schweine 34
Elektronik 34
Galaxien, 34
son. 34
Stäm@@ 34
Problem: 34
nebeneinander 34
70@@ 34
Krankenhäusern 34
viele. 34
kontrolliert. 34
stellungen 34
"J@@ 34
studier@@ 34
gebieten 34
Premierminister 34
Stress@@ 34
Böse 34
Shir@@ 34
tepp@@ 34
Programmieren 34
dunkel@@ 34
jüngere 34
Origami 34
Hai 34
Diät 34
Cloud 34
eingesetzt, 34
Hormon@@ 34
Inder 34
Studierende 34
Facebook, 34
störungen 34
gehört? 33
tag 33
verbrau@@ 33
derzeitigen 33
langfristig 33
haft@@ 33
Lap@@ 33
erstmal 33
gien 33
durchführen, 33
verursachen 33
lle, 33
ellem 33
ego@@ 33
Aufmerksamkeit, 33
lassen@@ 33
getrenn@@ 33
Afghanistan. 33
Vietnam@@ 33
Alan 33
digt. 33
un, 33
nochmal, 33
Geschäft. 33
Worüber 33
geraten 33
Bildhau@@ 33
anfing 33
rang 33
erlaub@@ 33
stress@@ 33
äll@@ 33
gelassen, 33
Worten: 33
herausra@@ 33
"Hier 33
Haut, 33
Wahrschein@@ 33
omen 33
ore@@ 33
bekannter 33
Gene, 33
künstlich 33
Zelle, 33
darzustellen. 33
dauernd 33
überflüss@@ 33
Matri@@ 33
s! 33
47 33
Haw@@ 33
geladen 33
gerät. 33
heilen. 33
Eltern. 33
schlimmer. 33
unterscheidet 33
bun@@ 33
Gemeinde, 33
gespr@@ 33
Gefangen@@ 33
Zeichen@@ 33
rem 33
Kontex@@ 33
Gründen, 33
nachhaltig@@ 33
arm, 33
säu@@ 33
Redner 33
schwitz@@ 33
entfernen, 33
Berichte 33
jeman@@ 33
mas 33
würde@@ 33
Unsicherheit 33
Ph@@ 33
Anfang, 33
Charlie 33
Mä@@ 33
rechtzeitig 33
kannst, 33
Simon 33
Augenblick, 33
hungrig 33
angesehen. 33
strukturen 33
gers 33
ahr@@ 33
Veröffentlichung 33
Schale 33
Selb@@ 33
chn@@ 33
gefertig@@ 33
kreieren. 33
Bruce 33
Herausforder@@ 33
arbeitete. 33
froh 33
grau@@ 33
%, 33
Amerikaner. 33
Gruppen@@ 33
Etiket@@ 33
Aussehen 33
nein@@ 33
Skala 33
decken. 33
sand@@ 33
flach@@ 33
Umfang 33
Neun@@ 33
zählen, 33
Wissenschaft@@ 33
Nachdenken 33
trotz@@ 33
Handlung 33
angeschaut 33
Source 33
ice 33
halte. 33
gestal@@ 33
erläu@@ 33
Weisen 33
vermitteln 33
beitragen 33
ive@@ 33
Repor@@ 33
zu-@@ 33
mmt 33
digte 33
relevan@@ 33
mens 33
haut 33
Brot@@ 33
effe@@ 33
Ecken 33
bekommen? 33
berichten 33
angewandt 33
ück 33
dir. 33
Antwort: 33
mmen 33
Kräf@@ 33
Strate@@ 33
Din@@ 33
erwachsen 33
kommuniz@@ 33
sh 33
ms@@ 33
Ken 33
setzung 33
geschlagen, 33
Stammes@@ 33
Watson 33
pha@@ 33
Anwälte 33
angesehen, 33
zier@@ 33
ro 33
nit@@ 33
Die@@ 33
Gesetze, 33
verfahren 33
gewohnt 33
Bereit@@ 33
verse 33
riefen 33
umstrit@@ 33
Bush 33
Kooper@@ 33
unterhalten 33
IP@@ 33
bere@@ 33
evolution@@ 33
stufe 33
Explos@@ 33
Beob@@ 33
flach 33
dasselbe. 33
wirtschaft@@ 33
tast@@ 33
Fasern 33
jünger 33
verursachen. 33
Schwelle 33
aussehen? 33
erhöhen. 33
herab@@ 33
Atmosphäre. 33
Flam@@ 33
abends 33
fel. 33
Situation. 33
Sieben 33
zufolge 33
entscheiden. 33
Finanzierung 33
hervor. 33
Phys@@ 33
akzeptieren, 33
Joseph 33
Viertel@@ 33
ater@@ 33
dargestellt. 33
pfel 33
zugs@@ 33
zige 33
beauftra@@ 33
Ehr@@ 33
Raumschiff@@ 33
absoluten 33
gewon@@ 33
Quadratmeter 33
gehen." 33
Zivilis@@ 33
beizubringen, 33
keit@@ 33
Visualisierung 33
riebene 33
Vertrag 33
zwingen 33
oe@@ 33
Spazier@@ 33
Arbeiter@@ 33
linien 33
ical 33
fehlt, 33
wesentliche 33
Spenden 33
ums, 33
minder@@ 33
Handels@@ 33
Zul@@ 33
kennt@@ 33
Edward 33
sehen: 33
kollektive 33
erlaubte 33
llen 33
Plan. 33
dau@@ 33
Blumen@@ 33
fab@@ 33
Autom@@ 33
pft 33
solle 33
va 33
Ergebnisse. 33
unbekannten 33
erfuhr 33
Äthiop@@ 33
Hollywood 33
Kongress@@ 33
Lar@@ 33
hielten, 33
London, 33
schrecklich@@ 33
hre. 33
Charaktere 33
Bemühungen 33
verheirat@@ 33
wartete 33
Talent 33
aufgeregt 33
anfäll@@ 33
Störung 33
angeht. 33
ding@@ 33
wahres 33
führte. 33
B, 33
geistige 33
ce, 33
Anru@@ 33
Darm@@ 33
ags 33
zunehmen 33
fau@@ 33
verbrauchen 33
indire@@ 33
schel@@ 33
Qua@@ 33
Platz, 33
Bald 33
lied 33
ernste 33
spitzen 33
täusch@@ 33
Erfahrungen, 33
Gerät. 33
General@@ 33
nachgedacht 33
Hoffnungen 33
teten, 33
Erb@@ 33
erreichte 33
Hals 33
invas@@ 33
nötigen 33
identifizieren, 33
began@@ 33
begab@@ 33
Baby, 33
verläss@@ 33
zern 33
Gefühl. 33
Matt 33
Mount 33
zufrie@@ 33
univers@@ 33
weiser 33
unsichtbare 33
Trin@@ 33
seht, 33
ssystem, 33
schten 33
stolper@@ 33
gelähmt 33
üft@@ 33
Fledermäuse 33
höhe 33
Milliarden. 33
tion, 33
akademischen 33
Bestand@@ 33
Neur@@ 33
Experimente, 33
basieren 33
kehrte 33
Campus 33
Hong 33
Kreisl@@ 33
nu@@ 33
setze 33
drückt, 33
bieten. 33
hre 33
rational 33
ungewöhnlich 33
gestaltet 33
schönsten 33
begriff@@ 33
batter@@ 33
Stewart 33
getro@@ 33
gerü@@ 33
fressen 33
kt: 33
Vorstell@@ 33
Lese@@ 33
analy@@ 33
delt. 33
homo@@ 33
teuer, 33
Risiko, 33
arten. 33
Gruppe. 33
andererseits 33
atur 33
Eli@@ 33
Engel@@ 33
geschicht@@ 33
springt 33
Gitar@@ 33
bo 33
mungen 33
Raketen@@ 33
gewalttät@@ 33
Nacht@@ 33
erlangen 33
Nordo@@ 33
Mädch@@ 33
feiern 33
Beobachtungen 33
70er 33
Pyramide 33
ers@@ 33
Sicherlich 33
stern@@ 33
Jet@@ 33
Messer 33
liegende 33
ro-@@ 33
Spiels 33
Wi@@ 33
trainieren 33
Mitgefühl@@ 33
Verein@@ 33
Haf@@ 33
ma-@@ 33
aten@@ 33
Geschma@@ 33
Akte@@ 33
Brei@@ 33
Alkohol 33
Egal 33
Kind: 33
MA@@ 33
Sklaverei 33
Hang 33
Krähen 33
wachst@@ 33
ls 33
Intensiv@@ 33
Anony@@ 33
Filmemacher 33
jah@@ 33
wirksam 33
annähernd 33
Shar@@ 33
County 33
Twitter-@@ 33
Affe 33
Gehirna@@ 33
que@@ 32
ey@@ 32
müt@@ 32
Brennstoffe 32
Hilfe, 32
berechnen 32
Demokr@@ 32
Flüsse 32
Biom@@ 32
Mais@@ 32
Extra@@ 32
Schaffung 32
Aufklär@@ 32
diskutieren, 32
kapit@@ 32
unternehmer@@ 32
befreien. 32
Ang@@ 32
internation@@ 32
afghan@@ 32
legend@@ 32
begei@@ 32
Zeitspanne 32
Wü@@ 32
zykl@@ 32
jap@@ 32
klam@@ 32
dahinter@@ 32
wacht 32
Zeiten, 32
krank. 32
Jeman@@ 32
mie@@ 32
ern: 32
é 32
rad 32
Expedition 32
Meere@@ 32
Artenvielfalt 32
herzustellen 32
engen 32
hom@@ 32
Umwel@@ 32
Stil@@ 32
willkommen 32
landen. 32
gezogen. 32
verwende 32
antworten 32
"Le@@ 32
ernähren 32
gen; 32
Laptop@@ 32
1960 32
stol@@ 32
Gefühle, 32
sch-@@ 32
Wussten 32
läh@@ 32
unterschei@@ 32
vergift@@ 32
machen?" 32
gewal@@ 32
Nervensystem 32
faszin@@ 32
differenz@@ 32
Weiß@@ 32
bombar@@ 32
stum@@ 32
gucken 32
räge 32
treib@@ 32
cha@@ 32
fru@@ 32
Sim@@ 32
romantische 32
roman@@ 32
Geschlechter@@ 32
mann. 32
Verhandl@@ 32
vermehr@@ 32
tötet 32
tin, 32
vorbei, 32
alter. 32
bewusste 32
Geni@@ 32
wesent@@ 32
ium@@ 32
Puzz@@ 32
gendste 32
aden@@ 32
Gewäss@@ 32
kühlt 32
Schaltkrei@@ 32
berichten. 32
loss@@ 32
Tafel 32
ies. 32
Star 32
Dampf@@ 32
erweitern. 32
Gelegenheiten 32
hys@@ 32
Cola 32
Mitte. 32
Teller 32
verkauften 32
Stock@@ 32
versteck@@ 32
lle. 32
bist. 32
träge 32
Taschen 32
Schwier@@ 32
Fahrrä@@ 32
dorthin, 32
klettern 32
verstecken 32
Chile 32
tes@@ 32
sätz@@ 32
Soldaten, 32
forts@@ 32
Geschen@@ 32
Verbin@@ 32
Eigentum 32
rechtliche 32
Gott@@ 32
organische 32
ana 32
Wow. 32
Ding. 32
Verb@@ 32
Einfluss@@ 32
Zeitschrift 32
mat 32
Innenstadt 32
gefährlich, 32
zeig@@ 32
ähnlich, 32
teuren 32
zeichen, 32
begrenzten 32
schneidet 32
unsicht@@ 32
mes, 32
Prototyp 32
ca@@ 32
ktischen 32
stadt, 32
de" 32
nutze 32
Schokol@@ 32
Verteil@@ 32
wunderbar, 32
meinte, 32
Dalai 32
Gefängnis. 32
rannte 32
lebten. 32
Sche@@ 32
Pazifik 32
kan 32
DNA, 32
herauszufinden. 32
Alex 32
reisen, 32
Feynman 32
intelligenter 32
straße 32
glob@@ 32
Website, 32
Letzte 32
faszinierend 32
gas@@ 32
verdeut@@ 32
50er 32
glat@@ 32
all-@@ 32
Älterwerden 32
stoffe, 32
iert: 32
zon@@ 32
Reich@@ 32
Förderung 32
aggress@@ 32
ire 32
fremden 32
Membr@@ 32
Blume 32
Lab 32
Ergebnissen 32
riebs@@ 32
hung@@ 32
Meeting 32
verteilen 32
Ökosyste@@ 32
fürcht@@ 32
Erste, 32
Sich 32
Herrn 32
willst, 32
manchmal, 32
gehän@@ 32
bezeichnet. 32
berechn@@ 32
Korea 32
Shanghai 32
leichte 32
ehren 32
Benzin@@ 32
East 32
zuverläss@@ 32
Notfall@@ 32
Colle@@ 32
Anspruch 32
umwelt@@ 32
geschah@@ 32
Angelegenheiten 32
Verantwortung, 32
wählten 32
Verbindung, 32
TEDGlobal 32
Wunsch@@ 32
disch 32
Manag@@ 32
Fotos, 32
jahr 32
sekun@@ 32
Fremde 32
appen, 32
red@@ 32
Bell 32
artig. 32
Ozean, 32
intellektu@@ 32
Mrd. 32
umzugehen, 32
ten?" 32
Amat@@ 32
Zutaten 32
Erfolge 32
erinn@@ 32
artig, 32
Susan 32
umgewandelt 32
Klei@@ 32
Interface 32
merkt 32
urc@@ 32
fördert 32
Themen, 32
unterrichten. 32
Kommt 32
Sarah 32
erfassen. 32
danke. 32
Obdach@@ 32
Gelegen@@ 32
südlich 32
anfängt, 32
mär@@ 32
Sex. 32
wort@@ 32
industri@@ 32
trin@@ 32
Argumente 32
interessierte 32
ümm@@ 32
Institutionen, 32
ausmacht, 32
Ameisen, 32
Bevölkerung. 32
Fischen 32
Schein@@ 32
halfen 32
Ferne 32
Kreu@@ 32
--, 32
las@@ 32
graben, 32
beruhig@@ 32
vertrauen. 32
akt 32
y." 32
Foot@@ 32
länger@@ 32
verteilung 32
OE@@ 32
Jün@@ 32
Stimmt's? 32
herausfand, 32
stische 32
ließ, 32
einem, 32
ausdehn@@ 32
ebene 32
personen 32
Kalifornien. 32
Durchbruch 32
Mütter, 32
wilde 32
Begeisterung 32
Tun 32
Meme 32
Möbel@@ 32
Astero@@ 32
anda 32
Geschle@@ 32
fische 32
hilft. 32
gehörigen 32
Panik 32
Benzin 32
Körpern 32
30, 32
wirken, 32
artiger 32
Fett@@ 32
bezogen 32
erscheinen. 32
Zwan@@ 32
Grösse 32
Selt@@ 32
Experimenten 32
blick 32
Origam@@ 32
Garten@@ 32
under@@ 32
WK: 32
Social 32
Stell@@ 32
bekämpf@@ 32
fried@@ 32
Metap@@ 32
bringen? 32
anfangs 32
Jobs, 32
B: 32
entfernen. 32
verpa@@ 32
äume. 32
Schulab@@ 32
erkannten 32
Solarzellen 32
tiger 32
pen, 32
neur@@ 32
Geräte, 32
Disziplin 32
Alice 32
Schwarzen 32
Sucht 32
äter, 32
Barr@@ 32
Angst@@ 32
LHC 32
Joshua 32
einzelner 32
endet. 32
Bruchteil 32
wiederholen 32
Stärken 32
Streifen 32
JH: 32
Fün@@ 32
vielversprech@@ 32
überaus 32
Künste 32
Genes@@ 32
Smartphon@@ 32
Mammo@@ 32
Phosphor@@ 32
Abed 32
Hinter 31
Ausschau 31
ativ, 31
Teilnahme 31
Jahres@@ 31
bezahlt. 31
Zusammenhan@@ 31
Demokraten 31
spot@@ 31
Dorf. 31
verarbei@@ 31
Verwen@@ 31
verfügbaren 31
verbessert. 31
hr, 31
bereiten, 31
traur@@ 31
Ash@@ 31
fragten, 31
ausführen 31
institution@@ 31
systemen 31
Fur@@ 31
Amerikanern 31
firmen 31
Textil@@ 31
Partnerschaft 31
Nicht, 31
190@@ 31
geflogen 31
geprägt 31
2020 31
Industrie, 31
erfunden, 31
age, 31
50ern 31
betrieben. 31
Origin@@ 31
Skulpt@@ 31
Meister 31
Künstlern 31
Dialog@@ 31
zwi@@ 31
Wichtiges 31
nötige 31
Carl 31
Craig 31
durchführen. 31
bedenken 31
ama 31
1,3 31
atmen, 31
Temperaturen 31
proben 31
Region. 31
famil@@ 31
Viru@@ 31
programme 31
empfin@@ 31
Kolum@@ 31
Willkommen 31
sort@@ 31
gesehen? 31
lagen, 31
Intuit@@ 31
unterstützt, 31
magnet@@ 31
Acht 31
brillian@@ 31
fehlende 31
Pum@@ 31
GPS 31
leiter 31
bittet 31
Ut@@ 31
Gras@@ 31
Berühr@@ 31
Gefühlen 31
Beschei@@ 31
Mauern 31
antwortet@@ 31
ungsproje@@ 31
verfolg@@ 31
chteten 31
las, 31
Nadel@@ 31
spitze 31
reaktion 31
treu 31
führe 31
var@@ 31
burg 31
Archite@@ 31
Demokratien 31
"Ma@@ 31
folgte 31
Vorführ@@ 31
jüngste 31
Last@@ 31
sexueller 31
Japan, 31
schreib@@ 31
illustr@@ 31
--- 31
lachten 31
Beispiele, 31
Bow@@ 31
weit. 31
amü@@ 31
ungen? 31
evolutionären 31
geformt 31
trei@@ 31
technolog@@ 31
Bär@@ 31
Cockta@@ 31
alisierung, 31
Klische@@ 31
bezeichn@@ 31
Pian@@ 31
Psychop@@ 31
erlangen. 31
streu@@ 31
ergeben. 31
intellektuellen 31
Nahrungsmittel@@ 31
bell@@ 31
vermögen 31
hielten. 31
steten 31
sprachen, 31
ologen, 31
voll, 31
christ@@ 31
immern 31
interessieren. 31
aufwuchs, 31
peri@@ 31
klü@@ 31
Leser 31
Stelle. 31
Abteilung 31
sig@@ 31
denkl@@ 31
stechn@@ 31
innovative 31
übersetzen 31
lehre 31
verbindet, 31
Up 31
43 31
meist@@ 31
Dein 31
verblüffende 31
weis 31
Konsequenz 31
tue. 31
I. 31
erfolgreicher 31
Erfolg, 31
Essenz 31
frisch 31
teurer 31
Sicher@@ 31
80er 31
geniale 31
pfen. 31
Herz, 31
bedenken, 31
erfolgreich. 31
krieg 31
Übersetzung 31
markt, 31
00-@@ 31
Sechs@@ 31
stig@@ 31
handels@@ 31
ganz, 31
itäten, 31
direkten 31
gestaltung 31
terung 31
erscheint, 31
maschine. 31
Flor@@ 31
Museu@@ 31
Joe@@ 31
Zehen 31
jähriger 31
Amazonas 31
Pfeil@@ 31
stoß 31
Francis 31
e; 31
patent@@ 31
ausmachen. 31
wickel@@ 31
Community 31
ete 31
stim@@ 31
erseits, 31
Potenzi@@ 31
Molekular@@ 31
gefr@@ 31
Geräten 31
verlänger@@ 31
verhindert 31
mittler@@ 31
vernünft@@ 31
Sterben 31
geschwindig@@ 31
len, 31
basiert, 31
beabsicht@@ 31
Embry@@ 31
fär@@ 31
ast 31
verm@@ 31
Leder@@ 31
ene@@ 31
Spitz@@ 31
Bonob@@ 31
farb@@ 31
Post 31
99@@ 31
Urknall 31
isiert. 31
dener 31
Intelligenz, 31
Desa@@ 31
Katastrop@@ 31
solche, 31
Albert 31
etzen, 31
universelle 31
eck@@ 31
die. 31
H: 31
Sterne, 31
Gestalt 31
Genauigkeit 31
Fus@@ 31
Zivilisationen 31
These 31
Richtlinien 31
Antrieb 31
Minder@@ 31
ierbar 31
warn@@ 31
verhaf@@ 31
Millionen, 31
körperlich 31
Demonstr@@ 31
sproje@@ 31
greifenden 31
Naturschutz@@ 31
existierenden 31
Monat. 31
Mandel@@ 31
basierten 31
Ursprün@@ 31
fantastisch 31
ungsprogramm 31
Vertreter 31
Rezession 31
ric@@ 31
Kamera, 31
Polit@@ 31
Theorie. 31
extremen 31
Müt@@ 31
Bühnen@@ 31
deten. 31
gemeinschaft 31
bewältig@@ 31
tisch. 31
tos 31
Positionen 31
ologe, 31
orien. 31
schein 31
Tastatur 31
ke: 31
Denkt 31
CO@@ 31
geht@@ 31
Tradit@@ 31
Lebensunterhalt 31
optimistisch 31
Schwing@@ 31
Gehalt 31
Stift@@ 31
Schafe 31
Bin 31
Paare 31
Lücken 31
verfein@@ 31
dynamische 31
schaftlicher 31
schmerzhaft 31
lädt 31
Haushalts@@ 31
Kategorien 31
Schlag 31
mt, 31
Gebie@@ 31
dreht, 31
ja? 31
bekämpfen 31
p-@@ 31
aufhör@@ 31
pil@@ 31
reichsten 31
Bakterien@@ 31
gesucht 31
Steinen 31
Somali@@ 31
Indonesien 31
con@@ 31
längere 31
Veranstalt@@ 31
zeitig 31
freizu@@ 31
besorgt, 31
Wissenschaftler@@ 31
müssten, 31
Netze 31
fahrts@@ 31
O, 31
Osteu@@ 31
dom@@ 31
schlag. 31
fundament@@ 31
í@@ 31
Überzeugungen 31
Überzeug@@ 31
dich. 31
architektonische 31
wüssten, 31
bedeutenden 31
bom@@ 31
pel@@ 31
Bat@@ 31
Geldge@@ 31
übernehmen. 31
Bogen 31
Phosphor 31
Verschmutzung 31
stoffe. 31
wagen, 31
Angriffe 31
fordern. 31
Last 31
neun@@ 31
Physik@@ 31
provo@@ 31
ausgehen, 31
Ziemlich 31
Blau 31
garantiert 31
älterer 31
Station 31
ight 31
Förder@@ 31
Theor@@ 31
assozi@@ 31
Sonnensch@@ 31
geöffnet 31
Katastrophen@@ 31
s; 31
wiederholen. 31
Auton@@ 31
ate, 31
enthalten. 31
fress@@ 31
verändern? 31
visuell 31
Schönheit, 31
gehan@@ 31
besuchen, 31
Filmen 31
äub@@ 31
konfront@@ 31
sigkeit 31
fleisch 31
3.@@ 31
bogen 31
Keller 31
Schwest@@ 31
Palä@@ 31
kannte, 31
hit@@ 31
Verbrauch 31
iss 31
Dörfern 31
gang, 31
störung 31
beige@@ 31
gestoßen 31
Führungspersön@@ 31
geha@@ 31
Mitte, 31
häufigsten 31
ign@@ 31
ium, 31
Anwal@@ 31
Patienten@@ 31
widersprüch@@ 31
kombiniert 31
Steuer 31
Newton 31
Zufäll@@ 31
stolz, 31
zwangsläufig 31
Seri@@ 31
Übungen 31
Tiefse@@ 31
Besucher 31
aufen, 31
gehir@@ 31
Laut@@ 31
Rakete 31
Blutgefä@@ 31
allmählich 31
Stolz 31
TV 31
Freunden, 31
Stellt 31
Jahrhunderten 31
Penn@@ 31
freiheit 31
ahl 31
Schnurrbar@@ 31
Propag@@ 31
Cyberkrimin@@ 31
Tausend 30
netten 30
tom@@ 30
gem@@ 30
überprü@@ 30
ton, 30
minus 30
lenken 30
einfacher, 30
Sequ@@ 30
Problemen, 30
bereiten. 30
MIT, 30
riebe 30
nahme. 30
lichten 30
Verantwort@@ 30
benötigt, 30
teils 30
befassen. 30
Städten, 30
Jeder, 30
unbekannte 30
null 30
vater 30
aufhören. 30
hs 30
entstehen, 30
Luftfahr@@ 30
gegründet, 30
geschäft@@ 30
schmei@@ 30
Vorauss@@ 30
deshalb, 30
Betriebs@@ 30
fließen 30
iff 30
konze@@ 30
stitu@@ 30
zuständig 30
Ingenieuren 30
Kreativität, 30
Ti@@ 30
methode 30
fühlten 30
Kreativität. 30
Meer, 30
Häuf@@ 30
überrascht. 30
vari@@ 30
derer, 30
biologischer 30
wortwörtlich 30
schlüss@@ 30
molekulare 30
Intelligenz. 30
90ern 30
vit@@ 30
Garage 30
mich@@ 30
ziges 30
Dean 30
Pandemie 30
medizin 30
Zwe@@ 30
Jäger 30
mau@@ 30
Schlacht@@ 30
studium 30
Ausbruch 30
begeistert. 30
Verletzung 30
gress@@ 30
bekä@@ 30
Krebszellen 30
gedreht 30
den; 30
wartet, 30
Beton@@ 30
Neues. 30
Unsicher@@ 30
genheit 30
ix 30
Lein@@ 30
DE@@ 30
geschickt. 30
W: 30
Performan@@ 30
dauern. 30
Whit@@ 30
kenden 30
behaupte 30
steigt, 30
fühlt, 30
Dom@@ 30
Musch@@ 30
miteinander. 30
evolutionäre 30
Universität, 30
Kunststoff 30
sein: 30
Reze@@ 30
Menschheit, 30
Danny 30
ktiv. 30
spunkte 30
gert 30
erweitert 30
link@@ 30
Klar@@ 30
analysiert 30
bemerk@@ 30
nachdem, 30
Sorte 30
gibt? 30
ij@@ 30
yc@@ 30
italien@@ 30
war's. 30
lachen, 30
Preis. 30
eben. 30
habe: 30
gegenseit@@ 30
Vorsit@@ 30
Heraus@@ 30
Magazin@@ 30
erschein@@ 30
steht: 30
planet@@ 30
zweitens 30
.500 30
erscho@@ 30
Jagd 30
platten 30
ennen 30
Mod@@ 30
möglich? 30
Rechnung 30
ziell 30
Fremd@@ 30
Oran@@ 30
interessiere 30
besonderes 30
atmen. 30
lächerlich 30
gesteuert 30
stunden 30
tene 30
breit@@ 30
DV@@ 30
enger 30
kennt, 30
Behälter 30
produkt 30
dose 30
menschen 30
Anlagen 30
schwimmen. 30
Zumindest 30
Notiz@@ 30
brett 30
dank@@ 30
situ@@ 30
führten, 30
theorie 30
einzusetzen, 30
Les@@ 30
Fahren 30
Front@@ 30
würde? 30
"Meine 30
leichten 30
begriff 30
Olympischen 30
Kleidung, 30
städtische 30
alit@@ 30
antreiben 30
Öster@@ 30
sm@@ 30
Linie, 30
Ankunft 30
Getrei@@ 30
protest@@ 30
Feinde 30
Held 30
Abkürz@@ 30
spir@@ 30
Stränge 30
pflanzen. 30
voraus 30
Schatten@@ 30
‘ 30
angekommen 30
mäßige 30
Pfad 30
plikationen 30
Steuern 30
bürger@@ 30
unt@@ 30
gemisch@@ 30
erledigen 30
Peer-@@ 30
Line@@ 30
multipliz@@ 30
technologischen 30
mechanische 30
Wachstums 30
Grunde, 30
zerne 30
lebten, 30
stunde 30
Revolution@@ 30
Sieg 30
ungs 30
verdrän@@ 30
Akk@@ 30
Prinzip@@ 30
Neuronen, 30
derselbe 30
wuchsen 30
Pilze 30
ents 30
Antarktis 30
reiben 30
hell 30
Kosten, 30
maschine, 30
Geschlecht@@ 30
künstlerische 30
rand 30
Gravitation 30
gegenwärtige 30
vermuten, 30
Kreaturen 30
geschichte, 30
Pip@@ 30
verschlu@@ 30
Anfän@@ 30
band. 30
Benutzer 30
Veranstaltung 30
E. 30
gendsten 30
Würfel 30
Maßstä@@ 30
Wiss@@ 30
to-@@ 30
ograf@@ 30
Abstra@@ 30
Mitt@@ 30
transparent 30
ehe 30
offensicht@@ 30
schafft. 30
massen 30
zeugen 30
Strasse 30
weich@@ 30
City, 30
60.000 30
Durchschnit@@ 30
60er 30
dienen. 30
demonstriert 30
schlech@@ 30
bewältigen 30
Meet@@ 30
wilden 30
Ganzes 30
Uni@@ 30
Leuten. 30
richtiger 30
debat@@ 30
halte@@ 30
Gemeinschaft@@ 30
schlimme 30
dierte 30
staa@@ 30
100% 30
heimlich 30
Extrem@@ 30
Gewalt. 30
sehe. 30
Johnson 30
Karte, 30
Best@@ 30
ausgeben 30
erheblich 30
Natürlich, 30
aß 30
Kontext, 30
olo@@ 30
empfind@@ 30
” 30
ko 30
Künstler. 30
Ökologie 30
Gä@@ 30
sechs, 30
ruppe 30
statist@@ 30
hinweg. 30
Hass 30
Flugzeug, 30
Ja! 30
wil@@ 30
Bekann@@ 30
Einkommen, 30
programmiert 30
senden. 30
Zeile 30
zweitens, 30
spirituellen 30
Handy, 30
Weniger 30
anpassen. 30
besuchen. 30
verlangen 30
angemessen 30
Russ@@ 30
leihen 30
Kreat@@ 30
SS: 30
erkunden 30
mutter 30
lustig, 30
äußeren 30
Farben, 30
Verfügung. 30
heben. 30
Ignor@@ 30
Urspr@@ 30
ing" 30
Getreide 30
üben, 30
gelass@@ 30
Mahlzeiten 30
märkte 30
versorgen 30
.000. 30
Tod, 30
energie@@ 30
Wisst 30
geehr@@ 30
Helikop@@ 30
geradezu 30
Eis. 30
Zigaret@@ 30
Hindernis 30
Argu@@ 30
sahen. 30
Werte, 30
schlauer 30
rin@@ 30
do, 30
clever@@ 30
+ 30
Weißt 30
etwa@@ 30
Beat@@ 30
Teilneh@@ 30
übert@@ 30
"das 30
Hätten 30
Lichts 30
Has@@ 30
Flederm@@ 30
zip@@ 30
Fris@@ 30
stor@@ 30
Can@@ 30
grauen 30
schö@@ 30
Ök@@ 30
Margaret 30
Brun@@ 30
Git@@ 30
untersuchten 30
Get@@ 30
Sprecher: 30
utzen 30
Zeremon@@ 30
dran, 30
ummer@@ 30
existieren, 30
bewus@@ 30
Patri@@ 30
Feedba@@ 30
Sus@@ 30
tei@@ 30
chines@@ 30
Behinder@@ 30
Personal 30
Bay 30
programmieren 30
ut. 30
Selbstmor@@ 30
unglaublicher 30
Finan@@ 30
stabil 30
Demokrat@@ 30
Vie@@ 30
Einnahmen 30
Rund@@ 30
darstellen 30
fessel@@ 30
-jähriger 30
Verbrenn@@ 30
Emily 30
Kondome 30
skrankheiten 30
Standort 30
Irr@@ 30
rosa 30
strahl 30
Krankenhäuser@@ 30
herein 30
Generation. 30
ätze 30
dex 30
Geist, 30
Nov@@ 30
orientierten 30
sozial@@ 30
lied, 30
uten, 30
Wör@@ 30
": 30
gebro@@ 30
erweitern, 30
Zusammenspiel 30
dreidimensionale 30
Politik. 30
Selbstmordattent@@ 30
Fried@@ 30
ile@@ 30
Vielfalt, 30
abgelegenen 30
holten 30
masse 30
iertem 30
verstän@@ 30
geborene 30
Nic@@ 30
Spen@@ 30
entschlossen, 30
car@@ 30
Papa 30
medit@@ 30
steckte 30
äume, 30
stellige 30
brauchten, 30
ok. 30
Bühne, 30
24@@ 30
Medien. 30
wird." 30
Bien@@ 30
irration@@ 30
quis@@ 30
hasse 30
heft@@ 30
Mädchen: 30
betreu@@ 30
großzüg@@ 30
System@@ 30
Größe, 30
Kulturen, 30
gezü@@ 30
subje@@ 30
Gletscher@@ 30
dienste 30
leidenschaftlich 30
Rollstu@@ 30
gehst 30
Zylinder 30
Trop@@ 30
Sper@@ 30
Bedrohungen 30
fettleib@@ 30
Ölkatastrop@@ 30
gie 30
Sylvia 30
Iran@@ 30
Smartphone 30
schutz 29
trieb 29
ville 29
billige 29
how 29
version 29
Emiss@@ 29
spannende 29
sauber 29
einfallen 29
Abschluss@@ 29
Biomasse 29
ckel@@ 29
bemerkenswert. 29
reichen. 29
bemerkenswer@@ 29
seltenen 29
Armuts@@ 29
bereitet 29
Verwal@@ 29
seltene 29
notwendig, 29
leid 29
titel 29
stark. 29
Europä@@ 29
würdig 29
okay 29
Gleich 29
"Komm 29
jähriges 29
würden? 29
Zehntel 29
raum@@ 29
Blue 29
Hierarchie 29
emotion@@ 29
Analog@@ 29
wegs 29
Beziehungen. 29
Baby. 29
um-@@ 29
branche 29
Cat@@ 29
pten 29
Cou@@ 29
Motorra@@ 29
te; 29
mikrobi@@ 29
Rezept@@ 29
Überblick 29
synthetische 29
wenig, 29
benötigt. 29
samt 29
typ@@ 29
längst 29
Klar, 29
öß@@ 29
ings, 29
Öff@@ 29
forschen 29
iPod 29
Speicher@@ 29
Kamera. 29
vermeid@@ 29
stil@@ 29
Batterien 29
geograph@@ 29
Versuchs@@ 29
erfuhr, 29
Imit@@ 29
seel@@ 29
beweisen 29
Traur@@ 29
Hunger@@ 29
liebe. 29
begleitet 29
siehe 29
entschlossen 29
44 29
Pur@@ 29
mmt. 29
reisen. 29
Wesent@@ 29
fähige 29
derart 29
Besprech@@ 29
Unterstütz@@ 29
Ol@@ 29
profitieren 29
Hafen 29
stoßen, 29
l, 29
Visu@@ 29
gen-@@ 29
Missbrauch 29
Parkplatz 29
unterschie@@ 29
sehen." 29
ausgehen 29
denkst 29
hinterlassen. 29
symmetr@@ 29
gebildet, 29
plik@@ 29
geschlaf@@ 29
nannte. 29
aufgeregt, 29
dahin, 29
leit@@ 29
Algorith@@ 29
lernen? 29
Struktur. 29
Information. 29
tauchen, 29
zess, 29
ungsmittel 29
Organismen, 29
Mikroben, 29
Grüne 29
Unterbrech@@ 29
gilt, 29
gent@@ 29
alog@@ 29
Haushalt 29
Ein-@@ 29
Schalt@@ 29
Gewehr@@ 29
Todesfälle 29
redete 29
äres 29
sichtbaren 29
verläuft 29
erstellt, 29
verkl@@ 29
hinzufügen, 29
kenne, 29
Argentin@@ 29
deutet 29
Dies@@ 29
Punkte, 29
wärts@@ 29
Top 29
Schätz@@ 29
Ungerechtigkeit 29
Bäume, 29
gefol@@ 29
inger@@ 29
besitzt, 29
dung@@ 29
Zustand, 29
französischen 29
Penis 29
’@@ 29
tlicher 29
ausgestat@@ 29
olit@@ 29
rein, 29
barem 29
einfachsten 29
geprä@@ 29
Schmerz@@ 29
ffer@@ 29
Produkt, 29
ap 29
unglei@@ 29
Verluste 29
kriege 29
hohes 29
Stunde, 29
Schmu@@ 29
männer 29
eingehen 29
stirbt, 29
fälle. 29
Nein@@ 29
alitäten 29
schnellste 29
Gericht@@ 29
sho@@ 29
Huhn 29
geschossen 29
wahrgenommen 29
Bleist@@ 29
hineinzu@@ 29
ra. 29
faszinierend, 29
Tenn@@ 29
onnen 29
aro@@ 29
Jag@@ 29
behandelt, 29
tags@@ 29
Refer@@ 29
ose 29
Mitglie@@ 29
4-@@ 29
gefährdet 29
treiben, 29
rechnen, 29
ay 29
Dienst@@ 29
minist@@ 29
Rick 29
Dikt@@ 29
geplant 29
fundamentalen 29
Produktiv@@ 29
Phänomen. 29
fähiger 29
umfasst 29
gesamtes 29
ahn 29
behaupte, 29
altet. 29
Lebewesen, 29
fremde 29
änen 29
le" 29
stetig 29
ichte 29
geringe 29
Kosmos 29
Universen 29
n-@@ 29
Treibhaus@@ 29
Herrschaft 29
irdischen 29
liche. 29
Variationen 29
tipp@@ 29
transportieren 29
verstärkt 29
bauer 29
willkür@@ 29
Note 29
men: 29
sproble@@ 29
geschla@@ 29
scheitern 29
Gefähr@@ 29
Anstreng@@ 29
beigebracht, 29
energ@@ 29
angefangen. 29
ehn@@ 29
ueber 29
koenn@@ 29
Karo@@ 29
erschwing@@ 29
Haushalte 29
grosser 29
Nahrungsmittel 29
part@@ 29
gesundheits@@ 29
ken? 29
ökologische 29
igkeiten, 29
Innovation@@ 29
Behör@@ 29
Cour@@ 29
ernsthafte 29
alleine. 29
erzeugt, 29
laufenden 29
Schuh@@ 29
älen 29
halts@@ 29
Denkens 29
Umweltschutz@@ 29
Anzug 29
lern. 29
ima 29
beleg@@ 29
Illus@@ 29
Blind@@ 29
stes, 29
Domin@@ 29
Waisen@@ 29
Irland 29
Action@@ 29
Tote 29
Politiker, 29
ther@@ 29
Verteidigung 29
Universitäts@@ 29
pper@@ 29
entschloss 29
hiermit 29
angehen 29
drüben, 29
organisieren, 29
Vagina 29
Flaschen 29
Marsh@@ 29
winden 29
ator, 29
getau@@ 29
board 29
zoomen 29
spiel, 29
Hab@@ 29
fung 29
Spru@@ 29
wählt 29
vorge@@ 29
zurecht 29
Verarbeitung 29
Zusammenbruch 29
äne 29
verknüpft 29
wahrscheinlicher 29
"Er@@ 29
Wichtig 29
ischste 29
Geschäftsführer 29
dramat@@ 29
erschre@@ 29
zettel 29
nein 29
zentren 29
Motto 29
zuvor, 29
gefil@@ 29
zeichneten 29
ropa 29
Zent@@ 29
Investoren 29
Rum@@ 29
Nimm 29
versetzt 29
abl@@ 29
dynamisch 29
neuro@@ 29
phan@@ 29
müss@@ 29
Überleben@@ 29
Fing@@ 29
Pfun@@ 29
Anhän@@ 29
magischen 29
änderung 29
bewahren. 29
alismus, 29
Bürgerkrieg 29
Rach@@ 29
Strafe 29
Rehabilit@@ 29
drastisch 29
Tür. 29
Geschlechts@@ 29
vertrauenswür@@ 29
kann: 29
siehst 29
Gewässer 29
Meter. 29
Ed 29
kore@@ 29
Fünftel 29
Webseiten 29
Unbe@@ 29
Auß@@ 29
Regeln. 29
Leben? 29
mancher 29
ogen, 29
Transformation 29
bereu@@ 29
tig, 29
Soll 29
Ängste 29
Stickstoff@@ 29
Maßstab@@ 29
enseite 29
selbstverständ@@ 29
Vorgänge 29
Inten@@ 29
digkeit 29
üttel@@ 29
Schweizer 29
Vibr@@ 29
nimm 29
Frühl@@ 29
Effek@@ 29
Grä@@ 29
luden 29
As@@ 29
Benutz@@ 29
Helden@@ 29
Befehl@@ 29
Poe@@ 29
hat." 29
eines, 29
bestrei@@ 29
grusel@@ 29
negativ 29
Porno@@ 29
begegnen, 29
jedermann 29
konzip@@ 29
sitzt. 29
verwurzel@@ 29
Schnei@@ 29
Fut@@ 29
schlüsse 29
Einricht@@ 29
seltsam. 29
gemäß@@ 29
moment@@ 29
schlafen. 29
Unmögliche 29
Nuklear@@ 29
Transport 29
Hüfte 29
gegenüber. 29
Ultrasch@@ 29
nom@@ 29
Frequ@@ 29
unt 29
Blo@@ 29
Global 29
einmal: 29
verbracht. 29
Soziale 29
um? 29
gen?" 29
Daraufhin 29
dauerhaft 29
malen. 29
Teile. 29
"Diese 29
beur@@ 29
komplet@@ 29
angezogen 29
Rose 29
Selbst-@@ 29
mill@@ 29
Mais 29
ausgestor@@ 29
Pier@@ 29
Wom@@ 29
igung, 29
Kommunikation. 29
untersuchte 29
Titan 29
Horizon@@ 29
eindrucks@@ 29
pflan@@ 29
landwirtschaftlichen 29
unheimlich 29
weltweit, 29
Progno@@ 29
dal 29
Stei@@ 29
mathematisch 29
ante 29
Krab@@ 29
cre@@ 29
gesen@@ 29
Applaus 29
schwanger 29
Cy@@ 29
welle 29
Trainings@@ 29
Elternteil 29
trainiert 29
fordern 29
Dokumente 29
hang@@ 29
Alli@@ 29
Wohnzimmer 29
demo@@ 29
Bezir@@ 29
Gegner 29
Behinderung 29
stelle. 29
Brille 29
zwingen, 29
lachen. 29
cu@@ 29
Alpha 29
Echt@@ 29
Ruhe@@ 29
Spektro@@ 29
Tänzer 29
Patente 29
Bast@@ 29
Bestäu@@ 29
Erfassung 29
tun: 29
Still@@ 29
Karikatur@@ 29
‹ 29
Geräusch, 29
JA: 29
O.@@ 29
Delfin@@ 29
Atomenergie 29
Air 28
Farm 28
stieg, 28
Atlan@@ 28
zeige. 28
4,@@ 28
Strom. 28
geschlossenen 28
benenn@@ 28
MI@@ 28
komprim@@ 28
Gerä@@ 28
herausfanden, 28
gerade, 28
Yu@@ 28
brennen 28
wüsste 28
Anderson 28
Verwaltungs@@ 28
fern. 28
schaffen? 28
konventionelle 28
ausgedehn@@ 28
ierend. 28
Seiten. 28
Provin@@ 28
ks. 28
wurde? 28
müsste. 28
verspür@@ 28
entstanden. 28
russischen 28
Anbie@@ 28
Beteil@@ 28
Betrag 28
lange. 28
befassen 28
ure. 28
schuldig 28
grenzen 28
Bele@@ 28
Steck@@ 28
unabhängigen 28
eingeschlossen 28
aut 28
seither 28
schliesslich 28
schichten 28
vio@@ 28
Sequenzen 28
1995 28
jeweiligen 28
hi 28
baut, 28
Anstrengungen 28
Ris@@ 28
zerle@@ 28
Hydro@@ 28
Cell@@ 28
Laborator@@ 28
ethischen 28
1999 28
führer 28
Hallo 28
Computers 28
Logo 28
gekauft. 28
hin? 28
Schnittstelle 28
Micro@@ 28
PC 28
Seiten, 28
Programme, 28
Uhr, 28
merkwürdig 28
Treff@@ 28
Herzen. 28
Epidem@@ 28
heimischen 28
Trenn@@ 28
Einklang 28
Videos, 28
dreck@@ 28
sam, 28
Neurowissenschaft 28
Genetik 28
50% 28
Muskel 28
geholt 28
könnten? 28
gelieb@@ 28
psychologischen 28
gewiesen 28
Bindung 28
entwickelte, 28
geschlecht@@ 28
Langzeit@@ 28
raten. 28
Trend@@ 28
kern@@ 28
empfehl@@ 28
Gründe. 28
Ausgangs@@ 28
Material. 28
gebunden 28
Effizi@@ 28
mengen 28
Verpac@@ 28
Sekun@@ 28
wunderschön 28
ert@@ 28
vorherigen 28
Amei@@ 28
Jamie 28
en- 28
nirgend@@ 28
Taf@@ 28
vent@@ 28
komplizierter 28
kurz, 28
verzö@@ 28
ik: 28
prüfen 28
schloss 28
Zunge 28
teur@@ 28
isiert, 28
isse 28
streben, 28
öffentliches 28
April 28
spreche. 28
Unternehmens 28
angegriffen 28
do-@@ 28
zufälligen 28
Erklärungen 28
Datens@@ 28
atie 28
schlepp@@ 28
nachher 28
Internationale 28
» 28
daten, 28
Stö@@ 28
Polar@@ 28
einzusetzen. 28
Vide@@ 28
hochzu@@ 28
wünschte 28
Dir 28
Dog@@ 28
geht? 28
Philosoph@@ 28
möchte@@ 28
organischen 28
biolog@@ 28
Time 28
Beobachtung 28
komme. 28
gefüll@@ 28
Suppe 28
Bambus 28
Schwach@@ 28
are@@ 28
Dire@@ 28
Richtig. 28
rick@@ 28
Verbraucher 28
Nr. 28
Freund. 28
aks 28
unzählige 28
knall@@ 28
Rauchen 28
effizien@@ 28
aussah@@ 28
mitglie@@ 28
ßt. 28
stiegen 28
vier. 28
ange 28
dann: 28
deutlich, 28
Firma. 28
wert, 28
vorm 28
bewertet 28
Güte, 28
statistisch 28
effektive 28
Sehn@@ 28
ordnen. 28
Produktion@@ 28
identifiziert 28
fig@@ 28
Mechanismen 28
Besu@@ 28
pti@@ 28
Hütte 28
erstellt. 28
Verfassung 28
häss@@ 28
den" 28
Kleider@@ 28
Toleranz 28
Mitgefühls 28
wo. 28
müde 28
indig@@ 28
pal@@ 28
kathol@@ 28
Zoo@@ 28
ana, 28
ehemaligen 28
Monat, 28
enschaf@@ 28
anfällig 28
verfüg@@ 28
hüt@@ 28
‘@@ 28
nahr@@ 28
Konversation 28
fläch@@ 28
acheln 28
Schultern 28
Schulden 28
Hunderten 28
prin@@ 28
landet 28
Programmen 28
verbundenen 28
professionelle 28
Tank@@ 28
region 28
Werkzeugen 28
verdoppelt 28
anzunehmen, 28
verdoppel@@ 28
deutschen 28
Begrenz@@ 28
zy@@ 28
Olymp@@ 28
merkte, 28
kennung 28
Rout@@ 28
vernünftige 28
Nebenwirkungen 28
entsprechende 28
Abfolge 28
flug 28
dieren. 28
Kategor@@ 28
fte. 28
Algen 28
Skelett 28
ähl@@ 28
Vögeln 28
gegenseitige 28
opp@@ 28
offensichtlich. 28
Staates 28
band@@ 28
verga@@ 28
hlen. 28
Folien 28
Cent@@ 28
verringern. 28
block 28
Krankenhaus. 28
Hard@@ 28
Momenten 28
Komponente 28
nachgedacht. 28
bänder 28
Sir@@ 28
höl@@ 28
ihm: 28
strom@@ 28
Tinte 28
radikal@@ 28
schieben 28
koennen 28
Leicht@@ 28
herausgestellt, 28
sprechend 28
bezahlt, 28
philosoph@@ 28
Kohlen@@ 28
Raten 28
Ufer 28
illegale 28
kipp@@ 28
utz 28
arbeits@@ 28
schluss, 28
finanziell 28
verbun@@ 28
durchzuführen. 28
Sprung@@ 28
Aufru@@ 28
Schulen. 28
Flüchtlingslag@@ 28
blit@@ 28
Pubertät 28
London. 28
Steigerung 28
Unend@@ 28
Himmel, 28
Schlimmste 28
afrikan@@ 28
nerv@@ 28
rede, 28
junges 28
Mission@@ 28
Korruption, 28
logisch 28
kanal 28
wissenschaften, 28
Horror@@ 28
fluss@@ 28
skrank@@ 28
erstaunliches 28
Erzählungen 28
Fingern 28
Köpf@@ 28
Strat@@ 28
individu@@ 28
Tän@@ 28
Royal 28
Rachel 28
sieben, 28
feiern. 28
dar 28
bleib@@ 28
DNS-@@ 28
wisst, 28
Sorge, 28
weh 28
Beziehungen, 28
Mut, 28
Tal 28
digitales 28
angef@@ 28
kampf 28
over 28
Ablen@@ 28
Gemeinde@@ 28
verfügbar. 28
verstre@@ 28
syn@@ 28
Plän@@ 28
unterschätz@@ 28
gerechnet 28
gh@@ 28
verhalten@@ 28
Ny@@ 28
geziel@@ 28
identisch 28
ha. 28
Schmetter@@ 28
iel 28
ierend, 28
Research 28
optische 28
Delphin@@ 28
reduziert. 28
Nationen, 28
Belastung 28
code 28
Vö@@ 28
Dokumentar@@ 28
vollem 28
aktivität 28
versorgt 28
Vorbereitung 28
Inhalts@@ 28
diagnostiziert 28
südlichen 28
Okto@@ 28
Platten 28
scher, 28
Schan@@ 28
Einladung 28
Anekdo@@ 28
beschrieb 28
ss-@@ 28
leug@@ 28
lief@@ 28
lung. 28
Sym@@ 28
Welchen 28
wäch@@ 28
traurige 28
ham 28
lohnt 28
Reu@@ 28
beschränkt 28
Vul@@ 28
hinauf@@ 28
Philosophen 28
rie, 28
ologie@@ 28
körper 28
büchern 28
ursach@@ 28
ge" 28
² 28
arischen 28
Biologie. 28
heißen, 28
verarbeitet 28
Feucht@@ 28
sprich@@ 28
Solda@@ 28
benannt 28
1: 28
Schlimm@@ 28
Johnny 28
L-@@ 28
Sag 28
singen. 28
Stri@@ 28
kehren, 28
ordentlich 28
lette 28
Sab@@ 28
Singapur 28
ire@@ 28
bloße 28
Weiße 28
zurückkehren. 28
verringern 28
hh@@ 28
spielte. 28
Umsetzung 28
Redwoo@@ 28
ernähren. 28
Aqu@@ 28
aufnehmen, 28
steil@@ 28
shi@@ 28
umfangrei@@ 28
Markt, 28
leuchten. 28
führen? 28
Tochter, 28
Ding@@ 28
sinkt 28
Signat@@ 28
besuchten 28
zten 28
erhöht. 28
Kamel 28
riecht 28
stand: 28
cht." 28
Das, 28
det? 28
Unabhängigkeit 28
fung@@ 28
telt 28
Gri@@ 28
Management 28
Dosis 28
erischen 28
Normen 28
Gewal@@ 28
ften. 28
Neurowissenschaft@@ 28
spu@@ 28
füllen. 28
verbie@@ 28
omm@@ 28
Erdgas 28
Meeresspiegel 28
Kennedy 28
Delhi 28
et? 28
Zir@@ 28
militär@@ 28
molekul@@ 28
Messungen 28
eis@@ 28
Fallschir@@ 28
Crick@@ 28
Kortex 28
anfingen, 28
anstren@@ 28
begegnen. 28
lernten, 28
daraus, 28
Geometrie 28
gegan@@ 28
bens 28
Objekt, 28
Außensei@@ 28
Phoenix@@ 28
Riff@@ 28
gungen 28
Veter@@ 28
tempor@@ 28
kompletten 28
Künstlerin 28
gewoll@@ 28
Trinkwasser 28
Oben 28
Stop@@ 28
waschen 28
Klassen 28
Neben 28
beschäft@@ 28
rän@@ 28
zerr@@ 28
Nathan 28
Dinosaurier@@ 28
olen 28
Möchten 28
Julian 28
Schwierigkeiten. 28
enschutz@@ 28
veränderte. 28
kontrollierte 28
computer@@ 28
Frühstück@@ 28
liefern, 28
verringert 28
schwieriger, 28
schil@@ 28
bedingte 28
Flaggen 28
ungsa@@ 28
Essens@@ 28
Tumore 28
Dirig@@ 28
Tatt@@ 28
Arzneimittel@@ 28
Passwort 28
YR: 28
wendung 27
spiegel 27
te! 27
Rede, 27
Clin@@ 27
LKW 27
ünst@@ 27
alisieren, 27
Solange 27
Helfen 27
wäre@@ 27
Herde 27
Verfügung, 27
Ingenieurs@@ 27
asse 27
Vergleich@@ 27
finde. 27
Voraussetzungen 27
Abkommen 27
sieh@@ 27
tal@@ 27
ägyp@@ 27
unternehmen. 27
gleichermaßen 27
Entwickler 27
kommerzielle 27
spa@@ 27
'9@@ 27
allerersten 27
betreiben. 27
Tick@@ 27
pt, 27
beschreibt, 27
Schwär@@ 27
künstler@@ 27
bs 27
Anstelle 27
Projektes 27
aussah. 27
Stich 27
enthält. 27
oze@@ 27
wasser, 27
Ecke. 27
definiert, 27
erweiterte 27
teten. 27
einz@@ 27
Frag@@ 27
gewählt, 27
Mac 27
Hilfe@@ 27
ssystem. 27
Idi@@ 27
begrenzte 27
Werkzeug@@ 27
übrig. 27
alog 27
Sty@@ 27
Dokument 27
Aufgaben@@ 27
basiert. 27
brauch 27
Cen@@ 27
drahtlose 27
losle@@ 27
arbeitet@@ 27
entwer@@ 27
geredet 27
tatsäch@@ 27
Linie. 27
Mitleid 27
dabei@@ 27
becken 27
kultureller 27
a? 27
Gestern 27
ermutigt 27
reist 27
Händen. 27
genauen 27
Leidenschaft, 27
spezif@@ 27
International 27
trinken, 27
reparieren. 27
Gift 27
seien. 27
D.@@ 27
%@@ 27
Netzwerk. 27
wandert 27
ator. 27
Cla@@ 27
Brasilien, 27
verfügen 27
Leinwand 27
beschrei@@ 27
char@@ 27
Gesellschaften, 27
depress@@ 27
Y 27
Spir@@ 27
Krist@@ 27
gelingt 27
haupt 27
Miner@@ 27
Pflanzen. 27
Einspar@@ 27
strahlen 27
schicht@@ 27
kugel 27
selbst-@@ 27
Filter 27
terweise 27
Tätigkeiten 27
blä@@ 27
zigern 27
süß 27
Blit@@ 27
Forschung. 27
Weiter 27
Varianten 27
ce. 27
beliebtesten 27
Tatsachen 27
Oder? 27
Wünsche 27
genannte 27
ssen? 27
swert 27
geöffnet. 27
gerufen. 27
erkannten, 27
gelesen. 27
könntest 27
gesundes 27
stundenlang 27
Service 27
Schließ@@ 27
genehm@@ 27
arbeite. 27
appe 27
gefäl@@ 27
rund@@ 27
MS: 27
verglei@@ 27
cy 27
real. 27
belä@@ 27
schmel@@ 27
Van 27
itter@@ 27
iel, 27
Mobiltelefone 27
kostet, 27
Wieviele 27
hüll@@ 27
Kerl, 27
Amts@@ 27
grade 27
disziplin@@ 27
DN@@ 27
hartnäck@@ 27
fliegt. 27
Beding@@ 27
ellen@@ 27
eingeschränkt 27
strukt@@ 27
bauen? 27
Höhen@@ 27
änder. 27
Wen 27
entscheidet, 27
brot 27
Strategie, 27
zz@@ 27
AC@@ 27
stige 27
uten. 27
darstell@@ 27
Af@@ 27
angeseh@@ 27
durften 27
örtliche 27
ffekt 27
versus 27
Freun@@ 27
Säugl@@ 27
beeindruckend. 27
geben." 27
d?" 27
Test. 27
Dinge: 27
tungen 27
regierung 27
angeb@@ 27
dekor@@ 27
gien. 27
Poin@@ 27
gebraucht, 27
Gestalt@@ 27
ade, 27
Keith 27
beitragen. 27
verbrachten 27
Beschäftigung 27
sehr@@ 27
benötig@@ 27
Hauptstadt 27
verboten 27
einstellen 27
14. 27
siedel@@ 27
Scham@@ 27
wach 27
bildern 27
ript 27
ianische 27
som@@ 27
Heim 27
illegalen 27
platz, 27
verbrennen 27
gig@@ 27
Armut. 27
Sprachen. 27
ver. 27
Kino 27
deutsche 27
Experten, 27
gon@@ 27
Google-@@ 27
IM@@ 27
verwir@@ 27
Stipendi@@ 27
Begrün@@ 27
Fernsehen, 27
dreidimension@@ 27
erhöhen, 27
aßen 27
Diabe@@ 27
Bevölker@@ 27
regen 27
umul@@ 27
Vortrag@@ 27
Menge, 27
poet@@ 27
atemberauben@@ 27
eigen 27
Philip 27
bildeten 27
Primaten 27
senken 27
Green 27
Glühbirne 27
Laser 27
sondern, 27
bereit? 27
Deutschland, 27
.] 27
Bauer 27
sky 27
Merkmal 27
kostengünst@@ 27
Epo@@ 27
Apfel 27
ie" 27
umzusetzen. 27
Steu@@ 27
Wu@@ 27
Brasil@@ 27
Bronx 27
Diesel@@ 27
leidet 27
Männern, 27
to. 27
ungeachtet 27
erleichter@@ 27
Autobahn 27
xen 27
erwor@@ 27
gese@@ 27
bildung. 27
planen. 27
heiß. 27
stürzen 27
Zwischenzeit 27
1,2 27
seite. 27
Energies@@ 27
übernommen 27
fürchter@@ 27
Ausrottung 27
Reaktion. 27
1980 27
grösste 27
Nation, 27
terten 27
ieber 27
ausgelöst 27
Grippe@@ 27
Gummi@@ 27
Vögel, 27
psycholog@@ 27
AT@@ 27
Zeitalter, 27
dd@@ 27
Infrastruktur. 27
starben. 27
Überzeugung 27
Szen@@ 27
itär@@ 27
ankommt, 27
nahe@@ 27
ischsten 27
Mitteln 27
bezeichnen. 27
gen" 27
bret@@ 27
Büros 27
Impuls 27
tig. 27
Ressource 27
geheimen 27
Bewusstseins 27
vollste 27
registr@@ 27
verwirrt 27
form, 27
Ei 27
hervor 27
Herzerkran@@ 27
ordnet 27
Brücken 27
palästinens@@ 27
Jä@@ 27
Ston@@ 27
Vorurteile 27
"Nun 27
Schüler@@ 27
betrachte 27
uns@@ 27
bloß@@ 27
Prüfung 27
mte 27
Clinton 27
Red@@ 27
wahnsinnig 27
Send@@ 27
auswendig 27
entspann@@ 27
Momente, 27
Dänemar@@ 27
Schildkrö@@ 27
gs, 27
z.@@ 27
unvorstell@@ 27
Tageslicht 27
fernen 27
Kredit 27
seriö@@ 27
aben 27
Rech@@ 27
dringt 27
sagst 27
ähe 27
Systeme. 27
ws, 27
Kontra@@ 27
zudem 27
feste 27
unerwartete 27
Geschwister 27
Telekommunik@@ 27
lingen 27
Kalten 27
ethnischen 27
entlassen 27
Skelet@@ 27
Spreng@@ 27
akzeptieren. 27
normal, 27
Bürger, 27
ativen, 27
errichten, 27
dramatische 27
erwartete 27
Volkes 27
lichkeit@@ 27
sst. 27
Meer. 27
Stief@@ 27
stechnologie 27
Nobelpreis 27
Vorgehensweise 27
bereich, 27
Philosoph 27
sah@@ 27
komplex, 27
Christen 27
gehor@@ 27
Weihnachten 27
euch. 27
res@@ 27
Evolutions@@ 27
feh@@ 27
nung 27
äuren 27
Daumen@@ 27
benötigten 27
pazif@@ 27
verändernde 27
Nik@@ 27
pfei@@ 27
160 27
zurückkommen. 27
gelei@@ 27
ssel 27
Abends 27
lieben@@ 27
Trän@@ 27
Stim@@ 27
aly@@ 27
stik@@ 27
sla@@ 27
Leber 27
bare@@ 27
ausgesprochen 27
Zuflu@@ 27
Kei@@ 27
Hemisphäre 27
Spanien 27
Handvoll 27
grösser 27
ig? 27
Ware 27
Neurowissenschaftler 27
tlich, 27
Anatomie 27
Robotik 27
mol@@ 27
sent@@ 27
gre@@ 27
ethnische 27
schuldig@@ 27
Bildern, 27
Tunnel 27
Nachricht. 27
visueller 27
Operation@@ 27
da?" 27
Union 27
Rechenschaft 27
gleicht 27
elk@@ 27
Mid@@ 27
Kunde 27
denkt: 27
Großbritannien. 27
Unterscheidung 27
mechanischen 27
spürt 27
Harmonie 27
Kriminalität 27
wahl 27
Verb 27
schwin@@ 27
Polizist 27
Imm@@ 27
Kanada, 27
mächtiger 27
park 27
Antworten, 27
fel 27
spielen? 27
Kult@@ 27
Mobilität 27
zuminde@@ 27
allgegenwär@@ 27
Bach 27
Program@@ 27
T, 27
Rohstoffe 27
Route 27
Tin@@ 27
schluss. 27
Transform@@ 27
darunter@@ 27
ewi@@ 27
gerade. 27
Empath@@ 27
Erdn@@ 27
Patientin 27
mar 27
Carnegie 27
gemerkt, 27
wahnsinn@@ 27
Lim@@ 27
rolle 27
Tempel 27
Lincoln 27
mut 27
aufbewahr@@ 27
anhalten 27
Eg@@ 27
Verbrech@@ 27
C: 27
teilnehmen 27
verkörper@@ 27
Beam@@ 27
Wesen. 27
internationaler 27
seltener 27
Feh@@ 27
ungsprogram@@ 27
Straft@@ 27
Versuche, 27
gewöhnt, 27
Englisch, 27
Kore@@ 27
Qaida 27
sport@@ 27
Testoster@@ 27
blinde 27
Psycho@@ 27
agra@@ 27
zahl. 27
kö@@ 27
gs. 27
Geschäftswelt 27
Tunn@@ 27
äußere 27
östlichen 27
Cartoon@@ 27
SETI 27
getötet. 27
JC: 27
schwamm 27
Kunstwerk 27
Cricket 27
Sebastian 27
Macher 27
Connectome 27
Apps 27
heit" 26
Hybr@@ 26
Ehre, 26
Ex-@@ 26
Flughaf@@ 26
freuen 26
zurückkommen 26
Ener@@ 26
W. 26
packen. 26
Beteiligung 26
politisches 26
Todesursach@@ 26
Hait@@ 26
überraschend, 26
Freiwillige 26
hle, 26
verkür@@ 26
Wright 26
künfte 26
verdient. 26
rauszu@@ 26
Zeitra@@ 26
baus 26
Landkarte 26
Wirtschaf@@ 26
vereinig@@ 26
kapital 26
ums@@ 26
Umfel@@ 26
Himmel. 26
durchschnit@@ 26
Wohltätigkeits@@ 26
Verlag@@ 26
kaputt. 26
Raumfahr@@ 26
aufgehört 26
Raumschiff 26
höherer 26
Kritiker 26
Spielen. 26
kommerziellen 26
Apollo 26
bedeutet: 26
bewegenden 26
ike 26
iert@@ 26
IBM 26
Bewertung 26
Fäden 26
dürf@@ 26
Gordon 26
Expedit@@ 26
Ostküste 26
Gene. 26
Evolution. 26
fügen. 26
erstellten 26
radio@@ 26
ans, 26
nützliche 26
Kombin@@ 26
Chemiker 26
que 26
bewerten 26
veröffentlichen. 26
fordert, 26
Anrufe 26
aufgezeichnet 26
noch? 26
offen. 26
Charakterist@@ 26
Pilot 26
gefiel 26
zeich@@ 26
Willst 26
Sicher 26
sichts@@ 26
bruch, 26
schlafen, 26
verschwinden, 26
bildung, 26
unausweich@@ 26
ineinander 26
Kalk@@ 26
ermutigen, 26
erwähnte 26
Tode@@ 26
arische 26
Professoren 26
Fair@@ 26
gegen. 26
spannt 26
versorgen, 26
ral 26
geschenkt 26
hineinge@@ 26
Linken 26
angewiesen 26
ankam, 26
zer, 26
ansah, 26
Ähnlichkeit 26
Clip 26
erhöhten 26
schub@@ 26
Dem@@ 26
Wicht@@ 26
ungsfäh@@ 26
Mustern 26
heutzuta@@ 26
Empfin@@ 26
vel@@ 26
ätsel@@ 26
Rasse 26
Partner, 26
anzuwenden. 26
git@@ 26
Wichtige 26
Bereich. 26
Wissenschaftler. 26
Universität. 26
Linsen 26
AS@@ 26
gels 26
farbe 26
Nachkommen 26
ung". 26
Nervenzelle 26
Landwirtschaft. 26
Vieh@@ 26
Tenden@@ 26
gangs 26
Innern 26
angehen. 26
wiederbele@@ 26
Beschleun@@ 26
Temperat@@ 26
felder 26
beantwortet 26
oben@@ 26
Hall@@ 26
ash@@ 26
verwendete 26
beschäftigte 26
jo@@ 26
Schluss@@ 26
Lungenentzün@@ 26
Mittlerweile 26
verschwand 26
wurf 26
bar? 26
Farmer 26
grob 26
Non@@ 26
heilige 26
machen: 26
Jones 26
sonn@@ 26
ruppen 26
Soldat 26
SIe 26
befreien 26
Traum. 26
interaktive 26
kultiv@@ 26
Hintergrund, 26
GP@@ 26
navig@@ 26
alls 26
digital 26
Massen 26
Hände. 26
Verbindung. 26
Iron@@ 26
folg 26
Frö@@ 26
Detail@@ 26
zuhören, 26
Schachtel 26
meter 26
180 26
bemerken. 26
dend 26
zweit@@ 26
ing? 26
Großmut@@ 26
o? 26
einfall@@ 26
überzeugen. 26
beinhaltet, 26
Kokain 26
Aufzeichn@@ 26
regionale 26
Zufall. 26
Betrieb 26
befanden 26
Aktien@@ 26
Park, 26
fiel. 26
ist?" 26
Buff@@ 26
Beweise, 26
Pille 26
Konzep@@ 26
entwir@@ 26
Grundstück@@ 26
horizont@@ 26
gewonnen, 26
Arbeitsplat@@ 26
Konstruktion 26
wän@@ 26
Tisch. 26
wolle@@ 26
Strich@@ 26
Lux@@ 26
sebene 26
Gy@@ 26
riechen 26
lustigen 26
Molekülen 26
achter 26
modell, 26
beherr@@ 26
auti@@ 26
wunderbarer 26
erzähle, 26
prüf@@ 26
gal@@ 26
Mons@@ 26
Kenia, 26
Instan@@ 26
Angestellte 26
Änder@@ 26
überwa@@ 26
profession@@ 26
gemeint 26
Link 26
akzeptiert 26
vorhersag@@ 26
ares 26
Gesetz, 26
werten 26
Lebenszeit 26
iro@@ 26
exponentiell 26
issen. 26
rische 26
Scheitern 26
jüng@@ 26
Vorhersage 26
Hygi@@ 26
jugend@@ 26
psych@@ 26
beginnend 26
"Lasst 26
diskutiert 26
haben; 26
Meeren 26
verwund@@ 26
Räu@@ 26
Beine. 26
80% 26
Herren 26
Anzeige 26
kosmischen 26
Supernova@@ 26
Andro@@ 26
jahren 26
Hundert@@ 26
baren, 26
Power@@ 26
fuhr, 26
fühlen? 26
Bedürfnissen 26
verstecken. 26
B-@@ 26
Lied, 26
irgendwie, 26
Wahrheiten 26
lenken, 26
gutem 26
isten@@ 26
Austral@@ 26
13. 26
Hintergrund@@ 26
140 26
glichkeit 26
Gewich@@ 26
bereitete 26
edi@@ 26
Kunden, 26
gekr@@ 26
Entscheidung@@ 26
Bundesstaat 26
Gründung 26
reifen 26
Überfluss 26
Büro, 26
schuss@@ 26
stationen 26
veranstal@@ 26
Fülle 26
Gemeinschafts@@ 26
ba 26
Monaten. 26
Slu@@ 26
gespeicher@@ 26
Recyc@@ 26
beeinflus@@ 26
richtet. 26
Acker@@ 26
Runde 26
Gemeinden, 26
stren@@ 26
Diplomat 26
Rah@@ 26
tötete 26
gezeichnet 26
Babys, 26
Alb@@ 26
Nenn@@ 26
hop@@ 26
brauchte. 26
Herzen, 26
Hungersno@@ 26
Individuen, 26
zustimmen, 26
Ric@@ 26
ekel@@ 26
Infektionen 26
einschrän@@ 26
Vitamin 26
Behandlung, 26
wenig. 26
helfen? 26
besten, 26
Himmels 26
Buddh@@ 26
trafen, 26
gefär@@ 26
Neigung 26
wesen@@ 26
cker. 26
Kopf-Zahl-@@ 26
Project 26
ingt. 26
baut. 26
Politikern 26
nahe, 26
Gesellschafts@@ 26
ch: 26
Wohlergehen 26
Wochenende 26
forderte 26
offenbar@@ 26
glaubt. 26
Selbstwert@@ 26
Identität, 26
ED@@ 26
extre@@ 26
Ressourc@@ 26
Hex@@ 26
Teile, 26
ausgel@@ 26
Mathe 26
regionen 26
leuchtet 26
Archiv 26
Schau 26
leitet 26
tet: 26
ummer 26
vorkommt. 26
kehren. 26
Wä@@ 26
professionellen 26
verwunder@@ 26
Saat@@ 26
unterschiede 26
Telefone 26
Funk@@ 26
schlossen 26
Stoffe 26
jenigen 26
bür@@ 26
Amt 26
ausländische 26
Behandlung. 26
auszur@@ 26
reser@@ 26
Swa@@ 26
Wiederhol@@ 26
stif@@ 26
Anderen 26
lustige 26
pet@@ 26
Everest 26
Zelt 26
British 26
Norwegen 26
Antarkt@@ 26
sammlung 26
Geschäftsmodell 26
Wänden 26
betrachteten 26
Bruttoinlandsprodu@@ 26
zet@@ 26
Aussage, 26
sag 26
Bündel 26
Lun@@ 26
Ohr@@ 26
Mosle@@ 26
anten@@ 26
los? 26
Gefahr. 26
nützlich, 26
flöß@@ 26
stattgefunden 26
fliegenden 26
Erwärm@@ 26
Bewusstsein, 26
Freundes 26
verz@@ 26
gründlich 26
hin- 26
losla@@ 26
beanspru@@ 26
stal@@ 26
endgül@@ 26
Ther@@ 26
AL@@ 26
äumen, 26
38 26
chtete 26
Klebe@@ 26
Hur@@ 26
stock 26
Einsamkeit 26
stattfinden 26
ding 26
fess@@ 26
terie 26
Ungleichgewicht 26
freun@@ 26
anti-@@ 26
Ideologie 26
vielleicht: 26
kut@@ 26
stöck@@ 26
lehrer 26
Depress@@ 26
lebendige 26
Taucher 26
Graff@@ 26
American 26
rik 26
sensor@@ 26
ungs- 26
heran. 26
Oberfläche, 26
Momentan 26
D.C. 26
bestehenden 26
nationaler 26
Kette 26
Götter 26
Rett@@ 26
proportional 26
Höhen 26
gewaltig 26
Sedi@@ 26
isoliert 26
"Können 26
Freunden. 26
Nest@@ 26
Futter@@ 26
Hühnchen 26
sonst@@ 26
span@@ 26
Kas@@ 26
Lokal@@ 26
zählt. 26
zug. 26
Aller@@ 26
Landes@@ 26
Halluzin@@ 26
ogen. 26
Archä@@ 26
beinhal@@ 26
Andre@@ 26
Kakerla@@ 26
Geor@@ 26
Flö@@ 26
Zwecke 26
konzentriert. 26
Klimawandel@@ 26
Filmemach@@ 26
ziff@@ 26
Wich@@ 26
trinken. 26
Rechts 26
gekommen@@ 26
stier@@ 26
Ressourcen. 26
Oma 26
Rätsel. 26
schilder@@ 26
Strang 26
programmieren, 26
Sehvermögen 26
g." 26
illegal 26
zw@@ 26
hun@@ 26
gewohnheiten 26
Augenblick@@ 26
berechnen. 26
Wag@@ 26
energie. 26
15, 26
Symmetrien 26
"Re@@ 26
Frakt@@ 26
gelern@@ 26
Chaos. 26
unken 26
aktivieren 26
Schwa@@ 26
balanc@@ 26
Gerecht@@ 26
gerichtet. 26
lehnte 26
Reaktion, 26
Fahrten 26
überwachen 26
nachmitt@@ 26
geteilt. 26
Poll@@ 26
Biene 26
Thin@@ 26
Flücht@@ 26
lam@@ 26
U-Boot 26
Dave 26
it-@@ 26
ida@@ 26
stammt, 26
Oper 26
Bühne. 26
reißen 26
Fließ@@ 26
Riff 26
ias 26
positiver 26
misst, 26
tions@@ 26
hirn@@ 26
käf@@ 26
Wolfram 26
Friede 26
stö@@ 26
Oklahoma 26
Wäl@@ 26
frequenz 26
Falt@@ 26
Außer 26
wohl. 26
gesteuerte 26
Währung 26
anpass@@ 26
Gedächt@@ 26
AM: 26
Spielzeug@@ 26
Tasse 26
»Ich 26
flag@@ 26
Moskitos 26
Spender@@ 26
kognit@@ 26
Impul@@ 26
TEDTalks 26
sexper@@ 26
Cyber-@@ 26
Syrien 26
Seni@@ 26
Lego 26
Verschlüssel@@ 26
Saur@@ 26
Snowden 26
Chris. 25
Story 25
Janu@@ 25
gerufen, 25
Klim@@ 25
erzielen. 25
führten. 25
zün@@ 25
umgesetzt 25
analyse 25
Gebiete, 25
grenze 25
ungssyste@@ 25
Afghanist@@ 25
Justiz@@ 25
Unterstützung. 25
Entwicklungsländern. 25
arbeitenden 25
Index 25
arbeit. 25
bedeutsam 25
Vision, 25
aufrechter@@ 25
Plä@@ 25
auch@@ 25
Konkurrenz 25
elo@@ 25
steine 25
erfolgrei@@ 25
buch, 25
geform@@ 25
0 25
vollkommen@@ 25
UV-@@ 25
stri@@ 25
Bad 25
Kram 25
wahrer 25
Meerwasser 25
Segel@@ 25
ville, 25
atische 25
fürchten 25
teilungen 25
eingestellt 25
abhängig, 25
kombinieren 25
singt 25
RO@@ 25
Kunden@@ 25
Nutzern 25
Techniker 25
allererste 25
Hoffn@@ 25
Cu@@ 25
Denken. 25
Digital@@ 25
rein. 25
schreibt, 25
rest@@ 25
ernähren, 25
Arter@@ 25
quem 25
fantastisch, 25
isches, 25
Zudem 25
beten 25
giftigen 25
Wald, 25
ronen 25
scheinen. 25
üre 25
Israel, 25
verspro@@ 25
furchtbaren 25
verwü@@ 25
erschienen 25
herrschaft 25
fuhren, 25
Chemik@@ 25
Nancy 25
ils 25
Professor, 25
barsten 25
bemerkenswerten 25
beenden, 25
verschlechter@@ 25
FG: 25
zeln 25
Dilem@@ 25
getr@@ 25
otischen 25
Mir@@ 25
Darf 25
neusten 25
genü@@ 25
begehr@@ 25
Kraft. 25
sleben 25
mittlere 25
kreislauf 25
erforscht. 25
haben?" 25
spazieren 25
graben. 25
begriffen, 25
Solarzelle 25
Silik@@ 25
mm, 25
kante 25
Nebel 25
wasser. 25
Erfüllung 25
verhäl@@ 25
Fundament@@ 25
Neig@@ 25
langfristigen 25
langfrist@@ 25
alisierung. 25
Wiederauf@@ 25
grenzen@@ 25
kurve 25
blieb. 25
bruch. 25
gelegte 25
Variante 25
Club 25
neu, 25
Mund@@ 25
geschaut 25
veröffentlichen, 25
oft. 25
lager 25
bett 25
Witz. 25
schlo@@ 25
din 25
Mädchen@@ 25
malen, 25
geprü@@ 25
offiziell 25
Erklär@@ 25
Platz@@ 25
Schiffe 25
schaut. 25
holt. 25
seite, 25
verstan@@ 25
Organisation. 25
tags 25
weitermachen 25
tri@@ 25
dige, 25
beständig 25
Sprachen, 25
Materialien. 25
links. 25
Wide 25
Klasse. 25
beschul@@ 25
liz@@ 25
cks, 25
web@@ 25
Monster 25
ok? 25
Server 25
Teufel@@ 25
wenn, 25
grauen@@ 25
Instin@@ 25
Formen, 25
tut@@ 25
Kunstwerke 25
Möbel 25
kostete 25
facht 25
chent@@ 25
langweilig. 25
kriegt 25
Juwel@@ 25
verlangen, 25
stadt. 25
Süda@@ 25
Umfragen 25
schießen. 25
sein?" 25
kung@@ 25
getäusch@@ 25
erho@@ 25
versagen 25
Beweis@@ 25
umher 25
klappt 25
Lange 25
Beweis, 25
Pati@@ 25
Vermitt@@ 25
materielle 25
Wachstum@@ 25
beruht 25
"So 25
aus." 25
Reflex@@ 25
Bildes 25
dynamischen 25
dringen. 25
Atmo@@ 25
Berlin 25
parallel 25
bezahlte 25
Fund@@ 25
Galerie 25
Unglücklicherweise 25
Para@@ 25
Jackson 25
nutzte 25
wählte 25
gefährdete 25
Grab 25
Tam@@ 25
id, 25
Kennt@@ 25
kunde 25
Physik. 25
vorkommen. 25
untersuch@@ 25
urbane 25
gereist 25
Expansion 25
nissen. 25
stehlen 25
igung. 25
zwin@@ 25
zukommen 25
Personal@@ 25
vermu@@ 25
zusam@@ 25
sprüche 25
traf. 25
hab's 25
uralten 25
wenden. 25
för@@ 25
Rechenleistung 25
Paradigma 25
reis 25
krise, 25
or-@@ 25
20% 25
länger, 25
technologie, 25
Technologien. 25
anfängt 25
nö@@ 25
Nebenwir@@ 25
leblo@@ 25
schrittweise 25
ene, 25
verblei@@ 25
nützlich. 25
Mutationen 25
90% 25
unsterb@@ 25
stehe, 25
gedei@@ 25
entfal@@ 25
iefer@@ 25
fliegende 25
Insekten, 25
äng@@ 25
schmil@@ 25
aufstehen 25
fünfte 25
Pilot@@ 25
zimmer. 25
regier@@ 25
kulturell 25
ungefähr@@ 25
humanitäre 25
Phasen 25
Synthese 25
Millimeter 25
beispi@@ 25
Daran 25
Jahres. 25
Ozeanen 25
fläche, 25
digkeit, 25
wechseln, 25
wies@@ 25
immer: 25
TE@@ 25
Beispielsweise 25
me-@@ 25
Werde 25
Reihen@@ 25
dieren, 25
daneben 25
Yves 25
Jazz 25
habe@@ 25
anlagen 25
nat@@ 25
ads 25
hle@@ 25
import@@ 25
derung 25
Reifen 25
Krat@@ 25
schmutz@@ 25
kredit@@ 25
gesellschaften 25
milit@@ 25
Indikat@@ 25
gemeinsam. 25
gebrann@@ 25
Zuhause, 25
Stadi@@ 25
wohnen 25
Gerechtigkeit. 25
umsonst 25
Mäch@@ 25
enthüllt 25
zent 25
lung, 25
Prax@@ 25
tisches 25
modern@@ 25
eisen 25
Portrait 25
angebracht 25
umsetzen 25
Iran, 25
hilflos 25
bildet. 25
ala 25
150.000 25
Ron 25
haftigkeit 25
unabhäng@@ 25
versichern, 25
zuhören. 25
val 25
Londoner 25
Lewis 25
bruch@@ 25
Vermächtnis 25
Zin@@ 25
telefon@@ 25
Freizeit 25
ole 25
bedienen 25
Schwester, 25
ginge 25
verstehe, 25
Eis, 25
Vergewaltig@@ 25
ai 25
Du, 25
seid, 25
Bälle 25
Applik@@ 25
Plu@@ 25
Morgen. 25
Zweite 25
malte 25
fasziniert, 25
OK 25
Meetings 25
Kennen 25
daran@@ 25
Raums 25
länger. 25
aufgeregt. 25
auftauchen. 25
ausgeklü@@ 25
weitreich@@ 25
ärzte 25
Westen. 25
wurzel@@ 25
danke, 25
angeneh@@ 25
heirat@@ 25
treffe 25
lege, 25
nötig, 25
e! 25
ktur 25
Hausauf@@ 25
reicht, 25
Spit@@ 25
Minut@@ 25
Press@@ 25
genießen, 25
zerstört, 25
Banker 25
quote 25
ment-@@ 25
Verge@@ 25
ütz@@ 25
ika, 25
pass 25
kontra@@ 25
Histor@@ 25
quer@@ 25
endung 25
sieren 25
Glücks 25
meint, 25
bewirkt 25
Halten 25
notwendig. 25
verbindungen 25
drehten 25
yo@@ 25
Arten@@ 25
voran 25
Fotografen 25
Bewusstsein@@ 25
Verantwortung. 25
rebell@@ 25
Befreiung 25
wirkungs@@ 25
gestiegen. 25
dus 25
Spenden@@ 25
Anstrengung 25
übernehmen, 25
behand@@ 25
Beste@@ 25
Julia 25
Stern@@ 25
skop 25
Jerusalem 25
Zeilen 25
Nordpol 25
bären 25
enz-@@ 25
Bruder, 25
Bergsteiger 25
ga 25
krabbel@@ 25
Navig@@ 25
als@@ 25
Physi@@ 25
Scot@@ 25
fordere 25
Wandel, 25
Weil, 25
Phänomene 25
artigkeit 25
gefre@@ 25
arabische 25
werf@@ 25
wäre? 25
Zwie@@ 25
Ahn@@ 25
ere@@ 25
mam@@ 25
begreifen. 25
unbesch@@ 25
Farbe. 25
stattung 25
Hormone 25
Z 25
Kleider 25
Zuhören 25
ablehn@@ 25
Kontrolle, 25
ethische 25
Kriterien 25
Jefferson 25
Vorgehens@@ 25
52 25
Geschichte: 25
[...]
